#version: 0.2 - Trained by `huggingface/tokenizers`
Ġ Ð
Ð °
Ð µ
Ð ¾
Ñ ģ
Ñ Ĥ
Ð ¸
Ñ Ģ
Ð ½
Ġ Ñģ
Ð »
Ð ²
Ð º
Ñ ı
ĠÑģ Ðµ
Ñ ĩ
Ñ Ĭ
Ð² Ð°
ĠÐ ¿
E O
EO L
Ð ´
ĠÐ ¸
ÑĤ Ð°
Ð ¼
Ñ ĥ
Ð ·
ÑĤ Ð¾
ĠÐ ½
ĠÐ½ Ð°
ĠÐ ¼
Ðµ Ð½
ĠÐ º
Ð ¿
ĠÐ ¾
Ð ±
ÑĤ Ðµ
ÑĢ Ð°
ĠÐ ²
ĠÐ ³
ĠÐ ´
ĠÐ ·
Ð½ Ð¾
Ð ³
Ðº Ð°
Ġ Ñĩ
ĠÐ ±
Ð¾ Ð»
ĠÐ· Ð°
Ð½ Ð°
ÑĢ Ðµ
Ñ Ī
ÑĤ Ð¸
Ð» Ð¸
Ðµ ÑĢ
ÑĢ Ð¸
Ð» Ð°
Ñ Ĩ
Ñ ħ
Ðº Ð¾
ĠÐ¿ Ð¾
Ð½ Ð¸
ÑĬ ÑĢ
Ðº Ð¸
Ð ¶
Ð¼ Ðµ
ĠÐ¼ Ð°
ÑĢ Ñı
ĠÐ´ Ð¾
Ð² Ð¸
Ð´ Ð°
Ð² Ñı
Ð¼ Ð°
ĠÐ »
Ñ Ħ
Ð²Ð° ÑĤ
ĠÐº Ð°
Ð ¹
0 0
Ð» Ðµ
ĠÐ¾ ÑĤ
Ð» Ð¾
Ð± Ð°
Ð¸ Ð¿
Ñģ ÑĤÐ°
ĠÐ± ÑĢ
ÑĢÑı Ð·
Ð³ Ð°
Ñĩ Ðµ
ÑĢÐ° Ð·
ÑĨ Ð°
Ð° ÑĢ
ĠÐ´ Ð°
Ð½ Ðµ
Ñģ ÑĤ
ĠÐ½Ð° ÑĢÑıÐ·
R E
E P
I N
S EP
RE C
IN G
Ġ ÑĢÐ°Ð·
. [
ĠÐ¸ Ð·
ÑĬ Ñģ
Ð±Ð° Ð²Ñı
ĠÐº Ð¾
ĠÐ Ł
ĠÐ¼ Ð»
Ðµ Ñģ
Ñĥ Ðº
ÐµÐ½ Ð¸
ĠÐ¿ Ð¸Ð¿
ĠÐ¿Ð¸Ð¿ ÐµÑĢ
ĠÑģ Ð¸
Ñ ī
Ġ (
Ġ Ñı
ĠÐ ¡
Ġ 1
Ð¾ ÑĤÐ¾
Ðµ Ð»
Ð¸ Ð½
ÑĦ Ð¸
Ð¾ Ð´Ð°
ĠÑĩ ÐµÑĢ
ÑĢ Ð¾
Ð¾ ÑĢ
ÑĬ Ð½
ÐµÐ½ Ð°
Ð± Ð¸
ĠÑģ Ð¼Ðµ
Ñĥ ÑĪ
ĠÐ² Ð¾Ð´Ð°
Ð° Ð½Ð¸
ĠÐ¼Ð° Ñģ
ĠÑģ Ð¾Ð»
ÑĢÐ° ÑĪ
Ñħ Ð°ÑĢ
5 0
ĠÐ¼ Ð¸Ð½
Ð³ Ð¾
ĠÐ¼Ð¸Ð½ Ñĥ
ÑĨ Ðµ
Ðµ ÑĤÐµ
ÑĢÐ°ÑĪ Ð½Ð¾
ĠÐ» ÑĥÐº
Ñģ Ð¾Ð»
ĠÑı Ð¹
ĠÐ¼Ð¸Ð½Ñĥ ÑĤÐ¸
ÑĬ Ð»
ĠÐ µ
ÑĬÑĢ Ð¶
ĠÑģ Ð»Ð°
Ġ ÑĤÐ¾
Ðº Ð¾Ð»
ÑĬ ÑĤ
ĠÐ¼Ð°Ñģ Ð»Ð¾
ĠÐ¿ ÑĢÐ¸
ĠÐ¿Ð¾ Ð´
Ð»Ðµ Ð´
Ð¼ Ð¸
ĠÐ± ÑĢÐ°ÑĪÐ½Ð¾
ĠÐ¿ ÑĢÐµ
ĠÐ¸ Ð»Ð¸
ÑĩÐµ ÑĤÐ°
Ġ ÑĦ
ĠÐ·Ð° ÑħÐ°ÑĢ
Ñı ÐºÐ¾
ĠÐ¾ Ð»Ð¸
Ð½Ð° ÑĤÐ°
Ñı ÑĤ
ÐµÐ½ Ðµ
ÑģÑĤÐ° Ð²Ñı
Ġ ÑĤ
ÑĢ ÑĬ
ĠÑģ Ð¾
ĠÐ¼Ð» ÑıÐºÐ¾
Ð¿ Ð°
Ðº Ð²Ð°
Ð´ Ð¸
ĠÐ´Ð¾ Ð¼Ð°
Ð¼ Ð¾
ĠÐ Ĵ
ÑĨ Ð¸
ĠÐ¼Ð° Ð»
ĠÑģ ÑĬÑģ
Ñĥ ÑĢ
Ð±Ð°Ð²Ñı ÑĤ
ĠÐºÐ° ÑĤÐ¾
Ð± ÑĬÑĢ
Ġ 2
Ġ ÑĤÐµ
ĠÑıÐ¹ ÑĨÐ°
ÐºÐ¸ ÑĤÐµ
ĠÐ ŀ
Ð¶ Ð´Ð°
ĠÑģÐ»Ð° Ð³Ð°
ĠÐ½Ð°ÑĢÑıÐ· Ð°Ð½Ð¸
Ġ ÑĤÐ°
ÑĤ Ð½Ð¾
ĠÐ» Ð¸
ĠÐ¾Ð»Ð¸ Ð¾
ĠÐ³ Ð»Ð°
Ñ İ
Ñģ ÑĤÐ¸
Ñģ ÑĤÐ¾
Ñģ Ð¸
Ĺ Ð°
ÑĢ ÑĤÐ¾
ĠÑĩ ÐµÑģ
ĠÐ½ Ðµ
Ð²Ð¸ Ñĩ
Ð½Ð¾ Ð·
ĠÑģÐ¸ ÑĤÐ½Ð¾
ĠÐº Ñĥ
Ð³ Ð´Ð°
Ñģ Ð°
Ð³Ð´Ð° Ð½Ð¾Ð·
ĠÑĩÐµÑĢ ÐµÐ½
Ñı Ð²Ð°
ÐµÐ½ Ð¾
Ñĩ Ð¸
Ñĥ Ð»
ÐºÐ¾Ð» Ð¾
Ñģ Ðµ
ĠÐ¿ Ð¾Ð»
Ð¿ ÑĬÑĢÐ¶
Ð² Ð¾
ĠÑģÐ¼Ðµ Ñģ
ĠÑĩ Ð°
Ġ Ñħ
ĠÐºÐ° ÑĢÑĤÐ¾
Ð» Ð½Ð¾
ĠÐ¿ Ðµ
ĠÑģ ÑĤ
1 00
Ŀ Ð°
ĠÑĩÐµÑĢ Ð²
ĠÐ¼ ÐµÑģ
Ð· Ð°
ÑĢ ÑĬÑģ
ÑĢ ÐµÐ½Ðµ
ĠÐº Ð¸
Ð²Ð° Ð»
2 00
Ð² Ðµ
ĠÑĩ ÑĥÑĪ
ĠÑĩÐµÑģ ÑĬÐ½
ĠÐ½Ð° Ð¼Ð°
Ð¶ Ðµ
ĠÐ ¶
Ð¿ ÑĢÐ°
Ñĩ ÐµÑĢ
ĠÑģÐ¸ ÑĢÐµÐ½Ðµ
Ð²Ð° Ð¼Ðµ
ĠÑĦ ÑĥÑĢ
Ġ ÑĪ
ĠÐ¼Ð°Ð» ÐºÐ¾
Ð¾Ð» Ð¸
Ð±ÑĬÑĢ ÐºÐ²Ð°
ĠÐ¾ ÐºÐ¾Ð»Ð¾
ĠÐºÐ°ÑĢÑĤÐ¾ ÑĦÐ¸
ÑĪ ÐºÐ°
ÑĬ Ð±Ð¸
ÐºÐ° ÑĤÐ¾
ĠÐ °
Ġ ÑĤÐ¸
ÑģÑĤ ÑĬÑĢ
ÑĤÐµ Ð»Ð½Ð¾
ĠÐ¿Ð¾ ÑĢÑĬÑģ
Ð± ÑĢÐµ
Ð° ÑĤ
Ðµ ÐºÐ¾
ĠÐŁ Ð¾
ĠÐ´Ð¾ ÐºÐ°ÑĤÐ¾
Ð¾ÑĢ ÐºÐ¾
ĠÐ· ÐµÐ»
ĠÐµ Ð´
ĠÐ ļ
ĠÐ Ķ
ĠÐ¼Ð° Ð³Ð´Ð°Ð½Ð¾Ð·
) [
ĠÐ ĿÐ°
ÐºÐ° ÑĤÐ°
5 00
ĠÐ¡ Ð»ÐµÐ´
Ð² ÐµÑĤÐµ
Ðµ ÑĤÐ¾
ĠÐ· Ðµ
ĠÐ´Ð¾Ð¼Ð° ÑĤÐ¸
Ð¸ Ð»Ðµ
ĠÐ¼ Ð¾ÑĢÐºÐ¾
ĠÐ´Ð¾ Ð±ÑĢÐµ
ĠÐºÐ¸ ÑģÐµ
ĠÑģ Ð»ÐµÐ´
ĠÐ³ ÑĬÐ±Ð¸
Ñĩ Ñĥ
Ðº Ñĥ
ĠÐ¾ ÑģÑĤÐ°Ð²Ñı
ĠÐ¾ Ð±
ĠÑģ ÑĬ
ĠÑĤÐ¾ Ð¿
ĠÑĢÐ°Ð· Ð±Ð¸
ĠÐ¿ Ð°ÑĢ
ĠÑģ Ð²Ð°
ĠÐ³ Ð¾
ĠÐ½Ð° ÑģÑĤÑĬÑĢ
ĠÐ¿Ð¾Ð´ Ð¿ÑĢÐ°
ĠÐ² Ð¸
ĠÐ¾ ÑĢÐ¸
ĠÑĤÐ¾ Ð²Ð°
ÑĬÑĢ Ñħ
Ð° Ð·
ĠÐºÐ° ÑĪÐºÐ°
Ð¿ Ð¸
Ð³Ð¾ ÑĢÐµ
ĠÐ¾ ÑģÑĤÐ°
ĠÐ± Ð°
Ð´ ÑĥÑĪ
ÑĤ ÑĬ
ĠÑĤÐµ ÑģÑĤÐ¾
Ġ ÑĦÐ¸
ĠÐĶ Ð¾
ÑĬ Ð¼
Ðµ Ð´
ĠÐ´Ð¾ Ð±Ð°Ð²Ñı
Ñī Ð°
ĠÑģ Ð°
ĠÐ»Ð¸ Ð¼Ð¾
Ñģ Ð½Ð¾
ÑĢÐµ Ð´
ĠÑĦÑĥÑĢ Ð½Ð°
ÑĩÐµÑĢ ÐµÐ½
Ġ -
Ð´ ÐºÐ¸
ÑĬÑĢÑħ Ñĥ
ĠÐ³Ð»Ð° Ð²Ð°
Ð· Ð½Ð¸
Ð¾ Ð½
Ñħ ÑĤÐ¸
Ġ 3
Ñ Į
Ð¾ Ð²Ð¸
ĠÑĢÐ°Ð· Ð±ÑĬÑĢÐºÐ²Ð°
ĠÐ½Ð°ÑĢÑıÐ· Ð²Ð°
ĠÐ¿ ÑĢÑı
Ð²Ð° Ð½Ðµ
ĠÑģÐ¼Ðµ ÑĤÐ°
ĠÐ·Ð° Ð¿ÑĬÑĢÐ¶
ł Ð°Ð·
ĠÐŁ ÑĢÐ¸
Ð¶Ð´Ð° ÑĤ
Ñģ Ð¸Ð¿
ĠÐ¿ Ð¸Ð»Ðµ
ÐµÐ½Ð¸ ÑĤÐµ
ĠÐºÑĥ Ð±
Ð½ Ñģ
Ðµ Ð»Ð°
ĠÐ½Ð°ÑĢÑıÐ· Ð°
ĠÐ¾ Ð³
Ñĥ Ð´
ĠÐ·Ð° Ð´ÑĥÑĪ
ĠÐºÐ°ÑĪÐºÐ° Ð²Ð°Ð»
Ð¶ Ð¸
Ð¹ ÑĤÐµ
ĠÐ ĹÐ°
ÑĢ Ñĥ
Ð¿ Ð¾
ĠÐº Ð³
ÐºÑĥ Ñģ
ĠÐ½Ð°ÑĢÑıÐ· Ð²Ð°ÑĤ
ĠÐ¿Ð¾Ð´Ð¿ÑĢÐ° Ð²
ĠÐ¼Ð° Ð·Ð½Ð¸
ĠÐ¿ Ð°
ĠÐ¿ ÑĢÐ¾
ĠÐ·Ð° Ð³
Ð½Ð¸ Ñı
ĠÐ¾Ð³ ÑĬÐ½
ĺ Ð·
Ð ĹÐ°
ĠÐ¿ÑĢÑı ÑģÐ½Ð¾
ĠÑģ Ñĥ
ĠÐ³ Ð¾ÑĤÐ¾
Ð»Ð¸ Ð²Ð°
ĠÐºÐ¸ÑģÐµ Ð»Ð¾
ĠÐ¼ÐµÑģ Ð¾
ĠÐ± ÑĥÐ»
Ñĩ Ð°
Ð» Ñı
Ð ¡
ĠÐ¶ ÐµÐ»Ð°
Ð³Ð° Ð½
ÐºÐ¸ Ð»Ð¸
Ð»Ð° Ð´
ÑĬ Ð²
ÑģÐ¸ Ñĩ
Ñģ Ñı
Ð»Ð° ÑĤÐ°
ÑħÑĤÐ¸ Ð½
ĠÑĤÐ° Ð²Ð°
ĠÐ´Ð¾Ð¼Ð° ÑĤ
ĠÑģ ÐºÐ¸Ð»Ð¸
Ð¼Ðµ Ñģ
ĠÐ łÐ°Ð·
ĠÐ±ÑĥÐ» ÑĮ
1 50
ĠÐ³ Ð¸
ĠÐ¾ÑĢÐ¸ Ð·
ĠÐ·Ð°Ð³ ÑĢÑı
ĠÐ¿ ÑĬÑĢÐ¶
ĠÐ² ÑĬÑĢÑħÑĥ
ĠÑģ Ð¼
ĠÑģÐ¾ Ðº
Ðº ÑĢÐ¸
ÐµÐ½ Ð´
ĠÐºÑĥÐ± ÑĩÐµÑĤÐ°
ÐµÐ½ Ð¾ÑĤÐ¾
Ð½Ð¸ Ðµ
ĠÑıÐ¹ ÑĨÐµ
ĠÐº ÑĢÐ°
Ð½Ð¾ ÑĤÐ¾
ĠÐ·ÐµÐ» ÐµÐ½
ÑĤÐ¸ ÑĤÐµ
Ñī Ðµ
Ðµ ÑĩÐµ
ĠÑĩÐµÑĢÐ² ÐµÐ½
ĠÐ±ÑĢÐ°ÑĪÐ½Ð¾ ÑĤÐ¾
3 00
2 50
ĠÑģÐ¾ Ñģ
Ð¾Ð»Ð¸ Ð¾
ÑĢÐµ Ñħ
ĠÐ¿Ð¾Ð» Ñĥ
ĠÐ¿ÑĢÐ¸ Ð±Ð°Ð²Ñı
ĠÐ·Ð°ÑħÐ°ÑĢ ÑĤÐ°
: [
ĠÐ² ÑĬÐ²
ĠÐ¿ÑĢÐµ Ð´
ĠÐº ÑĬÐ¼
ĠÐ¾ÑģÑĤÐ° Ð½Ð°
ĠÐŀ ÑĤ
ĠÐ·Ð°Ð´ÑĥÑĪ Ð°
ĠÐ¿ÑĢÐ¸ Ð±Ð°Ð²ÑıÑĤ
ĠÐ½Ð°Ð¼Ð° Ð·
ĠÐ ĺÐ·
Ð¹ Ð¼Ð°
ÑĨÐ¸ ÑĤÐµ
ĠÑģ ÑĤÐ°
ĠÐ³ Ð¾Ð»
Ġ Ñĥ
Ð²Ð° ÑĢÐ¸
ĠÐ½Ð°ÑĢÑıÐ·Ð°Ð½Ð¸ ÑĤÐµ
ÑĩÐ¸ ÑģÑĤ
ĠÑĩÑĥÑĪ ÐºÐ¸
ĠÐ» ÐµÐºÐ¾
ĠÐ¸Ð· Ð¼Ð¸
ÑĪ ÐºÐ¾
ĠÐ¶ÐµÐ»Ð° Ð½Ð¸Ðµ
Ð²Ð°ÑĢÐ¸ ÑĤÐµÐ»Ð½Ð¾
2 0
ĠÐ¼Ð¾ÑĢÐºÐ¾ Ð²Ð¸
ĠÐ¿ÑĢÐ¾ Ð´
ĠÐ¾ ÑĢÐµÑħ
ÐµÐ½Ð° ÑĤÐ°
ĠÐ¼ Ð¾
Ð½Ð¾ ÑģÑĤ
ÑĨÐ° ÑĤÐ°
ĠÐ¾Ð± ÐµÐ»
ĠÐ¿Ðµ Ñĩ
ĠÐ¸Ð· ÑģÐ¸Ð¿
ĠÐ¿ÑĢÐµ Ñģ
ĠÐ ľ
Ð½Ð¸ ÑĤÐµ
ĠÐ¿ Ñİ
Ð¶ ÐµÑĤÐµ
Ð½Ð¾ Ð²
Ġ ÑĢÐµ
4 00
Ð²Ð¸Ñĩ ÐºÐ°
ĠÐ¿ÑĢÐµÐ´ Ð²Ð°ÑĢÐ¸ÑĤÐµÐ»Ð½Ð¾
ĠÑģÐ¼ÐµÑĤÐ° Ð½Ð°
Ð»Ð¸ Ñı
ĠÐ² Ð°
Ð´ Ð¾
ĠÑģÐ¼Ðµ ÑģÑĤÐ°
Ð²Ð¸ ÑĢÐ°
ĠÐ·Ðµ ÑħÑĤÐ¸Ð½
ĠÐºÐ¾ ÐµÑĤÐ¾
ĠÐ¾ ÑīÐµ
1 0
ĠÑģÐºÐ¸Ð»Ð¸ Ð´ÐºÐ¸
ĠÐ¿Ñİ ÑĢÐµ
ĠÐ¼Ð°Ð·Ð½Ð¸ Ð½Ð°
ĠÐ¿Ðµ ÑĩÐµ
Ð¾ Ð´
ĠÑģÐ»Ð°Ð³Ð° ÑĤ
ĠÐºÐ° Ð¹Ð¼Ð°
ĠÐ±ÑĥÐ»ÑĮ Ð¾Ð½
ÑĢÐ° ÑĤÐ°
Ð Ł
Ñī Ð¸Ð¿
ĠÐ³Ð»Ð° Ð²Ð¸
Ð´ ÐµÐ»
Ð½Ð° ÑĤ
ĠÐ¿ ÑĢÐ°
Ð²Ð¸Ñĩ ÐºÐ¸
ĠÐ¿Ð¾ ÑģÑĤÐ°Ð²Ñı
ĠÐ½Ð° ÑĢÐµ
ÑĤÐ¾ Ð¿
ĠÐ½Ð°ÑģÑĤÑĬÑĢ Ð³Ð°
Ð· Ð¸
ĠÐ´Ð¾ Ð±Ð°Ð²ÑıÑĤ
ĠÐ³ ÑĢÐ°
ÐµÐ½Ð¸ Ñı
ĠÐ² ÑĢÑĬ
ĠÐ± Ñı
ĠÐ¿Ð¾ÑĢÑĬÑģ Ð²Ð°
Ð»Ðµ ÑĤÐ°
Ð¼ ÐµÑĢ
Ñģ ÐºÐ°
ĠÐ² ÐºÑĥÑģ
Ġ ÑĢÐ¸
ĠÐ¿Ð¾Ð» Ð¾Ð²Ð¸
Ñĩ ÐµÐ½
ĠÐ² Ð°Ð½Ð¸
ĠÐ¾Ð»Ð¸ Ð¾ÑĤÐ¾
ÑĬÐ» ÑĤÑĬ
ĠÐ¾ Ð¼Ðµ
ĠÑģÐ²Ð° ÑĢÑı
ĠÐ¿Ð¾ ÐºÑĢÐ¸
ĠÐ ¢
Ñĥ ÐºÐ°
ĠÑģÐ¾Ð» ÑĤÐ°
ĠÐ·ÐµÐ»ÐµÐ½ ÑĩÑĥ
Ġ1 0
Ðµ Ð¼Ð¸
ĠÐŁ ÐµÑĩÐµ
ĠÐ¿ÑĢÐ¾Ð´ ÑĥÐº
Ðµ Ð·
Ð² ÑĬÑĢ
ĠÑıÐ¹ÑĨÐ° ÑĤÐ°
) .
ĠÑĤ ÐµÐ½Ð´
ĠÐ¸Ð· Ð²Ð°
Ð± ÑĢÐ¸
Ð³Ð° ÑĤÐ¾
8 0
ĠÐ¼Ð°ÑģÐ»Ð¾ ÑĤÐ¾
Ð± Ð¾
Ð±Ð° Ð²ÐµÑĤÐµ
ĠÐ´ ÑĢÑĥ
ĠÑĤÐ° Ð²Ð¸ÑĩÐºÐ°
ĠÐ½Ð°ÑĢÑıÐ·Ð° Ð½
Ð¾ ÐºÐ¾Ð»
Ġ 5
ĠÐ¿Ð°ÑĢ ÑĩÐµÑĤÐ°
Ð¸ ÑĤÐµ
ĠÑĦÐ¸ Ð»Ð¸
ÑĢÐµ Ð±
Ġ ÑĢÐ°
ÑīÐ¸Ð¿ ÐºÐ°
ĠÐ¼ÐµÑģ Ð¾ÑĤÐ¾
Ð¿ ÑĬÑĢ
ĠÑĤÐ¸ Ðº
ÑĬÑĢ ÐºÐ°
ĠÐ²Ð¾Ð´Ð° ÑĤÐ°
ĠÐ¶ ÑĬÐ»ÑĤÑĬ
ÑĪ ÐºÐ¸
ĠÑģÑĤ ÑĢÑĬ
ÑĢÐ° ÑĤ
ĠÐ·Ð°Ð³ÑĢÑı ÑĤÐ°
Ð»Ð° Ð³Ð°
Ð³Ð¾ ÑĤ
Ð¿ Ðµ
Ð»Ð¾ ÑĤÐ¾
ĠÐ¿Ð¾Ð´Ð¿ÑĢÐ°Ð² ÐºÐ¸ÑĤÐµ
ĠÐļ Ð¾
ĠÐ± Ð¾
Ð»Ð° Ð´Ð¸
ĠÐ² ÑģÐ¸Ñĩ
ĠÐ¿Ð¾ ÑģÐ¾Ð»
ÐµÐ´ Ð½Ð¾
ĠÐ¼Ð¾ Ð¶Ðµ
ĠÑĤÐµÐ½Ð´ Ð¶Ðµ
Ġ 4
ĠÐŁÐ¾ Ð´
ĠÐ± Ð¸
ĠÐ²Ð¸ Ð½Ð¾
ĠÐ·Ð° ÐµÐ´Ð½Ð¾
Ð Ĵ
ĠÐ¿ Ð»
ĠÑģÑĥ Ñħ
Ð½ Ñı
ĠÑĦ Ð¾ÑĢ
Ð²Ð° ÑĤÐ°
Ð²Ð¸ Ð½Ñģ
ÐºÐ¾Ð» ÐºÐ¾
ĠÐ¸Ð·ÑģÐ¸Ð¿ Ð²Ð°
ĠÑģÐ²Ð° ÑĢ
ĠÐ²ÑĢÑĬ Ð·
Ð½Ð¾ Ð³Ð¾
Ð±ÑĢÐ¸ ÑĨÐ°
ĠÐºÑĥ Ð¿Ð°
ĠÐ» ÑĥÐºÐ°
ĠÐ¡ Ð»Ð°Ð³Ð°
Ð¼ÐµÑģ Ð²Ð°
Ðº Ð²Ð°ÑĤ
ĠÐ±Ð° Ðº
Ġ ÑĨÐµ
Ñĩ ÐºÐ°
ĠÐºÐ¾ ÑĢÐ¸
ĠÐ´ ÑĢÐµÐ±
Ð ļ
Ð¾ÐºÐ¾Ð» Ð°
ĠÑĤ ÑĬÐ½
ĠÑģÑĬ Ð´
ĠÐ¼ Ð½Ð¾Ð³Ð¾
ĠÐ½Ð°ÑĢÑıÐ·Ð°Ð½Ð¸ Ñı
Ð¿ ÑĥÐ»
ĠÐºÐ¾ ÑĤ
ĠÐ·Ð°Ð¿ÑĬÑĢÐ¶ Ð²Ð°
ĠÐ¸Ð· ÑģÑĤÐ¸
ĠÐº ÑĢÐµ
ĠÐº Ð¾Ð»
ĠÐºÐ°ÑĢÑĤÐ¾ÑĦÐ¸ ÑĤÐµ
Ð»Ð¸ ÑĤÐµ
ĠÐ´ ÑĬÐ»
ĠÐ±Ð°Ðº Ð¿ÑĥÐ»
ĠÐ¾ ÑĨÐµ
ÑĪ Ð°
ĠÐ³Ð¾ÑĤÐ¾ Ð²
Ñĩ ÐºÐ¸
ĠÐ»Ð¸Ð¼Ð¾ Ð½
ĠÑĤ Ñı
ÐºÐ° ÑĤ
ĠÐ½ Ñı
Ð¼Ð° Ð³Ð´Ð°Ð½Ð¾Ð·
ĠÑĩ Ð¸
Ð´ Ñĥ
ĠÐºÑĢÐ° ÑģÑĤÐ°
ĠÐ ĳ
ĠÐ± ÑĬÑĢÐºÐ°
ÑĦ Ð¾ÑĢ
ĠÐ·Ð° Ð»Ð¸Ð²Ð°
ĠÐ½Ðµ Ð³Ð¾
ĠÐĶÐ¾ Ð±Ð°Ð²Ñı
ĠÐº ÑĢÑĬ
ĠÑĩÑĥÑĪ ÐºÐ°
ĠÐ²Ð°Ð½Ð¸ Ð»Ð¸Ñı
ĠÑģ Ð²Ð¸Ð½Ñģ
ĠÑĤÐµÑģÑĤÐ¾ ÑĤÐ¾
ĠÐ¿Ð¾ ÑĩÐ¸ÑģÑĤ
ĠÐ·Ð°Ð´ÑĥÑĪÐ° Ð²Ð°
ĠÐļÐ¾ Ð³Ð°ÑĤÐ¾
ĠÐ¾ÑĤ Ð³Ð¾ÑĢÐµ
ĠÐ¿Ð¾ Ñģ
ĠÐ·Ð° Ð»Ð¸
ĠÐŀ ÑģÑĤÐ°Ð²Ñı
3 0
ĠÐ¼Ð°Ð» ÐºÐ¸
Ðº ÑĢÐ°
ÑģÑĤÐ¸ ÐµÑĤÐ¾
Ð½Ð° ÑģÑı
Ġ3 0
ĠÐ³Ð¾ ÑĢÐµ
Ð ľ
ĠÑģ Ð¿Ð°
Ð¹ Ð¾
ĠÑĩ Ñĥ
ĠÐºÐ¾ Ð½Ñģ
ĠÐ» ÑĬ
Ġ ÑĨ
Ð» Ð½Ð¸
Ð»Ð¸ Ð½Ð°
ĠÐºÐ¾ÑĤ Ð»Ð¾
ÑĢÐµ Ð¼Ðµ
ĠÐ»ÑĬ Ð¶Ð¸
ĠÑĪ Ð¾ÐºÐ¾Ð»Ð°
Ð»Ð°Ð´ Ð¶
ĠÐ¿ÑĢÐ¾Ð´ÑĥÐº ÑĤÐ¸
ĠÐ± Ñĥ
ĠÑĤÐ¸ Ð³Ð°Ð½
ĠÐŁÑĢÐ¸ Ð±Ð°Ð²ÑıÑĤ
ĠÐ·Ðµ Ð»Ðµ
ĠÑĤÑı Ñħ
Ð°ÑĤ Ð»Ð°Ð´Ð¶
ÑĤÐ¸ Ñı
ĠÐ²ÑĢÑĬÐ· ÐºÐ°
ĠÐ² ÑĢÐµÐ¼Ðµ
ĠÑĢÐ°Ð· Ð±ÑĬÑĢ
ĠÑĥ Ð¼ÐµÑĢ
ĠÐ» Ñİ
ĠÐ»Ð¸ ÑģÑĤÐ°
ĠÐ¼Ð¾ÑĢÐºÐ¾ Ð²
ĠÑĦÑĥÑĢ Ð½Ð°ÑĤÐ°
ĠÐ¿Ð» ÑĬÐ½
ĠÐ¿Ð°ÑĢ ÑĩÐµÐ½
ÑĢÐ° Ð½Ð¸
Ð² ÑĢÐ¸
ÑĪ Ð¸
ĠÑĩÐ° ÑģÑĤ
Ð¹Ð¾ Ð½Ðµ
ĠÐ³ Ð°
ĠÑģÑĤ ÑĥÐ´
ĠÐºÐ¾ Ð¿ÑĬÑĢ
ĠÑĤÐµÐ½Ð´Ð¶Ðµ ÑĢÐ°
ĠÑĩÐ° Ñģ
ĠÐ³ÑĬÐ±Ð¸ ÑĤÐµ
ĠÐ²Ð° ÑĢÐ¸
ĠÑħ Ð»Ð°Ð´Ð¸
ĠÑħÐ»Ð°Ð´Ð¸ Ð»Ð½Ð¸
Ġ ÑĢÐ¾
ĠÐ½Ñı ÐºÐ¾Ð»ÐºÐ¾
ĠÐºÑĢÑĬ Ð³
ĠÐ± ÐµÐ»
ĠÐ¸Ð· Ð±
Ðµ ÑĤ
ĠÐ½ Ð¾
ĠÑĩÐ° ÑģÐ°
Ð¹Ð¾Ð½Ðµ Ð·Ð°
ĠÐ¸Ð· Ð¿ÑĬÑĢÐ¶
ÑĦÐ¾ÑĢ Ð¼
Ñĥ Ð¿
ĠÐ¼ Ð¸
Ġ2 00
ĠÐ± ÐµÐ·
ĠÑĢÐ°Ð·Ð±Ð¸ Ð²Ð°ÑĤ
Ð²Ð° ÑĢÑı
ĠÐ¿ÑĢÐ¸ Ð³Ð¾ÑĤ
ĠÐºÐ¾Ð½Ñģ ÐµÑĢ
ĠÐ¾ÑĤ ÑĨÐµ
ĠÐ¿ÑĢÐµÑģ ÐµÐ½
ĠÐ¿ ÑĬÐ»
Ġ2 0
Ð¿Ð¸ ÑĩÐ°
ĠÐ¿ ÑĥÐ´
ĠÐ ĵ
Ð»Ð° ÑĤÐ¸
ĠÐ³Ð¾Ð» Ñı
ĠÐ»Ð¸ ÑģÑĤ
ĠÐ¼Ð° Ñı
ĠÐ³Ð¾Ð» ÐµÐ¼Ð¸
ĠÑħ Ð»Ñı
ĠÐ½Ð° ÑĤ
ĠÐ³Ð° Ð»ÐµÑĤÐ°
Ñı Ð²Ð°ÑĤ
ĠÑĦÐ¾ÑĢ Ð¼Ð°
Ð² ÐµÑĢ
Ñĥ Ð½
Ñī Ð¾
ĠÐ´ Ð¶
ĠÐ¾Ð±ÐµÐ» Ð²Ð°ÑĤ
ĠÐºÐ¾ÑĤÐ»Ð¾ Ð½Ð°
ÑĨÐ° ÑĢÐµ
ĠÐ¾Ð³ÑĬÐ½ Ñı
ÑĤÐ¾ ÑĤÐ¾
ĠÐĶÐ¾ Ð±Ð°Ð²ÑıÑĤ
Ð´ ÐºÐ°
ĠÐ¿Ð¸Ð»Ðµ ÑĪÐºÐ¸
ĠÐºÐ¾ ÑĢÐ°
Ñĥ ÑĢÐ°
ĠÐ¼Ð° Ð¹Ð¾Ð½ÐµÐ·Ð°
ĠÐ¾ÑĨÐµ ÑĤ
Ð± Ðµ
ĠÐ ¯
Ðº Ñģ
ĠÐºÐ° Ð¿Ð°
ĠÐ³Ð¾ÑĤÐ¾Ð² Ð½Ð¾ÑģÑĤ
ÑģÐ¾Ð» ÐµÐ½Ð°
ĠÐ¸Ð·Ð± Ð¾ÑĢ
Ð¹ ÐºÐ¸
ÐºÑĢÐ° Ñı
ĠÐ¾Ð¼Ðµ Ðº
Ð²Ð¸ Ñı
ĠÑĩÑĥ Ð±ÑĢÐ¸ÑĨÐ°
Ġ1 5
Ð²Ð¸ ÑĤÐµ
ĠÐ³ Ð¾ÑĢ
ĠÐ¼Ð°Ñģ Ð»Ð¸
ĠÐ¡ Ð¼Ðµ
ĠÐ· Ð»Ð°ÑĤÐ¸
ĠÑĢÐ°Ð· ÑĤÐ¾Ð¿
Ġ1 80
ĠÐ¿Ð°ÑĢÑĩÐµÐ½ ÑĨÐ°
6 0
Ð²Ñı ÑĤ
Ñģ ÐºÐ¾
ĠÐ¼Ð»ÑıÐºÐ¾ ÑĤÐ¾
ĠÑģ Ð»Ð¾
ĠÐ¿Ð¾Ð´ ÑģÐ¾Ð»ÐµÐ½Ð°
ĠÐ¿ÐµÑĩ ÐµÐ½Ðµ
ĠÑģÑĤÑĢÑĬ ÐºÐ°
ĠÑĪÐ¾ÐºÐ¾Ð»Ð° Ð´
Ð½Ð° Ðº
Ð° Ñģ
ĠÐ½Ð°ÑĢÐµ Ð¶Ð´Ð°ÑĤ
ĠÐŁÑĢÐ¸ Ð±Ð°Ð²Ñı
ĠÑģ Ð¾Ð´Ð°
2 5
ĠÑģÐµ ÑĢ
ĠÑħÐ»Ñı Ð±
ĠÑģÐµÑĢ Ð²Ð¸ÑĢÐ°
Ð± Ð²Ð°
Ð¸ ÑĤÐ¾
Ð± ÑĬÐ»
ĠÐ¿ Ð°ÑĤÐ»Ð°Ð´Ð¶
ĠÐŁ Ð¾ÑĢ
Ð° Ð½
4 0
Ð½Ð¾ Ð²Ð¾
Ð ŀ
ĠÑģÐ¾ ÑģÐ°
ĠÑĤÐ° ÐºÐ°
Ð ĿÐ°
ĠÐµÐ´ ÑĢÐ¾
ĠÑģÐ¼ÐµÑģ Ð²Ð°ÑĤ
Ðº ÑĬÑģ
ĠÑĢÐ¸ Ð±Ð°
ĠÑĥÐ¼ÐµÑĢ ÐµÐ½Ð°
ĠÐ±ÐµÐ» ÑĤÑĬ
Ð¿ ÑĢÐµ
ÐµÐ½Ð¸ ÑıÑĤ
ÑĢÑı Ð±Ð²Ð°
ĠÑĪ ÑĥÐ½
ĠÐ¾ Ð²
ÑĩÐµÑĤÐ° ÑĤÐ°
ĠÐ¡Ð¼Ðµ ÑģÑĤÐ°
ĠÐ¿ ÑĢÐ°Ð·
ĠÐŁÐ¾ÑĢ ÑĬÑģ
ĠÐ±Ñı Ð»Ð¾
ĠÑģÐ¼ÐµÑĤÐ° Ð½Ð°ÑĤÐ°
ĠÐ¿Ð¾Ð´Ð¿ÑĢÐ°Ð² ÐºÐ¸
Ð°ÑĢ ÑĤÐ¾
Ġ ÑħÐ°ÑĢ
ĠÐ´Ð¾Ð¼Ð°ÑĤÐ¸ ÑĤÐµ
Ð· Ð²Ð°
ĠÐŁ ÑĢÐµ
ĠÐ¿Ð¸Ð»Ðµ ÑĪÐºÐ¾
Ð´ Ðµ
Ð³Ð¾ÑĢÐµ Ñī
ĠÑĤÑĬÐ½ ÐºÐ¸
ĠÐ¾ Ð²Ð°Ð»
Ñģ Ð¾
ĠÐ³ÑĢÐ° Ñħ
ĠÐ¾ÑĢÐ¸ Ð·Ð°
ĠÐ½Ð°ÑģÑĤÑĬÑĢ Ð³
Ð¿ ÑĬÐ»
ĠÐºÐ¾ Ð¸ÑĤÐ¾
ĠÐºÐ¾Ð½ÑģÐµÑĢ Ð²Ð°
ĠÐºÐ° Ð½Ðµ
Ð¿ ÑĢÐµÐ´
ÑĩÑĥ ÐºÐ°
ĠÐłÐ°Ð· Ð±ÑĬÑĢÐºÐ²Ð°
ÑĦÐ¸ ÑĤÐµ
Ð· Ðµ
ĠÑĦÐ¸Ð»Ð¸ Ð¹ÐºÐ¸
ĠÐ´ÑĢÐµÐ± Ð½Ð¾
ĠÐ¾ÑĤ Ð½Ð¾Ð²Ð¾
ĠÑĩ Ðµ
ĠÐ¿Ð¾ÑģÐ¾Ð» ÑıÐ²Ð°
ĠÑģÐ²Ð°ÑĢÑı Ð²Ð°ÑĤ
Ð°ÑĢÑĤÐ¾ ÑĦÐ¸ÑĤÐµ
ĠÐ´ Ðµ
) ,
ĠÑħÐ°ÑĢ ÑĤÐ¸Ñı
ĠÐ½Ð°ÑĤ ÑĢÐ¾
Ġ ÑĢÐµÐ´
ÐµÑģ Ð¾ÑĤÐ¾
ĠÐ¾ ÑĦÐ¾ÑĢÐ¼
6 00
ÑĢÐµ Ð¶Ð´Ð°ÑĤ
ĠÐºÐ° ÐºÐ°
Ð² ÐµÐ½
ÑĥÐº ÑĬÑĤ
ÐºÐ¾ ÑĤÐ¾
ĠÐ¿Ð° Ðº
ÑīÐ° ÑĤÐ°
Ñħ Ð»
ĠÐ»ÑĬÐ¶Ð¸ ÑĨÐ°
ĠÐ½Ð°Ð¼Ð° Ð·Ð°
ÑĢÑı ÑĤ
ĠÐ±Ð°ÐºÐ¿ÑĥÐ» Ð²ÐµÑĢ
ĠÑĦÐ¸ Ð»Ðµ
ĠÐ·Ð°Ð¿ÑĬÑĢÐ¶ Ð²Ð°ÑĤ
ĠÐ¿ Ð»Ð¾
ĠÑı Ð±ÑĬÐ»
ÑĢÐ° Ð½
ÑģÑı ÐºÐ°
ĠÐ¿ÑĥÐ´ ÑĢÐ°
Ľ ÑĥÐºÑĬÑĤ
ĠÐ²ÑģÐ¸Ñĩ ÐºÐ¸
ĠÐ·Ð°Ð»Ð¸ Ð²Ð°ÑĤ
ĠÐ¿Ð»ÑĬÐ½ ÐºÐ°ÑĤÐ°
ÑĤÐ° ÑĤÐ°
ĠÐ¼Ð° ÑĢÐ¸
ĠÐ¼Ð°Ð·Ð½Ð¸ Ð½Ð°ÑĤÐ°
ĠÐ Ĳ
ÑĢÐ¸ Ð½
ĠÑĤÐµ Ð»Ðµ
ĠÑģÑĤÐ° Ð½Ðµ
1 5
ĠÐ´Ð° ÑĦÐ¸
ĠÐºÐ°Ð¹Ð¼Ð° ÑĤÐ°
ĠÐŀÑĤ Ð³Ð¾ÑĢÐµ
ĠÐ¼Ð° ÑĢ
ĠÐ´ Ð²Ðµ
ĠÐµÐ´ Ð½Ð¾
Ð½ ÐµÐ½Ð°
Ġ ÑĨÐ°ÑĢÐµ
ĠÐ·Ð°Ð´ÑĥÑĪÐ° Ð²Ð°ÑĤ
ĠÑĢÐ°Ð· ÑĤÐ¾
Ġ ÑĢ
Ð²Ð¸Ñĩ ÐºÐ¸ÑĤÐµ
ĠÑģÑĤÑĥÐ´ ÐµÐ½Ð°
ÑĢÐ° Ð½Ð°
ĠÐ³Ð¾ÑĢ ÑĩÐ¸
ĠÐ¾ÑĢÐµÑħ Ð¸
ĠÑģ ÑĤÐµ
ĠÐ´ÑĢÑĥ Ð³
ĠÑģ ÑĩÑĥÐºÐ°
ĠÑĤ ÑĢÑıÐ±Ð²Ð°
Ñı ÑĤÐ¾
Ð¾ Ð±
ĠÑĢÐ°Ð· ÑĤ
ĠÑĩÑĥÑĪ ÐºÐ¸ÑĤÐµ
ĠÐºÐ¸ÑģÐµÐ»Ð¾ ÑĤÐ¾
ĠÐ½Ð°ÑĢÑıÐ·Ð°Ð½Ð¸ ÑıÑĤ
Ð¸Ð¿ Ð²Ð°
ĠÐ¾ÑģÑĤÐ°Ð²Ñı ÑĤ
ĠÐĴ ÑģÐ¸Ñĩ
Ð½Ð¸ Ð¼Ð°
ĠÐ¾ÑĤ Ð´ÐµÐ»
ĠÐ½Ðµ Ñı
Ñĩ Ð°ÑĤ
ĠÐ´ ÑĬ
ÑĬ Ð½Ð°
ĠÐ¿Ð¾ÑĢÑĬÑģ Ð²Ð°ÑĤ
ĠÐ»Ð¸Ð¼Ð¾ Ð½Ð¾Ð²
ĠÑĩÐ¸ Ð½Ð¸Ñı
ĠÐ¾ÑģÑĤÐ°Ð½Ð° Ð»Ð¸ÑĤÐµ
ĠÐ¿ Ñĥ
ÑģÐ¸ Ð»Ðµ
ĠÐ½Ð°Ð¼Ð°Ð· Ð²Ð°
Ñĩ Ð²Ð°
ĠÐ´Ð¾Ð¼Ð°ÑĤ ÐµÐ½Ð¾
ĠÑı Ð´ÐºÐ¸
ĠÑĤÐµ Ñĩ
Ñĥ Ð±Ð°
ĠÐ³ÑĢÐ° Ð´Ñĥ
ĠÐ± ÐµÐºÐ¾
ĠÑģ Ð³Ð¾ÑĢÐµÑī
ĠÐµÐ´ Ð½Ð°
ĠÑĢÐ°Ð·Ð±Ð¸ Ð²Ð°
ĠÐºÐ¾ ÑıÑĤÐ¾
ĠÐ½Ð°ÑģÑĤÑĬÑĢ Ð³Ð°Ð½
ÑĬ Ðº
ĠÑĦ Ð¾Ð»Ð¸Ð¾
Ñģ Ðº
ĠÐ¸Ð·Ð¼Ð¸ Ð²Ð°ÑĤ
ĠÑĢÐ° ÑģÑĤÐ¸
ĠÐ·Ð»Ð°ÑĤÐ¸ ÑģÑĤÐ¾
ĠÐ³ÑĢÐ°Ð´Ñĥ ÑģÐ°
Ðµ Ð²
ĠÐ¿Ð¾Ð»Ð¾Ð²Ð¸ Ð½Ð°ÑĤÐ°
Ð¾ Ð½Ð°
ĠÑģ Ð³
ĠÐ»Ð¸Ð¼Ð¾ Ð½Ð¾
ĠÐº ÑĢÐ¾
ÑĢÑıÐ· Ð²Ð°ÑĤ
Ð¼Ð¸ Ð¾Ð½
Ð¸ ÑĪ
ĠÐ¼Ð°ÑģÐ»Ð¸ Ð½Ð¸
ĠÐ¿ÑĬÑĢÐ¶ ÐµÐ½Ðµ
ĠÐ¸Ð·ÑģÑĤÐ¸ Ð½Ðµ
ĠÐºÑĢÐµ Ð¼
ĠÐºÑĢÑĬÐ³ ÑĩÐµÑĤÐ°
ĠÐºÐ° ÑĦ
ĠÑĪÑĥÐ½ ÐºÐ°
ĠÐ¿Ð¾Ð´ Ð½Ð°ÑģÑı
Ð» ÐµÐ½Ð°
ĠÑģÐ¼ÐµÑģ Ð²Ð°
ĠÐ²Ð¸ Ð½Ð¾ÑĤÐ¾
Ð»Ð° ÑĤ
Ð²Ð¸ Ð²Ð°
Ð´Ð° ÑĤÐ°
ĠÑĤÐ¸Ðº Ð²Ð¸ÑĩÐºÐ¸
ĠÐ³Ð¾Ð»Ñı Ð¼Ð°
ĠÐ¸Ð· Ð¿
ĠÑħ ÑĥÐ±Ð°
ÑģÐº Ð²Ð¸
Ð¸ Ð»Ð¸
Ð¿ÑĢÐµÐ´ ÐµÐ»
ĠÑĩÐµÑģ ÑĬÐ½Ð°
Ð½Ðµ ÑĤÐ¾
ĠÑģÐ¸ÑĢÐµÐ½Ðµ ÑĤÐ¾
ÑĥÐº ÑĢÐ°
ĠÐ½Ð°Ð¼Ð°Ð·Ð° Ð½Ð°
ĠÐ·Ð° Ð²ÑĢÐ¸
Ð½Ð¸ ÑıÑĤ
ĠÑģÐ²Ð¸Ð½Ñģ ÐºÐ¾
ĠÐ´Ð¾Ð±Ð°Ð²Ñı Ð¼Ðµ
ĠÐļ ÑĬÐ¼
ĠÑĤÐ¾Ð¿ Ð»Ð°
Ġ ÑĥÐºÑĢÐ°
ĠÐºÑĢÐ°ÑģÑĤÐ° Ð²Ð¸ÑĩÐºÐ¸
Ð¾Ð´ Ð¶
ĠÐ»ÑĥÐº ÑĬÑĤ
ĠÐ¿Ð° ÑģÐ¸
Ð³ Ð½Ðµ
ĠÐ´Ð¾ Ð±Ð°Ð²ÐµÑĤÐµ
ĠÐ´ÑĬÐ» Ð±Ð¾
ĠÐº ÑĬ
Ð¾ ÐºÐ¾Ð»Ð¾
ÐµÑĢ ÐºÐ°
ĠÐ¼ Ðµ
ĠÐ¿Ð¾Ð»Ñĥ ÑĩÐ¸
Ð°ÑĢ Ð½Ð¸
ÐµÑĢ Ð²Ð¸ÑĢÐ°
ĠÐļ Ð°
ĠÑĪ Ð°
8 00
ĠÐ³Ð¾ÑĢÐµ ÑīÐ°
Ð³ Ðµ
Ð¾ Ð²Ð°
ĠÐ¼ ÐµÐºÐ¾
ÐµÐ½ ÑĤÐ¸
ĠÑĢÐ°ÑģÑĤÐ¸ ÑĤÐµÐ»Ð½Ð¾
Ġ ÑīÐ¸Ð¿ÐºÐ°
Ð¶ Ð°
ĠÑĢÐ°Ð·Ð±ÑĬÑĢ ÐºÐ²Ð°ÑĤ
ĠÐ¿Ð¾ÑģÑĤÐ°Ð²Ñı ÑĤ
Ñİ ÑĦ
Ð¼Ð¸ Ð´
ĠÐ¾ Ñħ
ÑģÐ¸Ð»Ðµ Ðº
ĠÐ¸Ð·Ð¼Ð¸ Ð²Ð°
ĠÐ¾Ð¼Ðµ ÐºÐ²Ð°
ĠÐ² Ð½Ð¸Ð¼Ð°
ĠÐ» Ðµ
ĠÐ· ÑĬÑĢ
ĠÐ¿ÑĢÐµ ÑģÑĤÐ¾
ĠÐ´ÑĬ Ð½Ð¾ÑĤÐ¾
ĠÐ¡ ÐµÑĢÐ²Ð¸ÑĢÐ°
ĠÑģÐ¸ ÑĢÐ¾
ĠÐ² ÑģÑıÐºÐ°
ĠÑģ ÑĢÐµÐ´
Ñħ Ð¾Ð´
ÐºÐ¸ Ñģ
ĠÑħÑĥÐ±Ð° Ð²Ð¾
Ð²Ð¸ ÑĨÐ°
ĠÑĢÐµ Ð·
ÑħÐ¾Ð´ Ñı
ĠÐºÑĢÐ¾ Ð¼Ð¸Ð´
ĠÑģÐ¿Ð° Ð½Ð°Ðº
ÐºÐ° Ð¹ÑĤÐµ
ĠÐ¿ÑĢÐµ Ð´Ð¸
ĠÐĴ ÑĬÑĢÑħÑĥ
Ġ ÑĢÑĥ
Ð² ÐºÐ¸
ÑĥÑĢ ÐºÐ°
Ð»Ðµ ÑĤÐµ
ĠÐ¿Ðµ ÐºÐ°ÑĤ
ĠÐ·Ð° ÑĩÐµÑĢ
ĠÐ² ÑĢÑı
ĠÐ½Ð°ÑĤÑĢÐ¾ ÑĪ
ĠÐ² ÑĤÐ°
ĠÐĺÐ· Ð²Ð°
ĠÐ½Ð° Ð´
ĠÑıÐ¹ÑĨÐµ ÑĤÐ¾
ĠÐºÐ°Ð¿Ð° Ðº
ĠÑģ ÑĢÐµ
ĠÐ¼Ð¾ÑĢÐºÐ¾Ð²Ð¸ ÑĤÐµ
ÐºÐ¾ Ð²
ĠÐĿÐ° ÐºÑĢÐ°Ñı
Ñĩ Ð¸Ð½
ĠÑĩÐµÑĢÐ² ÐµÐ½Ð¸
ÑĢ ÐµÐ½
ĠÑĤÐ°Ð²Ð° ÑĤÐ°
ĠÑħÐ»Ð°Ð´Ð¸Ð»Ð½Ð¸ Ðº
ĠÑģÑĬ ÑīÐ¾
ĠÐ° ÐºÐ¾
Ð¾ ÑĤ
ĠÐ¯ ÑģÑĤÐ¸ÐµÑĤÐ¾
ĠÑı ÑģÑĤÐ¸ÐµÑĤÐ¾
ĠÑģÐ»Ð° Ð´
ĠÐ¿Ð¾Ð»Ñĥ ÑĩÐ°
Ð¾Ð´Ð¶ ÐµÐ½
ĠÐ±Ñĥ ÑĤ
ÑıÐ²Ð° Ð½Ðµ
ÑĢÐ¾ Ð±
ĠÐºÐ°ÑĢÑĤÐ¾ ÑĦ
ÑħÐ» ÑĥÐ¿
Ð¿ ÐµÐ½
ĠÐ·ÐµÐ»ÐµÐ½ÑĩÑĥ ÑĨÐ¸ÑĤÐµ
Ð½Ð° ÑĤÐ¾
ĠÐº Ðµ
ĠÐ¾Ð¼ÐµÐºÐ²Ð° Ð½Ðµ
Ñĩ Ð½Ð¾
Ð¼Ð° Ñģ
Ð ĳ
ĠÑģÐ²Ð°ÑĢÑı Ð²Ð°
Ðļ Ð°ÑĢÑĤÐ¾ÑĦÐ¸ÑĤÐµ
ĠÐ±Ð¸ ÑģÐºÐ²Ð¸
ĠÑĨÐµ Ð»Ð¸Ð½Ð°
ĠÐ¿Ð¾Ð´ ÑħÐ¾Ð´Ñı
ĠÑĢÐ°Ð· Ð¿ÑĢÐµÐ´ÐµÐ»
ĠÐ±ÐµÐºÐ¾ Ð½
ĠÐ² ÑĢÐ¸
ĠÐ± ÑĥÑĢÐºÐ°
ÑĨÐ¸ Ñı
ĠÑģÑĢÐµ Ð´Ð°ÑĤÐ°
ĠÐ¿Ð¾ÐºÑĢÐ¸ Ð²Ð°
Ð½ Ð´Ð¸
ĠÐ´ÑĢÑĥ Ð³Ð°
ÑĬ ÑģÑĤ
ĠÑĤ Ð²ÑĬÑĢ
ĠÐºÐ¸ Ð¼Ð¸Ð¾Ð½
ĠÐ¿Ð¾ ÑĢÑĤÐ¾
ĠÐ²ÑģÐ¸Ñĩ ÐºÐ¾
ĠÐ¾ Ð±Ð¸
ĠÑĩÐµÑĢ Ð½Ð¸Ñı
ĠÐ¿Ð°ÑĤÐ»Ð°Ð´Ð¶ Ð°Ð½Ð¸
ĠÐ¿Ð¾ÑĢÑĤÐ¾ ÐºÐ°
ĠÑģÐ¼ Ð»Ñı
ĠÐ½Ð°Ð¼Ð° Ñģ
ĠÐ³ Ð°ÑĢÐ½Ð¸
Ð´Ð¸ ÑĤÐµ
Ñħ Ð°
ĠÐ¿Ð¾ ÑĢ
ĠÑģÑĤ ÑĢÐ°Ð½Ð¸
Ð¾Ð» Ñĥ
ĠÑĤÐ¸ Ñħ
ĠÑģÐ° Ð»Ð°ÑĤÐ°
ĠÐ´Ðµ Ð±Ðµ
ĠÐĴÑģÐ¸Ñĩ ÐºÐ¾
ĠÑĢÐ°Ð·Ð±Ð¸ ÑĤÐ¸ÑĤÐµ
Ð» Ñİ
ĠÐ²Ð°Ð½Ð¸Ð»Ð¸Ñı ÑĤÐ°
ÑĢÑıÐ· Ð²Ð°
ĠÑģÐ»Ð° Ð±
ĠÐ³ ÑĬÑĢ
Ðľ ÐµÑģÐ¾ÑĤÐ¾
Ġ ÑĢÑĬ
Ð¼ Ð¿Ðµ
ĠÑģÐ»Ð°Ð³Ð° Ð¼Ðµ
ĠÐ·ÑĬÑĢ Ð½Ð°
ĠÐ¿ ÑĥÑĪ
ĠÐ±ÑĥÐ»ÑĮ Ð¾Ð½Ð°
ĠÐ·Ð°Ð³ÑĢÑı Ð²Ð°
ĠÐºÐ°Ð½Ðµ Ð»Ð°
Ð¼Ð¿Ðµ ÑĢÐ°ÑĤ
Ð½Ðµ ÑĤÐµ
Ð¿Ð¸ ÑĩÐ°ÑĤ
ĠÐŁ Ðµ
ĠÑĤÐ¾Ð¿ Ð»Ð¾
ĠÐ¿Ð¾Ð»Ð¾Ð²Ð¸ Ð½
ĠÑĤÐµ Ð¼Ð¿ÐµÑĢÐ°ÑĤ
Ð¹ ÑģÐºÐ¾
ĠÐ¼ ÐµÐ´
ĠÐ³Ð¾ ÑĤ
ĠÐ·Ð° Ð¿Ð¸ÑĩÐ°
ĠÐ¾Ð² ÐºÑĥÑģ
1 25
ĠÐĺÐ· ÑģÐ¸Ð¿
ĠÐĲ ÐºÐ¾
ĠÐ¼Ð¸ ÐºÑģ
Ð´ÐµÐ» Ñı
ĠÐ±Ñı Ð»
ĠÐº ÑİÑĦ
ĠÐ½Ð° Ð»Ð¸Ð²Ð°
ĠÑĢ ÐµÐ½Ð´
ĠÐºÑĢÐµ Ð¼Ð°
Ð¹ ÑĨÐ°ÑĤÐ°
ĠÑģÐ²Ð°ÑĢ ÐµÐ½Ð¸
ĠÐ±Ð¾ ÑģÐ¸Ð»ÐµÐº
ĠÐ¿Ð¾Ð»ÑĥÑĩÐ° Ð²Ð°Ð½Ðµ
ĠÐ¿ Ð¸
ĠÐ´ Ð²ÐµÑĤÐµ
ĠÐ²ÑĤÐ° ÑģÐ°
ÑģÑĤÐ¸ Ð»Ð°
ĠÐľ Ð°
ĠÐ·ÐµÐ»ÐµÐ½ÑĩÑĥ ÑĨÐ¸
Ð» ÐµÐ½
ĠÐ¼Ð°Ð» ÐºÐ°
Â Ń
ĠÐ¾ÑĢÐµÑħ ÑĩÐµ
ĠÐ¸Ð·Ð²Ð° Ð¶Ð´Ð°
ĠÐµÐ´ Ð¸Ð½
ĠÐºÐ°ÐºÐ° Ð¾
Ð´ Ð¶Ð¸
ĠÑģÑĤÑĢÑĬ Ðº
ĠÐºÐ¾Ð» ÐºÐ¾ÑĤÐ¾
Ð²Ðµ ÑĢÐ°
Ð½Ð¾ Ð²Ð°
Ñĩ ÐµÐ½Ð°ÑĤÐ°
Ð± ÑĢÐ°ÑĪÐ½Ð¾
ĠÑģÐ¼ Ð»
Ñī ÐµÑĢÐºÐ°
ÑħÑĤÐ¸ Ð½Ð°
ĠÑħ Ð°
ÐºÐ²Ð° Ñģ
ĠÐ½Ðµ Ð¿ÑĢÐµ
ĠÐ» ÐµÐ½ÑĤÐ¸
ÑĦÐ¸ Ð»
ĠÑĢÐ° Ð²
Ð²Ð° Ð»Ð°
ĠÐ¿ÑĢÐ° Ñħ
Ð´ ÑĬÐ»
Ð²Ð° ÑĢ
Ñİ Ð²Ðµ
ĠÐ²Ð½Ð¸Ð¼Ð° ÑĤÐµÐ»Ð½Ð¾
ĠÑħÐ»Ð°Ð´Ð¸Ð»Ð½Ð¸ ÐºÐ°
ĠÐ¸ Ð¼
Ð½Ð° Ñģ
ĠÐ¿ÑĢÐ¸Ð³Ð¾ÑĤ Ð²Ñı
Ð» Ð½Ð°
ĠÐ½ÐµÐ¿ÑĢÐµ ÐºÑĬÑģ
7 0
ĠÑģÐµ Ð¼
ĠÑĢÐµÐ½Ð´ Ðµ
ĠÑĩÐµÑĢÐ² ÐµÐ½Ð¸Ñı
Ð ĺÐ·
Ñī Ð¸
ĠÐ½ÐµÐ¿ÑĢÐµÐºÑĬÑģ Ð½Ð°ÑĤÐ¾
ĠÐ¿ ÑĢÑĬ
ÑĢÐµ Ð¶Ð´Ð°
ĠÐ±Ð°ÐºÐ¿ÑĥÐ» Ð²ÐµÑĢÐ°
ÑĬÑĤ ÑĢÐµ
ĠÑģÑĥÑħ Ð°
ĠÑĤÐµÐ¼Ð¿ÐµÑĢÐ°ÑĤ ÑĥÑĢÐ°
ÐµÑģ ÑĤÐµ
Ð½Ð¾ÑģÑĤ ÑĤÐ°
ĠÐŁÐµ ÐºÐ°ÑĤ
ĠÐ½Ð° Ð¹
ĠÐ½Ð° ÐºÐ¸Ñģ
Ð¿ ÐºÐ¸
ĠÐ¿Ð¾Ð» Ð¸
ĠÐ·Ðµ ÑħÑĤÐ¸Ð½Ð°
ĠÐ¡Ð»Ð°Ð³Ð° ÑĤ
Ð·Ðµ ÑħÑĤÐ¸Ð½
ĠÐºÐ¸ÑģÐµ Ð»Ð¸
Ð¾ Ð´Ð¸
ĠÐŁÐ¾ÑĢÑĬÑģ Ð²Ð°
ĠÐ¢ Ð°
ĠÐ½Ð° Ð¿ÑĬÐ»
ĠÐ¿Ð¾Ð´ Ñģ
ĠÑĦ Ð°Ñģ
Ð¸ÑĪ ÐµÑģÑĤÐµ
ĠÐĴ Ð°
ĠÐ¿ÑĬÑĢÐ¶ Ð¾Ð»Ð¸
ĠÐŁÐ¾ ÑģÐ¾Ð»
ĠÐ¿ÑĢÐ° Ð²Ð¸
Ð²Ñı Ð²Ð°Ð½Ðµ
ĠÐ¾ÑģÑĤÐ°Ð½Ð° Ð»Ð°ÑĤÐ°
ĠÐºÐ°ÑĪÐºÐ° Ð²Ð°Ð»Ð°
ÑĢÐµ Ð¶ÐµÑĤÐµ
ĠÐ¾ Ð¼ÐµÑģÐ²Ð°
Ð¼Ð¾ Ð¶Ðµ
Ð¿ ÑĢÐ¸
ĠÐºÐ° ÑĢÐ°
Ð¾Ð»Ð¸ Ð²Ð°
ĠÑģÑĤÐ° ÑĦÐ¸
Ð¼ ÑĢÐ°Ð·
ĠÐ¸Ð· ÑĨÐµ
ĠÐ·ÐµÐ» ÐµÐ½Ð¸
ĠÐ½Ð°Ð¼Ð°Ð· Ð½ÐµÐ½Ð°
ĠÑĦÐ¸Ð»Ð¸ Ð¸
Ð łÐ°Ð·
ĠÐŁÐ¾Ð´ Ð½Ð°ÑģÑı
ĠÐ §
Ñģ ÑĤÐµ
ĠÐ¿ÑĬÑĢÐ¶ Ð°ÑĤ
Ð¶ Ð°ÑĤ
ĠÐ¾ÑĢÐ¸Ð· ÑĬÑĤ
ĠÑģÐ»Ð¾ Ð¶ÐµÑĤÐµ
ĠÐ³Ð¾ÑĤÐ¾ Ð²Ð¸
ĠÐ³ ÑİÐ²Ðµ
ĠÐ½Ð°ÑģÑĤÑĬÑĢÐ³Ð° Ð½Ð¸Ñı
ĠÐ±Ð¾ Ð±
ĠÐ¿Ð»Ð¾ Ð´Ð¾
ĠÐ¸Ð·Ð¿ÑĬÑĢÐ¶ Ð²Ð°ÑĤ
Ð³ Ð¸
ĠÐ¿ÑĢÑıÑģÐ½Ð¾ ÑĤÐ¾
Ð²Ð°Ð» Ñı
ĠÑĨÐµ Ð»Ð¸
Ð ¢
ĠÐ½Ð° Ð±
ĠÐ¾Ð¼ÐµÐº Ð½Ð°ÑĤ
ĠÑģ ÐºÐ°
ĠÐ¿Ð¾Ð´Ð¿ÑĢÐ° Ð²Ñı
ĠÐŀ ÑģÑĤÐ°
ĠÐ·Ð° ÐºÐ²Ð°Ñģ
ĠÐ¶ÑĬÐ»ÑĤÑĬ Ðº
ĠÐ¶ÑĬÐ»ÑĤÑĬ ÑĨÐ¸ÑĤÐµ
Ñģ ÐºÐ¸
ĠÐ½ Ð¸ÑĪÐµÑģÑĤÐµ
Ð²Ð¸ ÑĨÐ¸
Ð» ÐºÐ¾
Ð± ÐµÐ»
Ð²Ðµ ÑĤ
ĠÐľ Ð¾
Ñĩ ÑĥÐº
Ð³Ð° Ð½Ð°
ĠÐ¼Ð°ÑĢ Ð³Ð°
ĠÐ½Ð°Ð¼Ð°Ñģ Ð»ÐµÐ½Ð°
ĠÐ´ ÑĢÐ¾Ð±
ĠÐºÐ¾ ÐºÐ¾
ĠÐ³ ÑĬ
ĠÑĩÐµÑĢÐ² ÐµÐ½Ð°
ĠÐ¿ÑĢÐµÑģ Ð½Ð¸
ĠÐ¾Ð¼ÐµÐº Ð½Ðµ
ĠÐ¼Ð°ÑĢÐ¸ Ð½Ð°ÑĤÐ°
ÑĬ Ð³
ĠÐĿÐ° Ð¼Ð°
ĠÐºÑĥÐ± ÑĩÐµ
ĠÐ¾ÑĤ ÑģÑĤ
ĠÐ¾Ð± ÑĢÑĬ
Ð¿ÐµÐ½ Ð½Ð¾
ĠÐ¾Ð²Ð°Ð» Ð²Ð°ÑĤ
ĠÐ¿Ð¾ÑĩÐ¸ÑģÑĤ Ð²Ð°ÑĤ
ĠÑģÐ¾ ÐµÐ²
ĠÐ¿Ð°ÑĢ ÑĩÐµ
ĠÐ²Ð° ÑĢÑıÑĤ
ĠÐ´Ð¶ Ð¾Ð´Ð¶ÐµÐ½
ĠÑĤÐ¾ ÑĢ
Ñģ ÑıÐºÐ¾
ĠÐ¸ Ð½Ð´Ð¸
Ð¼ÐµÑģ Ð²Ð°ÑĤ
ĠÐ¿ÑĬÑĢÐ¶ Ð¸
ĠÑģ ÑĥÑĪ
ÑĤÐ° Ð¿
ĠÐºÐ¾ ÑģÑĤÐ¸
ĠÐ¼ Ñĥ
ĠÐ¿Ð¾ÑĢÑĬÑģ Ð²Ð°Ð½Ðµ
ĠÑĢÐ°Ð·Ð¿ÑĢÐµÐ´ÐµÐ» Ñı
ĠÐ´ Ð¸
ĠÐ ĽÑĥÐºÑĬÑĤ
ĠÐ¾ÑĦÐ¾ÑĢÐ¼ ÑıÑĤ
ĠÐ´Ð¾Ð¼Ð°ÑĤ ÐµÐ½Ð¾ÑĤÐ¾
ĠÑģ Ð¸Ð¿Ð²Ð°
ĠÐ¾ÑģÑĤÐ°Ð½Ð° Ð»Ð¾ÑĤÐ¾
ĠÐ¾ÑĤÑĨÐµ Ð´
ĠÐ¼Ð¸ÐºÑģ ÐµÑĢ
Ð´ ÐµÐ¼Ð¸
ĠÐ¿Ð¾ Ðµ
ĠÑĢÐ¸ Ð³Ð°Ð½
ĠÐ·Ð° Ð¿Ð¾
ĠÐ¿ÑĢÐ¾Ð´ ÑĬÐ»
ĠÐ³ÑĬÑĢ Ð´Ð¸
ĠÐ¿Ð¾ÑģÐ¾Ð» ÑıÐ²Ð°ÑĤ
ĠÐĵ Ð¾ÑĤÐ¾
ĠÑĩÐ° ÑĪÐ°
ĠÑģÑĥ Ð¿Ð°
Ð¼Ð° ÑĤ
ĠÐ ł
ĠÐ´Ð°ÑĦÐ¸ Ð½Ð¾Ð²
ĠÐ¿Ð¾ÑĢ ÑĨÐ¸
ÑĬÐ³ ÑĬÐ»
Ñı ÑĤÐ°
Ð·Ð° Ð½
ÑĩÐµÑĢ Ð²ÐµÐ½
ĠÐłÐ°Ð· Ð±Ð¸
ĠÐ¿Ð¾Ð´ ÑĢÐµÐ¶Ð´Ð°ÑĤ
ĠÐ¸Ð· ÑĩÐ¸ÑģÑĤ
ÐµÑģ ÑĤÐ¾ÑĤÐ¾
ĠÐ³Ð¾ÑĤÐ¾ Ð²Ð¾
ÑĬÑģ ÑĤÐ¸
ĠÐ¿ÑĢÐ¸Ð±Ð°Ð²Ñı Ð¼Ðµ
ĠÐĶÐ¾ Ð±Ð°Ð²ÐµÑĤÐµ
ĠÐ·ÐµÐ» ÐµÐ½Ð°
ĠÐ½Ð°ÑģÑĤÑĬÑĢÐ³ Ð²Ð°
Ñģ ÑıÐ²Ð°
ĠÐ¸Ð½Ð´Ð¸ Ð¹ÑģÐºÐ¾
Ð¹ Ð±Ð¸
ĠÐ´ÑĬÐ» Ð¶Ð¸
ĠÑĢÑĥ Ð»Ð¾
ĠÐ² Ð¾Ð´
Ð¹ ÑĤÐ¾
ĠÐ¿ÑĢÐ¾Ð´ÑĥÐº ÑĤÐ¸ÑĤÐµ
Ð»Ð¸ Ð·Ð¸
ÑĤÐ¸ Ð½Ð°
Ġ [
ĠÐ¾ÑģÑĤÐ° Ð²ÐµÑĤÐµ
Ð² Ð¾ÑĢ
Ð²Ð¸ ÑĢ
ĠÑģÐºÐ¸Ð»Ð¸ Ð´ÐºÐ°
ĠÑĦÐ°Ñģ ÑĥÐ»
ĠÐ³Ð¾ÑĢÑĩÐ¸ ÑĨÐ°
Ð¿Ðµ Ñĩ
ĠÐ»Ñİ ÑĤ
ĠÑĤÐµÐ»Ðµ ÑĪÐºÐ¾
ÑĢÐµÐ½ Ð²Ð¸ÑĢ
ĠÐºÐ¾ Ð¹ÑĤÐ¾
ĠÐ½Ðµ Ð¾Ð±
ĠÐ¿ ÑĬ
ĠÐ¼Ð° ÑīÐµÑĢÐºÐ°
Ñģ ÐµÐ½
ĠÐ¸Ð·Ð¿ Ð¾Ð»
ĠÑģÑĤ ÑĢÐ°Ð½Ð°
ÑĢÐµ ÑĤÐµ
ĠÐ½Ð°ÑĢÐµ Ð¶ÐµÑĤÐµ
ĠÐ¿Ð¾Ñģ Ð»Ðµ
ĠÐŁÐ¾Ð´ Ð¿ÑĢÐ°
Ġ4 0
ĠÐ² Ð°ÑĢ
Ð¸Ð½ Ð´Ð¶Ð¸
ĠÐ½Ð° ÑĢÑĬÑģ
Ð¿Ð¾ Ð´
ĠÐºÐ¾Ð» ÐµÐ»
ĠÐ³ ÑĢÐ¸
ĠÑģÐ»Ð° Ð½Ð¸
ĠÑħ Ð»Ð°Ð´
ĠÐ¿ÑĢÐµ Ð·
ĠÐ±Ð° Ð´ÐµÐ¼Ð¸
ĠÐ²Ð¸ Ð»Ð¸
ÐºÐ° ÑĢÐ¾
ĠÑĢÐ°Ð· ÑģÑĤÐ¸Ð»Ð°
Ð ¯
Ð² Ð¾ÑĤÐ¾
ĠÐºÐ¾Ð»ÐµÐ» ÑĨÐ°
7 00
Ðŀ ÑĤ
ĠÐ¼Ð°ÑĢÐ³Ð° ÑĢÐ¸Ð½
ĠÐ¿Ð°Ðº ÐµÑĤ
ĠÐ½Ð°Ð¼Ð°Ð· Ð²Ð°Ð½Ðµ
ĠÐ´ÑĬÐ»Ð¶Ð¸ Ð½Ð°
Ð²Ð° ÑĤÐµ
Ð» Ñĥ
ĠÐºÐ° ÑĢ
ÐµÐ½Ð¸ ÑĨÐ°
Ð²Ð¸Ñĩ ÐºÐ°ÑĤÐ°
ÑĩÑĥ Ð±ÑĢÐ¸ÑĨÐ°
ĠÑĤÐ¾Ð¿ ÐµÐ½Ð¾
ĠÑĩÐ° ÑģÑĤÐ¸
ĠÐ¶ÑĬÐ»ÑĤÑĬ ÑĨÐ¸
Ð²Ð¸ ÑıÑĤ
ĠÐ² ÐµÐ´
ĠÐ¿Ð¾ÑĩÐ¸ÑģÑĤ Ð²Ð°
Ð· Ð¾
ĠÐ·Ð°ÐºÐ²Ð°Ñģ ÐµÐ½Ð°
ĠÐ¼Ð°Ð³Ð´Ð°Ð½Ð¾Ð· Ð°
Ñħ Ð¾Ð´Ð¸
Ð½ ÑıÑĤ
ĠÐ¿Ð¾Ð»Ð¾Ð²Ð¸ Ð½Ð°
ĠÐ±Ð¸ÑģÐºÐ²Ð¸ ÑĤÐ¸
ĠÐ¿ Ð»Ð°
Ð½ ÐµÐ½
ĠÐ·Ð° Ð²Ð¸
ÑĢÐ°ÑĪÐ½Ð¾ ÑĤÐ¾
ĠÐ´ÐµÐ±Ðµ Ð»Ð¸Ð½Ð°
ĠÐµÐ´ ÑĢÐ¸
ĠÑģÑĢÐµÐ´ Ð½Ð¾
Ð»Ðµ Ð¿
ĠÐ·Ð°ÑĩÐµÑĢ Ð²ÑıÐ²Ð°Ð½Ðµ
ĠÑĩÐµÑĢÐ² ÐµÐ½Ð¾
ĠÐļÐ° ÑĤÐ¾
ÐŁ Ð¾
Ð»Ð¸ Ð¼Ð¾
Ð»Ð° ÑĩÐ¸Ð½
ĠÐ¸ Ð²Ð¸ÑĨÐ¸
ĠÐ±ÑĥÑĢÐºÐ° Ð½
ĠÐ¿Ð°ÑģÐ¸ ÑĢÐ°
ĠÐ´Ð¶ Ð¸Ð½Ð´Ð¶Ð¸
ÑĤÐ¸ Ð½
ĠÐ²Ð¸Ð»Ð¸ ÑĨÐ°
ĠÑģÐ° Ð¼Ð¾
Ð¼Ðµ Ð·Ð°Ð½
ĠÐŁ ÑĬÑĢÐ¶
1 2
ÑĢÑĬ Ð¶
ĠÑĪÐ° Ð¹Ð±Ð¸
ĠÑĤÐ¸Ðº Ð²Ð¸ÑĩÐºÐ¸ÑĤÐµ
ĠÐ¿ÐµÑĩ ÐµÐ½Ð¸
ĠÐ½Ð°ÑģÑĤÑĬÑĢÐ³ Ð²Ð°ÑĤ
ĠÐºÑİÑĦ ÑĤÐµ
Ð°Ð½Ð¸ ÑĤÐµ
Ð¿ ÐµÑĩÐµ
ĠÐĹÐ° Ð¿ÑĬÑĢÐ¶
ĠÑĢÐµÐ· ÐµÐ½
ÑĥÑĢ ÐºÐ¸
ĠÐŁÐ¾ ÑģÑĤÐ°Ð²Ñı
ĠÐºÐ¾ Ð½
Ð² ÐºÐ°ÑĤÐ°
ĠÐ¼Ð°Ñı ÑĤÐ°
ĠÐ½ÐµÐ¾Ð± ÑħÐ¾Ð´Ð¸
ĠÐ¿ ÑĬÑĢ
ÐºÐ¾ Ð¿ÑĬÑĢ
ĠÑĤ ÑĢÐ¸
Ð´ÑĬÐ» Ð±Ð°
ĠÑģÐ³ ÑĬÑģÑĤÐ¸
ĠÐ» Ð°
ÑģÐµ ÐºÐ¸
ĠÑħ Ð¾
ĠÑĤÐ° Ð·Ð¸
ÑĨÐµ Ð¶Ð´Ð°
ĠÐ¼Ð¾ÑĢÐºÐ¾ Ð²Ð°
ÑħÐ»ÑĥÐ¿ Ð²Ð°
ĠÐ¿ÑĢÐ¸Ð³Ð¾ÑĤ Ð²
ĠÐ¼Ð°Ð¹Ð¾Ð½ÐµÐ·Ð° ÑĤÐ°
ÑĬÐ±Ð¸ ÑĤÐµ
ĠÐ¿Ð¾Ñģ ÑĤÐµ
Ð ĽÑĥÐºÑĬÑĤ
ĠÐ¸ Ð²Ð¸ÑĩÐºÐ¸
ĠÐº Ð¸Ð¿
ĠÐ¾ÑģÑĤÐ°Ð²Ñı Ð¼Ðµ
ĠÐ¿Ð¾ÑĢÑĨÐ¸ Ð¸
ĠÐ´Ð°ÑĦÐ¸ Ð½Ð¾
ĠÐ·Ð°Ð¿Ð¾ Ñĩ
ÑĩÑĥ Ð¿
ĠÐ¿Ð¾ÐºÑĢÐ¸ Ðµ
ĠÐº ÑĢÐµÐ½Ð²Ð¸ÑĢ
ĠÐ·Ð° Ð¼ÑĢÐ°Ð·
ÐŁ Ð¸Ð»Ðµ
ĠÐ¿Ð»ÑĬÐ½ ÐºÐ°
ĠÐ ¤
Ð½Ð°Ñģ ÑıÑĤ
ĠÐºÑĥ Ð¿Ð¸
ĠÐ Ľ
Ð¸ Ð·
ĠÐ¿Ð¾ÑģÑĤÐµ Ð¿ÐµÐ½Ð½Ð¾
ĠÑĦÐ¾ÑĢ Ð¼Ð¸
ĠÑĢÐ°Ð·Ð±ÑĬÑĢ ÐºÐ°Ð¹ÑĤÐµ
Ð¼Ð°Ñģ Ð»Ð¾
ĠÑģ Ð½Ñı
ÑĤÐ¸ ÑģÐºÐ°
ĠÑĤÐ²ÑĬÑĢ Ð´Ð¾
ĠÑģÐ½Ñı Ð³
Ð½Ð° Ð³Ð°
ĠÐ° Ð³Ð½Ðµ
ÑĤ ÑĬÑĢ
ĠÑĢÐ°Ð· Ð¼Ð¸
ĠÑĢÐ°Ð·Ð±ÑĬÑĢÐºÐ²Ð° Ð¼Ðµ
Ðº Ð»Ñİ
ĠÐ´ÑĢÐµÐ± Ð½Ð¸
1 20
ĠÐ¿Ð¾ Ð²Ðµ
ĠÐ Ŀ
ĠÐ½Ð°ÑĢÐµ Ð¶Ð´Ð°
ÑĬÑĢ Ð¿Ð°
ĠÑģ Ð¼Ð¸
ĠÐ¿Ð° Ð»Ð°ÑĩÐ¸Ð½
ĠÑĢÐ°Ð·ÑĤÐ¾ ÑĩÐ²Ð°
Ð¼Ð¾ Ð³
ĠÐ¿Ð¾Ð´Ñģ ÑĥÑĪ
ÑĦÐ¸ Ð¾Ð»
ÑĢÐ¾ Ð´
ĠÐ¿ÑĢÐµÑģÑĤÐ¾ Ð¸
Ð¿Ð¾Ð´ Ð¿ÑĢÐ°
ĠÐ½Ð°Ð¼Ð° Ñĩ
Ð´ÑĥÑĪ Ð°
ÐºÐ° ÑĢ
ĠÐ¢ ÐµÑģÑĤÐ¾ÑĤÐ¾
ĠÑģÐ¼Ð»Ñı Ð½
ĠÑıÐ±ÑĬÐ» ÐºÐ¸
Ð¹ ÐºÐ°
ĠÐ² ÑģÑıÐºÐ¾
ĠÐ²ÑĢÑı ÑīÐ°
ĠÑħÐ¾ Ð¼Ð¾Ð³
ĠÑģÐ¾ ÐºÐ°
ĠÑģÐ¸ÑĢÐ¾ Ð¿
ĠÐľÐ¾ Ð¶Ðµ
ĠÑģÐ¿Ð° Ð³Ðµ
Ñģ Ð½Ð°
Ð» ÑıÐ²Ð°
ĠÐ¾ÑĦÐ¾ÑĢÐ¼ Ñı
ĠÐ·Ð° ÑĤÐ¾Ð¿
Ñī ÑĤÐ°
ĠÐ´ÑĬÐ»Ð±Ð¾ Ðº
ĠÐ¿ÐµÑĩ ÑĥÑĢÐºÐ¸
Ð¿ Ð°ÑĢ
ĠÐ½Ð°ÑĢÑıÐ·Ð° Ð½Ð°
ĠÑģÑĬ ÑģÑĤÐ°
ĠÑģÐ° Ð»Ð°
ĠÑĨÐ°ÑĢÐµ Ð²Ð¸ÑĨÐ°
ÑĥÑĪ ÐºÐ¸ÑĤÐµ
ĠÑģÑĥ ÑģÐ°
ĠÐ¾Ð±Ð¸ Ð»Ð½Ð¾
ĠÑģÐ¼Ð» ÐµÐ½Ð¸
ĠÐ¿Ð¾Ñģ Ð»ÐµÐ´
ĠÐ´Ð¸ Ð°
ĠÐ±Ð° Ð½Ð°
Ðº ÑĬÐ»
Ð³ Ð¾Ð»
Ġ ÑīÐµ
Ñĩ ÐºÐ¸ÑĤÐµ
ĠÑĤÐ¸ ÐºÐ²Ð°
ĠÐ½Ð°ÑĢÑıÐ·Ð° Ð½Ð¾
ÑĩÐµ ÑģÑĤ
ĠÑĢÐ°Ð· Ð´ÐµÐ»Ñı
ĠÑĨ Ñı
ĠÐ¸Ð·Ð¿Ð¾Ð» Ð·Ð²Ð°
ĠÐłÐ°Ð· Ð±ÑĬÑĢ
ĠÐ± Ð»Ð°ÑĤÐ°
ĠÐºÐ¾ Ð³Ð°ÑĤÐ¾
ĠÐ¿Ð¾Ð²Ðµ ÑĩÐµ
ÑĢÑıÐ· Ð²Ð°Ð¼Ðµ
ĠÑĤÐ¾Ð¿ ÑĩÐµÑĤÐ°
ĠÐ¾ÑĢÐµÑħ Ð¾Ð²Ð¸
Ð»Ð¸ Ð²Ð°ÑĤ
Ð· Ð¼Ð°
ĠÐ¢Ð° ÐºÐ°
Ð´ ÑĬÑĢ
ĠÑĢÐ°Ð² Ð½Ð¾
ĠÐ»Ñİ ÑĤÐ¸
ĠÐ¿Ð¾Ðµ Ð¼Ðµ
Ð Ķ
ĠÑĢÐ¾ Ð¼
ĠÐ½Ð° ÐºÑĢÐ°Ñı
Ð»Ð¾ Ð¶ÐµÑĤÐµ
ĠÐ¼Ð° ÐºÐ°ÑĢÐ¾
ĠÑģ Ð²Ð°Ð»Ñı
ĠÐŁ Ð¾Ð»Ñĥ
ĠÐ½Ð°ÑĢÑıÐ·Ð° Ð½Ð°ÑĤÐ°
Ġ 6
ĠÐ¿Ð¾ Ð¼Ð¾
ÑĤÐ¸ Ð½Ð¸
Ðº ÑĬÑĤ
Ñī Ð¾ÑĤÐ¾
Ð² ÐºÑĥÑģ
ĠÑģÐ²Ð¸Ð½Ñģ ÐºÐ¸
ĠÑģÐ¾Ð´Ð° ÑĤÐ°
ĠÑģÐ»Ð°Ð½Ð¸ Ð½Ð°
ĠÐ² ÑĬÑĤÑĢÐµ
ĠÑģÑĥ ÑĢÐ¾
ĠÐ¿Ð¾Ð¼Ð¾ ÑīÑĤÐ°
ĠÐºÐ¾Ð» Ð±Ð°
ĠÐ¸Ð·Ð²Ð° ÑĢÐ°
ĠÑĢÐµ Ð¶Ðµ
Ð¼Ðµ ÑĤÑĬÑĢ
ĠÑĤÐµÐ½Ð´Ð¶Ðµ ÑĢÐ°ÑĤÐ°
ĠÐ¿ÑĬÐ» Ð½ÑıÑĤ
ÑĢÐ°Ð½ ÑıÐ²Ð°
ĠÐ½Ð° ÑģÑĤ
ĠÑĤÐ¸ Ð³Ð°Ð½Ð°
ĠÐ½Ð°Ð¼Ð°Ð· Ð²Ð°ÑĤ
ĠÐ¾ÑģÑĤÐ° Ð½Ðµ
Ð´ÐµÐ» Ð½Ð¾
ÑĤÐµ ÑĢ
ĠÐ¿Ð¾ Ð²
ĠÐ¿Ð¾ ÑĤÐ°Ð¿
ĠÑģÑĤÐ°ÑĦÐ¸ Ð´Ð¸
ÑĪ Ð½Ð¸
ĠÐ¿Ð¸Ð»Ðµ ÑĤÐ¾
ĠÑĦÐ¾ÑĢÐ¼Ð° ÑĤÐ°
ĠÑĢÐ°Ð·ÑĤ Ð²Ð°ÑĢÑı
ĠÐ¸Ð·Ð¿ÑĬÑĢÐ¶ Ð²Ð°
ĠÐ¿Ð¾ Ñĩ
ÑĬÑģ ÑĤÐ¾
ĠÐ¿Ð»Ð¾Ð´Ð¾ Ð²Ðµ
ÑĮ Ð¾
ĠÐ¾Ð± Ðµ
ĠÐ³Ð¾Ð»Ñı Ð¼
ĠÐºÐ¾ÑģÑĤÐ¸ Ð»
ĠÐ·Ð° ÑģÑĤ
ĠÐ½ÐµÐ¾Ð±ÑħÐ¾Ð´Ð¸ Ð¼Ð¾
Ð²Ð°Ð½Ðµ ÑĤÐ¾
Ð¸ Ðº
ĠÐŁÐ¾Ð´Ð¿ÑĢÐ° Ð²Ñı
Ð¾Ð»Ð¸ ÑĩÐµÑģÑĤ
ĠÐ±Ð° Ð½Ñı
ĠÐ±ÑĥÑĤ ÑĩÐµÑĤÐ°
ĠÐ²ÐµÐ´ Ð½Ð°Ð³Ð°
ÑĤÐ¾ ÑĢ
Ð°Ñģ Ð»Ð¾ÑĤÐ¾
ĠÑģÐµÑĢÐ²Ð¸ÑĢÐ° Ð½Ðµ
Ñĥ ÑĤ
ĠÐ¾Ð²ÐºÑĥÑģ ÑıÐ²Ð°
ĠÐ´ÑĬÐ»Ð±Ð¾ ÐºÐ°
ĠÑĢÐ°Ð²Ð½Ð¾ Ð¼ÐµÑĢ
ĠÐ³ ÑĢ
ÑĪÐºÐ° Ð²Ð°Ð»
ĠÐ° ÑĢÐ¾
ĠÑĢÐ¸Ð±Ð° ÑĤÐ°
ĠÐŁÑĢÐµ Ð·
Ð· Ñĥ
ĠÐ±ÐµÐ»ÑĤÑĬ ÑĨÐ¸
7 50
ĠÑģÐµ Ð¼Ðµ
ĠÐ² ÑģÐµÐºÐ¸
ĠÐºÐµ ÐºÑģ
ĠÐ¾ÑĤÑĨÐµ Ð¶Ð´Ð°
ĠÑģÐ³ ÑĬÑģÑĤ
3 50
ĠÐ»Ð¸Ð¼Ð¾Ð½Ð¾ Ð²Ð¸Ñı
ÑĪ ÐºÐ¸ÑĤÐµ
ĠÐ¸Ð·ÑģÐ¸Ð¿ Ð²Ð°ÑĤ
ĠÐº ÑĬÑĢÐ¿Ð°
ĠÐ·ÐµÐ»ÐµÐ½ÑĩÑĥ ÐºÐ¾Ð²
Ġ1 00
ĠÐ´Ð¾ Ð±Ð°
Ð²Ð¸ ÑĨÐ°ÑĤÐ°
ĠÐĴÐ° ÑĢÐ¸
Ð ¤
ĠÑħÐ¾Ð¼Ð¾Ð³ ÐµÐ½
ÐĺÐ· Ð¼Ð¸
ĠÑģÐ°Ð»Ð° Ð¼
Ñģ Ð¾Ð²Ð¸
ĠÐ¸ Ð¼Ð°
ĠÑģÐ¸ Ð»Ð½Ð¾
ĠÐ¾Ð±ÑĢÑĬ ÑīÐ°
ĠÐ´Ð¸Ð° Ð¼ÐµÑĤÑĬÑĢ
ĠÐĺÐ·Ð²Ð° Ð¶Ð´Ð°
ĠÐŁÐ¾ ÐºÑĢÐ¸
â Ģ
ĠÐĹÐ° Ð´ÑĥÑĪÐ°
ĠÐ´Ð¾Ð¼Ð°ÑĤ ÐµÐ½
ĠÐ´ Ð¾Ð»Ð¸Ð²Ð°
Ð¶ Ð´Ñĥ
ĠÐ´Ð¶Ð¸Ð½Ð´Ð¶Ð¸ ÑĦÐ¸Ð»
ĠÐ ¹
ĠÐ¼Ð° ÑħÐ°
Ð²Ð¾ ÑĬÐ³ÑĬÐ»
ĠÐ¾ÑĨÐµ ÑĤÐ°
Ñģ Ñĥ
ĠÐ¿Ð¾Ñĩ ÑĤÐ¸
ĠÐ² Ðµ
ĠÐºÐ¾ÑĢÐ¸ Ð°Ð½
ĠÑĤÐµÑĩ Ð½Ð°
ĠÐ²Ð¾Ð´ Ð½Ð°
Ñī Ð°ÑĤ
ĠÑģÑĤ ÑĬÑĢ
Ð¿Ð¾Ð´Ð¿ÑĢÐ° Ð²ÐºÐ¸
Ð¼ ÐµÐ½
ĠÐ¾Ð±ÐµÐ» ÐµÐ½Ð¸
ĠÐ·ÐµÐ»Ðµ ÑĤÐ¾
ĠÐ±ÐµÐ»ÑĤÑĬ ÑĨÐ¸ÑĤÐµ
Ð¼Ð° Ð·Ð½Ð¸
ĠÐºÑĬ ÐºÑĢÐ¸
ĠÐĶÐ¾Ð±Ð°Ð²Ñı Ð¼Ðµ
Ð»Ð° Ð¶Ð´Ð°
ĠÑĤÐ¾Ð¿ ÐºÐ¸
ĠÑĤÐ¸Ðº Ð²Ð¸ÑĩÐºÐ°
ĠÐ¿ÑĢÐ¸ Ð±Ð°Ð²ÐµÑĤÐµ
ĠÐ´ÑĢÑĥÐ³ Ð¸
Ĺ ÐµÐ»
ĠÐĺÐ·ÑģÐ¸Ð¿ Ð²Ð°
Ð¼Ð° ÑĤÐ¸ÑĤÐµ
ÐĴ ÑģÐ¸Ñĩ
Ð· Ð²Ð°ÑĤ
ĠÐºÐ° Ðº
Ð¯ Ð¹ÑĨÐ°ÑĤÐ°
Ð° Ð½Ð°
ĠÐŁÑĢÐµ Ð´Ð¸
ĠÐºÐ°ÑĢ ÑĦÐ¸Ð¾Ð»
Ñħ Ð²ÑĬÑĢ
ĠÐ¸Ð·ÑģÑĤÐ¸ Ð½Ð°ÑĤ
Ð §
ĠÐºÑĢÐ° Ñı
ĠÑģÑĬÑģÑĤÐ° Ð²ÐºÐ¸
ĠÐ¸Ð· Ð´ÑĬÐ»Ð±Ð°
ĠÐ¿ÑĢÐ° Ð²ÑıÑĤ
Ð·Ð¼Ð° ÑĢÐ¸Ð½
ĠÐ¾Ð± ÐµÐ·
ĠÑĢÐ°Ð·ÑĤ Ð²Ð¾ÑĢ
Ð¼Ð°Ð·Ð½Ð¸ Ð½Ð°
ĠÐ´ ÑĬÑĢ
ÑĪÐºÐ¾ ÑĤÐ¾
ĠÑģ Ð°ÑĢ
ĠÐ¿ÑĢÐ° Ð²Ð¾ÑĬÐ³ÑĬÐ»
ĠÐŁÐ¾ÑģÐ¾Ð» ÑıÐ²Ð°
ĠÐ¿ÑĢÐµ ÑģÑı
ĠÑĤÐ¾Ð¿ Ð»Ð¸
ÑĩÐ¸ ÑĨÐ¸
ĠÐ± Ð°Ð½Ð¸
Ð¿ ÐºÐ°
ĠÐĹÐ° Ð»Ð¸Ð²Ð°
ĠÑĩÐµÑģÑĬÐ½ ÑĬÑĤ
Ð±Ð° ÑĤÐ°
ĠÐºÐ°ÐºÐ° Ð¾ÑĤÐ¾
ĠÐ± Ð»Ð°ÑĤ
ĠÐ¼Ð°ÑĢÐ¸ Ð½Ð¾Ð²Ð°
ÐºÐ¾ ÑģÑĤ
ĠÐ¿ÑĢÑı ÑģÐ½Ð°
ĠÐ¿Ð° ÑģÑĤÐ°
ĠÐ½Ð°ÑģÑĤÑĬÑĢÐ³Ð° Ð½Ð¾
ĠÑģÑĤÑĬÑĢ Ð³Ð¾
ÑĤ Ð²Ð°ÑĢÑı
ÑģÑĤÐ¾ Ñı
7 5
ĠÐºÑĬ ÑĢÐ¸
ĠÑħÐ° Ð¿ÐºÐ¸
ĠÑı Ð³Ð¾
Ġ 50
ĠÐºÐ¾ ÑĢÐ°ÑĤÐ°
ĠÐľ ÐµÑģÐ¾ÑĤÐ¾
Ð° ÐºÐ¾
ĠÑĩÐµÑĢÐ² ÐµÐ½Ð¸ÑıÑĤ
ĠÐ¸Ð·Ð²Ð° Ð¶Ð´Ð°ÑĤ
ÐłÐ°Ð· Ð±Ð¸
ĠÐ £
ĠÐº Ð¾Ð»Ð¸ÑĩÐµÑģÑĤ
ĠÐ·Ð° Ð¼ÐµÑģÐ²Ð°
Ð¿Ð¾ ÑĢÐµÐ´
ĠÑĥÐºÑĢÐ° ÑģÐ°
ĠÐ´ÑĢÑĥÐ³Ð° ÑĤÐ°
Ð²Ð¸ Ð²Ð°ÑĤ
ĠÑĨÐ°ÑĢÐµ Ð²Ð¸Ñĩ
ĠÐ±ÑĬÑĢÐºÐ° Ð½Ðµ
ĠÐ¼Ð°ÑĢÐ¸Ð½Ð°ÑĤÐ° ÑĤÐ°
ĠÑĨ Ð²Ðµ
ÑĤ ÑĢÐ¸
ĠÐºÐ°Ð½Ðµ Ð»Ð°ÑĤÐ°
ĠÐ¾ Ð±ÑĬÑĢÐºÐ²Ð°
ĠÐ± Ð»Ð°
ĠÑĢÑĬ ÑĨÐµ
ĠÐ½Ð° ÐºÑĬÑģ
ĠÐŀ Ð²ÐºÑĥÑģ
Ð¾ Ñģ
Ð¼Ðµ ÑģÐµ
ĠÑģÑĤÑĬÑĢÐ³Ð¾ ÑĤÐ¸Ð½Ð¸
ĠÑĢÐ°Ð²Ð½Ð¾Ð¼ÐµÑĢ Ð½Ð¾
ĠÑĢÐµ Ð¶Ð°ÑĤ
ĠÐ´ÑĬÑĢ Ð²
ĠÐ± Ðµ
ĠÐ½Ð°ÑĤÑĢÐ¾ÑĪ ÐµÐ½Ð¾ÑĤÐ¾
ĠÐ½Ð°ÑģÑĤÑĬÑĢÐ³Ð° Ð½Ð¸ÑĤÐµ
ÑĤ ÐµÐ½
ÐµÐ½Ðµ ÑĤÐ¾
ĠÐŀ ÑĦÐ¾ÑĢÐ¼
ĠÐ¿Ð¾Ð´ÑħÐ¾Ð´Ñı Ñī
Ð¾Ð²Ð° ÑĤÐµÐ»Ð½Ð¾
ĠÐ·Ð° Ð²Ð¸Ð²Ð°
ĠÐ»Ð¸Ð¼Ð¾ Ð½Ð°
ĠÐ¿Ð¾Ð»Ñĥ Ð¼ÐµÑģÐµ
ĠÑģÑĥÑĪ ÐµÐ½Ð¸
ĠÐ¿ÑĬ ÑĤÐ¸
ĠÐ¿Ð¾Ð´Ð¿ÑĢÐ°Ð² ÐºÐ°
ĠÐ¿Ð¾Ð´ÑħÐ¾Ð´Ñı ÑīÐ°
ĠÐ¿Ð¾Ð»Ð¸ Ð²Ð°
ĠÑģÑĬ Ð´Ð°
Ð¹Ð¼Ð° ÑĤÐ°
ĠÐºÐ° ÑĪÐ°
ĠÐºÐ°ÑĢÐ° Ð¼Ðµ
ĠÐ¼Ð¸Ð½Ñĥ ÑĤÐ°
ĠÐ½Ð°Ð± ÑĢÐ°ÑĪ
ĠÐº Ð²Ð°
ĠÐ½Ð°Ð¿ÑĬÐ» Ð½Ð¾
ĠÑĨ Ð²ÑıÑĤ
ĠÑĢÐ°Ð·ÑĤÐ¾ Ð¿Ð¸
ĠÐºÐ°ÑĦ ÑıÐ²Ð°
ĠÑĩÐµÑĢ Ð½Ð¸ÑıÑĤ
ĠÐ³Ð°ÑĢÐ½Ð¸ ÑĤ
Ð³Ð° Ð»ÐµÑĤÐ°
ĠÐ¾Ð±ÐµÐ» Ð²Ð°
ĠÑĥÐºÑĢÐ° ÑģÑıÐ²Ð°
Ð»Ð¸Ð¼Ð¾ Ð½Ð¾Ð²
ĠÑģÐºÐ° ÑĢÐ°
ĠÐ¿ Ð°Ð½Ð¸
Ð¼Ðµ Ðº
ĠÐºÐ¾ Ð¼
ĠÑģÐ¾ Ðµ
Ð¿Ð° ÑĢÐ¸
ĠÐ¿Ñĥ ÑģÐºÐ°
ĠÐ¿Ð¾Ð»ÑĥÐ¼ÐµÑģÐµ ÑĨÐ¸
ĠÐº Ð»Ðµ
ĠÑģÐ»Ð° Ð´ÐºÐ¸
ĠÐ¯ Ð¹ÑĨÐ°ÑĤÐ°
ĠÐºÐ¾ÑĢÐ¸Ð°Ð½ Ð´ÑĬÑĢ
Ġ 8
ĠÑģÑĬ ÑīÐ°ÑĤÐ°
ĠÑĤÐ¾Ð¿ ÐºÐ°
ĠÑĢÐ°Ð·ÑĤÐ¾Ð¿ ÐµÐ½Ð¾ÑĤÐ¾
Ð´ ÐµÑĤÐµ
ĠÐ½ Ñĥ
ÑĢÐ¸ Ð·
ĠÐ¼Ð°ÑģÐ»Ð¸ Ð½Ð¸ÑĤÐµ
ĠÐ¿Ð¾ Ð½Ðµ
ÑĬ ÑĢÐ°
ĠÐ½Ð°ÑĢÑıÐ·Ð° Ð½Ð¾ÑĤÐ¾
ĠÑĢÐ°Ð·ÑĤÐ¾Ð¿ ÑıÐ²Ð°
ĠÑĩÐ° ÑĪÐ¸
ĠÐ¾ÑĢÐµÑħ Ð¸ÑĤÐµ
Ġ2 5
ÐºÐ° ÑĪÐºÐ°Ð²Ð°Ð»
ĠÐ¿ÑĢÐ¸ ÑĤÐ¸ÑģÐºÐ°
ĠÐ¿Ð°ÑĤÐ»Ð°Ð´Ð¶ Ð°Ð½
ÑīÐ¸ Ñı
Ð¸Ðº Ð²Ð¸ÑĩÐºÐ¸ÑĤÐµ
Ð¿ Ð¾Ð»
ĠÐ²Ð°Ð½Ð¸ Ð»Ð¸
ĠÐ½Ð¾ Ð¶
ĠÐ³ÑĬ ÑģÑĤÐ°
ĠÐ¿Ð¾ Ð²ÑĢÐ¸
Ð³Ð¾ÑĤ Ð²Ñı
ĠÐ³Ð°Ð»ÐµÑĤÐ° ÑĤÐ°
ĠÐ¾Ñħ Ð»Ð°Ð´
Ġ +
Ð¾Ð»Ð¸ Ð¾ÑĤÐ¾
ĠÐ³Ð°ÑĢÐ½Ð¸ ÑĢÐ°
ĠÐ½Ð°ÑĢÑıÐ· Ð²Ð°Ð¼Ðµ
ÑĩÑĥÐº Ð²Ð°ÑĤ
Ð¸ ÑīÐ°ÑĤÐ°
ĠÐļ Ð°ÑĢÑĤÐ¾ÑĦÐ¸ÑĤÐµ
ĠÐ½Ð° ÐºÑĬÐ»
Ġ ÑīÐ¸Ð¿
ĠÐĿÐ° Ð»Ð¸Ð²Ð°
ĠÐ¿Ð¾Ð´ÑģÑĥÑĪ Ð°
ĠÑģÐ»Ð°Ð´ ÐºÐ¾
Ð¹ Ð½Ð°
ĠÐ¡ Ð»Ð¾Ð¶ÐµÑĤÐµ
ĠÐ·Ð° Ð¿Ð¸ÑĩÐ°ÑĤ
ĠÐ¿ÑĢÐ¾Ð´ÑĬÐ» Ð¶Ð°
ĠÐ³Ð¾ÑĢÑĩÐ¸ ÑĨÐ°ÑĤÐ°
ĠÑģÐ»Ð¾ Ð¶Ð¸
ĠÐ³ ÑĬÑģÑĤÐ¾
ĠÑĩÑĥÑĪ ÐºÐ°ÑĤÐ°
ĠÐ±Ñĥ ÑĤÐµÑĢ
ĠÐ¿Ð¾ÑģÐ»ÐµÐ´ Ð¾Ð²Ð°ÑĤÐµÐ»Ð½Ð¾
ĠÑħÐ¾Ð¼Ð¾Ð³ÐµÐ½ Ð½Ð°
ĠÐ½Ð° Ð¿ÑĢÐ°
ĠÐ½Ð°Ð¼Ð° Ð»ÑıÐ²Ð°
ĠÐĿÐ° ÑĢÐµÐ¶ÐµÑĤÐµ
ĠÐ·ÐµÐ» ÐºÐ°
ĠÑģÑĥÐ¿Ð° ÑĤÐ°
ĠÐµÐ´ Ð½Ð°ÑĤÐ°
Ð¼ÐµÑģ ÐµÑĤÐµ
ĠÐ¿Ð» ÑĬÑĤ
ĠÑĢÐ°Ð·ÑĤÐ¾Ð¿ ÐµÐ½Ð¾
ĠÑģ Ð¿Ð¾ÑĢÐµÐ´
ĠÑĩ ÐµÑĤ
ĠÐĳ ÑĢÐ°ÑĪÐ½Ð¾ÑĤÐ¾
ĠÑĢÐ¾ Ð·Ð¼Ð°ÑĢÐ¸Ð½
) .[
ĠÐĿÐ° ÑĢÐµÐ¶Ð´Ð°ÑĤ
ĠÐ¿Ð¾Ð»Ñĥ ÑĩÐµÐ½Ð°ÑĤÐ°
ĠÐŁ ÑĢÐ°
ĠÐºÑİÑĦÑĤÐµ ÑĤÐ°
ĠÐ´ ÐµÑģ
ĠÑĪ Ðµ
Ðļ Ð°
Ñĥ Ð¿Ð°
ĠÑģÐ¸ Ð»Ð½Ð°
ĠÐ¾ÑĤÑĨÐµ Ð¶Ð´Ð°ÑĤ
ĠÐ¾ÑĤ Ð²
ĠÑģÐ³Ð¾ÑĢÐµÑī ÐµÐ½Ð¾
ĠÐ¾Ñħ Ð»Ð°Ð´Ð¸
ĠÑģÐ¸ÑĢÐ¾ Ð¿Ð°
ÑĩÐµ ÑĤÐ¾
ĠÐĳ ÑĬÑĢÐºÐ°
ĠÐ»ÐµÐ½ÑĤÐ¸ ÑĩÐºÐ¸
ĠÑģ ÑĬÑĢ
Ð½Ð° ÐºÐ°
Ð» ÐµÐ½Ð¾
Ñħ Ð¸
ĠÐ¾Ð±ÐµÐ» ÐµÐ½Ð¸ÑĤÐµ
ĠÐºÐ²Ð° Ð´
ĠÐ³Ð»Ð° Ð´
ĠÐĺÐ·Ð²Ð° Ð¶Ð´Ð°ÑĤ
Ð ĵ
ĠÐ¸Ð·ÑĨÐµ Ð´
ĠÐ¿Ð¾ Ð¸Ð·
Ð»Ð¾ Ð½
Ð² ÐºÐ°
ĠÐŀÑĤ Ð´ÐµÐ»Ð½Ð¾
ĠÐ¿Ð¾ÑĢÑĤÐ¾ÐºÐ° Ð»Ð¾
ĠÐºÐ¾ÑĢÐ¸ ÑĩÐºÐ°
ĠÐ³Ð¾ÑĤ Ð²Ð°ÑĢ
ĠÐ³Ð°ÑĢÐ½Ð¸ÑĤ ÑĥÑĢÐ°
ĠÐ±ÑĢ Ð¾ÐºÐ¾Ð»
ĠÑĤÐµÐ»Ðµ ÑĪÐºÐ¸
ĠÑĤÐµÑĩ Ð½Ð¾ÑģÑĤÑĤÐ°
ĠÐºÑĢÐ°ÑģÑĤÐ° Ð²Ð¸ÑĨÐ°
Ð³ ÑĢÑı
ĠÐ¡ Ð¼ÐµÑģÐ²Ð°ÑĤ
ÐŁÐ¾ ÑĩÐ¸ÑģÑĤ
ĠÐ¿Ð¸Ð»ÐµÑĪÐºÐ¾ ÑĤÐ¾
ĠÐ·Ð°Ð¿Ð¾Ñĩ Ð½Ðµ
ĠÐ¼Ð¸ Ðº
Ð»Ðµ Ð¹ÑĤÐµ
ÐºÑĥ Ð¼Ð°
Ð» ÑĬÐ½
ÐĴÑģÐ¸Ñĩ ÐºÐ¸
Ñĩ Ð½Ð°
Ðľ Ð°
ĠÐºÐ¾ÐºÐ¾ ÑģÐ¾Ð²Ð¸
ĠÐºÐ°Ðº ÑĤÐ¾
ĠÐ´ ÑĢÑĬÐ¶
ĠÐºÐ¾Ð»Ð±Ð° Ñģ
ĠÑģ Ð¸Ð¿
ĠÐ³Ð»Ð° Ð´ÐºÐ°
ÑĬ Ð±
ĠÐ¿ÑĢÐµ ÑħÐ²ÑĬÑĢ
ĠÐŁÐµÑĩÐµ Ð¼
ĠÑģÐ²Ð°ÑĢ ÐµÐ½
Ð³ Ð¾ÑĤÐ¾
ĠÐºÐ¾ Ð½Ñı
ĠÐ·Ð°Ð»Ð¸ Ð²ÐºÐ°ÑĤÐ°
ÐºÐ° ÑĦ
ÐµÐ½Ð¸ Ðµ
ĠÐ¿Ð»Ð° ÑģÑĤ
ĠÐ¾Ð±ÐµÐ· ÐºÐ¾ÑģÑĤ
ĠÐ² ÐµÑĩÐµ
ĠÐĵ ÑĬÐ±Ð¸ÑĤÐµ
ĠÑģ Ð»Ð¸
ĠÐŁ Ð°ÑĢ
Ð¾ÑĤ Ð³Ð¾ÑĢÐµ
ĠÐŀÑģÑĤÐ° Ð²ÐµÑĤÐµ
Ðµ Ð»Ðµ
ĠÐŁÐ¾ Ñģ
ĠÐºÑĢÐ° Ð¸ÑīÐ°ÑĤÐ°
ĠÐºÐ°ÑĢÐ° Ð¼
ĠÑģÑĥÑģÐ° Ð¼
ÑĢÐ¸ Ð»Ð¸Ð·Ð¸
ĠÐ¸Ð· Ð¿Ð°ÑĢÐ¸
ĠÐ´ Ð²Ð°
ĠÑħÐ»Ð°Ð´ ÐºÐ°
Ġ 500
ĠÐ¿Ð¾ÑĢÑĬÑģ Ð²Ð°Ð¼Ðµ
ĠÐ¸Ð· Ð»Ð¸Ð²Ð°
ĠÐ´ÑĢÑĥ Ð³Ð¾
ĠÑīÐ¸Ð¿ ÐºÐ¸
ĠÑģÑĤÐ° Ð¹Ð½Ð°
ĠÐºÐ°ÑĦ Ðµ
Ðµ ÑĢÐ°
ĠÐ·Ð° Ð¿ÐµÑĩÐµ
Ġ2 50
Ġ1 50
ĠÑĦ Ð¾Ð»Ð¸Ð¾ÑĤÐ¾
ĠÐ²ÑĬÑĤÑĢÐµ ÑĪ
ĠÐ¿Ð¾ ÑĩÐ¸
ÑĬ Ð·
ÑĥÑĢ ÐºÑĥÐ¼Ð°
ĠÑģÐ¿Ð°Ð³Ðµ ÑĤÐ¸
ÐµÐ½ ÑĩÑĥ
ĠÑĦÐ¸ Ð»ÐµÑĤÐ°
ĠÐ¶ÐµÐ»Ð° ÑĤÐ¸Ð½
ĠÐ¿ÑĢÐµ ÑĨÐµÐ¶Ð´Ð°
ĠÐ¿ÐµÑĩÐµ Ð¼
ĠÐ» Ð¾
ĠÐ¿Ð¸ ÑĤ
ĠÐ¿ Ñı
ĠÐŁÐ¾Ð´ Ð½Ð°ÑģÑıÑĤ
ĠÑĪ Ð¸
9 0
ÑĢÐµÐ´ ÐµÑĤÐµ
ĠÐ¿Ð¾ÑĤÐ°Ð¿ ÑıÑĤ
ĠÑģÐ°ÑĢ Ð¼Ð¸
ĠÐ² ÑĤÐ¾
ĠÐºÐ¾ ÑĢ
Ð²ÑĬÑĢ ÑĪ
ĠÐ¿Ð¾ÑĢÑĤÐ¾ÐºÐ° Ð»
ĠÐºÐ° Ð¿ÐºÐ¸
ĠÐ½Ð°ÐºÐ¸Ñģ Ð²Ð°
ĠÐ³ÑİÐ²Ðµ Ñĩ
ĠÐ¾ Ð±ÑĬÑĢ
ĠÑĤ ÑĢÐ¾
ĠÐ± Ð»
ĠÐºÐ¾Ð»Ð¸ÑĩÐµÑģÑĤ Ð²Ð¾
ĠÐºÑĥ Ñħ
ĠÑĥÐ¼ÐµÑĢ ÐµÐ½
ĠÐ±Ð° ÑħÐ°ÑĢ
ĠÐ³Ð¾ÑĤÐ¾ Ð²Ð°
ĠÑĢÐµ ÑĪ
Ð±ÑĢÐ¸ ÑĨÐ°ÑĤÐ°
ĠÑģÐ¾Ñģ ÑĬÑĤ
ĠÐ³Ð¾ÑĤÐ²Ð°ÑĢ ÑģÐºÐ°
Ð³Ð° ÑĤ
ĠÑĤÑĬÐ½ ÐºÐ°
ĠÐ¿ÑĢÐ¾Ð´ÑĬÐ»Ð¶Ð° Ð²Ð°
ĠÐµ ÑģÐµÐ½
ĠÐµÐ´Ð½Ð¾ ÑĢÐ¾Ð´
ĠÐ¿Ð°ÑģÐ¸ ÑĢÐ°ÑĤ
ĠÐ¿Ð¾ÑĢÑĬÑģ ÐµÑĤÐµ
ĠÐŀÑģÑĤÐ°Ð²Ñı ÑĤ
ĠÐŀÑģÑĤÐ° Ð½Ð°
ĠÐ±Ð°Ð½Ð¸ ÑĨÐ°
Ð±Ð¾ Ð½Ð°ÑĤ
ĠÑĢÐ°Ð· ÑĢÐµÐ¶Ð´Ð°
ĠÐ±Ð» ÐµÐ½Ð´
Ð¶ Ð½Ð¾
ĠÐ¿Ð°ÐºÐµÑĤ ÑĩÐµ
ĠÐłÐ°Ð·Ð±ÑĬÑĢ ÐºÐ°Ð¹ÑĤÐµ
ĠÐº ÑĢÐ¸
ĠÐ±Ð¸ ÐºÐ°ÑĢ
ĠÑĩÑĥ Ð±ÑĢÐ¸ÑĨÐ°ÑĤÐ°
ĠÐ½Ð°ÑĤÑĢÐ¾ ÑĪÐ°
ĠÐ±Ð¸ÐºÐ°ÑĢ Ð±Ð¾Ð½Ð°ÑĤ
ÑĢÐ¾ Ð²Ð¸
ĠÐ¿Ð°ÑĢ Ð¼ÐµÐ·Ð°Ð½
ĠÑģÐ²Ð°ÑĢ ÐµÐ½Ð¸ÑĤÐµ
ĠÐ½Ð°Ð¼Ð°Ñĩ ÐºÐ²Ð°ÑĤ
ĠÑĢÐµÐ´ ÑıÑĤ
ĠÐŁÐ¾ÑĢÑĬÑģ Ð²Ð°ÑĤ
ĠÐºÑĢÐµÐ½Ð²Ð¸ÑĢ ÑĪÐ¸
ĠÐ¾Ð±Ðµ Ð¼Ð°
ĠÐ·Ð°Ð¿ÑĬÑĢÐ¶ Ð²Ð°Ð¼Ðµ
ĠÑģÑĤÐ° Ð½Ð°ÑĤ
ĠÑģÐµÐ¼ ÐºÐ¸ÑĤÐµ
Ð³Ðµ ÑĤÐ°
ĠÐ²Ð°Ð½Ð¸Ð»Ð¸ Ð¸
ĠÐ¿Ð»ÑĬÑĤ Ð½Ð¾
ĠÐ¿ÑĬÑĢ Ð²Ð¾
ĠÐ°Ð³Ð½Ðµ ÑĪÐºÐ¾
ĠÐ¼Ð°ÐºÐ°ÑĢÐ¾ Ð½Ð¸
ĠÑıÐ³Ð¾ Ð´Ð¸
Ð¿ ÐµÑĢ
Ð½Ð° ÑģÑĤÑĬÑĢ
ÑģÑĤÐ° Ð²ÐµÑĤÐµ
Ð³Ð¾Ð» Ñı
ĠÑĪ Ð¸ÑĪ
ĠÐ²ÑĢÑĬ ÑīÐ°
ĠÑģÐ¼Ð¸ Ð»Ð°ÑĤ
Ð´ ÐºÐ¸ÑĤÐµ
ÑĤ Ñİ
Ð» ÐºÐ°
ĠÑģÑĥÑħ Ð¸
ĠÐ¿Ð¾ Ð¿Ð°ÑĢ
ĠÐŁÑĢÐ¸ Ð±Ð°Ð²ÐµÑĤÐµ
ĠÐºÐ¾Ð¼ Ð¿Ð¾
ÑĥÑĢ Ð½Ð°ÑĤÐ°
ĠÑĤÐ° Ð²Ð¸ÑĩÐºÐ°ÑĤÐ°
ĠÑĨÐµÐ»Ð¸ Ð½Ð°ÑĤÐ°
ĠÐµÑģÐµÐ½ ÑĨÐ¸Ñı
ĠÑĢÐ°Ð· ÑĢÑıÐ·Ð²Ð°ÑĤ
ĠÐºÑĥÑħ Ð½ÐµÐ½
Ġ2 20
ĠÑģÑĩÑĥÐºÐ° Ð½Ð¸Ñı
ĠÐ½Ð° ÑĩÐ¸Ð½
ĠÐ¾ÑģÑĤÐ°Ð½Ð° Ð»Ð¸Ñı
ĠÑĩÐ¸ Ð»Ð¸
ĠÐ¿ Ð»Ð¸
ĠÐ¼ ÐµÐ½
Ð± ÐµÐ·
ĠÐºÐ¾ÑĢÐ¸ ÑĤÐµ
Ð»Ð¸ Ð½Ð¸
ĠÐ¿Ð¾ Ð¾
ĠÐºÐ¸ÑģÐµ Ð»Ð°
ĠÐĿÐ° Ð¹
ĠÐ¿ÑĬÐ» Ð½Ð¸
ĠÑģÑĤÐµ ÑĢÐ¸Ð»Ð¸Ð·Ð¸
ĠÐ½Ð°Ð´ ÐµÐ½Ð¸ÑĨÐ°
ĠÑģÐ»Ð° Ð´ÐºÐ°
ĠÐ¿Ð¾ÑĢÑĬÑģ ÐµÐ½Ð°
ĠÐĹÐ° Ð»Ð¸Ð²Ð°ÑĤ
Ð´ Ð¶
Ð·Ð° ÑħÐ°ÑĢ
Ġ 7
Ð·Ð¸ ÑĢÐ°
ĠÐ½Ð°ÑĢÑĬÑģ Ð²Ð°
ĠÐ¿ÑĥÐ´ ÑĢÐ°ÑĤÐ°
Ð¿ ÑĥÐ´
Ð° ÑĤÐ°
ĠÐ¡ Ð¸
ĠÐ¾ Ð¿Ð°
ÑĩÐµ Ñģ
Ñĥ Ð»Ð°
ĠÐº ÑĥÑĢÐºÑĥÐ¼Ð°
ĠÑĩÐ¸ Ð½Ð¸
ĠÑģÑĤÐµ Ð³Ð½Ðµ
ĠÐµÐ´Ð½Ð¾ÑĢÐ¾Ð´ Ð½Ð°
Ð Ľ
ĠÐ± ÑĬ
Ð»Ð¸ Ð²Ð°Ð¼Ðµ
ÐµÐ» ÑĤÑĬ
ĠÑĪÑĥÐ½ ÐºÐ°ÑĤÐ°
ĠÐ´ÑĬÑĢÐ² ÐµÐ½Ð°
ĠÐ½Ð°Ð±ÑĢÐ°ÑĪ Ð½ÐµÐ½Ð°
Ð¿ÑĥÐ´ ÑĢÐ°
ĠÐ¿Ð¾Ð»Ñĥ Ñĩ
ĠÐ¾ÑĤÐ´ÐµÐ» Ñı
ÑĨÐµ Ð¶Ð´Ð°ÑĤ
Ðº Ð½Ð¾Ð²
ÑĩÐµÑģ ÑĬÐ½
ĠÑģÑĤ ÑĢÐ¸
ĠÐ·ÐµÐ»ÐµÐ½ÑĩÑĥ ÐºÐ¾
ĠÐ»ÑĬÐ¶Ð¸ ÑĨÐ¸
ĠÐ»Ð¸Ð¼Ð¾Ð½Ð¾ Ð²Ð°
ĠÑģÐ»Ð°Ð´ Ð¾Ð»
ĠÐ¿Ð¾Ð»Ð¾Ð²Ð¸Ð½ ÐºÐ¸
ĠÐ·Ð° ÑĤÐ²Ð°ÑĢÑı
ĠÑģÐ¸ Ð»ÐµÐ½
Ð¹ ÑģÐ¸
Ð¡ Ð¸
ĠÐ»Ñİ ÑĤÐ°
ĠÐ¿ÑĥÑĪ ÐµÐ½Ð¾
ĠÐºÐ°ÑĢÐ°Ð¼ ÑĦÐ¸Ð»
Ð¸ Ð±Ð°ÑĤÐ°
ÐµÐ½Ð¸ ÑĨÐ°ÑĤÐ°
Ð»Ð°Ð´ ÐµÐ½
Ð½Ñı ÐºÐ¾Ð»ÐºÐ¾
ĠÑĢÐµÐ·ÐµÐ½ ÑĩÐµÑĤÐ°
ÑĢÑıÐ· Ð°Ð½Ð¸
ĠÐ¶ÑĬÐ»ÑĤÑĬ ÐºÐ°
ĠÐ¿ÑĢÑĬ ÑģÑĤ
ĠÐ¾ÑĤÑģÑĤ ÑĢÐ°Ð½ÑıÐ²Ð°
Ð¿Ð° Ð´
ĠÐ¿Ð°ÑĤÐ»Ð°Ð´Ð¶Ð°Ð½Ð¸ ÑĤÐµ
ĠÐ² ÑĬÐ·
Ġ1 2
ĠÐ¿ÑĢÐµÑģ ÑıÐ²Ð°
ĠÑĨÐ°ÑĢÐµÐ²Ð¸Ñĩ Ð½Ð¾
Ð»Ðµ Ð±
ĠÑģÑĤÑĥÐ´ ÐµÐ½Ð¾
Ð²Ð°ÑĢÑı Ð²Ð°
ÑģÐµ Ð¼
ĠÐ¾ ÑģÐ½Ð¾
ĠÐ¾ ÑĨ
Ð²Ðµ Ð¶
Ð¼Ð° ÑĤÐ°
ĠÐºÐ¾ Ð¿ÑĢÐ¸
ĠÐ¼Ðµ Ð¶Ð´Ñĥ
ĠÐ´ ÑĬÑĢÐ¶
ÑĨÐµ ÑĤ
Ð¼ÐµÑģ Ð²Ð°Ð¼Ðµ
Ð ł
ĠÑĦÐ¸ Ð»Ð¸Ñı
ÐŁ Ð°ÑĤÐ»Ð°Ð´Ð¶
ĠÐ½Ð° Ñħ
Ð´Ð¾ Ð±ÑĢÐµ
ĠÑıÐ±ÑĬÐ» ÐºÐ°
Ð¾Ñģ ÑĬÑĤ
ĠÐ ¨
ĠÐ ©
Ð½ Ð½Ð¾
ÑĢÐ¸ ÑĤÐµ
ÑĤ ÐºÐ¾
Ð¼Ð° Ð»ÐºÐ¾
ĠÐº ÐµÑĤ
ÑģÑĤ ÑĢÐ°
ĠÐĹÐ° Ð¿Ð¸ÑĩÐ°
ĠÐ¿Ð¾Ð»Ð¸ Ð²Ð°ÑĤ
ĠÐ¿ÑĢÑĬ ÑĩÐ¸ÑĨÐ¸
ĠÐº ÑĬÑģ
ĠÐ¾ ÑģÐ¾Ð»
ĠÐºÑĢÐ° ÑĤÐºÐ¾
ĠÑĢÐ¸ Ð±
ÐĶ Ð¾
ÑģÐ¸Ð¿ Ð²Ð°
ĠÐ±Ð¸ ÑĢÐ°
ĠÑĤÑĢÐ¾ ÑħÐ¸
ÑĢÐ¸ Ð½Ð°
Ðº ÑĬ
ĠÐ½Ð¾ Ñī
ĠÐĿ Ðµ
ÐµÑģ Ð¸
ĠÐ±Ð»ÐµÐ½Ð´ ÐµÑĢ
ĠÑĢÐ¾ Ð·Ð¸
ĠÐºÐ¾ÑĤÐ»Ð¾ Ð½
Ðµ ÑĤÐ¸Ð½Ð°
Ð· ÐµÐ»
Ð³ ÑĥÑĢ
ĠÐ·Ð° Ðµ
ĠÐĴ ÑĬÐ²
ÑĪ Ð¸ÑĤÐµ
ĠÐ¾Ð² ÐµÑģ
ĠÐ¾Ð±Ð¸ ÐºÐ½Ð¾Ð²
ĠÑģÐ»Ð¸ Ð²Ð¸
Ð¿ ÑĬÑĢÐ°
ĠÐŁÑĢÐ¸Ð±Ð°Ð²Ñı Ð¼Ðµ
Ġ *
Ð· ÑĢÐ°
ĠÐº Ð»Ð°Ð´ÐµÐ½
ĠÐ³ÑĢÐ¸ Ñģ
ĠÐ¿Ð¾ Ð·Ð°
ÑĢÐ¾ Ð²
Ð¾ Ð¼
ĠÐ²ÑĢÑĬÐ· ÐºÐ¸
ĠÐºÑİÑĦ ÑĤÐµÐ½
Ðº Ðµ
ĠÐ¿Ð¾ ÑģÑĤÐ¾Ñı
ĠÑģÐ²Ð¸Ð½Ñģ ÐºÐ°
ĠÑģÑĩÑĥÐºÐ° Ð½Ð¸
ĠÐ½ Ð¸
ĠÑģÐ»Ð°Ð³Ð° ÑĤÐµ
ĠÐĶÐ¾ Ð¼Ð°ÑĤÐ¸ÑĤÐµ
ĠÐ¡Ð»Ð°Ð³Ð° Ð¼Ðµ
ĠÑģÐ³Ð¾ÑĢÐµÑī ÐµÐ½Ð¾ÑĤÐ¾
ĠÐ§ ÑĥÑĪÐºÐ¸ÑĤÐµ
ĠÐ·Ð°Ð²Ð¸ ÑģÐ¸
ĠÐ½Ð°ÐºÑĬÐ» ÑĨÐ°
ĠÑģ Ð²ÐµÑĤ
Ð» ÐµÐ½Ð¸
ÐºÐ° Ð½
ĠÑģÑĤÐ° Ð²Ð°
ÐµÐ»ÑĤÑĬ ÑĨÐ¸ÑĤÐµ
ĠÐ¿Ð¾ÑģÑĤÐ¾Ñı Ð½Ð½Ð¾
ĠÐ½Ð° Ð²Ð¸Ð²Ð°
ĠÐ·Ð° Ð¿Ðµ
ĠÐ¡ Ð¾ÑģÑĬÑĤ
ĠÐ½Ð°ÑģÑĤÑĬÑĢÐ³Ð° Ð½Ð°
Ġ ÑĥÐ´
ÑĢÐµ Ð¹ÑĤÐµ
ĠÐºÐ¾ Ð¶Ð°
ĠÑģÑĤ ÑĬÐº
ĠÐ¢ Ð¾
ĠÑģÐ¿Ð° Ð½Ð°ÐºÐ°
ĠÑģÑĩÑĥÐºÐ° Ð½
ÑģÑĤÐµ ÑĤÐµ
ĠÐ´ÑĢÐ¾Ð± ÑĩÐµÑĤÐ°
ĠÐ¸Ð·Ð²Ð° ÑĢÐ°ÑĤÐ°
Ð¢ Ð¸ÐºÐ²Ð¸ÑĩÐºÐ¸ÑĤÐµ
ĠÐŁÑĬÑĢÐ¶ Ð°ÑĤ
ĠÐ·Ð°Ð¼ÑĢÐ°Ð· ÐµÐ½
ĠÐ ĸ
ĠÐ·Ð° ÑīÐ¾ÑĤÐ¾
ĠÑĤ ÑĢÐµ
Ġ4 5
ĠÐ¿Ð¾Ð² ÑĬÑĢÑħ
ĠÐ¿Ñı Ð½Ð°
Ð¾ ÑĨÐµÑĤ
ĠÑĨÐ²Ðµ Ðº
ĠÐŁ Ð°
ÐµÑĢ Ð¸
ĠÑĤÑĬÐ½ ÐºÐ¾
âĢ ĵ
ĠÑĪ Ð°ÑĢ
ĠÐ° Ð½Ð°
ĠÑģÑĤÐ°ÑĦÐ¸ Ð´Ð¸ÑĤÐµ
ĠÐ´Ð¾Ð±Ð° Ð²Ð¸
ĠÐºÐ¾ Ð¿ÑĬÑĢÐ°
ĠÐĴÑģÐ¸Ñĩ ÐºÐ¸
ĠÐ¿Ð¾Ð´Ð½Ð°ÑģÑı Ð½Ðµ
ĠÐŁÐ¾Ñģ Ð»Ðµ
ĠÐĺÐ· Ð¼Ð¸
ĠÑĤÐµÐ½Ð´ Ð¶
ĠÐ¸Ð· ÑĢÑıÐ·Ð²Ð°ÑĤ
ĠÑģÑĤ ÑĢÑĥ
Ð°Ð· Ð¸
ĠÑĩÐµÑĤ Ð²ÑĬÑĢ
ĠÐŀÑģÑĤÐ°Ð²Ñı Ð¼Ðµ
ĠÑģÐ¼Ð»Ñı Ð½Ð¾
ĠÐ¹ ÐµÐ½
ĠÐŀÐ²ÐºÑĥÑģ ÑıÐ²Ð°
ÑĢÐ¸Ð· ÑĬÑĤ
Ġ 600
Ð² Ð½Ð¾
ÑĢÐµ Ñģ
ĠÑħ Ð»ÐµÐ±
ÐºÑĥ Ð¼
Ð»Ñĥ Ð¼Ð¸
ĠÐ£ ÐºÑĢÐ°
ĠÐ¼Ð° Ñħ
ĠÐ¿ÑĢÐ¾ Ð·ÑĢÐ°
ĠÐ´ Ð¾Ð»
ĠÐ´ Ð²Ð°ÑĤÐ°
ĠÑģÐºÐ° ÑĢÐ¸
ĠÐ· ÑĬÐ±Ð¸
ĠÐ¿ÑĢÐµÑģ Ð¾Ð²Ð°
ĠÑģÐ²Ð°ÑĢ ÐµÐ½Ð¾
ĠÑĨÐ°ÑĢÐµ Ð²Ð¸ÑĨÐ°ÑĤÐ°
ĹÐµÐ» ÐµÐ½ÑĩÑĥ
Ñĩ Ð½Ð¸
ĠÐ¼ Ð»Ðµ
ĠÐº Ð¸Ð¿Ð²Ð°
ĠÐ¸Ð·ÑģÐ¸Ð¿ Ð²Ð°Ð¼Ðµ
ĠÐ³ÑĢÐ°Ñħ Ð°
ĠÐ¿ÑĢÐµÑģÑĤÐ¾ ÑıÑĤ
ĠÐ© Ð¾Ð¼
ĠÐ´Ð¾ ÑģÑĤÐ°
ĠÐºÐ° Ð¹ÑģÐ¸
ĠÐ¾ÑģÑĤÐ°Ð½Ð° Ð»Ð¸
ÑĨÐ°ÑĢÐµ Ð»Ð°
ĠÐ³ÑĬ Ð±
ĠÐ¿Ð¾ÐºÑĢÐ¸ Ð²Ð°ÑĤ
ĠÑģÑĤÐµ Ð³
4 50
ĠÐ¡ ÑĬ
ÑĢÐ¾ Ð·Ð¾
ĠÐ±ÐµÐ»ÑĤÑĬ Ðº
ĠÑģÐ³ÑĬÑģÑĤ ÑıÐ²Ð°Ð½Ðµ
Ð½Ñı Ð²Ð°ÑĤ
ĠÐ»Ð¸ÑģÑĤÐ° ÑĤÐ°
ĠÐ¼Ðµ Ð´Ð°
ĠÐ½Ð°ÑĤÑĢÐ¾ÑĪ ÐµÐ½Ð¾
ĠÐºÐ»Ðµ ÑĩÐºÐ°
ĠÐ±ÑĢÐ¾ÐºÐ¾Ð» Ð¸
ĠÐŁ Ð¸Ð»Ðµ
ĠÐºÐ¾Ð½ÑģÐµÑĢ Ð²Ð¸ÑĢÐ°
ĠÐŀÑĦÐ¾ÑĢÐ¼ ÑıÑĤ
ĠÐ´ÐµÑģ ÐµÑĤÐ¸Ð½Ð°
ĠÐ ķ
Ð½ ÑĪÐ¸
Ð¸Ð½ Ð³
ĠÑģÐ¾Ðµ Ð²Ð¸Ñı
ĠÐ¿Ð¾Ð¾ Ð¼ÐµÐº
Ñĩ ÐºÐ°ÑĤÐ°
ĠÐ´ ÐµÐ½
ĠÐĿÐ° ÑĢÑıÐ·Ð²Ð°
ĠÐ¿ÑĢÐµÑģÑı ÑĤÐ¾ÑĤÐ¾
ÑĤÑİ ÑĢ
ĠÑĢÐ°Ð·Ð±Ð¸ ÑĤÐ¾ÑĤÐ¾
ĠÐ¾Ð±ÑĢÑĬ ÑīÐ°ÑĤ
ĠÑģÑĥÑħ Ð¾
ÐĿÐ° ÑĢÐµÐ¶ÐµÑĤÐµ
Ð³ ÑĬ
ĠÐ¡ Ð°
Ð¼Ð° ÑĤÐ¸
ÑģÐ¸ ÑĢÐµÐ½Ðµ
ĠÐ·Ð°Ð¿ÑĬÑĢÐ¶ ÐµÑĤÐµ
ĠÐ½Ð°ÑģÑĤÑĬÑĢÐ³Ð° Ð½Ð°ÑĤÐ°
Ð»ÑĥÐ¼Ð¸ Ð½Ð¸Ðµ
ĠÐ»Ð¸ Ðº
ĠÐ¸Ð·Ð¼Ð¸ ÑĤÐ¸
Ð¾ÑĢÐºÐ¾ Ð²Ð¸ÑĤÐµ
ĠÑĢÐ°Ð·Ð±Ð¸ ÑĤÐ¾
ĠÐ¿Ð¾ÐºÑĢÐ¸ ÑĤÐ°
ĠÐ»ÑĬÐ¶Ð¸ ÑĩÐºÐ°
ĠÐ¾ÑĨ Ð²ÐµÑĤ
Ð´ÐµÐ» ÑıÑĤ
ÑĤ ÐºÐ°
ĠÐ¼ Ñı
Ðľ Ð°ÑģÐ»Ð¾ÑĤÐ¾
Ð³Ð° Ð²Ð°
ĠÑģÐ²Ð° ÑĢÐ¸
ĠÑĩÐµ ÑĢÐµ
ĠÐ´ÐµÐ±Ðµ Ð»Ð¸
Ð´ ÐµÑĤÐ¾
ĠÑģÑĬ Ð²
ÑĩÑĥÐº Ð²Ð°
ĠÐºÑĥÐ¿Ð¸ ÑĩÐºÐ°
Ð§ ÑĥÑĪÐºÐ¸ÑĤÐµ
ĠÐ½Ð° ÑĩÑĥÐºÐ²Ð°ÑĤ
ĠÐ¿ÐµÑĩÐµÐ½Ðµ ÑĤÐ¾
ĠÐºÐ»Ð°Ð´ÐµÐ½ ÑĩÐµ
ĠÐ¿ÐµÑĩÐµ ÑĤÐµ
ĠÐ½Ð°ÑģÑĤÑĬÑĢÐ³Ð° Ð½Ð¾ÑĤÐ¾
ĠÐŁÐ°ÑĢ Ð¼ÐµÐ·Ð°Ð½
ÑĢÐµ Ð»Ð¸
ĹÐµÐ»ÐµÐ½ÑĩÑĥ ÑĨÐ¸ÑĤÐµ
ĠÑģÑĬÐ² ÑģÐµÐ¼
ĠÐ¼ ÑĬ
ĠÑĢÐ°Ð· ÑĢÑıÐ·Ð²Ð°
ĠÑĪ ÑĥÐ¿
ĠÐ¿ÑĢÐµÑħÐ²ÑĬÑĢ Ð»Ñı
ĠÐ¿Ð° ÑģÐ°
ĠÑĩ ÑĥÐº
ĠÐ³Ð¾ÑĤ Ð²
ĠÐ´ÑĢÑĬÐ¶ ÐºÐ¸ÑĤÐµ
ĠÐŁÐµÑĩÐµ ÑĤÐµ
ĠÐ¸Ð·Ð²Ð° Ð´Ð¸
Ð± Ñı
ĠÑģÑĤ ÐµÐ½Ð¸ÑĤÐµ
ĠÐ¸Ð· Ð¿Ð¸ÑĩÐ°ÑĤ
ĠÐ¿Ð¾Ð» Ð·Ð²Ð°
ĠÐŀ Ð¼ÐµÑģÐ²Ð°
ĠÑģÐ¼Ð» ÐµÐ½Ð¸ÑĤÐµ
ĠÐ¿Ð¾ ÑĢÐ¾Ð·Ð¾
ĠÐłÐ°Ð· ÑĤÐ¾
ĠÐ½Ð°ÑģÑĤÑĬÑĢÐ³Ð° Ð½Ð¸
ĠÐŁÐ¾ÑģÐ¾Ð» ÑıÐ²Ð°ÑĤ
ĠÐ»ÑİÑĤ ÐµÐ½Ð¸ÑĨÐ°
ĠÑĤÐ¾Ð¿ ÐµÐ½Ð¾ÑĤÐ¾
ĠÐ·Ð»Ð°ÑĤÐ¸ ÑģÑĤ
ĠÐ±Ð°Ð½Ð° Ð½Ð¸
ÑĢÐ¾ Ð¹
ĠÐ´Ð¾Ð¼Ð°ÑĤ ÐµÐ½Ð¸Ñı
ĠÑĢÐ°Ð·Ð±ÑĬÑĢ ÐºÐ°
ĠÐºÐ°Ð¿Ð° ÐºÐ°
ĠÑģÐ»Ð°Ð´Ð¾Ð» ÐµÐ´
ĠÐ¼Ñı ÑģÑĤÐ¾
ĠÑĤÐµÐ»Ðµ ÑĪÐºÐ°
Ð´Ð¶ Ð¾Ð´Ð¶ÐµÐ½
ĠÐºÐ°ÑĢÑĤÐ¾ÑĦ ÐµÐ½Ð¾
Ð¿ÑĢÐµ ÑģÐµÐ½
Ð¸Ð½ Ð³Ð°
ÑģÑĤÐ¸ Ðµ
ĠÐ° Ð»ÑĥÐ¼Ð¸Ð½Ð¸Ðµ
ĠÐ±ÐµÐºÐ¾ Ð½Ð°
ĠÐ»Ðµ ÑīÐ°
ĠÐ¼Ð°ÑĢÐ¸Ð½Ð¾Ð²Ð° Ð½Ð¸
ĠÐ³Ð»Ð°Ð´ ÐºÐ¾
ĠÐ¿Ð¾Ð¸Ð· ÑģÑĤÐ¸
ÑĢÐ¾Ð² ÑĬÐ»
ĠÐ´Ð¾Ð¼Ð° ÑĤÐ°
ĠÐºÑĢÐ° Ð¹
ĠÐº Ð»Ð¾Ð½
ĠÑıÐ±ÑĬÐ» ÐºÐ¸ÑĤÐµ
ĠÐ»Ðµ ÑĪÐ½Ð¸
ĠÐºÑĥÐ¿Ð¸ ÑĩÐºÐ¸
ÐļÐ° Ð¹Ð¼Ð°ÑĤÐ°
ĠÐ¸Ð· ÐºÐ»Ñİ
ÑĬÐ»ÑĤÑĬ ÑĨÐ¸ÑĤÐµ
ĠÐ·Ð°ÑĩÐµÑĢ Ð²Ð¸
ÑĢ ÑĥÑĪ
ĠÐ¾ ÑģÑĤÑĬÑĢ
Ñħ ÐºÐ°
ĠÐ¿ÑĢÐ° ÑģÐºÐ¾
ĠÑĤÐµÐ½Ð´Ð¶ ÐµÑĢÐºÐ°
ĠÐ¼ Ð¼
ĠÐ» ÐµÐ´
ĠÑĪÐ¾ÐºÐ¾Ð»Ð° Ð´Ð°
ĠÐĿÐ°Ð¼Ð° Ð·Ð²Ð°
ĠÐ²Ðµ Ð³ÐµÑĤÐ°
Ñģ Ð¿Ð¸
ĠÐ¿Ð°Ð»Ð°ÑĩÐ¸Ð½ ÐºÐ¸
ĠÐ¼Ð¸Ðº ÑĢÐ¾Ð²ÑĬÐ»
1 80
Ð²Ð° Ð½Ð¸
ĠÐĶ Ð¾Ð»Ð¸Ð²Ð°
ĠÐ½Ñı Ð¼Ð°
ĠÐĴ ÑģÑıÐºÐ°
ĠÐºÑĥ Ñģ
ĠÐ²Ð¸ Ð´
ĠÐľ Ð°ÑģÐ»Ð¾ÑĤÐ¾
ĠÐ½Ð¸ÑĪÐµÑģÑĤÐµ ÑĤÐ¾
ĠÐ³ÑĢÐ¸ Ð»
ĠÐ²Ð¸ ÑģÐ¾
ĠÑģÑĤÐ° ÑĢ
ĠÐ¾ÑĤÑĨÐµÐ´ ÑıÑĤ
Ð» ÑģÐ°
ĠÐ´Ð¾Ð±Ð°Ð²Ñı ÑĤÐµ
ĠÐŁÐ¾ÐºÑĢÐ¸ Ð²Ð°
Ðĳ ÑĢÐ°ÑĪÐ½Ð¾ÑĤÐ¾
ĠÑĢÑĬ ÐºÐ°
ĠÐ¸Ð· Ð¿Ð¸ÑĩÐ°
ĠÐĺÐ· Ð¿ÑĬÑĢÐ¶
ĠÐ¼Ð°ÑĢ ÑĥÐ»
ĠÑĤÐ¾ÑĢ ÑĤÐ°
ĠÐºÐ¾Ð¿ÑĢÐ¸ Ð²Ð°
Ð¾Ð» Ð°
ÑĪÐ° Ð¼Ðµ
ÐŁÐ¸Ð»Ðµ ÑĤÐ¾
ĠÐ·Ð° Ð¿Ð°
ĠÐŀ Ð±ÐµÐ»
ĠÐ³Ð¾ÑĢÐµ ÑīÐ¾
ĠÐłÐ°Ð·Ð±ÑĬÑĢÐºÐ²Ð° Ð¼Ðµ
ĠÐ½Ð°Ð± ÑĬÐ±
ĠÑĢÐ°Ð·ÑĤ Ð²Ð¾
ĠÑĢÐ°ÑģÑĤÐ¸ÑĤÐµÐ»Ð½Ð¾ ÑĤÐ¾
ĠÑĢÐ°Ð·Ð¿ÑĢÐµÐ´ÐµÐ» ÑıÑĤ
ÑĢÐ¾Ð²Ð¸ Ð½
ĠÑĢÐ¾Ð·Ð¸ ÑĩÐºÐ¸
ĠÐ·Ð° Ð¿
ÑĥÐ¿Ð° ÑĤÐ°
ĠÐºÐ¾Ð½Ñı Ðº
ĠÑĪÐ¸ ÑĢÐ¾
ĠÐ¸Ð· Ð²ÑĢÐ¸
ĠÑĢÐ°Ð·Ð±Ð¸ ÑĤÐ¸
ĠÐ³Ð¾Ð»ÐµÐ¼Ð¸ Ð½Ð°
ĠÑģÐ³Ð¾ÑĢÐµÑī ÐµÐ½Ð°
ĠÑģÐ¼Ð¸ Ð»Ð°
ĠÐ°ÑĢÐ¾ Ð¼Ð°ÑĤ
ÑĢÐ°Ð· Ñĥ
ĠÐŁÐ¾Ð´ ÑĢÐµÐ¶Ð´Ð°ÑĤ
ĠÑģ ÑĤÐ¾
ĠÐ·Ð°Ð¿ÑĬÑĢÐ¶ Ð¸
ĠÐºÐ¸Ð¿ Ð½Ðµ
ĠÐ¿ÑĢÐ°Ð²Ð¾ÑĬÐ³ÑĬÐ» Ð½Ð¸
ĠÐŁÐ¾ÑģÑĤÐ°Ð²Ñı ÑĤ
ĠÐĴ ÑĤ
ÑĢÐµÐ½Ðµ ÑĤÐ¾
Ð¿ÐµÑĩ ÐµÐ½Ð¸
Ð²Ð¾ ÐºÐ°
ĠÐ¿Ñĥ ÑħÐºÐ°
ÑĢÑıÐ· Ð°Ð½Ð¸ÑĤÐµ
ĠÑĢÐµÐ· ÐµÐ½Ð¸
ÑĢÐ¾Ð´ ÑĥÐº
ĠÐ¿Ð¾Ð´ ÑĢÐµÐ¶Ð´Ð°
ĠÐ¿ÑĢÐµ ÑĤÑĢÐ¸
ĠÑħ ÑĢÑĥ
ĠÐ¿ÑĢÐ¸Ð³Ð¾ÑĤÐ² ÐµÐ½Ð°ÑĤÐ°
ĠÐ½Ð°Ð¼Ð°Ñĩ ÐºÐ²Ð°
ÑĬÑĢÐ¶ ÐµÑĤÐµ
ĠÐ¿Ð¾Ð´ Ð½Ð°ÑģÑıÑĤ
ĠÐ¸Ð·ÑģÑĤÐ¸ Ð½Ð°
ĠÐ±Ð»Ð° Ð½ÑĪÐ¸
ÐŁÐ°ÑĤÐ»Ð°Ð´Ð¶ Ð°Ð½Ð¸ÑĤÐµ
ĠÐ¸Ð·ÑģÐ¸Ð¿ ÐµÑĤÐµ
ĠÐ¾Ð± ÑĢÐ°Ð·Ñĥ
ĠÐ½Ð°Ñħ ÑĥÑĤ
ĠÐ·Ð°Ð´ÑĥÑĪ Ð¸
ĠÐ¾Ð²Ð°Ð» Ð²Ð°
ĠÑĦÐ¾ÑĢÐ¼Ð¸ ÑĩÐºÐ¸
ĠÐ³ ÐµÐ²
Ð¿Ð¾ ÑĩÐ¸
Ð» ÑıÐºÐ¾
ÑĨÐµ Ð´
ĠÐ¾Ð²Ð°Ð» Ð²Ð°Ð½Ðµ
ĠÐ¿ÑĬÑĢÐ¶Ð¾Ð»Ð¸ ÑĤÐµ
ÑĤ Ð½Ð¸
Ð¿ Ð²Ð°
ĠÐ¼Ð° Ð¶Ðµ
ĠÐłÐ°Ð· Ð´ÐµÐ»Ñı
ĠÐ¾ÑĤÐ´ÐµÐ» ÑıÑĤ
ĠÐºÐµÑĤ ÑĩÑĥÐ¿
Ñģ Ð¼
Ñĩ Ð²Ð°ÑĤ
ĠÐ´Ð°ÑĦÐ¸Ð½Ð¾ Ð²Ð¸
ĠÐ¿ÑĥÑģÐºÐ° ÑĤ
ĠÐºÐ¾Ð¶Ð° ÑĤÐ°
Ñĩ Ð½Ð°ÑĤÐ°
Ġ3 00
ÐµÑĤ ÐºÐ°
ĠÐºÐ¾ÐºÐ¾ ÑģÐ¾
ĠÐĹÐ°Ð´ÑĥÑĪÐ° Ð²Ð°
ĠÐ°Ð»ÑĥÐ¼Ð¸Ð½Ð¸Ðµ Ð²Ð¾
Ð» ÑıÑĤ
ÑĬÑĢ Ð½Ðµ
ÑĢÑıÐ· Ð°
ÑģÑĤÐ° ÑĤÐ°
ĠÐ¡ÐµÑĢÐ²Ð¸ÑĢÐ° ÑĤ
ĠÐŁÑĬÑĢÐ¶ Ð¸
ÑĤÐµ Ð³
ÑĩÐµ ÑĤÐµ
ĠÐ¸Ð· Ð»Ð¸
ĠÐ¼ÐµÑģ Ð¸
Ðĵ ÑĬÐ±Ð¸ÑĤÐµ
ĠÑĥÐ´ Ð²Ð¾
ĠÑĢÐ°Ð· ÑĢÐµ
ÑĩÐ° ÐºÐ²Ð°
ĠÐ±Ð¸ ÑĪÐºÐ¾
ÑĢÐ¾Ð´ÑĥÐº ÑĤÐ¸ÑĤÐµ
ĠÑĤÐ¾ Ð½
ĠÐ¼Ð°Ð³Ð´Ð°Ð½Ð¾Ð· ÑĬÑĤ
ÐĿÐ° ÑĢÑıÐ·Ð²Ð°Ð¼Ðµ
ĠÐĹÐ°Ð¿ÑĬÑĢÐ¶ Ð²Ð°
ĠÐŁÐ¾Ð»Ñĥ Ñĩ
ĠÐºÐ²Ð°Ð´ ÑĢÐ°ÑĤ
Ð´ Ð¾Ð»Ñĥ
ĠÑĢÐ°Ð·Ð±ÑĬÑĢÐºÐ²Ð° ÑĤÐµ
ĠÐ±Ð¾ ÑĢÐ¾Ð²Ð¸Ð½
ĠÑģÐµ ÐºÑĥ
ĠÐ´ ÑĥÐ¿
ĠÐĿÐ° ÑĢÑıÐ·Ð²Ð°ÑĤ
ĠÐ²Ð°Ð½Ð¸ Ð»Ð¾
ĠÐ½Ð°ÑĢÑĬÑģ Ð²Ð°ÑĤ
ĠÐ½Ñĥ Ð¶Ð´Ð°
ĠÑĢÐ°Ð· Ð¼ÐµÑĢ
ĠÐ²ÑĢÑı Ð»Ð°
Ð³ ÑĢÐµÐ¹ÑĤÐµ
ÑĪ Ðµ
ĠÐºÐ¾Ð½Ñģ Ñĥ
Ð³Ð¾Ð» ÐµÐ¼Ð¸
ĠÐŁÑĢÐ° Ð²Ð¸
ĠÐ·Ð°Ð»Ð¸ Ð²Ð°Ð¼Ðµ
ĠÐ¾Ñħ Ð»Ð°Ð¶Ð´Ð°
ĠÐ·Ð° Ð»ÐµÐ¿
ĠÐ¡ Ð²Ð°Ð»Ñı
ĠÐ¾ÑģÑĤÐ°Ð½Ð° ÑĤ
ĠÐ¿Ð¾ÑĩÐ¸ÑģÑĤ ÐµÐ½Ð¸ÑĤÐµ
ĠÐ¾ÑĤÑģÑĤ ÑĢÐ°Ð½Ð¸
ĠÐĽ ÑĥÐºÐ°
ÑĢÐ° Ð¼Ðµ
ĠÐºÐ°ÑĪÐºÐ°Ð²Ð°Ð» ÑĬÑĤ
ĠÐºÐ¾ÑģÑĤÐ¸Ð» ÐºÐ¸
Ð³ÑĢÑı Ð²Ð°
ĠÐ¼ÑĬ ÑĦÐ¸
ĠÐ³Ð¾ÑĤÐ² ÐµÐ½Ðµ
ĠÐ½Ð°ÑģÑĤÑĬÑĢÐ³Ð° Ð½Ð¸ÑıÑĤ
ĠÐ´ÑĢÐµÐ± Ð¾Ð»Ð¸
Ð±Ðµ Ð»ÐµÑĤÐµ
ĠÑģÐ°Ð»Ð°ÑĤÐ° ÑĤÐ°
ĠÑĤ ÑĬÐ¼
ĠÐ¿Ð°ÑĢÑĩÐµÐ½ ÑĨÐµ
ĠÑĪÐ¾ÐºÐ¾Ð»Ð°Ð´ Ð¾Ð²Ð¸
ĠÐ¾ÑĤÐ´ÐµÐ» Ð½Ð¾
ĠÐ°Ð½Ð° Ð½Ð°Ñģ
ÑĬ Ð¶
Ġ2 4
ĠÑĢÐ°Ð·Ð±Ð¸ Ð²Ð°Ð¼Ðµ
ÑĬÐ³ÑĬÐ» Ð½Ð¸
ĠÐ±Ð»Ð° ÑĤÐ¾
Ð»ÑıÐºÐ¾ ÑĤÐ¾
Ð»Ð° Ð½Ð°
ĠÐºÐ°ÑĦ Ñı
Ġ 400
Ð¿Ð° Ð½Ð°Ðº
Ð¼Ð¾ ÑģÑĤ
ĠÐŁÑĢÐ¸ Ð³Ð¾ÑĤÐ²Ñı
Ð¿ÑĬÐ» Ð½Ð¸
ĠÐ±Ð¸ÑģÐºÐ²Ð¸ ÑĤÐ¸ÑĤÐµ
ĠÐ¾Ð¿Ð° ÐºÐ¾Ð²
ÑĢÐ¸ Ñı
ĠÐ¿Ð¾ Ð±ÐµÐ»
ĠÐ±Ð° Ð²ÐµÐ½
ĠÐĵÐ¾ÑĤÐ¾ Ð²Ð¸ÑĤÐµ
Ð´ ÑĬÑĤ
Ġ ÑĢÑı
ĠÐ³ Ð»Ð¸
ĠÐ±ÑĥÐ» Ð³ÑĥÑĢ
ĠÐĳ ÐµÐ»ÑĤÑĬÑĨÐ¸ÑĤÐµ
ĠÑĨÐ²ÐµÐº Ð»Ð¾
ĠÑħÑĢÑĥ Ð¿ÐºÐ°
Ð² ÐµÐ½Ð¸
ĠÐ½Ð°Ð¼Ð° ÑĩÐºÐ°
ĠÑģÐ¿Ð°Ð³Ðµ ÑĤÐ¸ÑĤÐµ
ĠÐ¿ÑĢÐ°Ð²Ð¾ÑĬÐ³ÑĬÐ» Ð½Ð°
ĠÐ¿Ð¾ ÑħÐ»ÑĥÐ¿Ð²Ð°
Ðŀ Ð±ÐµÐ»
ĠÐºÐ¾ Ð½Ðµ
ĠÐ´ÑĬÐ» Ð³Ð¸
ĠÐ¿Ð¾Ð»ÑĥÑĩÐ°Ð²Ð°Ð½Ðµ ÑĤÐ¾
Ð½ ÑıÐ²Ð°
ĠÑģ Ð¼Ð°
ĠÐ·Ð° ÑħÐ»ÑĥÐ¿Ð²Ð°
Ð¼Ðµ ÑĤÐµ
ĠÑĤÐ¾ Ð·Ð¸
ĠÐļ ÑĢÐµ
ĠÐ¿Ð¾Ð»Ñĥ Ð³Ð¾ÑĤÐ¾
ĠÑĢÐ°Ð² Ð½Ð¸
ĠÐ¡ ÑĥÐ¿Ð°ÑĤÐ°
ĠÑĤÐµ ÑĩÐµÐ½
ĠÐ³Ð¾ Ð²ÐµÐ¶
ĠÐ²Ð¸ Ð´Ð°
ĠÐºÐ¾ÑģÑĤÐ¸Ð» ÐºÐ¸ÑĤÐµ
ĠÐºÐ°ÑĢÐ°Ð¼Ðµ Ð»Ð¸Ð·Ð¸
ĠÐłÐ°Ð·Ð±ÑĬÑĢ ÐºÐ²Ð°ÑĤ
ĠÐ½Ð°ÑĤÑĢÐ¾ÑĪÐ° Ð²Ð°
ĠÐºÐ¾Ð¼Ð¿Ð¾ ÑĤ
Ð¾Ð»Ð¸ ÑĤÐµ
ÑĮ Ð¾ÑĢ
ĠÑĢÐµÐ´ Ñĥ
ĠÐ¾ÑĤÐ´ÐµÐ» ÐµÐ½
ĠÐ¼Ð°Ð» ÑĬÐº
ĠÑĩÑĥÑĪ Ð»ÐµÑĤÐ°
ĠÐ¶ ÑĬÐ»
ĠÑģ ÑĤÐ¾Ð¿
ĠÐ¿ÑĬÐ» Ð½Ðµ
ĠÐ¿ÑĢÐ°Ð· Ð°
ĠÐ´ÑĢÑĥÐ³ Ð¸ÑĤÐµ
ÐŁÐ¸Ð»Ðµ ÑĪÐºÐ¾ÑĤÐ¾
ĠÐ·Ð°Ð¿ ÑĢÑĬÐ¶
Ð²Ð° ÑĢÐµÑĤÐµ
ĠÐ·Ð° Ð²Ð¸ÑĢÐ°
ÑĩÐ¸ ÑĨÐ°
ĠÐ° Ð·
ĠÐ»Ð° Ð¿Ð°Ð´
ÐµÐ»Ðµ ÑĤÐ¾
ĠÑĩÐ¸Ð½Ð¸ Ð¸
ĠÐ¿Ð¾Ð±ÐµÐ» ÑıÐ²Ð°Ð½Ðµ
Ð½ ÑĬÐ¶
Ñĩ Ð¾
ÐºÐ¸ Ð¼Ð¸Ð¾Ð½
ÐŁ ÑĢÐ¸
Ð±Ð¾ ÑĤ
ĠÐ¸Ð·Ð¿ Ð»Ð°
ĠÐ´Ð¾ÑģÑĤÐ° ÑĤÑĬ
ĠÐ¿Ð°ÑģÐ° ÑĤÐ¾ÑĢ
ĠÑģÐµÐºÑĥ Ð½Ð´Ð¸
Ð´ ÑıÑĤ
Ð· Ð°Ð½Ð¸
ĠÐ³Ð¾ÑĤÐ¾ Ð²Ð°ÑĤÐ°
Ð¡ Ð²Ð°ÑĢÑı
ĠÑģÐµÐ¼Ðµ ÑĤÐ¾
ĠÐ·Ð° Ð²
ĠÐ¿ÑĬÐ» Ð½Ð°
Ð»Ð°ÑĤÐ° ÑĤÐ°
ĠÑģÐ»Ð¾ Ð¹
Ð²Ð¸ Ð·
ĠÑĪ Ð½Ð¸
ĠÐ¿Ð°ÑĢÑĩÐµÑĤÐ° ÑĤÐ°
ĠÐ½Ð°ÐºÑĬÑģ Ð²Ð°
Ð» ÐºÐ¸
Ð² ÐºÐ¸ÑĤÐµ
ĠÐ³ ÑĬÑģÑĤ
ĠÑı ÑģÑĤÐ¸Ðµ
ÑĥÐ¿ Ð¾ÑĢ
ĠÑħÐ»Ñı Ð±Ð°
ĠÐ¸Ð·ÑĩÐ¸ÑģÑĤ Ð²Ð°ÑĤ
ĠÑģÑĬ ÑīÐ¸Ñı
ĠÐ¿Ð¾ÑģÑĤÐ°Ð²Ñı Ð¼Ðµ
âĢ Ķ
ĠÐ¿Ð°Ð½Ð¸ ÑĢÐ¾
Ð Ĳ
Ð¾ Ð²Ðµ
ĠÐ±Ñı Ð»Ð¾ÑĤÐ¾
ĠÐºÐ¾Ð½ ÑĦÐ¸
ĠÑĨÑı Ð»Ð°ÑĤÐ°
Ð² ÐµÐ½Ð¾
ĠÐ±Ñı Ð»Ð°
ĠÐ±ÐµÐ»ÑĤÑĬ ÐºÐ°
ĠÑģÑĬÑĢ ÑĨÐµ
ĠÐŁ Ð¾Ð»
ĠÐľÐ° Ð»ÐºÐ¾
ĠÐ£ÐºÑĢÐ° ÑģÑıÐ²Ð°
ĠÐºÐ°Ð¹ÑģÐ¸ Ð¸
ĠÑĦ ÑĬÑģÑĤ
ĠÐĴ ÑĢÐ¸
ĠÑģÐ° Ð»
ĠÐ¼Ð¾ ÑĨÐ°ÑĢÐµÐ»Ð°
ĠÑģÐ²Ð°ÑĢÑı ÑĤ
ĠÐĲ Ð·
Ð¼ Ð±Ð¸
ĠÐ´ ÐµÐºÐ¾
ĠÐŁÐ¾ÑĢÑĬÑģ ÐµÑĤÐµ
ĠÑĤÐµÑĩ Ð½Ð¾ÑģÑĤ
Ð·Ñĥ ÑĢÐ°ÑĤÐ°
Ð¼Ð° Ð»Ð°Ð´
ÑĢÑĬ ÑīÐ°
Ð¿Ð¸ ÑĢÐ°
ĠÑģÐ¾Ðº ÑĬÑĤ
ĠÐ¼Ð¾ Ð³Ð°ÑĤ
ĠÐºÑĥÐ¿Ð° ÑĤÐ°
ĠÐ±ÑĬÑĢÐºÐ° Ð¼Ðµ
ĠÐ´ÑĬÑĢÐ¶ Ð¸
ĠÐ³ÐµÐ² Ð³Ð¸
ĠÐ´ ÑĢÐµÑģ
Ð´Ð° ÑĦÐ¸
ĠÑĢÐ°Ð·Ð±ÑĬÑĢÐºÐ²Ð° Ð½Ðµ
ĠÑĤÑĢÐ¸ ÑĬÐ³ÑĬÐ»Ð½Ð¸
ĠÐ»Ð¸Ðº ÑĮÐ¾ÑĢ
ÑĬÑĢ Ð²Ð¾
ĠÐ¡ Ð¸Ð¿Ð²Ð°
ĠÐºÑĢÐ° Ð²Ðµ
ĠÐ¿Ð¾ÑĢ ÑĨÐ¸Ñı
ĠÐ¾ÑĤÑģÑĤ ÑĢÐ°
ÐľÐ° ÑıÑĤÐ°
ÐºÐ° Ð½Ðµ
ĠÐ±Ð¾ Ð±Ð°
ĠÐ¾Ð±ÐµÐ·ÐºÐ¾ÑģÑĤ ÑıÐ²Ð°
Ð´Ð°ÑĦÐ¸ Ð½Ð¾Ð²
ĠÐ½Ð° Ð²
Ð¾Ð´Ð° ÑĤÐ°
ĠÑģÑĢÐµÐ´ Ð½Ð°
ĠÐ¸Ð·ÑĨÐµ Ð¶Ð´Ð°
ĠÐ²Ð°ÑĢ ÐµÐ½ÐµÑĤÐ¾
ĠÐ¼Ð°ÐºÐ°ÑĢÐ¾ Ð½Ð¸ÑĤÐµ
ĠÐ·Ð°ÑģÑĤ ÑĢÐ¾Ð¹
ÑĤÐ° Ð½Ð°ÑĤÐ°
ĠÐ¿Ð¾ ÑģÑĤÐ°Ð²ÐµÑĤÐµ
ÑħÐ» Ñİ
ĠÑħÐ»Ð°Ð´ Ð½Ð¾
ĠÐĹÐ°Ð´ÑĥÑĪÐ° Ð²Ð°ÑĤ
ĠÐ¿Ð¾Ð´ÑģÑĥÑĪÐ° Ð²Ð°ÑĤ
ĠÐ¾ÑĤÐ² ÑĬÑĤÑĢÐµ
ĠÐ¼ÐµÐ½ ÑĤÐ°
ĠÐº ÑĢÑĥÑĪ
ĠÑĥ Ð·
ĠÐ±ÑĥÐ»ÑĮÐ¾Ð½ ÑĬÑĤ
ĠÐ´Ð°ÑĦÐ¸Ð½Ð¾ Ð²Ð¸Ñı
ĠÐ±ÑĬ Ð´Ðµ
ĠÐ¼ÑĬÑĦÐ¸ Ð½Ð¸
ĠÐºÐ¾Ð½Ðµ ÑĨ
Ð¼Ð° ÑīÐµÑĢÐºÐ°
ĠÐ¿ÑĢÐ¸ Ð±Ð°
ĠÑģÐµÑĢÐ²Ð¸ÑĢÐ° ÑĤ
ĠÑĤÐ²ÑĬÑĢ Ð´
Ð¿ÑĢÐ¸ ÑĨ
ĠÐ½Ð°ÑģÑĤ ÑĢÐ°Ð½Ð¸
ĠÐ³ÐµÐ²Ð³Ð¸ ÑĢ
ÑĤ ÐµÐ½Ð°
ĠÐ³ Ð°Ð·Ð¸
ĠÐ¿Ð¾Ð» Ðµ
ĠÐ»Ñİ ÑģÐ¿Ð¸
ĠÐ³ÑĢÐ°Ñħ ÑĬÑĤ
ĠÑĪÐµ Ð¿Ð°
ĠÐ¿ÑĢÐµÐ´ Ð¿Ð¾ÑĩÐ¸
Ñģ ÑĥÑĪ
ĠÐ·Ð°Ð´ÑĥÑĪÐ° Ð²Ð°Ð¼Ðµ
ĠÑĥ ÐºÐ°
ĠÐłÐ°Ð·Ð±Ð¸ Ð²Ð°ÑĤ
ĠÐ¾ ÑĦÐ¾ÑĢ
ĠÐ² ÐºÐ»Ñİ
ĠÐºÐ¸ÑģÐµ Ð»Ð¸Ð½Ð°
ĠÐ¾Ð³ Ð½Ðµ
ĠÑģÑĥÑħ Ð¸ÑĤÐµ
ĠÐ¾ÑĤÑĨÐµ Ð´Ð¸
ĠÐ¿Ð»Ð¾Ð´Ð¾ Ð²ÐµÑĤÐµ
Ð¾ Ð²Ð¾
ĠÐ¼ Ð¾ÑĢ
ĠÐµÐ´ Ð½Ð°Ðº
ĠÐĿÐ° ÑĢÑıÐ·Ð²Ð°Ð¼Ðµ
ĠÐ±Ð° Ð´Ðµ
ĠÐĶÐ¾ ÐºÐ°ÑĤÐ¾
ĠÑĢ ÑĥÐ»
ĠÐ¿ÑĬÑĢÐ¶ÐµÐ½Ðµ ÑĤÐ¾
ĠÑģÐµÐ¼ ÐºÐ¸
ĠÐ¾Ð²ÐµÑģ ÐµÐ½Ð¸
ĠÑĪÑĥÐ¿ Ð½Ðµ
Ð²Ð°Ð½Ð¸ Ð»Ð¸Ñı
ĠÐ¼Ð°ÑĢÑĥÐ» Ñı
ĠÐ¾Ð³Ð½Ðµ ÑĥÐ¿Ð¾ÑĢ
ĠÐ¾ÑĤ Ð»Ðµ
ĠÐµ Ð´Ð¸
ĠÐ±Ð° Ð»ÑģÐ°
ĠÐĹÐ° Ð¼ÐµÑģÐ²Ð°
ĠÐ½Ð°ÑĢÐµÐ¶Ð´Ð° Ð¼Ðµ
ĠÐ¿Ð¾Ð´ÑģÑĥÑĪÐ° Ð²Ð°
ĠÐ¿ÑĢÐµÐ´Ð¿Ð¾ÑĩÐ¸ ÑĤÐ°
ĠÑģ Ð»ÑĬÐ½
ĠÐŀÑĤ ÑĨÐµÐ¶Ð´Ð°ÑĤ
ĠÐł Ðµ
ĠÐ²ÑĬÑĤÑĢÐµÑĪ Ð½Ð¾ÑģÑĤÑĤÐ°
ĠÐ·Ð°Ð²Ð¸ÑģÐ¸ Ð¼Ð¾ÑģÑĤ
ĠÐ¾Ð¿Ð°ÐºÐ¾Ð² ÐºÐ°ÑĤÐ°
ÑģÑĤ ÐµÐ½
ÑĨÐµ Ð¿
ĠÐ¿ÑİÑĢÐµ ÑĤÐ¾
Ð¿ ÑĢÑĬÑģ
Ð³Ð° Ð½Ðµ
ÑĤÐ½Ð¾ Ð²Ð¾
ĠÐ¿Ð¸Ð»Ðµ ÑĪÐºÐ¸ÑĤÐµ
ĠÐ¸Ð·Ð¼Ð¸ ÑĤ
Ð±Ð¾ ÑģÐ¸Ð»ÐµÐº
Ñĥ ÑĢÐ°ÑĤÐ°
Ð¡Ð¸ ÑĤÐ½Ð¾
ĠÐ¿Ð¾Ð·Ð° Ð¿ÑĬÑĢÐ¶
ĠÐ½Ð°Ð±ÑĬÐ± Ð½Ðµ
Ð Ĺ
Ñģ Ð²Ð°
ÑĤ Ð²ÑĬÑĢ
Ð±Ð¸ Ðµ
ĠÐºÐ¾ÑĤ Ð»Ðµ
ĠÐ·ÐµÐ»Ðµ Ð²
ĠÐ¼Ð¾ÑĢÐºÐ¾Ð² ÑĬÑĤ
ĠÑģÑĥÑĢÐ¾ Ð²Ð¸
ĠÐ¡Ð° Ð»Ð°ÑĤÐ°ÑĤÐ°
ĠÑģÐ¸ Ð½
ĠÐ¿ÑĢÐ¸ÑĤÐ¸ÑģÐºÐ° ÑĤ
Ðµ Ð»Ð¸
ĠÐ¡ Ð²Ð°ÑĢ
ĠÐ³Ð»Ð° Ð·ÑĥÑĢÐ°ÑĤÐ°
ĠÐ° Ð²Ð¾ÐºÐ°
ĠÐļÐ° Ð¹Ð¼Ð°ÑĤÐ°
Ð»ÐºÐ¾ Ð²Ð°
ĠÐ·Ð°Ð²Ð¸ Ð²Ð°ÑĤ
ĠÐ ¥
ĠÐ² Ð¸Ð½
Ð¹ ÐºÐ¸ÑĤÐµ
ĠÐ¼Ð» Ñı
ĠÐ¾Ð± ÑĢÐ°
ĠÐ¢ ÑĢÑıÐ±Ð²Ð°
ĠÐ¿ÑĥÑĪ ÐµÐ½Ð¸
ĠÑģÐ¸Ð¿ Ð²Ð°ÑĤ
ĠÐ¹ÐµÐ½ ÑģÐºÐ°
ÐµÑģ ÑĬÐ½
ĠÐ¼Ð°Ñģ Ð°
ĠÑĨ Ð¸Ð¿
ĠÑĢÐ°Ð·Ð¼Ð¸ ÑĤÐ¾
ĠÑĢÐ°Ð·Ð±Ð¸ Ð¹ÑĤÐµ
ĠÐ± Ð¾Ð½
ĠÑĢÐ°Ð· Ð»Ð¸
ĠÑĤÐ¾ Ð»ÐºÐ¾Ð²Ð°
ĠÐ´Ð¾ÑģÑĤÐ°ÑĤÑĬ ÑĩÐ½Ð¾
Ġ1 70
ĠÐŁÐ¾ ÑģÑĤÐµ
ĠÐ³Ð¾Ð»ÐµÐ¼Ð¸ Ð½Ð°ÑĤÐ°
ĠÐ½Ð°ÑĤ ÑĢÐ¸
ĠÐ²Ð½Ð¸Ð¼Ð° Ð²Ð°
Ñģ ÐµÑĤÐµ
Ñģ Ð»Ð°Ð´
ĠÐ½Ð° Ð³Ð¾ÑĢÐµ
ĠÐ´Ð¾ Ð¿Ð¸ÑĩÐ°
Ð¸Ð½ Ð´Ð¸
ĠÑĪ Ð¿ÑĢÐ¸ÑĨ
Ð±Ð¾ Ð¶Ð´Ð°
ÑĮÐ¾ Ð¼
ĠÐ¸Ð·Ð´ÑĬÐ»Ð±Ð° Ð²Ð°ÑĤ
Ð¿Ð°Ð½Ð°Ðº ÑĬÑĤ
ÑĩÐ¾ Ð³
ĠÐ½Ð° ÑĩÑĥÐ¿
ÑĢÑı ÑģÐ½Ð¾
ĠÑĦ ÑĢÐ¸
ĠÐĴ ÑģÑıÐºÐ¾
ĠÑģÑĩÑĥÐºÐ° Ð½Ð¸ÑĤÐµ
ĠÐ·Ð°ÑģÑĤ Ð»Ð°Ð½Ð°
ĠÑģÐ»Ð°Ð´ÐºÐ° ÑĢ
ĠÐ¿Ð¸Ð¿ ÐµÑĢÐ°
ÑĢÐ¾ Ð·
ÑĩÐ¸ ÑģÑĤÐµÑĤÐµ
ĠÑĤÐ¸Ðº Ð²Ð¸ÑĩÐºÐ°ÑĤÐ°
ĠÐ±ÑĥÑĢÐºÐ° Ð½Ð¸
ĠÑĤÐ¸ÐºÐ²Ð° ÑĤÐ°
ĠÐŁÐ¾Ð»Ñĥ ÑĩÐµÐ½Ð°ÑĤÐ°
ĠÐ¿Ð¾Ð¸Ð·ÑģÑĤÐ¸ Ð½Ðµ
ÐµÑģÑĬÐ½ ÑĬÑĤ
Ð¸ ÑģÐµ
ĠÐ» ÐµÐ½
Ð»Ð¾ Ð´Ð¾
ĠÐŀ ÑĤÐ½Ð¾Ð²Ð¾
ĠÐ»Ð¸Ð¼Ð¾Ð½Ð¾ Ð²Ð¸ÑıÑĤ
Ð½Ð¸ Ð¼
ÑĩÐ° Ð²Ð°
ĠÐ»Ð¸ÑģÑĤ ÐµÐ½
ĠÐ·Ð° Ð²ÑĬÑĢ
Ð±Ð¸ ÑĢÐ°
Ð³Ð¾ ÑĢÐ¸
ĠÐºÑĢÐ°ÑģÑĤÐ° Ð²Ð¸ÑĩÐºÐ¸ÑĤÐµ
ĠÐ¿Ð°ÑĤÐ»Ð°Ð´Ð¶ Ð°Ð½Ð°
Ð´Ðµ Ð»ÐµÑĤÐµ
ĠÐĺÐ·ÑģÐ¸Ð¿ ÐµÑĤÐµ
ĠÐ»ÐµÑĪÐ½Ð¸ ÑĨÐ¸
ĠÐ±Ð¸ÑĪÐºÐ¾ ÑĤÐ¸
Ð¼Ð° ÑĢ
ÑĪÐºÐ° ÑĤÐ°
ĠÐ¸Ð·ÑĩÐ¸ÑģÑĤ Ð²Ð°
Ðł Ð¸Ð±Ð°ÑĤÐ°
ĠÐŁÐ¾ÑģÑĤÐµ Ð¿ÐµÐ½Ð½Ð¾
ÑĮÐ¾Ð¼ Ð³Ð°
ÑĩÐ¾Ð³ Ð»ÐµÐ´
ÑĪ Ð¾
Ġ1 60
ĠÑģÐ»Ð°Ð³Ð° Ð¼
ĠÑĨÐµ Ð´ÐºÐ°
ĠÐ³Ð¾ÑĤ Ð²Ð¸
ĠÐºÑİÑĦÑĤÐµÐ½ ÑĨÐ°
ĠÑĢÐ°Ð·ÑĤÐ²Ð¾ ÑĢÐ¸
Ð´ ÐµÐ½
ĠÐ¾ ÑħÐ»Ñİ
ĠÐĹÐ°Ð¿ÑĬÑĢÐ¶ Ð²Ð°ÑĤ
ĠÐ±Ð°Ð½Ð° Ð½
Ð¼ÐµÐ½ ÑĤÐ°
ÑĢÐ¸ ÑĢÐ°
ĠÐ±Ð° Ð¼
Ð¾Ð²Ð¸ Ð½Ð°ÑĤÐ°
ĠÐ¸Ð·Ð¼Ð¸ ÑĤÐ¸ÑĤÐµ
ÐĺÐ·Ð¼Ð¸ Ð¹ÑĤÐµ
Ð¸Ð½Ð´Ð¸ Ð¹ÑģÐºÐ¾
ĠÐ²Ð° ÑĪ
ĠÐ³Ð¾ÑĢÐµ ÑīÐ¸
ĠÐ¿Ð¾ÑĤÐ°Ð¿ Ñı
ĠÑģÐ³ÑĬÑģÑĤ ÑıÐ²Ð°
ĠÑģÑĤÑĢÑĥ Ð¹ÐºÐ°
ĠÐ¿Ð¾ÑĢÐ¾Ð·Ð¾ Ð²ÑıÐ²Ð°Ð½Ðµ
ÐºÐ¸ ÑģÐµ
ĠÐ¿Ð¾ÑĢÑĬÑģ ÐµÐ½Ð¾
ĠÐ¾Ð²ÐºÑĥÑģ ÑıÐ²Ð°ÑĤ
ĠÐłÐ°Ð·Ð±Ð¸ Ð¹ÑĤÐµ
ĠÑĩÐµÑĤÐ²ÑĬÑĢ ÑĤÐ¸Ð½
ĠÐ½Ð°ÑĤ ÑĥÑĢÐ°
ĠÑĤÐ¾ÑĢ ÑĤÐµÐ½Ð°
ĠÐ¿ÑĢÐ°ÑģÐºÐ¾ Ð²Ð¸
Ġ 0
Ñģ ÐºÐ²Ð°
Ð³ ÑĢÐ°
ĠÐ·Ð°Ð´ÑĥÑĪ Ð°ÑĤ
ĠÑĢÐµ Ð´Ð¸
ĠÑĩÐµ ÑĤÐ¸
ĠÐ¸Ð·Ð¿ ÐµÑĩÐµ
Ð¤ ÑĥÑĢÐ½Ð°ÑĤÐ°
Ð³Ð¾Ð»Ñı Ð¼Ð°
Ð² ÐµÑģÐ¸
ÑĦÐ¸ Ð»Ð°
ĠÑĩÐ° Ð¹
ÐºÑĥ ÑģÐ°
ĠÐ½Ð°ÐºÐ¸Ñģ Ð²Ð°ÑĤ
ĠÐĵÐ¾ÑĤÐ¾ Ð²Ð¾ÑĤÐ¾
ÐºÐ°Ð½Ðµ Ð»Ð°
ĠÐ½Ð° Ð»Ñı
ĠÐ² ÐµÐ½ÑĤÐ¸
Ð¶ ÑĬÐ»
ĠÐºÑĢÑĬÐ³ Ð»Ð°
ĠÐºÐ¾ÑĢ ÐµÐ½Ð¸
ĠÑĥÐ´Ð²Ð¾ Ð¸
ĠÑģÑĬ Ñħ
ĠÐłÐ°Ð·Ð±Ð¸ Ð²Ð°
ĠÐºÑĥÑħÐ½ÐµÐ½ ÑģÐºÐ¸
ĠÑĦÑĬÑģÑĤ ÑĬ
ĠÐ²ÐµÐ½ÑĤÐ¸ Ð»Ð°
ĠÐ¼Ð¸ÐºÑĢÐ¾Ð²ÑĬÐ» Ð½Ð¾Ð²Ð°
ÑĪÐ°Ð¼Ðµ Ð»
Ġ âĢĵ
Ð¿ Ð»Ðµ
ĠÐ¾ÑĤ Ð²Ð¾
ĠÐŁ ÑĬÐ»
ĠÐ²ÑĢÑĬ Ñħ
ĠÐĵÐ¾ÑĤÐ¾ Ð²Ð°ÑĤÐ°
Ðµ ÑĤÐ°
Ð²Ð° Ð½
Ñĥ Ñģ
ĠÐ·Ð° ÑħÐ»ÑĥÐ¿
ĠÑģÐ¸ Ð½Ð¸
ĠÑģÐ¼Ðµ ÑģÐ¸
ĠÐ¿Ð¾ÑĢÑĬÑģ ÐµÐ½Ð¸
ĠÐ¿Ñĥ Ñģ
ĠÑĪÐ½Ð¸ ÑĨÐµ
ĠÐ½Ð° Ð³Ð¾ÑĢÐµÑī
ĠÑģÐ»Ð° Ð±Ð°
ĠÑĢ Ð¾Ð»
ÑĢÐ° Ð²
ÐµÑĢ ÐºÐ°ÑĤÐ°
ĠÑģÐ¼ÐµÑģ ÐµÑĤÐµ
Ġ3 5
ÑģÐ¾ Ðº
ĠÑģÑĤÐµÑĢÐ¸Ð»Ð¸Ð·Ð¸ ÑĢÐ°Ð½Ð¸
ĠÑĢÐ°Ð· Ð¿Ð¾Ð»
ĠÑģÐ¸ ÑĤÐ½Ð¸
ĠÑģÐ¼ÐµÑģ Ð²Ð°Ð¼Ðµ
ÑģÑĤÑĬÑĢ Ð³
ĠÑĪÐ¾ÐºÐ¾Ð»Ð° Ð´Ð¾
ÑģÐ¾ ÐºÑĬÑĤ
ÐŁÑĢÐ¸ Ð³Ð¾ÑĤÐ²Ñı
ĠÐ Ĺ
ĠÐºÐ°ÑĢÐ°Ð¼ÐµÐ»Ð¸Ð·Ð¸ ÑĢÐ°
ĠÐ´ Ð½Ð¸
ĠÐ¶ÐµÐ»Ð° Ð½Ð°ÑĤÐ°
ĠÐ±Ð¸ ÑĢÐ°ÑĤÐ°
ĠÐ±ÑĥÑĤ ÑĩÐµÑĤÐ°ÑĤÐ°
Ð½Ð° ÑĤÐ¸
Ð»Ð¾ Ð½Ð¾Ð²
ÑĢÐ°Ð· ÑĬÑĤ
ĠÑĤÐ¾ Ð³Ð°Ð²Ð°
ĠÐ¿Ð¾Ð´ Ð½Ðµ
ĠÑĢÐ° ÑĨÐ¸
ĠÐ³Ð¾ÑĢÐµ Ñī
Ð½ ÑĬÑĤ
Ñĩ Ð²Ð°Ð¼Ðµ
ÑĢÑĥ ÑĤÐ¾
ÐĹÐ° Ð¿ÑĬÑĢÐ¶
ĠÐºÑĢÐ°ÑģÑĤÐ° Ð²Ð¸ÑĩÐºÐ°
Ð²ÑĬÑĢÑĪ Ð²Ð°
ÑĤÐµÐ³ Ð»Ñı
ĠÑģ Ð»ÐµÐ¿
ĠÐľ Ð¾ÑĢÐºÐ¾Ð²Ð¸ÑĤÐµ
ĠÐ¿Ð¾ÑĩÐ¸ÑģÑĤ ÐµÐ½Ð¸
ĠÐ¼Ð°ÑĢ Ð¼Ð°Ð»Ð°Ð´
Ð¿ÐµÑĩÐµ ÑĤÐµ
ĠÐ¾Ð±ÑĬÑĢ ÐºÐ²Ð°ÑĤ
ĠÐ¾ÑĨÐ²ÐµÑĤ ÑıÐ²Ð°Ð½Ðµ
ĠÐ±Ð¾ÑĢÐ¾Ð²Ð¸Ð½ ÐºÐ¸
Ð ¨
ĠÐ ĹÐµÐ»ÐµÐ½ÑĩÑĥÑĨÐ¸ÑĤÐµ
Ð»Ð° Ð¶
ĠÐľ Ðµ
ĠÐºÑİÑĦÑĤÐµ ÑĤÐ°ÑĤÐ°
ĠÐ³ÑĬÑģÑĤÐ¾ ÑĤÐ°
ĠÑģÐ»ÑĬÐ½ ÑĩÐ¾Ð³Ð»ÐµÐ´
ĠÐ¿Ð¾ ÑģÐ¸Ð¿
ĠÑģÐ¸ ÑĤÐ¾
ĠÑĩÐµÑĢ Ð½Ð¸
ĠÐ¸Ð·Ð¼Ð¸ ÑĤÐ¸Ñı
ĠÐ¿Ð¾Ñģ Ð¾
ÑģÐ¾ ÐµÐ²
ĠÐ¿Ð¾ÑĩÐ¸ Ð½Ðµ
ĠÐ²ÑĤÐ¾ ÑĢÐ°ÑĤÐ°
ĠÐĸ ÑĬÐ»ÑĤÑĬÑĨÐ¸ÑĤÐµ
ĠÐ¿Ð¾Ð»ÑĥÐ³Ð¾ÑĤÐ¾ Ð²
ĠÑĩÐµÑĤÐ²ÑĬÑĢÑĤÐ¸Ð½ ÐºÐ¸
ĠÐ¾ Ð¼
Ð¼Ð¸ ÑĤÐµ
ĠÐŀ Ð²Ð°Ð»
ĠÐºÐ¸ÑģÐµ Ð»Ð¸ÑĤÐµ
ĠÐ¿Ð¸ ÐºÐ°Ð½
ĠÐºÐ¾ÑģÑĤÐ¸ ÑĤÐµ
ĠÐ½Ð°Ð»Ñı Ð³Ð°Ð½Ðµ
ĠÑģÐ²Ð° Ð»Ð¸
ĠÐ·Ð°Ð¼ÑĢÐ°Ð· ÐµÐ½Ð¸
Ð¿ÑĬÐ»Ð½Ð¸ ÑĤÐµÐ»Ð½Ð¾
ĠÐ¿Ð¾ Ð¿Ð¸
Ð±ÑĬÐ» ÐºÐ¸ÑĤÐµ
Ð·Ðµ Ð¼Ð°
ĠÐĴÐ° ÑĢÑıÑĤ
ĠÐ´ÑĢÐ¾Ð± ÑĩÐµÑĤÐ°ÑĤÐ°
ĠÐ¤ ÑĥÑĢÐ½Ð°ÑĤÐ°
Ð ĸ
ÑĢÐ° ÑģÑĤÐ°
ÐºÐ¾ ÑĢÐ°ÑĤÐ°
ĠÑıÐ¹ ÑĩÐµÐ½Ð°ÑĤÐ°
ĠÐ¿Ð¾Ð´Ð¿ÑĢÐ° Ð²ÑıÑĤ
ĠÑĢÐ°Ð·Ð¼Ð¸ Ð²Ð°
ÐłÐ°Ð·Ð±Ð¸ Ð²Ð°ÑĤ
ÐºÐµ Ð¼
ĠÐ¿ÑĢÐ¾Ð·ÑĢÐ° ÑĩÐµÐ½
ÑĤ ÐºÐ¸
Ð· Ð²Ð°Ð¼Ðµ
ĠÐ½Ð° Ð´Ñĥ
Ð²Ð¸ Ð½Ð°ÑĤÐ°
ÑħÐ°ÑĢ ÑĤÐ°
ĠÐ·Ð°Ð³ÑĢÑı ÑĤ
ÑģÐ¸Ð»Ðµ ÐºÐ°
ĠÐµÐ´Ð½Ð°Ðº Ð²Ð¸
ĠÐ± ÑĬÑĢ
ÑĪ ÐµÐ½Ð¸
ĠÐ¿Ð¾ ÑħÐ»
ĠÐ¼Ð° Ðº
ĠÐ¸Ð· ÑĩÐ°ÐºÐ²Ð°
ÑĨÐµ ÑĤÐ¾
ĠÑĤÐµ ÑĦ
ĠÐ²Ð°ÑĢ ÐµÐ½Ð¸
ĠÑĥÐºÐ° Ð·Ð°Ð½Ð¸
ĠÐ²ÐµÐ½ÑĤÐ¸Ð»Ð° ÑĤÐ¾ÑĢ
ĠÐ¿Ð¾ÑħÐ» ÑĥÐ¿Ð°
Ð¹ Ð¼
ĠÐ¿Ð¾Ð´Ð½Ð°ÑģÑı Ð½ÐµÑĤÐ¾
Ð¼Ð°Ñģ Ð»Ð¸Ð½Ð¸
ĠÐ½Ð°ÑģÑĤ ÑĢÐ°Ð½Ð°
ĠÐłÐ°Ð·ÑĤÐ¾ ÑĩÐ²Ð°
Ð²ÐµÑģÐ¸ Ð»
ÑĢÐ° ÑĤÐ¸
ĠÐ³ ÑĢÐ¾Ð·
ÑĢÑı Ð»
ĠÐ° ÑĢ
ĠÑĥ Ð½Ð¸
Ðļ Ð¾
ĠÐ²Ð°ÑĢÐ¸ Ð¼
ĠÐ±ÐµÐ» ÐµÐ½Ð¸
ĠÐ¾ÑĤÐ² ÑĬÐ½
ĠÑĪÐ°ÑĢ ÐµÐ½Ð°
ĠÑģÐºÐ°ÑĢÐ¸ Ð´Ð¸
ĠÐ¿Ð°Ð½Ð¸ÑĢÐ¾ Ð²ÐºÐ°ÑĤÐ°
Ñģ ÑĬ
Ð½ ÐµÐ½Ð¸
Ð¹ ÐºÐ°ÑĤÐ°
ĠÑģÐ¼ÐµÑģ ÐµÐ½Ð¾
ĠÐ¿Ð¾Ð»Ñĥ ÑĩÐ°ÑĤ
ĠÑĢÐµÐ· ÐµÐ½Ð°
ĠÐ³Ð»Ð¸ Ð½ÐµÐ½
1 60
Ð¶ ÐµÐ½Ð¸Ðµ
ĠÐ´Ð¾ Ð¾
ÑĥÐ» ÑĮ
ĠÐĵ Ð°ÑĢÐ½Ð¸
ĠÐ½Ð°Ð´ ÐµÐ½Ð¸
ĠÑģÐ¸Ð½ ÑĮÐ¾
ĠÑģÐ»Ð°Ð´ÐºÐ°ÑĢ ÑģÐºÐ°
Ð¸ ÑģÐºÐ²Ð¸
ĠÑĤ ÑĥÑĢ
ĠÐĳ Ðµ
ĠÐ¿ÑĬÐ» Ð½Ð¾
ĠÑĤÐ¾ÑĢ ÑĤÐ°ÑĤÐ°
ÑĤÐ°Ð¿ Ñı
ĠÐºÐ¸Ð¿ Ñı
ĠÐ¿Ð¾ÑħÐ»ÑĥÐ¿Ð° Ðº
Ñĩ ÐµÐ½Ð¸ÑĤÐµ
Ð²Ðµ Ð»Ð¸
ĠÐ·ÐµÐ» ÐµÐ½Ð¸Ñı
ĠÑĨÐµ Ð´
ĠÐ¿ÑĬÐ» Ð½Ð¾ÑĤÐ¾
Ðŀ ÑĢÐ¸Ð·ÑĬÑĤ
ĠÐ´ÑĬ Ð½Ð¾
ĠÐ¿ÑĥÑĪ ÐµÐ½Ð°
Ð½ Ð´
ĠÐ¿ ÑĬÐ½
ĠÐ½Ð° Ð²Ð¸Ð²Ð°ÑĤ
ĠÑĩÐµÑĢ Ð¸
ĠÐ±Ð¾ ÑģÐ¸Ð»ÐµÐºÐ°
ĠÑģÑĩÑĥÐºÐ° Ð½Ð¸ÑıÑĤ
ĠÐ»Ðµ ÑīÐ°ÑĤÐ°
Ġ 800
ĠÑģ ÑĮÐ¾Ð¼Ð³Ð°
ĠÑĢÐ°Ð· Ð´ÐµÐ»ÑıÑĤ
ĠÐŁ ÑĢÐ¾
ĠÐ·Ð°Ð»Ð¸ Ð²ÐºÐ°
ĠÐ¼Ðµ ÑģÑĤÐ°
ĠÐ·Ð°Ðµ Ðº
ÑĪ Ñĥ
ĠÐ¼Ð° Ð»Ð¸Ð½Ð¸
ĠÐ´Ð¾Ð¼Ð° ÐºÐ¸
ĠÑģÑĤÐµ Ð¿ÐµÐ½
ĠÐŀÑĦÐ¾ÑĢÐ¼ Ñı
Ð±Ñı Ð»
ÐºÐ¾ Ð²Ð¾
ĠÐ¡ Ð¼ÐµÑģÐµÑĤÐµ
ĠÐ¿Ð¾ÑĢÑĬÑģ Ð¸
ĠÑģÐºÐ¸Ð»Ð¸ Ð´ÐºÐ¸ÑĤÐµ
ĠÐ¿Ð»Ð¾ Ð´
ĠÐĿÐ°Ð¼Ð° Ð·Ð²Ð°ÑĤ
ĠÐ½Ñĥ Ð¶Ð½Ð¾
Ð³Ð¾ Ð²Ðµ
ĠÐ·Ð°ÑĤÐ¾Ð¿ Ð»Ñı
ĠÐ¿Ð¸ÑĤ ÐºÐ¸
ĠÐ¿Ð¾Ð»ÑĥÐ³Ð¾ÑĤÐ¾Ð² Ð½Ð¾ÑģÑĤ
ĠÐ·Ð° Ð»ÐµÐ¹ÑĤÐµ
ĠÐ¡ Ð¸Ð¿
ĠÑĩÐµÑģ ÑĤÐ¾
ĠÐ±Ð° Ð²Ð½Ð¾
Ð½Ñģ ÐºÐ¾
ĠÑĥ Ð²Ð¸Ð²Ð°
ĠÑĢÐµ Ð±
ĠÐ±ÐµÐ» ÑıÑĤ
ĠÐ½Ð°Ð´ Ð¾Ð»Ñĥ
ĠÑĪÐµ Ð¿Ð¸
ĠÑĩÐµÑĢÐµ ÑĪÐ¸
ĠÐºÐ¾Ð½ÑĦÐ¸ ÑĤÑİÑĢ
Ð¿Ð° ÑĤ
ĠÐ¿Ñĥ Ðµ
ÐŁ ÑĬÑĢÐ²Ð¾
ĠÐ¿ÑĥÑĪ ÐµÐ½
ĠÐ¼Ñĥ ÑģÐ°
ĠÐ¿Ð¾Ð²ÑĬÑĢÑħ Ð½Ð¾ÑģÑĤÑĤÐ°
ĠÑĦÐ¸ Ð½Ð¸
ĠÐ·Ð°Ð´ÑĥÑĪ ÐµÐ½Ð¸ÑĤÐµ
ĠÐºÐ¾Ð½ÑģÐµÑĢÐ²Ð¸ÑĢÐ° Ð½Ð¸
ĠÐķ Ð´
ĠÐŁ Ð¸
ĠÐ¿ÑĬÑĢÐ¶ ÐµÐ½Ð¸
ĠÑĢÐµ ÑĨÐµÐ¿
ĠÐºÐ°ÑĢÑĤÐ¾ÑĦ Ð°
ĠÐ»Ð° Ð¹Ð¼
ĠÐ±Ñĥ ÑĩÐºÐ¸
ĠÐ¿Ð¾Ð¾Ð¼ÐµÐº Ð½Ð°ÑĤ
ĠÐ·Ð°Ð¿ÑĢÑĬÐ¶ ÐºÐ°
ĠÐ¿Ð¾ ÐºÐ°ÑĦ
ĠÐ¾ÑģÑĤÐ° Ð²Ð°
ÑģÑı Ð²Ð°ÑĤ
ĠÐ½Ð°Ð¼Ð°Ð· Ð²Ð°Ð¼Ðµ
ĠÑĥ Ð²ÐµÐ»Ð¸
ĠÑģÐµÐ¼ ÐµÐ½Ð°
ĠÐ¿ÑĬÑĢÐ¶Ð¸ Ð¼
ĠÐ¿Ð»Ð¸ Ðº
ĠÐ»Ð¸ÑģÑĤÐµÐ½ ÑĨÐ°
Ð³Ð° ÑĢ
ÑģÑĤ ÑĥÐ´
Ð³Ð¾ Ð½
ĠÑģÐ¼ÐµÑģ ÑıÑĤ
Ð¡ Ð¼ÐµÑģÐ²Ð°ÑĤ
Ð´Ð¾ Ð¼Ð°ÑĤ
ĠÑĤÑĬÐ½ ÑĬÐº
ĠÐ¿ÑĢÐ¸ Ð´Ð¾
ĠÐ¿Ð¾ÐºÑĢÐ¸ ÑĤÐ¾
ĠÐ¿Ð¾ÑģÐ¾Ð» ÐµÑĤÐµ
ĠÑģÐ»Ð°Ð´ ÐºÐ¾ÑĤÐ¾
ĠÐ¿Ð¾Ð´Ñģ Ð»Ð°Ð´
ĠÐ±Ð°Ð´Ðµ Ð¼Ð¾
ĠÐľÐµ Ð¶Ð´Ñĥ
ÑĤ ÑĢÐ¾
Ð½Ð¾ Ð²Ð°ÑĤÐ°
ĠÐ»ÑĥÐº ÑĩÐµÑĤÐ°
Ð¿Ð° Ð´Ð¶Ð¸
ĠÐ·ÐµÑħÑĤÐ¸Ð½ ÑĬÑĤ
ĠÑģ ÑĩÑĥÐºÐ²Ð°
Ðļ ÑĬÐ¼
ĠÑĢÐ¾ Ð±Ð¾ÑĤ
ĠÐ²ÐµÐ´ Ð½ÑĬÐ¶
ÐŁÐ¸Ð»Ðµ ÑĪÐºÐ¸ÑĤÐµ
ĠÐ³Ð°ÑĢÐ½Ð¸ÑĢÐ° Ð½Ðµ
ĠÐºÐ²Ð°Ð´ ÑĢÐ°ÑĤÐ¸
Ð¿ÐµÑĢ ÑģÐ¸
Ð¸ÑģÐºÐ²Ð¸ ÑĤÐ¸ÑĤÐµ
ĠÑĤÐ¾ Ð¹
Ð¼Ð¸ ÑĢÐ°
ĠÑģÐ»ÐµÐ´ Ð²Ð°
ĠÐ·Ð»Ð°ÑĤÐ¸ ÑģÑĤÐ°
ĠÑĤÑĥÑĢ ÑĪÐ¸
Ñģ Ð½Ð¸
ĠÑģ Ð»Ñĥ
Ð½Ðµ Ð¼Ð°
ĠÐ¡ Ð¼ÐµÑģÐ²Ð°
ÑıÐ²Ð° Ð¼Ðµ
ĠÑĤÐ¾Ð¿ ÑĬÐ»
ĠÑĦÐ¸ Ð´Ðµ
ĠÐ·Ð°Ð³ ÑĢÐµ
Ð¾Ð± ÑĢÐ°Ð·
ĠÐ¿ÑĢÐ°Ð²Ð¸ Ð¼
ÐĶÐ¾ Ð¼Ð°ÑĤÐ¸ÑĤÐµ
2 20
Ðº ÑģÐ°
ĠÐłÐ°Ð· Ð¿ÑĢÐµÐ´ÐµÐ»
ĠÐ¿Ð¾Ð»ÑĥÑĩ ÐµÐ½Ð¸Ñı
ĠÐŁÐ¾Ð» Ð¾Ð²Ð¸Ð½Ð°ÑĤÐ°
ĠÐ¾ÑĤÑģÑĤÑĢÐ° Ð½ÑıÐ²Ð°ÑĤ
Ð· Ð¾Ð²Ð¸
ĠÐ·Ð°Ð¿ÑĬÑĢÐ¶ Ð°ÑĤ
Ð¾ÑĤ Ð´ÐµÐ»Ð½Ð¾
ĠÑĢÐµÑĪ ÐµÑĤÐºÐ°
Ð½Ð°ÑģÑĤÑĬÑĢ Ð³Ð°Ð½Ð°
ĠÐ³Ð¾Ð²ÐµÐ¶ Ð´Ð¾
Ð ķ
ĠÐ¾ÑĤ Ð²Ð°
ÑĨÐµ Ð´ÐµÑĤÐµ
ĠÐĴ Ð½Ð¸Ð¼Ð°
ĠÐ¢ Ðµ
Ð´ÐµÐ½ Ð·Ð¸ÑĢÐ°
Ġ ÑĢÑĬÑģ
ĠÐ¸ ÑģÐºÐ°
ĠÐ·Ð° ÑĪÐ¸
ĠÑĢÐ°Ð· ÑģÑĤÐ¾Ñı
ĠÐ¡Ð¼Ðµ ÑĤÐ°Ð½Ð°ÑĤÐ°
ĠÑģÑĢÐµÐ´ ÐµÐ½
ĠÐºÐµ ÑĢÐµ
ĠÐłÐ°Ð·Ð±Ð¸ Ð²Ð°Ð¼Ðµ
Ð¤ Ð¸Ð»Ðµ
Ð¼ÐµÐ½ Ð½Ð¾
ĠÐ±Ð»Ð°ÑĤÐ¾ Ð²ÐµÑĤÐµ
ĠÐµÐ´Ð¸ Ð½Ð¸Ñı
ĠÐ°Ð²Ð¾ÐºÐ° Ð´Ð¾
ĠÑĩÐµÑĤÐ¸ ÑĢÐ¸
ÑĦ Ð»Ð¸
Ñī ÐµÑĢÐºÐ°ÑĤÐ°
ĠÐĺÐ·Ð²Ð° Ð´ÐµÑĤÐµ
ĠÐł Ð¸Ð±Ð°ÑĤÐ°
ĠÐ¿Ð¾Ð²ÑĬÑĢÑħ Ð½Ð¾ÑģÑĤ
ÑĦ Ð»Ðµ
Ð·Ð° Ð½Ñı
ĠÐĿÐ° ÑĢÐµÐ¶Ð´Ð°
ĠÑĢÐ¾ Ð¼Ð°
ĠÑĦÐ¸Ð»Ðµ ÑĤÐ¾
ĠÑģÑĥÑģÐ° Ð¼Ð¾
ĠÐ¡Ð¸ ÑĤÐ½Ð¾
ĠÑĤÐµÑĦ Ð»Ð¾Ð½Ð¾Ð²
ĠÐ¼Ð° ÑīÐµÑĢÐºÐ°ÑĤÐ°
ĠÑĤÐµ Ð»
ĠÑĪ ÐºÐµÐ¼
Ð¡ Ð²Ð°ÑĢÐµÑĤÐµ
ĠÑĥÐ· ÑĢÐµÐ»Ð¸
3 5
ÑĢÐ° Ð¹ÑĤÐµ
Ð³ Ð¾ÑĢ
ĠÐ¿Ð¾ÐºÑĢÐ¸ ÑĤÐ¸
ĠÐ»Ð¸Ð¼Ð¾Ð½Ð¾ Ð²Ð°ÑĤÐ°
ĠÐĺÐ·ÑģÐ¸Ð¿ Ð²Ð°Ð¼Ðµ
ĠÐ·Ð°Ð¿Ð¾ ÑĩÐ²Ð°
ĠÐ¾Ð±ÑĢÐ°Ð·Ñĥ Ð²Ð°
ĠÑĢÐ°Ð·ÑģÑĤÐ¾Ñı Ð½Ð¸Ðµ
ĠÑģ Ð²ÑĬÑĢÑĪ
Ð² ÐµÐ½Ð¸ÑĤÐµ
ĠÐ¿Ð¾ ÑģÐ¸Ð¿Ð²Ð°
ĠÐ¾ÑĤ Ð´Ð¾Ð»Ñĥ
ĠÐµ Ð·Ð¸
ĠÐ¿ÑĢÐµ Ð¿ÐµÑĩ
ÐµÐ´ ÑĢÐ¸
Ð¡ Ð»Ð¾Ð¶ÐµÑĤÐµ
ĠÐŁÐ¾ÑĢÑĬÑģ Ð²Ð°Ð¼Ðµ
ĠÐºÑĥÑħÐ½ÐµÐ½ ÑģÐºÐ°
ĠÐ²ÑĬÐ· Ð¼Ð¾
Ð·Ð° Ð½Ð°
ĠÐºÑĢÑĬ Ð³Ð¾Ð²Ðµ
ĠÐ½Ð°ÑģÑĤ ÑĬÑĢÐ¶ÐµÑĤÐµ
ĠÐ´Ð¾Ð±Ð° Ð²Ð¸ÑĤÐµ
ĠÑģÐ»Ð°Ð´ÐºÐ¸ ÑĪ
ĠÐ ¦
ĠÐ¿ ÐµÑĢ
ĠÐ½Ð° ÑĢÐµÐ´ÐµÑĤÐµ
ÑĢÐµ Ð¼ÐµÐ½Ð½Ð¾
ĠÐ¿Ð¾ ÑģÑĤÐ°
Ð´Ð° Ð¼Ð¾
ĠÑģÐ¾Ð» ÐµÐ½Ð°
ĠÐ»Ð¸Ð¼Ð¾ Ð½Ð¸
ĠÐ¢ Ð¸ÐºÐ²Ð¸ÑĩÐºÐ¸ÑĤÐµ
Ð»Ñİ ÑĤ
ĠÑģÐ»Ð°Ð½Ð¸ Ð½Ð°ÑĤÐ°
ĠÐ»Ð° Ð·Ð°Ð½Ñı
ĠÐŀ Ð±ÑĬÑĢÐºÐ²Ð°
ÑģÑĤÐ¸ ÑĤÐµ
Ð·Ð¸ Ð¼Ð°
ĠÐ¿ÑĢÐ°Ð· ÑĬÑĤ
ĠÐ¡ÐµÑĢÐ²Ð¸ÑĢÐ° Ð¹ÑĤÐµ
ĠÐĿ Ð°ÑĢ
ĠÐ·Ð°ÑģÑĤÑĢÐ¾Ð¹ Ð²Ð°
Ð¸ ÐºÐ²Ð°
Ð½ ÐµÑĢ
Ġ1 90
ĠÑĤÐ¾ ÑĩÐ¸
ĠÐŀÑĤ ÑģÑĤ
ĠÐºÐ¾Ð½ Ð´ÐµÐ½Ð·Ð¸ÑĢÐ°
ĠÐºÑĢÐ¸ ÑģÑĤÐ°
ĠÑģ ÐºÑĥÐ¼
ĠÐ¿ ÐµÑĢÐ¸
ĠÐº ÑĢÑĥÑĤÐ¾
ĠÐ¿Ð¾ ÑħÐ»ÑĥÐ¿
Ð½Ð¸ Ð½Ð°ÑĤÐ°
ÐŁ ÑĬÑĢÐ¶
ĠÐŁÑĢÐ° Ð²ÑıÑĤ
Ð½Ð° Ð»
ĠÐĴ ÑĢÑĬÑīÐ°
ĠÑĢÐµ Ð¿Ð¸
ĠÐ³ÑİÐ²Ðµ ÑĩÐµÑĤÐ°
ĠÑĢÐ°Ð·Ð¼Ð¸ ÑĤÐ¾ÑĤÐ¾
ĠÑĢÐ°Ð·Ð¿Ð¾Ð» Ð¾
Ð¸ÐºÐ²Ð° ÑĤÐ°
Ðº ÑĢÐµ
ĠÐ½Ð° Ð¿ÑĢÑĬÑģ
ÑĢÐ¸ Ð³Ð°Ð½
ĠÐ¿Ð¾ Ð¾ÑĤÐ´ÐµÐ»Ð½Ð¾
ĠÐ¼Ð° Ð½
ĠÐ³ÑĢÐ° Ð¼Ð°
ĠÐºÑĢÐ°ÑģÑĤÐ° Ð²Ð¸ÑĨÐ¸
ĠÑĢÑĥ Ð»Ð¾ÑĤÐ¾
ĠÐ³ÑİÐ²Ðµ ÑĩÐ°
ĠÐ¾Ð±Ð¸ÐºÐ½Ð¾Ð² ÐµÐ½Ð¸
ĠÐºÐ¾ÐºÐ¾ÑģÐ¾ Ð²Ð¾
ĠÐĿÐ°ÑĢ ÑĬÑģ
ÑĢÐ° ÑĨÐ¸Ñı
ÑĢÐ¸ Ð·Ð°
ÑĢÑı Ð½
Ð»Ðµ Ðµ
ĠÐ¿ÐµÑĩ ÐµÐ½Ð¾
ĠÑĦÐ°Ñģ ÑĥÐ»Ð°
ĠÐ´ÑĢÐµÑģ Ð¸Ð½Ð³Ð°
Ð² Ð¾Ð´Ð°
ĠÐ· ÑĢÑıÐ»
Ð»Ð° ÑģÑĤÐ¸
ĠÐºÐ¾ ÑģÑĤ
ĠÐµ Ð»Ð°ÑģÑĤÐ¸
Ð½Ð¾Ð· ÑĬÑĢÐ½Ðµ
ĠÐĺÐ· Ð´ÑĬÐ»Ð±Ð°
ĠÑĨ ÐµÐ»
ĠÑģÐµÐ¼ ÐµÐ½Ð°ÑĤÐ°
ĠÐºÐ°ÑĢ Ð´Ð°Ð¼Ð¾
ÑĪ Ð½Ð°ÑĤÐ°
ĠÐºÐ° Ð¼Ð±Ð¸
ĠÐĹÐ° Ð²Ð¸Ð²Ð°
ĠÐºÐ°ÑĢÑĤÐ¾ÑĦ ÐµÐ½Ð¾ÑĤÐ¾
ĠÑģÑĥÑĪ ÐµÐ½
ĠÐ¿ÑĢÐ¾Ð´ÑĬÐ» Ð¶ÐµÐ½Ð¸Ðµ
Ð»ÐµÐ¿ Ð²Ð°
ĠÐºÑĢÐ¸ Ð»
Ñģ ÐºÐ°ÑĤÐ°
Ð± ÐµÐ»Ð°
ÑĦ ÑĢÐ°Ð½
ĠÐ½Ð°Ð¼Ð° Ð¶ÐµÑĤÐµ
ĠÑĢÐ¸ Ð±Ð¸
ĠÐ¿Ð°Ð»Ð°ÑĩÐ¸Ð½ ÐºÐ¸ÑĤÐµ
ĠÐ²Ðµ ÑĩÐµÑĢ
ĠÐļÑĢÐµ Ð¼Ð°
ĠÐ±ÑĬÑĢ Ð·Ð¾
. )[
ĠÑĢÐ°Ð· Ð¼ÐµÑģÐ²Ð°
ĠÑĢÐ°Ð·Ð±Ð¸ ÑĤÐ°ÑĤÐ°
ĠÑĦÐ¸ Ð´ÐµÑĤÐ¾
ĠÐĹÐ° Ð³ÑĢÑıÐ²Ð°
Ðŀ Ð±ÐµÐ»ÐµÑĤÐµ
ĠÐ´Ðµ Ð²ÐµÑģÐ¸Ð»
ĠÐ¿ÑĢÐµÑģÑĤÐ¾ ÑıÐ²Ð°
Ð¾ ÑĢÐµÑħ
ÑĤÐ¾ Ð²Ð°
ÑģÑĤÐ¸ Ð»Ð°ÑĤ
ĠÐ¼ÐµÑģ ÐµÐ½
ĠÐłÐ°Ð· ÑģÑĤÐ¸Ð»Ð°
ĠÐ´Ð¶ Ð¾Ð»
ĠÐŁÑĢÐµ ÑģÑĤÐ¾
ĠÑĢÐ°Ð·ÑĤÐ¾ ÑĩÐ²Ð°ÑĤ
ĠÐ·Ð°ÑĩÐµÑĢ Ð²ÑıÑĤ
ĠÐ¸Ð·Ð´ÑĬÐ»Ð±Ð° Ð²Ð°
ÐºÐ°ÑĦ Ñı
ĠÐŀÑģÑĤÐ°Ð½Ð° Ð»Ð¸ÑĤÐµ
ÑģÑĤÑĢÐ° Ð³Ð¾Ð½
ĠÐ³ÑĬÐ± ÐµÐ½
Ġ 60
ĠÐ¿ Ð»Ðµ
ĠÐ¿ ÑĪÐµÐ½Ð¸
Ð· ÑĥÑĢÐ°
ĠÐ¾ Ð¼ÐµÑģÐ²Ð°ÑĤ
ĠÐºÐ° Ð¿ÐµÑĢÑģÐ¸
ĠÐ¿ÑĢÐµ ÑģÐµ
Ð¡ Ð»Ð°Ð³Ð°
Ð¿ÑĢÐ¸ Ð¼ÐµÑĢ
ĠÐ°Ð³Ð½Ðµ ÑĪÐºÐ¸
Ð¿Ð¾Ð» Ð¾Ð²Ð¸
ĠÑģÑĤÐ¾ Ð¿Ð¸
Ð¸ÑģÐµ Ð»Ð¾ÑĤÐ¾
Ð¼Ð¸ Ð¾Ð½Ð°
ĠÐºÐ¸ Ð¼Ð¸Ð¾Ð½Ð°
ĠÑĤÐ¾Ð¿ ÑĩÐµ
ĠÑģÑĥÑħÐ° ÑĤÐ°
ĠÐ±Ð°Ð´ÐµÐ¼Ð¸ ÑĤÐµ
ĠÐ¡Ð¸ ÑĢÐµÐ½ÐµÑĤÐ¾
ĠÐ¿ÑĬÐ»Ð½Ðµ Ð¶Ð°
Ð¿ Ð½Ðµ
Ð¿ Ð¸Ð»Ðµ
ĠÑĩ Ð¾ÑĢ
ĠÐŀ Ð±
ĠÐ±ÑĬÑĢÐºÐ° ÑĤÐµ
ĠÑıÐ±ÑĬÐ» ÐºÐ¾Ð²
ÐłÐ°Ð·Ð±Ð¸ Ð¹ÑĤÐµ
ĠÐ² ÑĬÑĢÑħ
ĠÐ² ÑĢÐ°ÑĤ
ĠÐ·Ð° Ð³Ð¾ÑĢÐ¸
ĠÐ¼Ð° Ð¹Ð¾
ĠÐµ Ð»
ĠÐŁÐ¾ ÑĩÐ¸ÑģÑĤ
ĠÐºÑĢÑĬÐ³ ÑĩÐµ
ĠÐ¿Ñĥ Ð¹ÐºÐ°
ĠÐ±ÑĥÑĤ ÑĩÐµ
ĠÐ±ÑĥÑĢÐºÐ° Ð½Ð°
Ð¾Ð´Ð¸ ÑĩÐ½Ð¾
ĠÐ½Ð°ÐºÑĬÐ» ÑĨ
ĠÐ¿ÑĢÑĬÑģÑĤ ÐµÐ½
ĠÑģÑĤÐµÐ³ Ð½Ð°ÑĤ
ĠÐ³Ð°Ð·Ð¸ ÑĢÐ°Ð½Ð°
Ñĥ Ð½Ð¸
ĠÐŁ Ð°ÑĤÐ»Ð°Ð´Ð¶
ĠÑĩÐµÑĢ ÑĥÐ¿
ĠÐ³Ð»Ð° Ð·ÑĥÑĢÐ°
ĠÐĿÐ° ÑģÑĤÑĬÑĢÐ³
ĠÐ¸Ð·Ð¼Ð¸ Ð¹ÑĤÐµ
ÑĥÐ½ ÐºÐ°ÑĤÐ°
ĠÐľÐ° ÑħÐ°
ĠÐ´ÑĢÑĥÐ³Ð¸ Ñı
ĠÑģÐ»Ñĥ ÑĩÐ°
ÐŁÑĬÑĢÐ¶ Ð¾Ð»Ð¸ÑĤÐµ
ĠÑģ ÑĩÑĥÐºÐ²Ð°ÑĤ
Ð¿ Ð¾ÑĢ
Ð»Ð¸ Ð¾ÑĤÐ¾
Ð»Ðµ ÑģÐ½Ð¾
Ð¼Ð¾ ÐºÐ¸
Ð´Ðµ Ð»Ð¸
ĠÑĪÐ° Ð¼
ĠÑĨÑı Ð»Ð°
Ġ /
Ñĩ ÐµÐ½Ð¾
ĠÐŀ ÑĢÐ¸Ð·ÑĬÑĤ
Ð¾Ð»Ð¸ Ð²Ð°ÑĤ
ĠÐ¿ÑĢÐ¸Ð³Ð¾ÑĤ Ð²ÑıÑĤ
ĠÐ¿Ð¾ÑĢÑĤÐ¾ÐºÐ° Ð»Ð¸
Ð¿ÐµÑĩ ÐµÐ½Ð¸ÑĤÐµ
ĠÐ»ÑİÑĤ ÐµÐ½Ð¸ÑĨÐ°ÑĤÐ°
Ð´ Ð¾ÑĤÐ¾
ĠÐ± ÑĢÐ°ÑĪ
Ð½Ð° Ð¿
ĠÐŀ Ñħ
ĠÐ·Ð°Ð³ÑĢÑı ÑĤÐ¾
ĠÑħÐ° Ð²Ð°Ð½
ĠÐ¸Ð·ÑĨÐµ Ð¶Ð´Ð°ÑĤ
ĠÐ§ ÐµÑģÑĬÐ½ÑĬÑĤ
ĠÐĺÐ·Ð¿ÑĬÑĢÐ¶ Ð²Ð°ÑĤ
ĠÐºÐ¸Ð¿Ñı ÑīÐ°
ĠÑĤÑĥÑĢÑĪÐ¸ Ñı
ĠÐµÐ»Ð°ÑģÑĤÐ¸ ÑĩÐ½Ð¾
Ð² ÐµÐ½Ð°
Ñĥ Ð»Ð¸
Ð»Ð¸ ÑģÑĤÐ°
ĠÐ¿Ð° ÑĢÐ°
ĠÑĥ Ñģ
ĠÐ¿Ð¾Ð¿Ð¸ Ðµ
Ð¿ Ð²Ð°ÑĤ
Ð²Ð¸ ÑģÐ¸
ĠÐ¿Ð¾Ð´ Ð½Ð¾
Ðľ Ð»ÑıÐºÐ¾ÑĤÐ¾
ĠÐ·ÐµÐ»Ðµ Ð²Ð¸
ĠÐ¿Ð¾ÑģÐ¾Ð»ÑıÐ²Ð° Ð¼Ðµ
ĠÑħÐ°ÑĢÑĤÐ¸Ñı ÑĤÐ°
ĠÐ¾ÑĤÐ»Ðµ Ð¶Ð¸
Ð¿Ð°ÑĤ ÑĥÐ»Ð°
ĠÐ¿Ð¾ ÑĤÐ¾Ð¿
ĠÑĪ Ð¿Ð°ÑĤÑĥÐ»Ð°
ĠÐ° Ð¹
ĠÐ·Ð°Ð´ÑĥÑĪ ÐµÑĤÐµ
Ð»Ñı Ð±
ĠÑĦÐ¸Ð»Ð¸ Ð¹ÐºÐ°
ĠÐ¿Ð°ÑģÐ¸ ÑĢÐ°Ð½Ð¸
ĠÐºÑĢÐµÐ½Ð²Ð¸ÑĢ ÑĪ
ÑģÑĥ ÑģÐ°
ĠÐŀÐ²Ð°Ð» Ð²Ð°ÑĤ
. )
ĠÐ·Ð°Ð³ Ð»Ð°Ð¶Ð´Ð°
ĠÐ¿ÑĢÐ¸Ð³Ð¾ÑĤ Ð²ÐµÐ½
ĠÐ¿ÑĢÐ¾Ð´ÑĬÐ» Ð³Ð¾
ĠÐ´Ð°ÑĦÐ¸Ð½Ð¾ Ð²Ð¸ÑıÑĤ
ÑĢ ÑĬÐ½
ĠÐºÐ¾ ÑĢÐµÐ½
ĠÐ¿ÑĢÐµ Ð³ÑĬ
ĠÐ¿ÑĢÐµ ÑĨÐµÐ´
ĠÐ¶ Ð¸
ĠÑĢÑĥ Ð»Ð°
ĠÐŁÐ° ÑģÐ¸
Ð±Ð° Ð¿
ÑģÐ¸ ÑģÑĤÐµÐ½
Ð¿Ðµ ÐºÐ°ÑĤ
ĠÐ³Ð¾ÑĢÐµ ÑīÐ°ÑĤÐ°
ĠÐ³Ð¾Ð»Ñı Ð¼Ð¾
ĠÐ³Ð¾ÑĢ Ð½Ð°ÑĤÐ°
ÑģÐ¾ ÐºÐ°
ĠÑĨÐ²Ðµ ÑĤÐ°
ÑĤ Ñĥ
ĠÐ´Ð¾ Ð¿ÑĬÐ»Ð½Ð¸ÑĤÐµÐ»Ð½Ð¾
ĠÐĵ Ð¾ÑĤ
ĠÐ¾ÑģÐ½Ð¾ Ð²Ð°ÑĤÐ°
ĠÐ¸Ð·Ð¼Ð¸ÑĤÐ¸ ÑıÑĤ
ĠÐ½Ð°Ð´Ñĥ Ð¿
Ð¿ ÑĢÑıÑģÐ½Ð¾
ĠÐ·Ð° Ð²ÑĬÑĢÑĪÐ²Ð°
Ð¼Ð° ÑĨÐ¸Ñı
ĠÐµ Ð½ÐµÑĢ
Ð¿Ð° Ð³Ðµ
ĠÐ° Ð½
ĠÐŁÐ¾ ÑģÑĤÐ°Ð²ÐµÑĤÐµ
ĠÐ¿Ð¾ÐºÑĢÐ¸ ÑıÑĤ
ĠÑģÐ²Ð°ÑĢ ÐµÐ½Ð¸Ñı
ĠÐ¿ÑĬÐ» Ð½Ð¾Ð·ÑĬÑĢÐ½Ðµ
ĠÐ½Ð°Ð¿ÑĬÐ» Ð²Ð°ÑĤ
Ð³Ð¸ ÑĩÐ½Ð¾
ÐºÐ°ÑĢÐ¾ Ð½Ð¸ÑĤÐµ
ÑĥÐ»ÑĮ Ð¾Ð½
ĠÐ ĺ
ĠÐ½Ð° Ð¿ÑĢÐµ
ĠÐ¾ ÑĩÐ¸
Ð²Ð¸ Ð²Ð°Ð¼Ðµ
ĠÐŁ Ð»ÑĬÐ½
ĠÐ¡ Ð»Ð°
ĠÑĦÐ¸Ð»Ð¸ Ð¸ÑĤÐµ
ÐĿÐ° ÑĢÑıÐ·Ð²Ð°
Ð¾Ð´Ð¶ ÐµÐ½Ð°
ĠÐ¿Ð¾ÑĢÑĤÐ¾ÐºÐ°Ð»Ð¾ Ð²
ĠÐºÑĬÑģ ÑĩÐµÑĤÐ°
ĠÐ¿Ð¾Ð¾Ð¼ÐµÐº Ð½Ðµ
Ð¿Ð°Ð´Ð¶Ð¸ Ðº
ĠÐłÐ°Ð·Ð¿ÑĢÐµÐ´ÐµÐ» Ñı
ĠÐµÐ½ÐµÑĢ Ð³Ð¸ÑĩÐ½Ð¾
ÑĤ ÑĬÐ½
ĠÐµ Ðº
ĠÐ¿ÑĢÐµ ÐºÐ°
ÑģÐµ ÑĢÐ°
ĠÐºÐ¸ Ð¼
ĠÐ´Ð¾Ð±Ð°Ð²Ñı Ð¼
ĠÐĹÐ° Ð³ÑĢÐµÐ¹ÑĤÐµ
ĠÐ¿ÑĢÐ¸Ð±Ð°Ð²Ñı ÑĤÐµ
ĠÐºÑĢÐ°ÑģÑĤÐ° Ð²Ð¸ÑĨÐ°ÑĤÐ°
ĠÑģÐ²Ð¸Ð½Ñģ ÐºÐ¾ÑĤÐ¾
ĠÑĢÐ°Ð² Ð½Ð°
ĠÐ´Ð¶Ð¸Ð½Ð´Ð¶Ð¸ ÑĦÐ¸Ð»Ð°
ĠÐ¿ÑĢÐµÑģÑı ÑĤÐ¾
ĠÐ¾ÑħÐ»Ð°Ð´ ÑıÑĤ
Ð½Ð°ÑģÑĤÑĬÑĢ Ð³Ð°
ĠÐºÐ¾Ð½ÑģÑĥ Ð¼Ð°ÑĨÐ¸Ñı
ÑģÐ¸ÑģÑĤÐµÐ½ ÑĨÐ¸Ñı
ĠÐ²ÑĢÑĬ ÑīÐ°ÑĤ
ĠÑģÐ³Ð¾ÑĢÐµÑī ÐµÐ½Ð°ÑĤÐ°
ĠÐ¿Ð¾Ð¿Ð°ÑĢ Ð²Ð°ÑĤ
ĠÑģÐºÐ°ÑĢÐ¸ Ð´Ð¸ÑĤÐµ
ĠÐ´ÐµÐºÐ¾ ÑĢÐ°ÑĨÐ¸Ñı
ĠÐºÐµÑĢÐµ Ð²Ð¸Ð·
ĠÐŁÐ»ÑĬÐ½ ÐºÐ°ÑĤÐ°
ĠÐ½Ð° Ð¿Ð¾
ÑĨ Ñı
Ð²Ð¸ Ð¹ÑĤÐµ
ĠÑĢÐ°Ð· ÑĤÐ°Ð¿Ñı
Ð¼ÐµÑģ Ð²Ð°Ð½Ðµ
ĠÐ½Ð°Ð´ ÐµÐ½Ð¸ÑĨÐ°ÑĤÐ°
ĠÐ·Ð°ÑĤÐ¾Ð¿ Ð»ÐµÐ½Ð°
ÐĽ ÑĥÐºÐ°
ÐºÑĬ Ð´Ðµ
ĠÐĳÐµ ÑĪÐ°Ð¼ÐµÐ»
ĠÐ²ÑĬÑĢÑħ Ð°
Ġ C
ĠÐ² ÑĬÑĢ
ÐµÐ´ ÑĢÐ¾
ĠÐ´Ð¶ Ð¾Ð´Ð¶ÐµÐ½Ð°
ĠÐ¾Ð¼ÐµÐº Ð½Ð°
Ð¢ ÐµÑģÑĤÐ¾ÑĤÐ¾
ĠÐ¸Ð½Ð´Ð¸Ð¹ÑģÐºÐ¾ ÑĤÐ¾
ÐĺÐ·Ð¼Ð¸ ÑĤÐ¸ÑĤÐµ
Ðº Ð»Ð°
Ñĩ ÐºÐ²Ð°ÑĤ
ÑĤÐµ Ð¹
ĠÐ² ÑĤÐ²ÑĬÑĢ
ĠÐºÐ¾ ÑĪÐ½Ð¸
ĠÐŀÑĤ ÑĨÐµÐ¶Ð´Ð°
ĠÐ²Ð° Ð´Ð¸
ĠÐ¸Ð·Ð¿ÑĬÑĢÐ¶ ÐµÐ½Ð¸ÑĤÐµ
ĠÐ½Ð°Ð¼Ð°Ð·Ð° Ð½
ĠÐºÐ°ÑĦ ÐµÑĤÐ¾
ĠÐ·Ð°ÐºÐ²Ð°Ñģ ÐµÐ½Ð°ÑĤÐ°
ĠÐĿÐ°Ð¼Ð° Ð¶ÐµÑĤÐµ
ĠÐ°ÑĢÐ¾ Ð¼Ð°ÑĤÐ¸
ĠÐºÐ°ÑĢÑĦÐ¸Ð¾Ð» Ð°
ÐŁÐ¾ÑĩÐ¸ÑģÑĤ ÐµÐ½Ð¸ÑĤÐµ
ĠÐºÑİÑĦÑĤÐµÐ½ ÑĨÐ°ÑĤÐ°
ÑģÐ¼ Ð»Ñı
ÑģÑĬ Ñħ
Ð ¥
Ð» ÐµÐ½Ð°ÑĤÐ°
Ð¼ ÐµÐ½Ð¸
ĠÐ·Ð° Ð±
ĠÐŁ ÑĢÐ¾Ð´ÑĥÐºÑĤÐ¸ÑĤÐµ
ĠÐºÐ¸ ÑĦÐ»Ð¸
ĠÑĢÐ°Ð·Ð±Ð¸ ÑĤ
ĠÐ·Ð°Ð¿Ð¾Ñĩ Ð½Ð°ÑĤ
ĠÐ¼Ð¸Ðº ÑģÐµÑĢÐ°
ĠÐ¾ÑĤÐ²Ð° ÑĢÐ°
Ðµ ÑĤÑĬ
ĠÐ¿ ÑĢÑĬÑģ
ĠÑı Ð´ÐºÐ¸ÑĤÐµ
ĠÐ¾ÑģÑĤÐ° ÑĤÑĬ
ĠÐĶÐ¾ Ð±ÑĢÐµ
ÑĢÐµÑħ Ð²ÑĬÑĢ
ĠÐ±Ñı Ð»Ð°ÑĤÐ°
ĠÐ¼Ð°ÑĢÐ³Ð° ÑĢÐ¸Ð½Ð°
ĠÑĢÐµÑĪ ÐµÑĤÑĬ
ĠÐ·ÐµÐ»ÐµÐ½ÑĩÑĥÐºÐ¾ Ð²Ð°
ĠÐ·Ð°Ð¿Ðµ ÐºÐ°ÑĤ
ĠÑĢÐµÐ´Ñĥ Ð²Ð°ÑĤ
ĠÐ¾Ð±ÑĢÐ° ÑĤÐ½Ð¾
ĠÑĨÐµÐ´ ÐµÐ½Ð¾
Ġ "
Ñģ ÑĢÐµÐ´
Ñĩ ÐºÐ²Ð°
Ð¼Ð° Ð»ÐºÐ¸
ĠÐŁ ÑĢÐµÑħÐ²ÑĬÑĢ
ĠÐ´ÑĬÐ» Ð³Ð¾
ĠÐ¾Ð² Ð½Ðµ
ĠÐºÐ¾Ð½ ÑģÐ¸ÑģÑĤÐµÐ½ÑĨÐ¸Ñı
ÐłÐ°Ð·Ð±Ð¸ Ð²Ð°Ð¼Ðµ
ÑĢÐ° Ð½Ð°ÑĤÐ°
ĠÐĿÐ° Ð¿ÑĬÐ»
ĠÐ¿Ð¸ ÑĨÐ°
ĠÐĽ Ð¸
ĠÐ¼Ð»Ðµ ÑĩÐµÐ½
ĠÐ¿ÑĢÐ¸Ð±Ð° Ð²Ð¸
ĠÑĢÐ°Ð·Ð»Ð¸ ÑĩÐ½Ð¸
Ð²Ð¸ ÑĨÐ¸ÑĤÐµ
ĠÐ¿Ð¾ÐºÑĢÐ¸ Ð¹ÑĤÐµ
ĠÐ¿Ð°Ð»Ð°ÑĩÐ¸Ð½ ÐºÐ°
ĠÐ¿Ð°ÑģÑĤÐ° ÑĤÐ°
ĠÐºÐ¾Ð¼Ð¿Ð¾ ÑĤÐ°
ĠÐ¡ÑĬ Ð´ÑĬÑĤ
ĠÐ¿Ð¾Ð´Ð½Ð¾ Ñģ
ĠÐ·Ð° ÑĤ
ÐºÐ¸ Ñı
Ð»Ðµ ÑĤ
ĠÐ½Ðµ Ð·Ð°
Ð¡ Ð¿Ð°Ð½Ð°ÐºÑĬÑĤ
ĠÑģÐ²Ð°ÑĢ ÐµÐ½Ð¾ÑĤÐ¾
Ð´Ñĥ Ñħ
ĠÐ´Ðµ Ð±ÐµÐ»Ð°
ĠÐ¼ÐµÐ´ ÑĬÑĤ
ĠÐ»ÑİÑĤÐ¸ Ð²Ð¸
ĠÐºÐµÐºÑģ Ð¾Ð²Ð°
ĠÑģÐ»Ð°Ð´ÐºÐ¸ ÑĪÐ°
ĠÑģÐ»Ð¾Ð¶Ð¸ ÑĤÐµ
ĠÐ½Ð°Ð¿ÑĢÐ° Ð²Ð¸
ĠÐ³Ð»Ð°Ð´ ÑĬÐº
ĠÐ·Ð°Ð² ÑĢÑıÑĤ
ĠÐ¼Ð¾ÑĢ ÑģÐºÐ°
ĠÐ·Ð°ÑĪÐ¸ Ð²Ð°
ĠÐ¿ÐµÑĢÐ¸ Ð¾Ð´Ð¸ÑĩÐ½Ð¾
1 40
ĠÐ»Ð¸ ÑģÑĤÐ¾
ÑĤÑĬ ÑĢÐ°
ĠÐ·Ð°Ð³ÑĢÑı Ð²Ð°ÑĤ
ĠÑĨ Ð²ÐµÑĤ
ĠÐ¸Ð·Ð± ÑĢÐ¾
ĠÐ¾Ð² ÑĩÐµ
Ð·Ðµ ÑĢÐ°
ĠÐ¢Ð° Ð²Ð°ÑĤÐ°
ĠÐ¾ÑĦÐ¾ÑĢÐ¼Ñı Ð¼Ðµ
ĠÐºÐ°ÑĢÐ°Ð¼Ðµ Ð»
ĠÐºÐ»Ðµ ÑĩÐºÐ¸
ĠÑĩÐµÑĤ ÐºÐ°
Ð¡Ð¸ ÑĢÐµÐ½ÐµÑĤÐ¾
ĠÐ¿ÑĥÑħÐºÐ° Ð²
ĠÐ´ÑĢÐµÐ±Ð¾Ð»Ð¸ Ð¸
ĠÑĦÑĢÐ¸ Ð·ÐµÑĢÐ°
ĠÐ´Ð¾Ð¼Ð° ÑĪ
ĠÐĹÐ° Ð»Ð¸Ð²Ð°Ð¼Ðµ
ÐºÐ¾Ð»ÐºÐ¾ ÑĤÐ¾
ĠÐ·ÑĬÑĢ Ð½Ð°ÑĤÐ°
ĠÐ¾ÑģÑĤÐ°Ð½Ð°Ð»Ð¸ ÑıÑĤ
ÐĹ ÐµÐ»ÐµÑĤÐ¾
Ð»Ð¾Ð´Ð¾ Ð²ÐµÑĤÐµ
Ñĩ ÐµÐ½Ð¸
Ð´ ÑĢÐ°
ĠÐ¾ÑĤ Ð²Ð¾ÑĢ
ĠÑĢÐ°Ð· Ð¿ÑĢÐµÐ´
ĠÐ¡ Ð²Ð°ÑĢÑı
ĠÐŀ ÑīÐµ
ÑģÑı ÐºÑĬÐ´Ðµ
ĠÐ¾ÑĨÐµÑĤ ÑĬÑĤ
ÐĺÐ· ÑĩÐ¸ÑģÑĤ
ĠÐ·Ð°Ð¿ÐµÑĩÐµ ÑĤÐµ
ĠÐ»Ð¾ ÐºÑĥÐ¼
Ð» ÑĬ
Ð´ ÑĢÐµÐ±
ĠÐ½ ÐµÑģ
Ð¿ ÑĬ
ĠÐ´ Ñİ
ÐºÐ¾ ÑĢÐ¸
ĠÐ¸Ð· ÑĢÑıÐ·Ð²Ð°
ĠÐ¸Ð· ÑģÑĤÑĥÐ´
ĠÐ¸Ð·ÑģÑĤÐ¸ ÑģÐºÐ°
ĠÐ²ÑĢÑı ÑīÐ°ÑĤÐ°
ĠÐºÐµ Ð±Ð°Ð¿
ĠÐ¸Ð·Ð¿Ð¾Ð»Ð·Ð²Ð° Ñħ
ĠÐ¾Ð±Ðµ Ð»ÐµÑĤÐµ
ĠÑĢÐ°Ð·ÑĤÐ²Ð¾ÑĢ ÐµÐ½Ð°ÑĤÐ°
Ð¼ÐµÐº Ð½Ð°
Ð¿ÐµÑĢ Ð¶Ð¸
ĠÐ¼Ð°Ñħ Ð½ÐµÑĤÐµ
Ð¡Ð²Ð°ÑĢÑı Ð²Ð°Ð¼Ðµ
ĠÐ±Ð°Ð»ÑģÐ° Ð¼Ð¾
ÑģÑĥÑģÐ° Ð¼
ÑĢÐ° Ð½Ð¸ÑĤÐµ
ÑĢÐµ Ð·
ĠÐĹÐ° Ð¿Ð¸ÑĩÐ°ÑĤ
ĠÐĺÐ· ÑģÑĤÐ¸
ÑĢÐµÐ± Ð²Ð°
Ð¿ÑĢÐµ ÑģÐ½Ð¸
ĠÐ½Ð°ÑĤÑĢÐ¾ÑĪ ÐµÐ½Ð¸
ĠÐĺÐ·ÑģÐ¸Ð¿ Ð²Ð°ÑĤ
ĠÐ¿ÑĢÐµÐ´Ð¿Ð¾ÑĩÐ¸ÑĤÐ° Ð½Ðµ
ĠÑģ Ð¼Ð¾ÐºÐ¸
ĠÐ¿ ÑĬÑĤ
Ð¼ ÑĬÑĤ
Ð³ Ð»Ð°
Ð½Ð¸ Ðº
Ð¼Ðµ ÑĤÐ°
ĠÑı Ð´
Ð¾ÑĢÐºÐ¾ Ð²
Ð¡ Ð²Ð¸Ð½Ñģ
Ð¡ Ð²Ð°ÑĢ
ĠÐ·Ð°Ð³ÑĢÑı ÑĤÐ¾ÑĤÐ¾
Ð²ÐµÑĢ ÑģÐ°
ĠÐ¿Ð°Ðº ÐµÑĤÐ°
ĠÐºÐ¾Ð»Ð±Ð° ÑģÐ°
ĠÐ¾ÑģÐ¾Ð» ÑıÐ²Ð°
ĠÑĢÐµÑĪÐµÑĤÑĬ ÑĩÐ½Ð°
Ð´ Ð¸Ð½
Ð½Ð° ÐºÑĢÐ°Ñı
ĠÑĢÐ°Ð· ÑģÑĤÐ¸Ð»Ð°ÑĤ
ĠÑĤÐ¸ Ð¿
ĠÑģÐ²Ð° ÑĢÐµÑĤÐµ
ĠÐ¾Ð²Ð°Ð» Ñı
ĠÑĪÐ° ÑĢÐ°Ð½
ĠÐ±Ðµ Ð»Ð¸
ĠÐŁÐ¸Ð»Ðµ ÑĤÐ¾
ĠÐŀÐ±ÐµÐ» Ð²Ð°ÑĤ
Ñģ Ð¿ÐµÑĢÐ¶Ð¸
ÑĤ ÑĢÐ°
Ð»Ð° Ð¶Ð´Ð°ÑĤ
Ð¹ ÑĨÐµÑĤÐ¾
ĠÐ¾ÑĤ Ð²Ð°ÑĢÑı
ÑĢÐµÐ´ Ð²Ð°ÑĢÐ¸ÑĤÐµÐ»Ð½Ð¾
ĠÐ¼Ð¾ Ñī
ĠÑģÐ²Ð°ÑĢ ÐµÐ½Ð°
Ðľ Ð¾ÑĢÐºÐ¾Ð²Ð¸ÑĤÐµ
ĠÑĢÐ°ÑģÑĤÐ¸ ÑĤÐµ
Ð»Ð¸Ð¼Ð¾ Ð½
ĠÐ¸Ð·Ð¿Ð¾Ð»Ð·Ð²Ð° ÑĤÐµ
9 00
Ð ĹÐµÐ»
ĠÑģÐµ Ð·
Ñĥ ÑĤÐ°
ÑģÑĤ Ð²ÐµÐ½Ð¾
ĠÑĤÐ¾Ð¿ Ð»Ð¾ÑĤÐ¾
ÐŁ ÑĢÐ¾Ð´ÑĥÐºÑĤÐ¸ÑĤÐµ
ĠÐ¸Ð·Ð²Ð° Ð´ÐµÑĤÐµ
Ð±Ðµ Ðº
ĠÐ¸Ð·Ð²Ð°Ð¶Ð´Ð° Ð½ÐµÑĤÐ¾
ĠÐ½Ð°Ð¹ Ð»Ð¾
ĠÐĽ ÐµÐºÐ¾
ĠÑģÑĥÑĢÐ¾ Ð²Ð°
ĠÑģÐ²ÐµÑĤ Ð»Ð°
ĠÑģÐ²ÐµÑĤ Ð»Ð¾
ĠÑĢÐ°Ð·Ð¼ÐµÑĢ Ð¸
ĠÐ¾Ð³Ð½ÐµÑĥÐ¿Ð¾ÑĢ ÐµÐ½
ĠÐ¼Ð»Ñı Ð½
ĠÑĪÐ½Ð¸ÑĨÐµ Ð»Ð¸
ĠÐĴÐ½Ð¸Ð¼Ð° ÑĤÐµÐ»Ð½Ð¾
Ñģ ÐºÐ²Ð°ÑĤ
ÐºÐ¾ Ð²Ð°
ĠÐºÐ¾ Ð·Ñĥ
ĠÐ¡ Ð¾
ÐĹÐ° Ð¼ÐµÑģÐ²Ð°
ĠÑĥÐ¼ÐµÑĢ ÐµÐ½Ð¾
ĠÑģÐ³Ð¾ÑĢÐµÑī ÑıÐ²Ð°
ĠÐ²ÑĤÐ°ÑģÐ° ÑĤ
Ð¢ Ð¸ÐºÐ²Ð°ÑĤÐ°
ĠÐŁÐ¾ÐºÑĢÐ¸ Ð¹ÑĤÐµ
ĠÐ»ÑİÑģÐ¿Ð¸ ÑĤÐµ
ĠÑĢÑĥÐ» ÑĨÐ°
ĠÐºÐ¾ÑĤÐ»Ðµ ÑĤÐ¸
ĠÑģÐ²ÑĬÑĢÑĪ Ð°ÑĤ
ĠÐ½Ð°Ð¿ÑĢÐµ ÑĩÐ½Ð¾
ĠÐ ĹÐµÐ»
Ð² ÑĢÐµÐ¼ÐµÐ½Ð½Ð¾
Ñĥ ÑĤÐµÑĢ
ĠÐ½Ð° Ð¿Ð¾Ð»Ð¾Ð²Ð¸
ĠÐ¿Ð¾ Ð±Ðµ
ĠÑĢÐ°Ð· ÑĢÐµÐ´
ĠÐ·ÐµÐ» ÐºÐ°ÑĤÐ°
ĠÐ¿Ð° ÑģÑĤÐµ
ĠÐ¼ÐµÐºÐ¾ ÑĤÐ¾
ĠÐŁÐ¾Ð»Ñĥ ÑĩÐ°Ð²Ð°
ÐºÑĬ ÐºÑĢÐ¸
ĠÐ²Ð¸ÑģÐ¾ ÐºÐ°
Ð»ÑıÐ± ÑĬÑĤ
4 5
ĠÐ½Ð° ÑĩÑĥÐºÐ²Ð°
ĠÑĤÐµ ÑĩÐ°
ĠÐĿÐ° ÑĢÑıÐ·Ð°Ð½Ð¸ÑĤÐµ
ĠÐ²Ð¸ ÑĪÐ½Ð¸
ĠÑģÐ° Ð»Ð°ÑĤÐ¸
ĠÐ±Ð¾ Ñı
ĠÑģÑĤÑĥÐ´ ÐµÐ½
ĠÐ»Ðµ Ð¿Ð½Ðµ
ĠÐ´ÐµÑģ ÐµÑĢ
ĠÑģÐ°ÑĢÐ¼Ð¸ ÑĤÐµ
ĠÑĪÐ¸ÑĪ ÑĩÐµÑĤÐ°
ĠÐ¼Ð°Ñħ Ð°ÑĤ
ĠÐ³ÑĢÐ¾Ð· Ð´Ðµ
ĠÐ¿Ð¾ÐºÐ°ÑĦ ÐµÐ½Ðµ
ĠÑħÐ°Ð²Ð°Ð½ ÑĩÐµ
Ð ĹÐµÐ»ÐµÐ½ÑĩÑĥÑĨÐ¸ÑĤÐµ
ĠÐ± Ð»Ñİ
ĠÑĢÐ°Ð· Ð¼ÑĢÐ°Ð·
ĠÑĩÐµÑĢ Ð¿Ð°
ĠÐ·ÐµÐ» ÐµÐ½Ð¸ÑĤÐµ
ĠÑĩÐ¸Ð½Ð¸Ñı ÑĤÐ°
ĠÑĪÐ° ÑĦÑĢÐ°Ð½
ĠÑģÐ»Ð°Ð´ ÑĬÐº
ÑģÑĥ Ñħ
ĠÑģÑĤÑĢÑĥ Ñı
ĠÑĤÑĬÐ¼ ÐµÐ½
ĠÐ½Ð°Ð¿Ð¾Ð»Ð¾Ð²Ð¸ Ð½Ð°
ĠÑĤÐµÑĩÐ° ÑīÐ°
Ð¾ ÑĤÐ½Ð¾
ĠÐº ÑĬÐ»
ĠÐ· ÑĢÑĬÐ½
ĠÐŁ Ñĥ
ÐµÑģ ÑĤÐ¾
ĠÐ¿ÑĢÐ¸ Ð±Ð¸ÑĢÐ°
ĠÐ³Ð¾ÑĤÐ¾ Ð²Ð¸Ñı
ĠÐ¼Ð¸ Ð´Ð¸
ÐĿÐ° ÑĢÑıÐ·Ð°Ð½Ð¸ÑĤÐµ
ĠÑĥÐºÑĢÐ° ÑģÑıÐ²Ð°ÑĤ
ĠÐ»Ðµ Ð¿ÐºÐ°
ĠÐ·Ð°ÑĤÐ²Ð°ÑĢÑı ÑĤ
ĠÑģÑĤÐµÐ³ Ð½Ð°ÑĤÐ¾
ĠÐ²Ð°Ð½Ð¸Ð»Ð¾ Ð²Ð°
ĠÑĢÐ¾Ð» ÑĨÐ°
1 30
Ð¼Ð¾ Ðº
ĠÑĢÐ°Ð·Ð±Ð¸ ÑĤÐ°
ĠÑĥ Ð²Ð¸Ð²Ð°ÑĤ
ĠÐ¿ÐµÑĩ ÐµÐ½Ð°
Ð±Ð¾ Ð¶Ð´Ð°ÑĤ
Ð°Ð½ ÑĬÑĤ
ĠÐĹÐ°Ð¿ÑĬÑĢÐ¶ ÐµÑĤÐµ
ĠÑģÐ¸Ð¿ Ð²Ð°Ð¼Ðµ
1 70
ĠÐº ÑĢÐµÑħ
ĠÐ´ ÑĢ
ÐµÐ» ÐµÐ½Ð¸
ĠÐ·Ð°Ð´ÑĥÑĪ ÐµÐ½Ð¸
ÐŁ ÑĢÐ°
ĠÑĢÐ¾ Ð·Ð¾
ĠÑĢÐ°Ð·ÑĤÐ¾Ð¿ ÐµÐ½
ĠÑģÑĤÑĢÑĬÐº ÑĩÐµÑĤÐ°
ĠÐ¿Ð°ÐºÐµÑĤ ÑĩÐµÑĤÐ°
ĠÐ¾ÑħÐ»Ñİ Ð²
ĠÐ¿ÑĬÐ½ ÑĩÐµÑĤÐ°ÑĤÐ°
ĠÑĢÐµÑĨÐµÐ¿ ÑĤÐ°
ÑĦÐ»Ðµ Ð¹
Ð° Ð»Ð½Ð¾
ÑĨÐµ Ð»Ð¸Ð½Ð°
ÑĢÑĬ Ð·
ĠÐºÑĥ Ð¿
ĠÐ¾ÑģÑĤÐ°Ð²Ñı ÑĤÐµ
ĠÐ³Ð»Ð°Ð²Ð° ÑĤÐ°
ĠÐ»Ð¸Ð¼Ð¾Ð½ ÐµÐ½Ð°
ĠÐºÑĬ Ð´ÐµÑĤÐ¾
ĠÐŁÐ¾ÑģÐ¾Ð» ÐµÑĤÐµ
ĠÐ¸Ð¼Ð° ÑĤÐµ
Ð¿Ð°Ð³Ðµ ÑĤÐ¸ÑĤÐµ
1 6
Ġ ÑİÑĦ
Ðº ÑĤ
Ñĥ Ñħ
ĠÐ½Ð° Ð»Ð¸Ð²Ð°Ð¼Ðµ
ĠÐĴ ÑģÐµÐºÐ¸
ĠÐĴ Ð·ÐµÐ¼Ð°
ĠÑģÐ¼ÐµÑģ ÐµÐ½Ð°
Ð¾Ð»Ð¸ Ð²Ð°Ð¼Ðµ
ĠÐ¿Ð¾ÐºÑĢÐ¸ Ð²Ð°Ð¼Ðµ
ĠÐ¡Ð»Ð°Ð³Ð° ÑĤÐµ
ÐºÑģ ÐµÐ»
ĠÐ¼Ðµ ÐºÐ¸
ĠÐł ÐµÐ´
ĠÐºÐ¾ÐºÐ¾ÑģÐ¾Ð²Ð¸ ÑĤÐµ
ĠÐ¢Ð¾ Ð¿
ĠÐ´ÑĢÐµÐ±Ð¾Ð»Ð¸ Ð¸ÑĤÐµ
ĠÑģÑĬÑĢÑĨÐµ Ð²Ð¸Ð½Ð°ÑĤÐ°
ĠÐ±Ð¾Ð½ Ð±Ð¾
ÑĨÑı Ð»Ð¾
ĠÐ¿Ð¾ Ð¶ÑĬÐ»
Ð³Ð° ÑĢÐ¸Ð½
ĠÐ²ÑĤÐ° ÑģÐ²Ð°
ĠÐ³ÑİÐ²Ðµ ÑĩÐµ
ĠÐ¿Ð¾Ðµ Ð¼Ð°ÑĤ
ĠÐ³ÑĢÐ¸ ÑģÐ°
ĠÑĨÑı Ð»Ð¾ÑĤÐ¾
ĠÐ½Ð°ÑĤÑĢÐ¾ÑĪÐ° Ð²Ð°ÑĤ
Ð¾ÑĢÐµÑħ Ð¸
Ð½ ÑĦÐ»ÐµÐ¹
ÑĤÐ° ÑĢÑı
Ð½Ðµ Ð·
Ñİ ÐºÑģÐµÐ»
ĠÐºÐ¸ Ð²Ð¸
Ð¿Ð¾ Ð½Ðµ
Ð´Ð¾ Ð²Ðµ
ĠÐ¿ÑĥÐ´ Ð¸Ð½Ð³
ĠÐ½Ð°Ð¿ÑĬÐ» Ð²Ð°
ÑģÑĤÐµ Ð»ÐµÑĤÐµ
ĠÐ¿Ð°Ð½Ð¸ ÑĢÐ°
ĠÐ¿ÑĢÐµÑĤÑĢÐ¸ Ð²Ð°ÑĤ
ÐŀÐ±ÐµÐ» ÐµÐ½Ð¸ÑĤÐµ
ĠÑģÐ°Ð» ÑĦ
ĠÐ¾ÑĦÐ¾ÑĢ Ð¼ÐµÑĤÐµ
ĠÐ¡Ð²Ð°ÑĢ ÐµÐ½Ð¸ÑĤÐµ
Ð¼ÐµÐ½ÑĤÐ° Ð»
ĠÐ¼Ð°Ðº ÑģÐ¸
ĠÐ´Ð¾Ð¼Ð°ÐºÐ¸ Ð½ÑģÐºÐ¾
ĠÐ·Ð°Ð³ÑĢÐµ Ðµ
ĠÑĢÑĬÑģ Ð¸
ĠÑģÐºÑĥÐ¼ ÑĢÐ¸Ñı
ĠÐ°Ð½ ÑĪÐ¾
Ñģ Ð²Ð°ÑĢ
ĠÑģ ÐºÑĬÐ»
Ð» ÐºÐ°ÑĤÐ°
Ñĥ Ð¼
ĠÐ¾ Ñģ
ĠÐ± Ð°ÑĢ
ĠÐºÐ° ÑĪÐ¸
Ð°ÑĢ ÑĦÐ¸Ð¾Ð»
Ð¼Ð¾ Ð½Ñı
ĠÐ¶ÐµÐ»Ð° ÑĤÐ¸Ð½Ð°
ĠÑĨ ÐµÐ½
ĠÐ½Ð°ÑģÑĤÑĬÑĢÐ³ Ð²Ð°Ð¼Ðµ
ĠÑģÐ¿Ð°Ð½Ð°Ðº ÑĬÑĤ
ĠÐŀÐ²ÐºÑĥÑģ ÐµÑĤÐµ
ĠÑĢÐ¸Ð± ÐµÐ½
ĠÐºÐ°ÑĦÑı Ð²
ĠÑģÐ¼Ð° ÑĩÐºÐ°
ĠÐ¶ÑĬÐ» ÑĤÐ°
ĠÑĥÐºÐ°Ð·Ð°Ð½Ð¸ ÑıÑĤÐ°
ĠÐ¸ÑģÐºÐ° ÑĤÐµ
Ðµ Ð»ÐµÑĤÐµ
Ð½Ð° Ð»Ð°ÑĤÐ°
Ð²Ñı Ð²Ð°ÑĤ
ĠÐ¼Ð°Ñģ Ð»ÐµÐ½Ð¾
ĠÐºÑĥ ÑĤÐ¸Ñı
ĠÐļ ÑĢÐ°ÑģÑĤÐ°
Ð½Ð¸Ñı ÑĤÐ°
ĠÐ³Ð¾ÑĤÐ¾ Ð²Ð¸ÑĤÐµ
ĠÐ¸Ð·Ð¼Ð¸ Ð²Ð°Ð¼Ðµ
ĠÐ±ÑĥÑĢÐºÐ°Ð½ ÑĩÐµÑĤÐ°
ĠÐ±ÑĢÐ¾ÐºÐ¾Ð» Ð¸ÑĤÐµ
ĠÑĦÐ¸Ð»ÐµÑĤÐ° ÑĤÐ°
ÑĢÑıÐ·Ð°Ð½Ð¸ ÑıÑĤ
ĠÐºÑĢÑĥÑĪ Ð¸
ĠÐ² ÐºÑĥÑģÐ°
ĠÑģÐ¸ Ð½Ð°Ð¿
ĠÐ¼ÐµÑģ Ðµ
ĠÐ»ÑĥÐºÐ° Ð½
ĠÐĳ Ð°
ĠÐ±ÑĬÑĢÐºÐ° Ð»ÐºÐ°
ĠÑģÐµÑĢÐ²Ð¸ÑĢÐ° Ð¹ÑĤÐµ
ĠÐ¿Ð»Ð¾ ÑĤ
ĠÐºÐ²Ð°Ð´ÑĢÐ°ÑĤ ÑĩÐµÑĤÐ°
ĠÑģÐµÐ· Ð¾Ð½Ð°
Ð±ÐµÐº Ñİ
Ð² ÐµÐ½Ð°ÑĤÐ°
Ð³ ÑĥÑĢÐ°
Ð¼Ðµ Ð·Ð°Ð½Ð°
Ð½Ñģ ÐºÐ¸
ĠÐ·Ð°Ð´ÑĥÑĪ ÐµÐ½
ĠÐĹÐ°Ð¿ÑĬÑĢÐ¶ Ð²Ð°Ð¼Ðµ
ĠÐºÑĢÐµÐ½Ð²Ð¸ÑĢ ÑĪÐ¸ÑĤÐµ
ĠÐ¤ Ð¸Ð»Ðµ
ĠÑģÑĬÑĢ ÑĨÐ°
ĠÐ¸Ð·ÑĨÐµÐ´ ÐµÐ½
ĠÐ¿Ð¾ÑĩÐ¸ ÑģÑĤÐµÑĤÐµ
ĠÐ¢Ð¾ Ð³Ð°Ð²Ð°
ĠÐ¸Ð·Ð»Ð¸ Ð·Ð°
ĠÐ½Ð°ÑĤÑĢÐ¸ Ð²Ð°
ĠÐ¿Ð¸ÐºÐ°Ð½ ÑĤÐ¸Ð½Ð°
ÑİÐºÑģÐµÐ» ÑģÐºÐ¾
ĠÐ¿Ð¾ ÐºÑĬÐºÑĢÐ¸
ĠÐŀ ÐºÐ¾Ð»Ð¾
ÐµÐ´ ÑĬÑĢ
ĠÑĩÐ¸ ÑģÑĤÐ°
Ð²ÐµÑĢ ÑıÐ²Ð°
ÑĨÐ°ÑĢÐµ Ð»Ð°ÑĤÐ°
Ð¾Ð± ÑĬÑĤ
ĠÐ¾ÑĤÑĨÐµÐ´ ÐµÑĤÐµ
ĠÐ¿Ð»Ð° ÑĤÐ¾
ĠÐ¿ÑĢÐ¸Ð³Ð¾ÑĤÐ² ÐµÐ½Ð°
ĠÑģÐ¾Ðµ Ð²Ð¸ÑıÑĤ
ĠÐ¨ Ð¾ÐºÐ¾Ð»Ð°
ĠÐ¿ÑĢÐµÑĤÑĢÐ¸ Ð²Ð°
ĠÐºÐ¾Ð½ÑģÑĥ Ð¼Ð¸ÑĢÐ°
ĠÐ²Ð¸Ð½ ÐµÐ½
ĠÐºÑĢÑĥÑĤÐ¾ Ð½Ð¸
Ð» ÐµÐ½Ð¾ÑĤÐ¾
ĠÐ½Ð° Ð»Ð¸Ð²Ð°ÑĤ
ÐºÐ° ÑĢÑĤÐ¾
ĠÑģÐ¸ ÑĢ
ĠÐĴ Ðµ
ĠÐĿÐ° Ð²Ð¸Ð²Ð°
ĠÐ²Ð¸ ÑĪ
ĠÐ´Ð¾Ð¼Ð°ÑĤ ÑĩÐµÑĤÐ°
ĠÐ¼Ð°ÑĢÐ¸ Ð½Ð¾
Ðĳ Ð¸ÑģÐºÐ²Ð¸ÑĤÐ¸ÑĤÐµ
ĠÑĨÑı Ð»Ð¾
ĠÐ¿Ð»Ð¸ ÑĤÐºÐ°
ĠÐºÑĢÐ¸ÑģÑĤÐ° Ð»Ð½Ð°
ĠÐ½ÐµÐ·Ð° Ð»ÐµÐ¿Ð²Ð°
ĠÐ±Ð»Ñİ Ð´Ð¾
ĠÐ½Ð° Ð¼Ð¾Ðº
ĠÐ¾ Ð¿Ð¸
Ð¶ Ð½Ð¾ÑģÑĤ
Ð±Ð¸ ÑĢÐ°ÑĤ
ĠÐŀ Ð±ÐµÐ»ÐµÑĤÐµ
ÑģÐ¸ ÑĤÐ½Ð¾
ĠÐľ Ð»ÑıÐºÐ¾ÑĤÐ¾
ÑĤÐ¾Ð¿ ÐµÐ½Ð¾
ĠÐ¸Ð·Ð²Ð° Ð´ÑıÑĤ
ĠÑģÐ¸ÑĢÐ¾ Ð¿Ð¸ÑĢÐ°
Ð¿Ð¾Ð´Ð¿ÑĢÐ° Ð²ÐºÐ°
ĠÐ´ÑĬÑĢÐ¶ Ð°ÑĤ
ĠÐ±Ð°Ð¼ Ñı
Ñģ Ð²Ð¸Ð½Ñģ
ĠÐ½Ð° Ð½Ð¸
ĠÐ·Ð° Ð³Ð°ÑĢ
ĠÐŀ Ð»Ð¸Ð¾ÑĤÐ¾
ĠÐ° ÑģÐ¿ÐµÑĢÐ¶Ð¸
ĠÐ° Ð¼Ð¾Ð½Ñı
ĠÑģÑĬ ÑīÐ¾ÑĤÐ¾
ÐĹÐ° Ð³ÑĢÐµÐ¹ÑĤÐµ
ĠÐłÐ°Ð· ÑĤÐ¾Ð¿
ĠÐºÑĢÐµ Ð¼Ð¾
ĠÐ±ÑĬÑĢÐºÐ° Ð¹ÑĤÐµ
ĠÐºÑĢÑĬÐ³ Ð»Ð¸
Ð³Ðµ ÑĤÐ°ÑĤÐ°
ĠÐ²Ð°ÑĢ ÐµÐ½Ðµ
ĠÐ¿Ð»Ð° ÑģÑĤÐ¾
ĠÐºÐ¾Ð½Ñı ÐºÐ°
ĠÐĸ ÐµÐ»Ð°
ĠÐŁÐ¸Ð»Ðµ ÑĪÐºÐ¾ÑĤÐ¾
ĠÐ±Ð°ÑĢ Ð±ÐµÐºÑİ
ĠÑĨÐµÐ½ ÑĤÑĬÑĢÐ°
Ð± Ð»Ð¸Ð·Ð¸
Ð»Ð¸ ÑıÑĤ
Ð½Ð°ÑĤÐ° ÑĢ
ÑĩÐ¸ Ð½Ð°
ĠÐĹÐ° Ð»ÐµÐ¹ÑĤÐµ
Ð¿Ð¾ ÑģÑĢÐµÐ´
ÐŁ ÑĢÐ°Ð·ÑĬÑĤ
ĠÐ¿Ð¾Ð»Ð¾Ð²Ð¸ Ð½Ð¸
ĠÐ±Ñĥ ÑĤÐ¸
ĠÑħÐ° Ð¹
ĠÐ¾ÑĤÑĨÐµÐ´ ÐµÐ½Ð¸ÑĤÐµ
ĠÐĵÐ¾ÑĤÐ¾ Ð²Ð¸ÑıÑĤ
ĠÑĩÐ°ÑĪÐ° ÑĤÐ°
ĠÐł Ñĥ
ĠÐ¿ÑĢÐ¸Ð³Ð¾ÑĤÐ² ÐµÐ½Ð¸Ñı
ÐºÐ¸ÑģÐµ Ð»Ð¾
ĠÐ¾ÑĤÐ²Ð¾ ÑĢÐ°
ĠÐºÐ¾Ð½Ð´ÐµÐ½Ð·Ð¸ÑĢÐ° Ð½Ð¾
ĠÑĩÐ¾ÑĢ Ð±Ð°
ĠÐ¼Ð°Ð¹Ð¾ ÑĢÐ°Ð½Ð°
2 40
Ð´ Ð¾Ð²Ð¸
ĠÑĤ ÑĬ
ĠÐ½Ð°ÑĢÑıÐ·Ð²Ð° ÑĤÐµ
ĠÐ¿ÑĢÐ¾ Ð³ÑĢÐ°
ĠÐľ ÐµÑģÐ¸
ÐĿÐ° Ð¼Ð°
ÐĴÑģÐ¸Ñĩ ÐºÐ¾
ĠÐ´ÑĥÐ¿ ÐºÐ°
ĠÐ¿Ð¾Ð·Ð°Ð¿ÑĬÑĢÐ¶ Ð¸
ĠÐ½Ð°ÑĤÑĥÑĢÐ° Ð»Ð½Ð¾
ĠÐ°Ð½ÑĪÐ¾ Ð°
Ð¾ ÑĤÐ°
Ñģ Ð¼ÐµÑĤÐ°
Ðº ÑĤÐµÐ¹
ÐµÐ½ Ð´Ð¸
ĠÐ³ Ð½ÐµÐ·
Ð»Ð¸ Ð½Ð¸ÑĤÐµ
Ð¼Ðµ ÑģÑĤ
ĠÐ±ÑĢ ÐµÐ½Ð´Ð¸
Ð½Ðµ ÑģÐµÑĤÐµ
ĠÐºÐ¸ Ñģ
ĠÐļ Ð¾Ð½
ĠÑģÑĤÐ° Ð²Ð°ÑĤ
ĠÐĶÐ¾Ð±Ð°Ð²Ñı ÑĤÐµ
ĠÐ±ÐµÐºÐ¾Ð½ ÑĬÑĤ
ĠÐ¿ÑĢÐ¸Ð³Ð¾ÑĤÐ²Ñı Ð½Ðµ
ĠÐ²Ð°ÑĢ ÐµÐ½Ð¾
ĠÑģÑĬÑģÑĤÐ° Ð²ÐºÐ¸ÑĤÐµ
ĠÐ»Ð¾ Ð·Ð¾Ð²Ð¸
ĠÐ¿Ð¸ÑĤ ÐºÐ°
ĠÐ±Ð»Ð°Ð½ÑĪÐ¸ ÑĢÐ°ÑĤ
ĠÑħÑĢÑĥÐ¿ÐºÐ° Ð²Ð¸
ĠÐºÑĢÐ¸Ð» ÑĨÐ°
ĠÐ¿ÑĢÐµÐºÐ° Ð»ÐµÐ½Ð¾
ĠÐ¼Ð¾Ñī Ð½Ð¾ÑģÑĤ
Ð ¦
Ð½ ÐµÐ½Ð°ÑĤÐ°
Ð» ÑĥÐº
Ñĩ ÐºÐ¾
ĠÑĤÐµ Ð·Ð¸
ÑģÐ¸ ÑĤÐµ
ĠÐŁÐ¾ ÑħÐ»ÑĥÐ¿Ð²Ð°
ÐµÐ´ Ð¸Ð½
ĠÑĢÐµ Ð¾ÑĤÐ°
ĠÑĦÐ¸Ð»Ð¸ Ð¹ÐºÐ¸ÑĤÐµ
ĠÐ½Ð°ÐºÐ¸Ñģ Ð½Ð°ÑĤ
ĠÐºÑĥÐ±ÑĩÐµ ÑĤÐ¾
ĠÐĺÐ·Ð²Ð°Ð¶Ð´Ð° Ð¼Ðµ
ĠÐ¿Ð¾Ð»ÑĥÑĩ ÐµÐ½Ð¾ÑĤÐ¾
ĠÑĢÐ°Ð·ÑĢÐµ Ð·Ð¸
ĠÑĥÐ½Ð¸ Ð²ÐµÑĢÑģÐ°
ĠÑĢÐµÐ± ÑĢÐ°
ĠÐ¾Ð²Ð½Ðµ ÑĪÐºÐ¾
ÑĤ Ð½Ð°
ÑĪ Ð¾ÐºÐ¾Ð»Ð°
Ð¼Ð° Ð»Ð°
ĠÐºÐ° ÑĪÑĥ
ĠÐ±ÑĢ ÑİÐºÑģÐµÐ»ÑģÐºÐ¾
ĠÑģÐ¾ Ð±
ĠÑĤÐ²ÑĬÑĢ Ð´Ð¸
ĠÐ´ÑĬÑĢÐ² ÐµÐ½Ð¾
ĠÑĨÐ¸Ð¿ Ð¸ÑĤÐµ
ĠÐ¿Ð¾ÑģÐ¾ ÑĩÐµÐ½Ð¸ÑĤÐµ
ĠÑĪÐºÐµÐ¼ Ð±Ðµ
ĠÐ²ÑĬÐ·Ð¼Ð¾ Ð¶Ð½Ð¾ÑģÑĤ
ĠÑģÐµ Ð´
Ð· ÐµÐ»Ð°
ĠÐºÐ° Ð¿ÐºÐ°
ĠÐ¸Ð· ÑħÐ²ÑĬÑĢ
ĠÐµ ÑģÑĤÑĢÐ°Ð³Ð¾Ð½
ÐŁ ÑĢÐµ
ĠÐ·Ð°Ð³ÑĢÑıÑĤÐ° ÑĤÐ°
ĠÐ±ÑĬÑĢÐºÐ° ÑĤ
ÑģÐ¾ Ñģ
ĠÑĢÑĬÑĨÐµ ÑĤÐµ
ĠÐŁÐ¾Ñģ Ð»ÐµÐ´
ĠÐ¾ÑģÐ¾Ð» ÑıÐ²Ð°ÑĤ
ÐĶÐ¾ Ð±ÑĢÐµ
ĠÐ¸Ð·ÐºÐ»Ñİ ÑĩÐ²Ð°
ĠÐ·Ð°Ð¿Ð° Ð·Ð²Ð°
ĠÐ¿ÑĢÐ°Ð²Ð¾ÑĬÐ³ÑĬÐ»Ð½Ð¸ Ðº
ĠÐ¿Ð¾Ð´Ð½Ðµ ÑģÐµ
Ðµ Ð´Ð°
ÑĤ ÑıÐ²Ð°Ð½Ðµ
Ð½Ð° ÑĢÑıÐ·Ð°Ð½Ð¸
ĠÐ¼Ð° ÑĪ
ĠÐ¾ÑĤ ÑĤÐµÐ³Ð»Ñı
ĠÐĴ ÐµÐ´
ĠÑħ Ð²Ð°Ð½Ðµ
ĠÐŁÑĢÐ¸ Ð³Ð¾ÑĤ
ĠÐ¢ Ð¾ÑĢ
ĠÐ¾ÑĤÐ´ÐµÐ» Ð½Ð°
ĠÐ¿Ñĥ Ð¹ÐºÐ°ÑĤÐ°
ĠÐ½Ð°ÐºÐ¸Ñģ Ð½Ð°
Ð»ÐºÐ¾ Ñħ
ĠÑĤÐ¾ÑĢ ÑĤÐ¸
ĠÐ½Ð°ÐºÑĬÑģ Ð°
ÐľÐ° ÐºÐ°ÑĢÐ¾Ð½Ð¸ÑĤÐµ
ĠÐŀÑģÑĤÐ°Ð½Ð° Ð»Ð¾ÑĤÐ¾
Ð·ÐµÐ» ÐµÐ½Ð¸
Ðĸ ÑĬÐ»ÑĤÑĬÑĨÐ¸ÑĤÐµ
ĠÑĢÐµÐ¿Ð¸ ÑĩÐºÐ¸
ĠÐºÐ°ÑĢÐ´Ð°Ð¼Ð¾ Ð¼
ĠÐŁÑĢÐµÑģÑĤÐ¾ ÑıÐ²Ð°
ĠÐ¿Ð°ÑģÑĤÐµ ÑĤ
Ð¿Ð¾ÑģÑĢÐµÐ´ ÑģÑĤÐ²ÐµÐ½Ð¾
2 4
ÐºÐ¾ ÐºÐ¾
Ð¼Ð° Ð¹Ð¾Ð½ÐµÐ·Ð°
Ð¹ ÑģÐºÐ¸
ĠÐ¼Ð°Ñģ ÐºÐ°ÑĢ
ÑģÑĤÐ¸ ÑĤÐµÐ»Ð½Ð¾
Ð¶Ð¸ ÑĤÐµÐ»Ð½Ð¾
ĠÐ¿Ð¾Ð´Ð¿ÑĢÐ°Ð² ÐºÐ°ÑĤÐ°
ĠÐ½Ð°Ð¼Ð°Ð· Ð°Ð½Ð¸
ĠÐ¸Ð·ÑĩÐ¸ÑģÑĤ ÐµÐ½Ð¸
ĠÐ¤ Ð¾ÑĢ
ĠÑģÑĥÑĢÐ¾ Ð²Ð¾
ÑĥÑĤ ÑĩÐµÑĤÐ°ÑĤÐ°
ĠÐŀÑģÑĤÐ°Ð½Ð° Ð»Ð°ÑĤÐ°
ĠÐ·ÐµÐ»ÐµÐ½ÑĩÑĥÐºÐ¾ Ð²Ð°ÑĤÐ°
ĠÐ¾Ð²ÐµÑģ ÐµÐ½Ð¸ÑĤÐµ
ĠÐ·Ð°Ð¿Ðµ ÑĩÐ°ÑĤ
ĠÐ°ÑĢÐ¾Ð¼Ð°ÑĤ Ð½Ð¸
ĠÐ°ÑĢ Ð¿Ð°Ð´Ð¶Ð¸Ðº
ĠÑģÐµÐ´ Ð¼Ð¸
ÑĪ ÐµÐ½Ð¸Ðµ
ĠÐ´Ð¾ Ð±Ð¸Ðµ
ÑĢÐ¾ ÐºÐ¾Ð»
ĠÐ·Ð°Ð´ÑĥÑĪÐ° Ð²Ð°Ð½ÐµÑĤÐ¾
ĠÐ¼Ð¾ Ð¶ÐµÑĤÐµ
ĠÑģÑĬÐ´ ÑĬÑĤ
ĠÐ¸Ð·Ð¿Ð¾Ð» Ð·Ð²Ð°ÑĤ
ĠÑĢÐ°Ð·ÑĤÐ²Ð¾ÑĢ ÐµÐ½Ð°
Ð¿Ð¾Ð» Ð·Ð²Ð°
ĠÐ¸Ð·Ð»Ð¸ ÑĪÐ½Ð°ÑĤÐ°
ĠÐ¼Ð°ÑĪ Ð¸Ð½
Ð¾ Ð²Ð°ÑĤ
Ð¾ Ð²Ð°ÑĤÐ°
Ð· ÑĬÑĢÐ½Ðµ
ÑĤÐµ Ð»Ðµ
ĠÐ² ÑĢÑıÑĤ
Ð¼Ðµ Ð»Ð°
Ð²Ð¸ Ð´
Ð¼Ð° Ñħ
ÑĦ Ð°
ĠÑģÑĬ Ð¾ÑĤÐ½Ð¾
ĠÐĹÐ° ÑĤÐ²Ð°ÑĢÑı
ÐĹÐ° ÑħÐ°ÑĢÑĤÐ°
ĠÐ²Ð° ÑĢÐµÑĤÐµ
ĠÐ¿Ð¾ÑĢÑĬÑģÐ²Ð° ÑĤÐµ
ĠÐ¸Ð·ÑģÑĤÐ¸ ÑģÐºÐ²Ð°
ĠÐ³Ð¾ÑĢÐµ ÑīÐ¸Ñı
ĠÐ²Ð¾Ð´ ÐµÐ½Ð¸
ĠÑĨÐ°ÑĢÐµÐ²Ð¸Ñĩ Ð½Ð¾ÑĤÐ¾
ĠÐºÐ°ÑĢÐ°Ð¼Ðµ Ð»Ð°
Ð³Ð¾Ð»Ñı Ð¼
ĠÐ±Ð°Ð»ÑģÐ° Ð¼Ð¸
ĠÐ¼Ð°Ð½ Ð´Ð°
ĠÑģÐ¾Ð± ÑģÑĤ
Ð» Ð½Ð°ÑĤÐ°
Ñĩ ÐµÐ½Ð°
Ñĥ Ð´Ð°
Ð½Ð° Ð¹
ÐµÐ½Ð´ Ð¶Ðµ
ĠÐ¡ÐµÑĢÐ²Ð¸ÑĢÐ° Ð¼Ðµ
ĠÐ¿Ð¾ÑĢÑĤÐ¾ÐºÐ° Ð»Ð°
ĠÐ¿ÑĬÑĢ Ð²Ð°ÑĤÐ°
ĠÐŁÐ¾ÑģÐ¾Ð»ÑıÐ²Ð° Ð¼Ðµ
ĠÐºÑĬÑĢÐ¸ ÑĤÐ¾
ĠÐ¿ÑĥÑģ Ð½Ð°ÑĤ
ĠÑģÐ»ÑĬÐ½ÑĩÐ¾Ð³Ð»ÐµÐ´ Ð¾Ð²Ð¸
ĠÐ¿ÑĢÐ¸Ð´Ð¾ Ð±Ð¸Ðµ
ÐºÐ»Ð° ÑīÐ°
Ð±Ð»Ð¸Ð·Ð¸ ÑĤÐµÐ»Ð½Ð¾
ĠÐ½Ð° Ð¿ÑĢÐ¸Ð¼ÐµÑĢ
ĠÐ·Ð° Ð¿ÐµÑĩÐµÐ½Ð¸
ĠÐ¼Ð° ÑĪÐ¸
ĠÐ¼Ð° Ð½Ð°ÑĤÐ°ÑĢ
ĠÐ´Ð° Ð»Ð¸
ĠÐ¡ ÑĬÑģ
ĠÐĿÐ° ÑĢÐµÐ´ÐµÑĤÐµ
ĠÐºÐ¾Ð½ÑģÐµÑĢ Ð²Ð°ÑĤÐ°
ĠÐ¿Ð¸Ð»ÐµÑĪÐºÐ¸ Ñı
ĠÐ¿ÑĢÑĬ ÑģÑĤÐ°
ĠÐ±Ð°Ð½Ð¸ ÑĨÐ°ÑĤÐ°
Ð·ÐµÐ» ÐµÐ½ÑĩÑĥ
ĠÐ¿ÑĬÐ»Ð½Ðµ Ð¶
ĠÑĢÐµÐ¾ÑĤÐ° Ð½
ĠÑģ ÑĩÑĥÐ¿
Ñħ Ð°Ð½
ĠÐ¼Ð° Ð¶Ð°ÑĤ
Ġ2 6
ĠÐ¾ÑģÑĤÐ° Ð²Ð¸
ĠÐ¯ Ð±ÑĬÐ»ÐºÐ¸ÑĤÐµ
ĠÐ½Ð°ÑĤÑĢÐ¾ÑĪ ÐµÐ½Ð¸ÑĤÐµ
ĠÑĤÐµÐ¼Ð¿ÐµÑĢÐ°ÑĤ ÑĥÑĢÐ°ÑĤÐ°
ĠÐ¿Ð¾Ð¿Ð°ÑĢ Ð²Ð°
ĠÐ´Ð¾Ð» Ð½Ð°ÑĤÐ°
ÑĢÑıÐ·Ð° Ð½Ð¾ÑĤÐ¾
ĠÑģÑĬÑħ ÑĢÐ°Ð½ÑıÐ²Ð°
ĠÐľÐµÐ¶Ð´Ñĥ Ð²ÑĢÐµÐ¼ÐµÐ½Ð½Ð¾
Ð¤Ð¸Ð»Ðµ ÑĤÐ¾
ĠÑĤÐ¾ÑĩÐ¸ Ð»ÐºÐ°
ĠÑģÑĬÐ¾ÑĤÐ½Ð¾ ÑĪÐµÐ½Ð¸Ðµ
Ð½ ÐµÐ½Ð¸ÑĤÐµ
ĠÐ² Ð»Ð°Ð¶
Ð»Ðµ Ð·Ðµ
ĠÐ¸Ð· ÑĩÐµÑĢ
ÑĬÑģ ÐºÐ°
ĠÐŁ Ð¾Ð»Ð¸Ð²Ð°
ÑĦÐ¸ Ð»Ðµ
Ð½Ñģ ÐºÐ°
ĠÐ´Ð¾Ð¼Ð°ÑĤ ÐµÐ½Ð°
ĠÑĢÐ¸ Ð³Ð°Ð½Ð°
ĠÐ¢ Ð¾Ð²Ð°
ĠÐ³Ð¾ÑĢÐµ ÑīÐ¾ÑĤÐ¾
ĠÑģÐ»Ð¾ Ð¶Ð°ÑĤ
ÑĪÐºÐ°Ð²Ð°Ð» ÑĬÑĤ
ĠÐ²Ðµ Ð³ÐµÑĤÐ°ÑĤÐ°
ĠÐºÐ¾Ð»Ð¸ÑĩÐµÑģÑĤ Ð²Ð¾ÑĤÐ¾
ĠÐŁÐ¾Ð»ÑĥÑĩ ÐµÐ½Ð¾ÑĤÐ¾
ĠÐĵÐ°ÑĢÐ½Ð¸ ÑĢÐ°
ĠÐ¿ÑĬÐ»Ð½Ð¾Ð·ÑĬÑĢÐ½Ðµ ÑģÑĤÐ¾
ĠÑģÐ°Ð»ÑĦ ÐµÑĤÐºÐ°
ĠÐº ÑĬÑĢ
ĠÐ¾ÑĤ ÑĢÑıÐ·Ð²Ð°ÑĤ
ĠÑĩÐ° ÐµÐ½Ð¸
Ð¿Ð¸ Ñı
ĠÐ¼Ð¸ Ð´Ð¸ÑĤÐµ
ĠÐ¾Ð²Ð°Ð» Ð²Ð°Ð¼Ðµ
ĠÑĢÐ°Ð·Ð±Ð¸Ð²Ð° ÑĤÐµ
ĠÐ¸Ð·ÑĩÐ¸ÑģÑĤ ÐµÐ½Ð¸ÑĤÐµ
Ð½Ð°ÑģÑĤÑĬÑĢ Ð³Ð°Ð½
Ð¼Ð°ÑĢ Ð³Ð°ÑĢÐ¸Ð½
ĠÐ¿Ð¾ÐºÑĢÐ¸ÑĤÐ¸ Ðµ
ĠÐŀÑĤÑģÑĤ ÑĢÐ°Ð½ÑıÐ²Ð°
ĠÐ²ÐµÑĩÐµÑĢ ÑĤÐ°
ÑģÐ¼Ð»Ñı Ð½
ĠÐ±Ð°Ð»ÑģÐ°Ð¼Ð¾ Ð²
ÐµÐ½Ð¸ ÐºÐ°
ĠÐ¢ Ð°Ð·Ð¸
ĠÐ¿ÑĢÐ¸Ð³Ð¾ÑĤ Ð²Ð¸
ÐĿÐ° ÐºÐ¸Ñģ
ĠÐºÐ¸Ð¿ Ð²Ð°ÑĤ
ĠÑħÐ¾Ð¼Ð¾Ð³ ÐµÐ½Ð¸
ĠÑĢÐ°Ð·ÑĤÐ²Ð¾ÑĢ ÐµÐ½Ð¾
ĠÐ¸Ð·ÑĨÐµÐ´ ÑıÑĤ
ĠÐ¾ÑģÑĤÑĬÑĢ Ð³
ĠÑĩÐµÑĢÐ¿Ð° Ðº
ĠÐ¿Ð¾Ð¶ÑĬÐ» ÑĤÑıÐ²Ð°Ð½Ðµ
ĠÐĴÐµÐ´ Ð½Ð°Ð³Ð°
Ñı Ð¹
ÑĢÐ° Ð¼
ĠÑĩ Ð¾
ĠÑģÐ¾Ð» ÐµÐ½Ð¾
ĠÑħ ÑĢÑıÐ½
ĠÑĤÐ¾Ð¿ ÑĩÐµÑĤÐ°ÑĤÐ°
ÐºÑĥÑģ ÐºÐ°
Ð´Ðµ Ð±Ðµ
ĠÐºÐµ ÐºÑģÐ°
ĠÐ¾Ð±Ð¸ ÑĩÐ°
ĠÐŁÐ¾ÐºÑĢÐ¸ Ð²Ð°ÑĤ
ĠÐ±Ðµ Ð»Ð¸Ñı
ÑĪÐµ Ð¿Ð°
ĠÐ¿ÑĥÐµ ÑĪÐºÐ¾
ĠÐ¿Ð¾Ð´ÑģÐ»Ð°Ð´ ÐµÐ½Ð¾
ĠÑģ Ð²Ðµ
Ð» ÑĬÑĤ
Ñĩ ÐµÐ½Ð¾ÑĤÐ¾
ÑĪ Ð°ÑĢ
ĠÑģÑĥ Ð¿
ĠÐ¸Ð·Ð¼Ð¸ ÑĤÐ°
ĠÑģÐ²Ð°ÑĢÑı Ð²Ð°Ð½Ðµ
ĠÐŁÐ¾Ð´ Ð½ÐµÑģÐµÑĤÐµ
ĠÐŁÑĢÐµ ÑĨÐµÐ¶Ð´Ð°
ÑĢÐ°Ð½ Ð·ÐµÐ»Ð°
ĠÐ¿Ð¾Ðµ Ð¼Ð°
ĠÐ¿Ð¾ÑĢÑĤÐ¾ÐºÐ°Ð»Ð¾ Ð²Ð°
ĠÐ²ÑĤÐ¾ ÑĢÐ¸
ĠÐ±Ð»Ð°ÑĤÐ¾ Ð²Ðµ
ĠÐ¾ÑĦÐ¾ÑĢ Ð¼Ð¸
ĠÑģ Ð¿Ð¸ÑĢÐ°
ĠÐ¸ Ð½
ÐºÐ° Ðº
Ð¼Ðµ ÑģÑĤÐ¾
ĠÐºÐ° Ð¿
ĠÐ¿Ð¾Ð´ ÑĢÐµÐ´ÐµÑĤÐµ
Ð´ÑĥÑĪ ÐµÑĤÐµ
ĠÐ¿ÑĬÑĢÐ¶ Ð¾Ð»Ð°
ĠÐ¾Ð±ÐµÐ» Ð²Ð°Ð¼Ðµ
ĠÐºÐ¾Ð¿ÑĬÑĢ ÑĬÑĤ
ĠÑģÐ³ ÑĬ
ĠÐ³ÑĬÑĢ Ð´Ð¸ÑĤÐµ
ĠÐ²Ð°Ð½Ð¸Ð»Ð¸ Ð¸ÑĤÐµ
ĠÐ½Ð°Ð¿ÑĢÐ° Ð²ÐµÑĤÐµ
ĠÐ²ÐºÐ»Ñİ ÑĩÐ²Ð°
ĠÐ¿Ð»Ðµ ÑĪÐºÐ°
Ð¾ÑĢÐºÐ¾Ð² ÑĬÑĤ
ĠÑģÐºÑĬÐ» ÑĨÐ°
ĠÐ¿Ð»Ð°ÑģÑĤÐ¾ Ð²Ðµ
ÑģÐ¼ÐµÑĤÐ° Ð½Ð°
Ġ ÑĨÐ¸
Ð» ÐºÐ¸ÑĤÐµ
ÑĤÐ¾ ÑĢÐ°
Ð¿ ÑĥÑĪ
ĠÑĤÐµ ÑģÑĤ
ĠÐĶÐ¾ Ð¼Ð°ÑĤ
ĠÐ¿ÐµÑĩ ÐºÐ°
ĠÑģÐ²Ð°ÑĢÑı Ð²Ð°Ð¼Ðµ
ĠÐļÐ¾ ÑĤ
ÐĿÐ° ÑĢÑıÐ·Ð²Ð°ÑĤ
ĠÐ¿ÑĢÐµÑģÑĤÐ¾ ÑıÐ²Ð°ÑĤ
Ðĳ Ð¾Ð±ÑĬÑĤ
ĠÐ¿Ð¾Ð´ÑħÐ¾Ð´Ñı ÑīÐ¸
Ð¯ Ð±ÑĬÐ»ÐºÐ¸ÑĤÐµ
ĠÐ¾Ð¼ Ð»ÐµÑĤ
ĠÐ´Ð¶Ð¾Ð» Ð°Ð½
ĠÐĵÐ¾ÑĤ Ð²Ð¸
Ð°ÑĢÑĦÐ¸Ð¾Ð» ÑĬÑĤ
ÐµÑĢ Ð²Ð¸Ð·
ÑģÑĤ ÑĬÑĢÐ¶ÐµÑĤÐµ
ĠÐŀ ÑĢÐ¸Ð·Ð°
ĠÑĤÐ¾Ð¿ Ð»Ð°ÑĤÐ°
ĠÐºÐ¾Ð» ÐºÐ¾
ĠÐ½Ð°Ð´ ÑĢÐ¾Ð±
Ðĳ ÐµÐ»ÑĤÑĬÑĨÐ¸ÑĤÐµ
ĠÐ¼Ð°ÑħÐ° Ð¼Ðµ
ĠÐ±ÑĬ Ð±ÑĢÐµ
ĠÐ¼Ð¸ÐºÑĢÐ¾Ð²ÑĬÐ» Ð½Ð¾Ð²Ð°ÑĤÐ°
ĠÐ½ÑıÐ¼Ð° ÑĤÐµ
ĠÐ¿ÑĥÑħÐºÐ° Ð²Ð°
ĠÑĢÐµÐ´Ð¸ Ð¼
ĠÐŁÑĬÐ» Ð½ÑıÑĤ
ĠÑģÑĥÑģÐ°Ð¼Ð¾ Ð²Ð¾
ÐºÐ°ÑĦÑı Ð²Ð¾
ĠÐºÑĬÐ» Ð½Ð¾
Ð²Ð° Ð¼
ÑĤÐ¾ ÐºÐ°
Ð½Ð¾ Ð²Ð¸Ñı
ÑĨÐ¸ Ð¸ÑĤÐµ
ĠÑĤÐ° ÑħÐ°Ð½
ĠÐ¿Ð°ÑĢ Ð¼ÐµÐ·Ð°Ð½Ð°
ĠÐ±ÑĥÐ» Ð³ÑĥÑĢÐ°
ĠÐ¿ÐµÑĩ ÐµÐ½Ð¸ÑĤÐµ
ĠÐ¿Ð¾Ð»ÑĥÑĩÐ° Ð²Ð°
ĠÐ¸Ð·Ð¿Ð¾Ð»Ð·Ð²Ð° Ð¼
Ð¾Ñģ Ð°Ð½Ð¸
ĠÐ¿ÑĢÐµÑħÐ²ÑĬÑĢ Ð»ÑıÑĤ
ĠÐºÐ¾ÑĢ Ð½ÑĦÐ»ÐµÐ¹
ĠÑĤÑĢÐµ Ð²Ð¸
ĠÐ¿Ð¾ÑĢÐ¾Ð·Ð¾ Ð²Ðµ
ĠÐºÐ»Ð¾Ð½ ÐºÐ¸
ĠÑģÑĤÐ¾Ð¿ ÑıÐ²Ð°
ĠÑĨÐµÐ» Ñĥ
Ð²Ð¸ÑģÐ¸ Ð»
ĠÐ°ÑĢÐ¾Ð¼Ð°ÑĤÐ¸ Ð·Ð¸ÑĢÐ°
ĠÐ¼Ð°ÑĪÐ¸Ð½ ÐºÐ°
Ðµ Ð¹ÑĤÐµ
ĠÐ´ ÑĢÑĬ
ÑĪ ÑĬÑĤ
Ð¹ Ð½Ð¾
Ð¾ÑĢ ÑĩÐµ
ÑĢÑĬ Ð³
ÑĥÐ» ÑĬÑĤ
ĠÑģÐ¼ÐµÑģ ÐµÐ½Ð¸
ĠÑĩÐ° ÑĪÐºÐ¸
ĠÐµÐ´ ÑĢÐ°
ĠÐĹÐ° ÑħÐ»ÑĥÐ¿Ð²Ð°
ĠÐļÐ¾ ÑĢÐ¸ÑĤÐµ
ĠÑģÑĤÑĥÐ´ ÐµÐ½Ð¸
Ð¹Ð¾Ð½ÐµÐ·Ð° ÑĤÐ°
Ð°Ñģ ÑĥÐ»ÑĬÑĤ
ĠÑģÑĢÐµÐ´ Ð½Ð¸
Ð¼Ð°Ñģ Ð»ÐµÐ½Ð¾
ĠÐ¿ÑĬ ÑģÑĤÑĬÑĢ
Ð¿Ð°ÑĢ ÑĩÐµ
ĠÐºÐ°ÑĦÑı Ð²Ð¾
ĠÑĢÑı Ð´ÐºÐ°
ĠÐ´Ð¾Ð¾ Ð¼ÐµÑģÐ²Ð°Ð½Ðµ
ĠÐ¾ÑģÑĤÐ°ÑĤÑĬ ÐºÐ°
ĠÑģÐ¼Ð¾ÐºÐ¸ Ð½Ð¸
Ð´ ÑĬ
Ð± ÐµÑĢ
ĠÐ¿Ð¾ ÑĤÑĬ
ĠÐ¡ Ð¼ÐµÑģÐ²Ð°Ð¼Ðµ
ĠÐ¼ÐµÑģ Ð°
ĠÐ·ÐµÐ» ÐµÐ½Ð¸ÑıÑĤ
ÑĩÐ° ÑĤÐ°
ĠÐºÑĥÐ±ÑĩÐµÑĤÐ° ÑĤÐ°
ĠÑĢÐ° ÐºÐ¸Ñı
ĠÐľÐ° ÑĢÐ¸
ÐĶ ÑĢÐ¾Ð±
ĠÑĢÐ°Ð·Ð¿Ð¾Ð»Ð¾ Ð²ÑıÐ²Ð°ÑĤ
ĠÐ¸Ð·Ð±ÑĢÐ¾ ÐµÐ½Ð¸ÑĤÐµ
ĠÐ¼Ð°ÐºÑģÐ¸ Ð¼Ð°
ĠÐ½ÐµÐ·Ð°Ð»ÐµÐ¿Ð²Ð° ÑīÐ¾
Ð¼ÐµÐ»Ð° ÑĩÐºÐ°
Ð» ÑĬÐ±
ĠÐ¼ ÐµÑĢ
ĠÐ¾ÑĤ Ð´ÐµÐ»Ð¸
ÐµÑģ ÑĤÐ¸
Ð±Ð¸ ÑıÑĤ
ÐµÐºÐ¾ Ð½ÑĬÑĤ
ĠÐ·ÐµÐ» ÐµÐ½Ð°ÑĤÐ°
ÑĩÑĥ Ð¿Ð°
ĠÑĢÐ°Ð·Ð±Ð¸ ÑĤÐ¸Ñı
ĠÐĹÐ° ÑħÐ°ÑĢÑĤÐ°
ÐĹÐ° Ð´ÑĥÑĪÐ°
ĠÐĺÐ· ÑĩÐ¸ÑģÑĤ
ĠÐ²ÑģÐ¸Ñĩ ÐºÐ¸ÑĤÐµ
ĠÑģÐ²Ð°ÑĢ ÐµÐ½Ð¸ÑıÑĤ
ĠÐºÐ°Ð¿Ð° ÑĩÐµ
ĠÐ³Ð¾ÑĢ ÐµÐ½
ĠÐ¸Ð·ÑĨÐµ Ð´Ð¸
ĠÑĤÐ¾ÑĢ Ð±Ð¸
ÐŁÐ¾ ÑĩÐ¸ÑģÑĤÐµÑĤÐµ
ĠÑĢÐµÐ¶Ðµ Ð¼
ĠÐ¾ÑģÐ½Ð¾ Ð²Ð°
ĠÐºÐµÑĤ ÑĩÑĥÐ¿Ð°
ĠÐ¿ÑĢÐ°Ð²Ð¾ÑĬÐ³ÑĬÐ»Ð½Ð¸ ÑĨÐ¸
ĠÑĢÑı Ð¿Ð°
ĠÐ¸Ð·Ð¿Ð»Ð° ÐºÐ²Ð°
ĠÐ½Ð°ÑĤÑĥÑĢÐ° Ð»ÐµÐ½
ĠÐĹ ÐµÐ»ÐµÑĤÐ¾
ĠÐµÐº ÑģÑĤÑĢÐ°
Ð·ÑĬÑĢÐ½Ðµ ÑģÑĤ
ĠÑģ Ð¿Ð»Ðµ
Ð´ Ð»ÑĬÐ±
Ð¿ ÑĢÐ¾
Ð± ÐµÑĤÐ¾
ĠÐ² Ð´Ð»ÑĬÐ±
ĠÐ´ Ð»Ð°
ĠÐ» ÐµÑģ
ÑĢÑıÐ· Ð°Ð½
ĠÐ¡ Ð²Ð°ÑĢÑıÐ²Ð°
Ð²Ð¾ ÑĢÐµÑĤÐµ
ĠÐºÐ¸ ÑĤÐ°
ĠÐ¿Ð¸Ð»Ðµ ÑĪÐºÐ°
ĠÐĹÐ° Ð²Ð¸Ð²Ð°ÑĤ
ĠÑĨÐµ Ð»Ð¸ÑĤÐµ
ĠÑģÐ¿Ð° Ð½Ð°
ĠÑĤÐµÑĩ Ð½Ð°ÑĤÐ°
ĠÐ¼Ðµ ÑĤÐ°
ĠÑģÑĥÑĪ ÐµÐ½Ð°
ĠÐ¿Ð¾ÑĢÑĨÐ¸ Ð¸ÑĤÐµ
ĠÐ¤ Ð¸
ĠÐ±Ð°Ð½Ð° Ð½Ð¸ÑĤÐµ
ĠÑģÑĥÑĢÐ¾ Ð²
Ð³ÑĢÑı Ð²Ð°Ð¼Ðµ
ÐŁÐ¾ÑĩÐ¸ÑģÑĤ ÐµÐ½Ð¾ÑĤÐ¾
ĠÐ½Ð°Ñħ ÑĥÑĤÐ°
ĠÐ¿ÑĢÐµÑģÐ¾Ð²Ð° Ð½Ð¸Ñı
ĠÐŁÑĬÑĢÐ¶Ð¸ Ð¼
Ð³Ð¾ÑĢ ÑĩÐ¸ÑĨÐ°
ĠÐ»ÐµÐ¿ÐºÐ° Ð²Ð¾
ĠÐ¸Ð·ÑĩÐµÑĢ Ð¿
Ð¾ÑĢÑĩÐµ ÑģÑĤÑĬÑĢ
Ġ ÑīÐ¾
Ð· ÑĬÐº
ĠÐ½Ð° ÑĢÐµÐ´
ĠÐ¸Ð· ÑģÑĥÑĪ
ĠÐ¸Ð· ÑĨÑıÐ»Ð¾
ĠÐŁ ÑĢÐ°Ð·ÑĬÑĤ
ĠÐ¼Ð¸Ð½Ñĥ ÑĤÐºÐ¸
ĠÑĩÐµÑģ Ð½Ð¾Ð²
ĠÑĩÐ° ÑĪÐºÐ°
ÑĥÐ´ Ð¶
ĠÐ´Ð¾Ð¼Ð°ÑĤ ÐµÐ½Ð¸ÑıÑĤ
ĠÐ¼Ð¾ ÐºÑĢÐ¸
ÑĥÐ½ ÐºÐ°
ĠÑĢÐ°Ð·ÑĤÐ¾Ð¿ ÐµÐ½Ð¸Ñı
ĠÑģÐ»Ð¾ Ð¶
ĠÑģÐµÑĢÐ²Ð¸ÑĢÐ° Ð½ÐµÑĤÐ¾
ĠÐ¾Ñħ Ð»Ð°Ð¶Ð´Ð°ÑĤ
ĠÐ¾ÑĤÑĨÐµÐ´ ÐµÐ½
ĠÑĤÑĢÐ¸ ÑĤÐµ
ĠÐ¿ÑĢÐ¸Ð³Ð¾ÑĤÐ² ÐµÐ½Ð¸ÑĤÐµ
ĠÐĴÐ°ÑĢÐ¸ Ð¼
Ð¡Ð²Ð°ÑĢÑı Ð²Ð°ÑĤ
ĠÐ¼ÑĥÑģÐ° ÐºÐ°ÑĤÐ°
ĠÐ·Ð°ÑĤ Ð²Ð¾ÑĢ
ĠÑıÐ´ ÐµÐ½ÐµÑĤÐ¾
ĠÐºÑĢÐµÐ¼Ð¾ Ð¾Ð±ÑĢÐ°Ð·
ĠÑģ Ð²ÐµÐ¶
ÑĬ Ð½Ð¾ÑĤÐ¾
Ð½Ð° ÑĩÐ°
Ð´Ð° ÑĤ
ĠÐºÐ° Ð½Ð°
ĠÑĢÐ°Ð· ÐºÐ»Ð°ÑīÐ°
ĠÐ¿ÑĢÐ¸ ÑıÑĤ
ĠÐ¿Ð¾Ð´ Ð³Ð¾ÑĤ
ĠÐĴ ÑĬÑĤÑĢÐµ
ĠÑĦÑĥÑĢ Ð¼Ð¸
ĠÑĢÐµ Ð´Ð°
ĠÐŁÐ¾ÑģÑĤÐ°Ð²Ñı Ð¼Ðµ
ĠÐ·Ð°ÑĤÐ¾Ð¿ Ð»ÐµÐ½Ð¾ÑĤÐ¾
ĠÐ¿Ð¾Ð² ÑĤÐ°ÑĢÑı
ÐĺÐ·Ð¼Ð¸ Ð²Ð°Ð¼Ðµ
ĠÐºÐ°ÑĦÑıÐ²Ð° ÑĤÐ°
ĠÐŁÐ°ÑĢ ÑĩÐµÑĤÐ°ÑĤÐ°
ĠÑĨÐ²ÐµÐº Ð»Ð¾ÑĤÐ¾
ĠÐ¿Ð¾Ð»Ð·Ð²Ð° Ð¼
ĠÐ½Ð°Ð¿ÑĢÑĬÑģ ÐºÐ²Ð°
ĠÐ¡Ð»Ð° Ð´ÐºÐ¸
1 4
Ð»Ðµ ÑĨ
Ð»Ðµ ÑĤÐ¸ÑĤÐµ
ÐµÑģ ÑĬÐ½Ð°
Ġ1 6
ĠÐ¿ÑĢÐµ ÑģÐ°
ĠÑħ ÐµÑĢ
ÐŁ Ð°ÑĢ
ĠÐºÑĢÐµÐ¼ ÑĬÑĤ
ĠÐľÐ° Ð³Ð¸
ĠÐ¿Ð¾Ð´Ð¿ÑĢÐ°Ð²Ñı Ð¼Ðµ
ĠÐŁÐ¾Ð´Ð¿ÑĢÐ° Ð²ÑıÑĤ
ĠÐ¾ÑĢÐµÑħÐ¾Ð²Ð¸ ÑĤÐµ
ĠÑģÐ»Ð¾Ð¶Ð¸ Ñħ
ĠÐ¿Ð¸ÑĤ ÐºÐ°ÑĤÐ°
ĠÑĪÐ¸ÑĢÐ¾ ÐºÐ°
ĠÑģÐ»ÐµÐ¿ Ð²Ð°ÑĤ
ĠÐ²ÑĤÐ²ÑĬÑĢ Ð´Ð¸
ĠÐºÑĢÐµÑħ ÐºÐ¾
ĠÑħÐ°Ð¹ Ð²ÐµÑĢ
ÐµÐ½Ð´Ð¶Ðµ ÑĢÐ°ÑĤÐ°
ĠÑħÐ¾Ð¼Ð¾Ð³ÐµÐ½Ð¸ Ð·Ð¸ÑĢÐ°
ĠÑīÐ¾ Ð¼
ĠÑģ ÑĤÐ¸
Ð´ Ð¿ÑĬ
ÑĢÐ° ÑģÑĤÐ¸ÑĤÐµÐ»Ð½Ð¾
ÑĨ ÐµÐ½
Ð¹ ÑģÐºÐ°
ĠÐ±ÑĢ Ð¾
ĠÐºÐ¾ ÐºÐ°
ĠÐ¡ Ð¿Ð°Ð½Ð°ÐºÑĬÑĤ
ÑĢÐ¾ Ð±Ð°
ĠÑĤ ÑĢ
ÑĩÐµÐ½ ÑĨÐ°
ĠÐŁÐ¾Ð´ ÑĢÐµÐ¶Ð´Ð°
ĠÐ¿Ð¾Ñģ Ð³
ĠÐ¸Ð·Ð¿ÑĬÑĢÐ¶ ÐµÑĤÐµ
ĠÑħÐ»ÑıÐ± ÑĬÑĤ
Ð°ÑĢÑĤÐ¾ ÑĦ
ĠÑĢÑĬ Ð±Ð°
ĠÐ¸Ð·Ð²Ð°Ð¶Ð´Ð° Ð¼Ðµ
ĠÑģÑĤÑĬÐº Ð»ÐµÐ½
ĠÐ»Ð¸Ðº ÑĮÐ¾
ÑģÐ»Ð°Ð´ ÐºÐ¾
Ġ 700
Ð¾ Ð²
ĠÐ¿ÑĢÐ¸ Ð±Ð»Ð¸Ð·Ð¸ÑĤÐµÐ»Ð½Ð¾
ĠÐ° Ð»ÐºÐ¾Ñħ
ĠÑĢÐ°Ð·Ð±Ð¸ Ð²Ð°Ð½Ðµ
ĠÐºÐ°Ð¿Ð° ÑĩÐµÑĤÐ°ÑĤÐ°
ĠÐ³Ð°ÑĢÐ½Ð¸ ÑĢÐ°ÑĤ
ĠÑģÐ¸Ð¿ ÐµÑĤÐµ
ĠÑĩÑĥÐº Ð²Ð°ÑĤ
ÑĢÑıÐ·Ð° Ð½Ð°ÑĤÐ°
ĠÐ¸Ð·Ð¿Ð»Ð° Ðº
ĠÑĦÑĬÑģÑĤÑĬ ÑĨÐ¸
ĠÐ¿ÑĢÐµÐ¿ÐµÑĩ ÐµÐ½Ð¾
Ð¡Ð²Ð¸Ð½Ñģ ÐºÐ¾ÑĤÐ¾
ĠÐ·ÑĢÑĬÐ½ ÑĨÐ°
1 75
Ðµ ÑīÐ°ÑĤÐ°
ÑĤÐµ ÑĩÐµ
ÑĤÐ¸ Ðº
Ñī ÑĬÑĢ
ĠÐĴ ÑĤÐ°
Ð²Ð°Ð» ÑıÑĤ
ĠÐ½Ð°Ð¼Ð° Ð»ÐµÑĤÐµ
ĠÑģÐ»ÐµÐ´ Ð½Ð¸Ñı
ĠÐ¾ÑģÑĤÐ° Ð²Ð°ÑĤ
Ð¡ Ð¼Ðµ
ĠÐ¿ÑĢÐµÑģ Ð½Ð¸Ñı
ĠÐ¿Ñİ ÑĢÐ¸ÑĢÐ°
Ð¿ÑĢÐµÐ´ Ð²Ð°ÑĢÐ¸ÑĤÐµÐ»Ð½Ð¾
ĠÐ¾Ð¼ÐµÐºÐ²Ð° Ð½ÐµÑĤÐ¾
ĠÐ·Ð°Ð¿Ð¸ÑĩÐ° Ð¼Ðµ
ĠÐ½Ð°ÐºÐ¸Ñģ Ð½Ð°ÑĤÐ¸
ĠÐ²Ð¾Ð´ ÐºÐ°
ÑĤÐ¸Ð½ ÑĬÑĤ
ĠÐ·Ð°ÑģÑĤ ÑĬ
ĠÐŀÐ²ÐºÑĥÑģ ÑıÐ²Ð°ÑĤ
ÐĽ Ð¸
ĠÑĩÑĥÐº Ð²Ð°
ĠÑĪÐ¿ÑĢÐ¸ÑĨ Ð¾Ð²Ð°
ĠÐ¸Ð·ÑħÐ²ÑĬÑĢ Ð»Ñı
Ð Ŀ
ĠÐ·Ð° Ð»Ðµ
ÑĨ Ð¸Ð¿
ĠÐ¸Ð· Ð»ÐµÐ·Ðµ
ÑĢÐ¾ Ð·Ð¼Ð°ÑĢÐ¸Ð½
ĠÑģÑĥ ÑħÐ°ÑĢ
ĠÐ¾Ð² ÐºÑĥ
ĠÑħÐ°ÑĢ ÑĤÐ¸
ĠÐ¿ÑĢÐ¸Ð³Ð¾ÑĤÐ²Ñı Ð½ÐµÑĤÐ¾
ĠÐľÐ¾ ÑĨÐ°ÑĢÐµÐ»Ð°
ĠÐ°Ð³Ð½Ðµ ÑĪÐºÐ°
ĠÑģÑĤÑĬÐº Ð»ÐµÐ½Ð°
ĠÑĩÑĥÐº ÑĩÐµ
ĠÐ¿Ð¾ÑģÐ¸Ð¿ Ð²Ð°ÑĤ
ĠÐĿÐ°ÑĢÑĬÑģ Ð²Ð°
ĠÐ¼Ð°ÑģÐ»ÐµÐ½Ð¾ ÑģÑĤ
ĠÐ½Ð° Ð¿Ð¸
ĠÐ² Ð·Ð¸Ð¼Ð°
ĠÑĩ Ð¸Ð¿
ĠÐ·Ð° Ð´ÑĬÐ»
ĠÐºÐ¾ ÐºÑĤÐµÐ¹
ĠÑĦÐ¸ Ð½Ð¾
ĠÐ·Ð°Ð³ ÑĢÐµÐ¹ÑĤÐµ
ĠÐ¢ ÐµÐ½Ð´Ð¶ÐµÑĢÐ°ÑĤÐ°
ĠÐ¼Ðµ Ðº
ĠÐ±ÑĥÑĢÐºÐ° Ð½Ð¸ÑĤÐµ
ĠÐĴÐ° ÑĢÐµÑĤÐµ
ĠÐºÐµÐºÑģ Ð¾Ð²Ð¾
ĠÐ¾ÑħÐ»Ð°Ð´ ÐµÐ½Ð¾
ĠÐ²ÑĤÐ¾ ÑĢÐ¸Ñı
ĠÐ¨ ÑĥÐ½ÐºÐ°ÑĤÐ°
ĠÑģÑĤÑĬÐº Ð»ÐµÐ½Ð¸
ĠÑģÐ¼Ð° ÑĩÐºÐ²Ð°ÑĤ
ĠÐ´ÑĢÐµÑģ Ð¸Ð½Ð³
ĠÑĩÐµÑĢÑĥÐ¿ ÐºÐ¸ÑĤÐµ
ĠÐ¼Ð°ÑĢÐ¸Ð½Ð¾ Ð²Ð°ÑĤ
ĠÐļÐ¾Ð½ ÑģÑĥ
ĠÐºÑĬÐ»Ð½Ð¾ Ð²Ðµ
ĠÐ»Ð¸ÐºÑĮÐ¾ ÑĢÐ°
ÑĤÐ¾ Ð·Ñĥ
ÑĢÐ° Ð¼Ð¸
ĠÐ² ÑĬÐ½
ÑĪ ÑĥÐ½ÐºÐ°
ĠÐ´Ð¾ Ð¿ÑĬÐ»
ĠÐ¸Ð· ÑģÑĬÑħ
Ð¸Ð½ Ð´ÑĥÑħ
ĠÑĦ ÑĢÐ¸Ð·
ĠÑģÑĬ Ð¼
ÐµÐ´ ÑĢÐ¾Ð²Ð¸
ĠÐĹÐ° Ð¿Ð¾
ĠÐ´Ð¾Ð¼Ð°ÑĤ ÐµÐ½Ð°ÑĤÐ°
ĠÐ¿ÑĬÑĢÐ¶ ÐµÑĤÐµ
ÑĩÐµÐ½ ÑĨÐµ
ĠÐ±Ð°Ðº Ð»Ð°
ĠÐ³Ð¾ÑĤÐ¾Ð² Ð¾ÑĤÐ¾
ĠÐ²ÑĢÐµÐ¼Ðµ ÑĤÐ¾
ĠÐ¸Ð·Ð¿ÑĬÑĢÐ¶ ÐµÐ½Ð¸
ĠÐ±ÐµÐ· ÑģÐ¾Ð»
Ð¸Ð»Ð¸ Ð¸ÑĤÐµ
ĠÑģÐ¼Ð»Ñı Ð½Ð¾ÑĤÐ¾
ĠÐ§ Ð°
ĠÐ¿Ð°Ð½Ð¸ ÑĢÐ°ÑĤ
ÐºÑĬ ÑĢÐ¸
ĠÐ¾Ð±Ð¸ÐºÐ½Ð¾Ð² ÐµÐ½Ð¾
ĠÐĺÐ·Ð¼Ð¸ Ð¹ÑĤÐµ
ĠÐŁÐ¾Ð»ÑĥÑĩ ÐµÐ½Ð¸ÑĤÐµ
ÐĲ ÐºÐ¾
ĠÐłÐµ Ð¶Ðµ
ĠÐłÐµÐ´ ÑıÑĤ
ĠÑĦÑĢÐ¸Ð· ÐµÑĢ
ĠÐ¼Ð°Ñģ Ð»Ð¸Ð½Ð°
ĠÑĤ ÐµÐ½
ĠÐ±Ñĥ ÑĩÐºÐ°
ĠÐ¸Ð·Ð¿ Ð»Ñĥ
ĠÐ¿Ð¾Ð»Ð¾Ð²Ð¸Ð½ ÐºÐ°
ĠÐŁÐ¾Ð´Ð¿ÑĢÐ° Ð²ÐµÑĤÐµ
ĠÑĪÐ¸ÑĢÐ¾ ÐºÐ¸
ĠÑĤÑĬÐ¼ Ð½Ð¾
ĠÑĤÑĢÐ¸ÑĬÐ³ÑĬÐ»Ð½Ð¸ ÑĨÐ¸
ÐºÐ¸ÑģÐµ Ð»Ð¸
ĠÐŁÐ°ÑĤÐ»Ð°Ð´Ð¶ Ð°Ð½Ð¸ÑĤÐµ
ĠÐŁÑĢÐµÑħÐ²ÑĬÑĢ Ð»Ñı
ĠÑİÑĦ ÐºÐ°
ĠÑĤÑĬ Ð¹
Ð¼Ð° ÑĢÐ¸
ĠÐŁ Ð¾Ð»Ð¸Ð²Ð°ÑĤ
ÑĥÐº ÑĬÑĢÐ°
ĠÑĤ ÑĢÐ°
ĠÑĩÐµÑĢÐ² ÐµÐ½Ð¾ÑĤÐ¾
ĠÐĿÐ° Ð»Ð¸Ð²Ð°Ð¼Ðµ
ĠÐŁÑĢÐ¸ ÑĤÐ¸ÑģÐºÐ°
ĠÐ¿ÑĢÐ¾ ÑĨÐµ
ĠÐłÐ°Ð· ÑĢÐµÐ¶Ð´Ð°
ĠÐĺÐ· ÑĩÐ°ÐºÐ²Ð°
ĠÐ»Ðµ Ðº
ĠÐ±Ð¸ÑģÐºÐ²Ð¸ ÑĤ
ĠÐĿÐ°Ð¼Ð° Ð·Ð²Ð°Ð¼Ðµ
Ð°Ð½Ð° Ð½Ð¸ÑĤÐµ
Ð´Ð¾Ð¼Ð°ÑĤ ÐµÐ½Ð¾
ĠÐĿÐ°ÑĢÐµÐ¶Ð´Ð° Ð¼Ðµ
ĠÐ½Ð°ÐºÑĬÐ»ÑĨ Ð²Ð°
Ð¡Ð²Ð°ÑĢ ÐµÐ½Ð¸ÑĤÐµ
Ð´Ð¸Ð½ ÑģÐºÐ¸
ĠÑĢÐ¾Ð·Ð¾ Ð²Ð¾
Ð» Ð²Ð°
ĠÐ½Ð° ÑģÐ¸Ð¿Ð²Ð°
ĠÐ´ ÑĬÑĢÐ¿Ð°
Ð³ ÑĬÑģÑĤÐ¾
Ñħ Ð½Ð¸ÑıÑĤÐ°
ĠÐ¿Ð¾ ÑģÑĤÐ¾
ĠÐ´Ð¾ Ð²Ð°ÑĢÑıÐ²Ð°
ĠÐ¸Ð· Ð²
ĠÐ¸Ð· Ð¿ÐµÐºÐ°ÑĤ
ĠÐ¿ÑĢÐµ Ð¼Ð°Ñħ
ÑĢÑĬ ÑīÐ°ÑĤ
ĠÑģÐ¼ÐµÑģ ÐµÐ½Ð¸ÑĤÐµ
ĠÐºÐ¸ Ð½Ð¾
ĠÐ¿Ð¾ÑĢÑĬÑģ ÐµÐ½
ĠÐ¿ÐµÑĩ ÐºÐ°ÑĤÐ°
ĠÐ²Ð°Ð½Ð¸ Ð»ÐµÐ½Ð°
ĠÐ»Ð¸Ð¼Ð¾Ð½ ÑĤÐ¾Ð·Ñĥ
ĠÐ¸Ð·Ð¿ÑĬÑĢÐ¶ Ð°ÑĤ
ĠÑĪÐ¾ÐºÐ¾Ð»Ð°Ð´ ÑĬÑĤ
ÐºÑĬÑģ Ð½Ð¾
ĠÐ¿ÑĬ Ð¿Ðµ
ĠÐ£ Ð¾ÑĢÑĩÐµÑģÑĤÑĬÑĢ
ĠÐ½Ð°ÐºÑĬÑģ Ð²Ð°ÑĤ
ĠÐµÑģÐµÐ½ÑĨÐ¸Ñı ÑĤÐ°
ĠÐºÑĥÑĢÐºÑĥÐ¼Ð° ÑĤÐ°
ĠÐ¡ÑĬ Ñħ
ĠÐŁÐ¸Ð»Ðµ ÑĪÐºÐ¸ÑĤÐµ
ĠÑĢÑı Ð´
ĠÑĪÐ¾ÐºÐ¾Ð»Ð°Ð´Ð¾ Ð²
ÐĹÐ°Ð¿ÑĬÑĢÐ¶ Ð²Ð°Ð¼Ðµ
ĠÐ¼ÑĥÑģÐ° ÐºÐ°
ĠÑģÐ°Ð»Ð°ÑĤÐ¸ ÐµÑĢÐ°
ĠÐ±Ð¾Ð½Ð±Ð¾ Ð½Ð¸
ĠÐ¼Ð°Ð½Ð°ÑĤÐ°ÑĢ ÐºÐ¸
Ð´Ð¿ÑĬ Ð´ÑĬ
Ð¾ Ðº
ĠÐ½Ð° ÑĤÐ¸ÑģÐºÐ°
Ð¿ Ð»Ð¾Ð´Ð¾
ĠÐ¼Ð° ÐºÐ¾Ð²Ð¾
ĠÐ¿Ð¾Ð´ Ð¾Ð±
ĠÐ·Ð°ÑħÐ°ÑĢ ÐµÐ½
ÐºÐ²Ð° ÑģÐºÐ°
ĠÐŀ Ð³
ĠÐ¼ÐµÑģ ÐµÑģÑĤÐ¸
ĠÐļ ÑİÑĦ
ĠÐļ Ð¸ÑģÐµÐ»Ð¾ÑĤÐ¾
ÐŁ Ð°
Ðļ ÑĢÐ°ÑģÑĤÐ°
ĠÐ¿ÑĥÑĪ ÐµÐ½Ð¾ÑĤÐ¾
ĠÐ´Ð°ÑĦÐ¸Ð½Ð¾ Ð²Ð¸ÑĤÐµ
ĠÑĢÐ°Ð·ÑĤÐ²Ð°ÑĢÑı ÑĤ
ĠÐ²ÑĬÐ· Ð²Ð°ÑĢÑıÐ²Ð°
ĠÑħÐ»ÐµÐ± Ð½Ð°
ĠÐ¿ÑĢÐµÑģÐ¾Ð²Ð° Ð½
ĠÐ²Ð°Ð½Ð¸Ð»Ð¾ Ð²
ĠÐ»ÐµÐ½ ÐµÐ½Ð¾
ĠÐ¾Ð¼ Ð»ÐµÑĤÐ°
ĠÐµÐ·Ð¸ Ðº
ĠÐ¡Ð²Ð°ÑĢÑı Ð²Ð°ÑĤ
ĠÐºÑĬÑĢ Ð²Ð°
ĠÑģ ÑĥÐ´Ð¶
ĠÐº ÐµÐ´ÑĢÐ¾Ð²Ð¸
ĠÐ´ Ð²Ð¾
ĠÐ·Ð° ÐºÐ²Ð°ÑģÐºÐ°
ÑĢÐµ ÑĤÐ¾
ÑĤÐ¸ ÑıÑĤ
ĠÐ¼Ð° ÑģÑĤÐ°
ÑĥÑĢ ÐµÐ½Ð¾
ÑģÐ° Ð¼Ð¾
Ð¶Ðµ Ð»Ð°
ĠÑģÐ° Ð»Ð°ÑĤ
ĠÐ²Ð°ÑĢÐ¸ Ð°Ð½
ĠÐ´Ðµ Ð±ÐµÐ»
ĠÐ±Ð°ÐºÐ¿ÑĥÐ»Ð²ÐµÑĢ ÑĬÑĤ
ÑĥÐ±Ð° Ð²Ð¾
ĠÐľÐ° Ð³Ð´Ð°Ð½Ð¾Ð·
ĠÐºÐ¾ÐºÐ¾ ÑĪÐºÐ°
ĠÐĿÐ°Ð¼Ð° Ð»ÑıÐ²Ð°
ĠÑģÑĥÑĪ ÐµÐ½Ð¸ÑĤÐµ
ĠÐ¿Ð°ÑģÐ¸ÑĢÐ° Ð¹ÑĤÐµ
ĠÐ¿Ð¾Ð´ÑģÑĥÑĪ ÐµÑĤÐµ
ĠÑģÑĥÑģÐ° Ð¼Ð°
ĠÐ¿ÑĢÐµÑģÑı Ð²Ð°ÑĤ
ĠÐ´ÑĢÑĬÐ¶ ÐºÐ°ÑĤÐ°
ĠÐ²ÑĬÑĤÑĢÐµÑĪ Ð½Ð¾
ĠÐ·ÐµÐ»ÐµÐ½ÑĩÑĥÐºÐ¾ Ð²Ð¸Ñı
ĠÐºÐ¾Ð½ÑģÐµÑĢÐ²Ð¸ÑĢÐ° Ð½
ĠÐ¿Ð¾Ð´ÑĢÐµÐ¶Ð´Ð° Ð¼Ðµ
ÑĥÐ»ÑĮÐ¾Ð½ ÑĬÑĤ
ÐŁÑĢÐ° Ð²Ð¸
ĠÐ¿ÑĢÐ¾Ð³ÑĢÐ° Ð¼Ð°
Ð¾ Ð²ÐµÑĤÐµ
ÑĤ Ð²Ð°
ĠÐºÐ¾ ÑĢÐµ
ĠÐ¡ Ð²Ð°ÑĢÐµÑĤÐµ
ÐµÑĤÐµ ÑģÑĤÐ°
Ð±ÑĬÑĢ ÐºÐ²Ð°ÑĤ
Ð¾Ð½ ÑģÐºÐ°
ĠÐ¿Ð° Ð½
ĠÐ¿Ð°ÑĢÑĩÐµÐ½ ÑĨÐ°ÑĤÐ°
ĠÐ¯ Ð¹ÑĨÐµÑĤÐ¾
ĠÐ²ÑĤÐ° Ñģ
ĠÑĤÑĢÐ¸ ÑĨÐ¸
ĠÑĢÐµÑĪ ÐµÑĤÐµÑģÑĤÐ°
ĠÐ¸Ð·Ð¿Ð»Ð° ÐºÐ²Ð°ÑĤ
ĠÐ½Ð°Ð² Ð»Ð°Ð¶
ĠÐ·Ð°Ð²ÑĬÑĢ Ð·Ð²Ð°
ĠÑģÐ»ÑĥÑĩÐ° Ð¹
ĠÑĢÐ°ÑģÑĤÐ¸ÑĤÐµ Ð»Ð½Ð°
ĠÐ¼Ð°Ð½Ð´Ð° ÑĢÐ¸
2 25
Ðµ Ðº
Ð¼Ð° Ð·Ð²Ð°
Ð¹ Ñģ
ĠÐĶ ÑĢÑĥ
ĠÐĿÐ° ÑĤÑĢÐ¾
ĠÐ·ÐµÐ»ÐµÐ½ ÑĩÑĥÐº
ĠÐ±Ð¸ Ðµ
ĠÐºÐ¾ÑĢÐ¸ ÑĩÐºÐ¸
ÑĤÐ°Ð¿ ÑıÑĤ
ÐºÐ»Ñİ ÑĩÐ²Ð°
ĠÐ±Ðµ ÑĪÐ°Ð¼Ðµ
ĠÐ¿ÐµÑĢ Ð³Ð°
Ð¿Ð¸Ð»Ðµ ÑĪÐºÐ¸
ĠÐ¿ÑĢÑĬÑģ ÑĤÐ¸
ĠÐŁÑĥ ÑģÐºÐ°
ĠÑĥÐ½Ð¸Ð²ÐµÑĢÑģÐ° Ð»Ð½Ð°
Ñģ ÑĬÑĤ
Ð´ ÑĬÑĢÐ¶
Ð¿ ÐºÐ¸ÑĤÐµ
ĠÐ¾ Ð¿Ð¸ÑĩÐ°ÑĤ
ĠÐ·Ð° Ð¼
ĠÐ¿Ð¾ ÑģÑĤ
Ð¼Ðµ ÐºÐ²Ð°
Ð±Ð° ÑģÐºÐ¾
Ġ1 75
ÑĢÑĬ Ðº
ĠÐ½Ðµ ÑīÐ¾
ĠÐ¶ ÐµÐ»Ð¸
ĠÐļ ÑĢÐ°
ĠÐĶ ÐµÑģ
ĠÐºÐ¸ÑģÐµ Ð»ÐµÑĨ
ĠÑĢÐ°Ð·Ð±Ð¸ Ð²Ð°Ð½ÐµÑĤÐ¾
ĠÑģÐ° Ð½Ð´
ÐŁ Ð»Ð¾Ð´Ð¾Ð²ÐµÑĤÐµ
ĠÐ·ÐµÐ»ÐµÐ½ÑĩÑĥ ÐºÐ°
Ðļ Ð¸ÑģÐµÐ»Ð¾ÑĤÐ¾
ĠÐ·ÐµÐ»Ðµ Ð²Ð¸ÑĤÐµ
ĠÐºÐµ ÑģÑĤ
Ð´ÑĬÐ» Ð±Ð¾
ĠÐ²Ð°ÑĢ ÐµÐ½Ð°
ĠÐ±Ðµ Ð¹Ð±Ð¸
ĠÐ¿Ð¾Ð¿Ð°ÑĢ ÐµÐ½Ð¸ÑĤÐµ
ĠÑģÐ²ÐµÑĤ ÑĬÐ»
ĠÐ·Ð°Ð²Ð¸ÑĢÐ° Ð½Ðµ
ĠÐ½Ð°Ð² ÑģÑıÐºÑĬÐ´Ðµ
ĠÐ¿Ð¾Ð»Ðµ ÑĤÐ¸
ĠÐ¡Ð¾ ÑģÐ°
ĠÐ¸Ð·ÑĩÐµÑĢÐ¿ Ð²Ð°Ð½Ðµ
ĠÐ¾ÑĤ ÑĢÑıÐ·Ð²Ð°
ĠÐºÐ¾ ÑĩÐ°
ĠÑĦ ÑĢÐ°Ð½Ð·ÐµÐ»Ð°
ĠÑĦÐ¸ Ð»ÐµÐ½
ĠÐŀÑĤ Ð´ÐµÐ»Ñı
ĠÐ±Ñĥ Ñħ
ĠÐĵ Ð¾
ĠÐ³Ð¾ÑĢÑĩÐ¸ Ð²Ð¸Ñı
ÐºÐ¸Ñģ ÐµÐ»
ĠÐ³Ð¾ÑĤ Ð²ÐµÑĤÐµ
ĠÑģÐ²Ð°Ð»Ñı Ð½ÐµÑĤÐ¾
Ð¤ Ð°ÑģÑĥÐ»ÑĬÑĤ
ĠÑĪÐ¸ ÑĢÐ¸Ð½Ð°
ÑĤÑİ ÑĢÐ°
ĠÑģÑĤÐµÑĢÐ¸Ð»Ð¸Ð·Ð¸ ÑĢÐ°ÑĤ
ĠÐ½Ð°ÐºÑĬÐ»ÑĨÐ° Ð½
ĠÐ¸Ð·Ð¿Ð¸ÑĩÐ° Ð½ÐµÑĤÐ¾
ĠÐ·Ð°Ð¿Ð° Ð·Ð¸
ĠÐŁÐ¾Ð»ÑĥÑĩ ÐµÐ½Ð¸ÑıÑĤ
ĠÐ»ÐµÐ½ ÑĤÐ°
ĠÑģÐ»ÐµÐ´Ð²Ð° ÑīÐ¸Ñı
Ð½Ð°ÑģÑĤÑĬÑĢÐ³Ð° Ð½Ð¾
Ð´ÑĢÐµÐ± Ð½Ð¸
ĠÐ¿Ð¾Ð±Ðµ Ð»ÐµÐµ
ĠÐ°Ð¼Ð¾Ð½Ñı ÑĩÐ½Ð°
ĠÐ½Ð°ÐºÐ¸ÑģÐ½Ð° ÑĤÐ¸Ñı
ĠÐ¿Ð¾ÑģÐ³ ÑĬÑģÑĤÐ¸
ÑĤ ÑĬÑĤ
Ð² ÑĢÑĬÐ·
Ñĩ Ð½Ð¸Ñı
ÑĤÐ¾ Ð²ÐµÑĤÐµ
Ð³ ÑĬÐ±Ð¸
ÐºÐ° Ð¾
Ð½Ð° Ð»Ð°
ĠÐ» Ð¾Ð±
ĠÐ¿ÑĢÐµ ÑĨÐµÐ¶Ð´Ð°ÑĤ
ĠÐŀ ÑģÐ¾Ð»
ĠÑħ Ð²Ð°
ÑģÑĤÑĬÑĢ Ð³Ð°
Ð°Ð· Ð½Ð¸Ð½Ð°ÑĤÐ°
ĠÑĦÐ¸ ÑĤÐ¸
ĠÐ¿Ð° ÑīÑĬÑĢ
ĠÐ·Ð°Ð³ÑĢÑı Ð²Ð°Ð¼Ðµ
ĠÐ¸Ð·ÑģÐ¸Ð¿Ð²Ð° ÑĤÐµ
ĠÐĵ Ð°
ĠÐ¿Ð¾Ð»ÑĥÑĩÐ¸ ÑĤÐµ
ĠÑĢÑĬ Ð±
ĠÐ¾ÑĤÑĨÐµÐ´ ÐµÐ½Ð¸
ĠÑģÐ°Ð»Ð° Ð¼Ð°
ĠÑģÐ»Ð¸ Ð²Ð¸ÑĤÐµ
ĠÐļÑĢÐµ Ð¼ÑĬÑĤ
ĠÐ½Ð°Ð´ÑĥÐ¿ ÑĩÐ²Ð°
ĠÐĺÐ·ÑģÑĤÐ¸ Ð½Ð°
ĠÐºÐ¾ÑĢÐ½ÑĦÐ»ÐµÐ¹ ÐºÑģ
Ð¼Ð° Ð·
Ð±Ð° ÑħÐ°ÑĢ
ĠÐĴ Ð¾Ð´Ð°ÑĤÐ°
ĠÐ¼Ð¾ ÑĨÐ°ÑĢÐµÐ»Ð°ÑĤÐ°
ĠÐ¾Ð±ÐµÐ» ÐµÐ½
ĠÐ²Ð° Ð´ÑıÑĤ
Ð²ÐµÐ½ ÑĤÑĥ
ĠÑģÐ°Ð»Ð°Ð¼ ÑĥÑĢÐµÐ½Ð¾
ĠÐ¾Ð±ÐµÐ·ÐºÐ¾ÑģÑĤ ÐµÐ½Ð¾
ĠÑģÐ»Ð°Ð´Ð¾Ð» ÐµÐ´Ð°
ĠÐ¡Ð¸Ð¿ ÐµÑĤÐµ
ĠÐ¿ÑĢÐ¾Ð´ÑĬÐ»Ð³Ð¾ Ð²Ð°
ĠÐ¿ÑĢÐµÐ³ÑĬ Ð²Ð°
Ð¥ Ð»ÑıÐ±ÑĬÑĤ
ĠÐ²Ð´Ð»ÑĬÐ± Ð½Ð°
ĠÐ¾Ð²ÐºÑĥ ÑģÐ¸
ĠÑģÐ°Ð½Ð´ Ð²Ð¸Ñĩ
Ñģ ÐµÐ½Ð°
Ñģ Ð¼ÐµÑģ
ĠÑģ Ð½Ð¸Ð¼
Ð´ ÑĬÑĢÐ°
ĠÐ´ ÑĢÐ¾Ð±Ð°
ÐºÐ¾ Ð½Ñģ
ĠÑĢÐ°Ð· Ð´
ÑĩÐ¸ ÑĨÐ¸ÑĤÐµ
ÑĥÐ» Ð³ÑĥÑĢ
Ð²Ðµ Ð´
ĠÐļ Ð¾Ð»
ĠÐ¾Ð³ÑĬÐ½ ÑıÑĤ
ĠÐ¼ÐµÑģÐ¾ Ð¼ÐµÐ»Ð°ÑĩÐºÐ°
Ð¡ Ð¼ÐµÑģÐµÑĤÐµ
ĠÐ¿ÑĢÐµÐ´ Ñı
ĠÑıÐ±ÑĬÐ» ÐºÐ°ÑĤÐ°
ĠÐ¼Ðµ ÐºÐ°
ĠÐľÐ¾ Ð³Ð°ÑĤ
ĠÐ½ÐµÐ¾Ð±ÑħÐ¾Ð´Ð¸Ð¼Ð¾ ÑģÑĤ
ĠÐŁÐ¾ÐºÑĢÐ¸ Ð²Ð°Ð¼Ðµ
ĠÐ¿Ð¾ÑĢÑĤÐ¾ÐºÐ°Ð»Ð¾ Ð²Ð¸
Ð»ÑĬÐ½ ÐºÐ°
ĠÐ·Ð°Ðµ ÐºÐ°
ĠÐ¼Ð»Ðµ ÑĩÐ½Ð°ÑĤÐ°
ÐŀÐ±ÐµÐ» Ð²Ð°Ð¼Ðµ
ĠÐ¿Ð¾Ð»Ðµ Ð¹ÑĤÐµ
ÑĢÑıÑģÐ½Ð¾ ÑĤÐ¾
ĠÐµÐ» Ð´Ð°
ĠÑĪÐ°Ð¼ Ð¿Ð°
ÐºÐ¾ÐºÐ¾ ÑģÐ¾Ð²Ð¸
ĠÐ±Ð°Ð»ÑģÐ°Ð¼Ð¸ ÐºÐ¾Ð²
ĠÑĤÐµÐ½ Ð·Ñĥ
ĠÐ¿ÐµÑĢÐ³Ð° Ð¼ÐµÐ½
ĠÐº ÐµÑĢÐ²Ð¸Ð·
Ð¿ ÐµÐºÐ¾
ĠÐ² Ð¾Ð´Ð¸
ĠÐ·Ð° Ð¼Ðµ
ÐºÐ¾ ÑĤÐ°
Ð»Ð¾ Ð¶Ð¸
Ð°Ð½Ð¸ ÐµÑĤÐ¾
ĠÐĶ Ð²ÐµÑĤÐµ
ĠÐ¼Ð¾ Ð·ÑĬÐº
ÐŁ Ð¾Ð´
ĠÐ»Ð¸Ð¼Ð¾Ð½Ð¾ Ð²Ð¸
ĠÑĤÐµÐ»ÐµÑĪÐºÐ¾ ÑĤÐ¾
ĠÑĢÐ°Ð·ÑģÑĤÐ¸Ð»Ð° Ð¼Ðµ
ĠÐ¿Ð°ÑģÐ¸ÑĢÐ° Ð½Ð¸ÑĤÐµ
ĠÑĦÐ¾ÑĢÐ¼Ð¸ ÑĤÐµ
ĠÑĦÐ¾ÑĢÐ¼Ð¸ ÑĩÐºÐ¸ÑĤÐµ
Ð¿Ð°ÑĢ ÑĩÐµÐ½ÑĨÐµ
ĠÐºÐ¾ÑĢÐ¸Ð°Ð½ Ð´ÑĬÑĢÐ°
ĠÑıÐ³Ð¾ Ð´Ð¸ÑĤÐµ
ĠÐºÐ°ÑĢÐ°Ð¼ÑĦÐ¸Ð» ÑĩÐµÑĤÐ°
Ð·ÐµÐ» ÐµÐ½Ð°
ĠÐ¸Ð·Ð¿Ð¸ÑĩÐ° Ð½Ðµ
ĠÑĥÐ²ÐµÐ»Ð¸ ÑĩÐ¸
ĠÐ¿Ð°Ð½Ð¸ÑĢÐ° Ð½Ðµ
ÐºÐ°ÑĢÑĤÐ¾ ÑĦÐ¸
ÑĢÐ¾ÐºÐ¾Ð» Ð¸ÑĤÐµ
Ðµ ÑĤÐ¸
ĠÑģ ÐºÐ¾
Ð¿ Ð»Ð°
Ð»Ð¸ Ð½
ĠÐ» Ñĥ
Ð¹ Ð»Ð¸
ĠÐ¸Ð· Ð³
ĠÐ¿ÑĢÐµ Ð¿ÐµÑĩÐµÐ½Ð¸
ÑĩÐ¸ ÑĤÐµÐ»Ð½Ð¾
ĠÐļ Ðµ
ĠÐĿÐ° Ð»Ð¸Ð²Ð°ÑĤ
ĠÐ¶ÐµÐ»Ð° ÐµÑĤÐµ
ÑĤÐ¾Ð¿ Ð»Ñı
ĠÑģÑĬÐ´ ÑĬÑĢÐ¶
ĠÑĥÐºÑĢÐ° ÑģÐ¸
ĠÐļÐ° ÑĪÐºÐ°Ð²Ð°Ð»ÑĬÑĤ
ĠÐºÐ°ÑĢÑĤÐ¾ÑĦ ÐµÐ½Ð°ÑĤÐ°
ĠÐ½Ð°Ð¼Ð°Ñģ Ð»ÐµÐ½Ð¸
ĠÐ¿Ð¾Ð»Ð¸ Ð²Ð°Ð¼Ðµ
ÑĢÐµÐ½Ð²Ð¸ÑĢ ÑĪÐ¸ÑĤÐµ
ĠÐ¿Ð¾Ð² Ð´Ð¸
Ð§ ÐµÑģÑĬÐ½ÑĬÑĤ
ĠÐºÐ¾Ð¿ÑĢÐ¸ Ð²Ð°ÑĤÐ°
ĠÐ¡Ð¸Ð¿ Ð²Ð°ÑĤ
ĠÐ¢Ð¾ÑĢ ÑĤÐ°ÑĤÐ°
ĠÐ²Ð»Ð°Ð¶ Ð½Ð°
Ð´ÐµÐ±Ðµ Ð»Ð¸
Ð²ÑĢÑĬÐ· ÐºÐ°
Ð²ÐµÐ´ Ð½ÑĬÐ¶
/ [
4 2
ĠÐ¾ Ð¿ÐµÑĩÐµ
Ð¼Ð° Ð»ÐºÐ°
ĠÐ¸Ð· Ð¿ÐµÑĩ
ÐµÐ» ÑĦÐ¸
ĠÐ·Ð°ÑħÐ°ÑĢ Ð¾ÑģÐ°Ð½Ð¸
Ð±ÑĬÑĢ Ð·Ð¾
ĠÑĩÐ° ÐµÐ½Ð°
Ð¾Ð²Ð¸ ÑĤÐµ
ĠÐ¼Ð°ÑĢ Ð»Ñı
ĠÐ³ÑİÐ²Ðµ ÑĩÐµÑĤÐ°ÑĤÐ°
ĠÑĢÐ°Ð·Ð¿ÑĢÐµÐ´ÐµÐ»Ñı Ð¼Ðµ
Ð»Ð¸Ð¼Ð¾ Ð½Ð¾Ð²Ð°
ĠÐŁÑĬÑĢÐ¶ Ð¾Ð»Ð¸ÑĤÐµ
ĠÐ¿ÑĬÑĢ Ð²Ð¸Ñı
ĠÑĢÐ°Ð·ÑĤÐ²Ð¾ÑĢ ÐµÐ½
ĠÑģÑĤÑĬÐº Ð»Ð¾
ĠÐ¿ÑĢÐ¾Ð·ÑĢÐ° ÑĩÐ½Ð¾
ĠÐ·Ð°Ð¿ÑĢÑĬÐ¶ ÐºÐ°ÑĤÐ°
ÑģÐ²Ð°ÑĢ ÐµÐ½Ð¸
ÑĪÐ°ÑĢ ÐµÐ½Ð°
ĠÑĤÐ¾ÑĢÐ±Ð¸ ÑĩÐºÐ°
ĠÐºÑĢÐµÐ¼Ð¾Ð¾Ð±ÑĢÐ°Ð· Ð½Ð°
ĠÐŀÐ³ ÑĬÐ½
ÐµÐ½ Ð½Ð°ÑĤÐ°
ÐºÐ° ÐºÐ°Ð¾
ĠÐ·Ð° Ð¿ÑĬÐ»
ĠÐ´Ð¾ Ð·Ð°
ĠÐ¡ Ð»Ð°Ð´
ÑĥÑĪ ÐºÐ°ÑĤÐ°
ĠÐŀ ÑĦÐ¾ÑĢ
ĠÐ»Ð¸ ÑĩÐ½Ð¾
ĠÐ·Ð°Ð´ÑĥÑĪ ÐµÐ½Ð¸Ñı
Ð¿Ð¾ ÑĤ
ĠÑģÑĥ ÑĤ
ÑĢÐµÑħ Ð¸ÑĤÐµ
ĠÐ¿Ð¾Ð»Ñĥ Ð¾
ĠÐ¾ÑģÑĤÐ°Ð½Ð° Ð»Ð°
ĠÐŀÑĤ ÑĨÐµÐ´ÐµÑĤÐµ
ÐŁ ÑĢÐµÐ´Ð²Ð°ÑĢÐ¸ÑĤÐµÐ»Ð½Ð¾
Ð¿Ðµ ÑĩÐµÐ½
Ð»Ð°Ð´Ð¸ ÑĤÐµ
ĠÐ¿ÑĥÑĪ ÐµÐ½Ð¸ÑĤÐµ
ĠÐľÐ° Ð¹Ð¾Ð½ÐµÐ·Ð°ÑĤÐ°
ĠÐ½ÐµÐ¾Ð± ÐµÐ»ÐµÐ½Ð¸
ĠÑĢÐ¾Ð¼ Ð±Ð¾
ĠÐºÐ°ÑĪÐ° ÑĤÐ°
ĠÐĳÑĬÑĢÐºÐ° Ð¼Ðµ
ĠÐºÐ»Ð¾Ð½ ÑĩÐµ
ĠÐ³Ð°Ð·Ð¸ ÑĢÐ°Ð½Ð°ÑĤÐ°
Ð½Ð¸Ð¼ ÑĥÐ¼
ĠÑĪÐ¾ÐºÐ¾Ð»Ð°Ð´Ð¾ Ð²Ð°ÑĤÐ°
ĠÑĥÑģ ÑĥÐº
ÐĿÐ°ÑĢÑıÐ·Ð²Ð° ÑĤÐµ
ĠÐ½Ð°Ð¹Ð»Ð¾ Ð½Ð¾Ð²Ð¾
ĠÐ»ÐµÑģ Ð½Ð¾
ĠÐ»Ð¾Ð± Ð¾Ð´Ð°
Ġ 80
ĠÑģ Ð¿
ĠÑģ ÑĢÑıÐ·Ð²Ð°ÑĤ
ĠÑĩ ÐµÐ´ÑĬÑĢ
ĠÐ·Ð° ÑģÑĤÐ¸Ð»Ð°
Ð¹ Ðº
ÑĥÑĪ Ð¸
ĠÑģÐ¾Ð» ÐµÐ½Ð¸
ĠÐĿÐ° Ð¼Ð°Ñģ
ĠÑĤÐ¾Ð¿ Ð¸Ð½Ð³
ĠÐľ Ð¾ÑĢÐºÐ¾Ð²ÑĬÑĤ
ĠÑģÐ²Ð°ÑĢÑı Ð²Ð°Ð½ÐµÑĤÐ¾
ĠÑģÐ²Ð°ÑĢ ÐµÐ½Ð°ÑĤÐ°
ĠÐ»Ñİ ÑĤÐ°ÑĤÐ°
ĠÐ´Ð¸Ð° Ð³Ð¾
ĠÐ¿Ð¾ÑĩÐ¸ Ð²Ð°
ĠÐ½Ð¸ ÑģÐºÐ°
ĠÐ±Ð»Ð°Ð½ÑĪÐ¸ ÑĢÐ°
ĠÐ´ÐµÐºÐ¾ ÑĢÐ¸ÑĢÐ°
ĠÐŀÑħ Ð»Ð°Ð¶Ð´Ð°
ĠÐºÑĥÐ¿ ÑĩÐ¸Ð½
ĠÐ½Ð°Ð½Ð¸ Ð·Ð²Ð°ÑĤ
ĠÐ²Ð¾Ð´ÐµÐ½Ð¸ ÑĩÐºÐ¸
" [
Ġ Ñī
ĠÑģ Ð¾ÑĢ
ĠÑģ Ð½ÐµÐ¼Ð°
Ð´ Ð½Ð¸
ÑĤÐµ ÑģÑĤÐ¾
ĠÐ·Ð° Ð±Ð¾Ð¶Ð´Ð°
Ð½Ð° Ð»Ð¸
ĠÐ¿Ð¾ Ð¼Ðµ
ĠÐĴ Ð·Ð¸Ð¼Ð°
Ð±ÑĬÑĢ ÐºÐ°Ð¹ÑĤÐµ
ĠÐĶ ÑĬÐ½Ð¾ÑĤÐ¾
ĠÐĿÐ° Ð²Ð¸Ð²Ð°ÑĤ
ĠÑģÑĬ Ð´Ð¾Ð²Ðµ
ĠÐ·Ð°Ð³ ÑĢÐµÐ±Ð²Ð°
ĠÐĺÐ· Ð¿ÐµÑĩÐµÑĤÐµ
ĠÐŁÐ¾Ð´ ÑħÐ¾Ð´Ñı
ĠÐ¿ÑĢÐ¸Ð³Ð¾ÑĤÐ²Ñı Ð¼Ðµ
ÐĺÐ· Ð²Ð°
ĠÐ´Ð¸ Ð²
ĠÐ¸Ð·ÑĨÐµÐ´ ÐµÐ½Ð¾
ÑĢÑıÐ·Ð°Ð½Ð¸ Ñı
ĠÐ·Ð°Ð²Ð¸ÑĢÐ° Ð½ÐµÑĤÐ¾
ĠÑĦÑĢÐ¸ ÑĤÑİÑĢ
Ð¤Ð¸Ð»Ðµ ÑĤÐ°ÑĤÐ°
ĠÑĤÐµÐ½Ð·Ñĥ Ñħ
Ðº ÑĬÐ¼
Ð´ ÐºÐ°ÑĤÐ°
ĠÐ½Ð° Ð½Ð°ÑģÑı
ĠÐ½Ð° Ð²ÐµÐ´Ð½ÑĬÐ¶
ĠÐºÐ° Ð¼Ðµ
ĠÐ¡ ÑĤÐ°
ĠÑĤ Ð»
ĠÐ¶ ÑĥÐ»Ð¸
ĠÐŁÐ¾ ÑĩÐ¸ÑģÑĤÐµÑĤÐµ
Ð»Ð°Ð´ ÐµÐ»ÑĦÐ¸
ĠÐłÐ°Ð· Ð´ÐµÐ»ÐµÑĤÐµ
ĠÐĺÐ· ÑĨÐµÐ¶Ð´Ð°
ĠÐ³ÑĢÐ° Ð´Ð¸Ð½ÑģÐºÐ¸
ĠÐ¢ Ð¸
ĠÐĳ Ð¸
ĠÐ¿Ð¾ÑĩÐ¸ÑģÑĤ ÐµÐ½Ð°
ĠÐ½Ð¾ Ð¶Ð°
ĠÐºÐ°ÑĦ ÐµÐ½Ð¸ÐºÐ°
Ðĳ ÑĥÑĤÑĩÐµÑĤÐ°ÑĤÐ°
ĠÐ¾Ð²ÐºÑĥÑģ ÐµÑĤÐµ
ĠÐ¿Ð¾Ð´Ñģ Ð»Ð°Ð¶Ð´Ð°
Ð¢ ÐµÐ»Ðµ
ĠÐ·Ð°Ð²Ð¸ Ð²Ð°Ð¼Ðµ
Ð·Ð¼Ð° ÑĢÐ¸Ð½Ð°
ĠÐ°ÑĢÐ¾ Ð¼Ð°ÑĤÐ°
ĠÐ°Ð½Ð° Ð½Ð°
ĠÑĢÐ°Ð·Ð±ÑĬÑĢÐºÐ° Ð½Ð¾
ĠÑĢÐ°Ð·ÑĢÐµ Ð·
ĠÐ·Ð°Ð»ÐµÐ¿ Ð½Ðµ
ĠÐ³Ð¾Ð²ÐµÐ¶ Ð´Ð¸
ĠÐ¿Ð¾Ð·Ð°Ð¿ÑĬÑĢÐ¶ Ð°ÑĤ
ĠÐºÐ¾ÑĤÐ»Ðµ ÑĤÐ¸ÑĤÐµ
ĠÑĢÐµÐ± ÑĢÐ°ÑĤÐ°
ĠÐķÐ´ Ð½Ð°ÑĤÐ°
ĠÐ¿ÑĪÐµÐ½Ð¸ ÑĩÐ½Ð¾
ĠÐ´Ñİ Ð»Ð¸
ĠÐ¿Ð¾ÐºÐ°ÑĦÐµÐ½Ðµ ÑıÑĤ
ĠÑģÑĥÑĤ ÑĢÐ¸Ð½
* [
ĠÐ½Ð° Ð»ÐµÐ¹ÑĤÐµ
Ð¿ Ð½ÐµÑĤÐµ
ĠÐ¾ Ð¼ÐµÑģ
Ð¾Ð» Ð°ÑĤÐ°
Ð²Ð¸ Ð¶
Ð¼Ð° Ðº
ĠÐŁ Ð°Ð½Ð¸
ĠÐ¿Ðµ ÑĢÐ°
Ð·Ð° Ð¼ÑĢÐ°Ð·
ĠÐĶ ÑĬÑĢÐ¶
ÐºÑĥ ÑģÐ½Ð¾
ĠÐ¾ÑģÑĤÐ°Ð²Ñı Ð¼
ĠÑĤÐ¾Ð¿ ÑĩÐµÐ½ÑĨÐ°
ĠÐ±Ð¾ Ð·Ð°
ÐĴ ÑĬÐ²
ĠÐĳ ÑĥÐ»ÑĮÐ¾Ð½ÑĬÑĤ
ĠÐ¢Ð° Ð²Ð¸ÑĩÐºÐ°ÑĤÐ°
ĠÐ·Ð°ÑĤÐ¾Ð¿ Ð»ÐµÐ½Ð¸
Ð¸Ðº Ð²Ð¸ÑĩÐºÐ°ÑĤÐ°
ĠÐ±Ðµ ÑĪÐ°Ð¼ÐµÐ»
ĠÐ½Ð°Ð¿ÑĢÐ° Ð²Ð¸ÑĤÐµ
Ð³Ð¾ÑĤÐ¾ Ð²Ð¾
ĠÐ²ÑĢÑĬÑīÐ° Ð¼Ðµ
Ð·ÐµÐ» ÐµÐ½
ĠÐ¿Ð°ÑģÐ° ÑĤÐ¾ÑĢÐ°
ĠÑħÑĢÑĥÐ¿ÐºÐ° Ð²Ð°
Ð¨ Ð¾ÐºÐ¾Ð»Ð°
ĠÐºÐ¸ÑĦÐ»Ð¸ ÑĩÐºÐ¸
ĠÐºÐ¾Ð·Ñĥ Ð½Ð°Ðº
ĠÐ¾Ñģ Ð²Ð¾
Ð¼Ð°Ð»Ð° Ð¹ÑģÐºÐ°
ĠÐŀÑĦÐ¾ÑĢ Ð¼ÐµÑĤÐµ
Ñģ Ð»Ð°
ÑĤ ÑĢÑıÐ±Ð²Ð°
Ðº ÑĤÐ¸
Ð²Ñı Ð²Ð°
Ð³Ð° ÑĤÐ°
ÑģÑĤ ÑĢÐ¾Ð¹
ĠÑĢÐ°Ð· Ð²Ð°ÑĢÑı
ĠÑĢÐ°Ð· Ð¼ÐµÑģÐ²Ð°ÑĤ
ĠÑģÐ¾ ÑģÐ¸
Ð´Ð¸ Ð¼
Ð¿ÑĢÐ° Ð²ÐµÑĤÐµ
ĠÑģÐ° Ñĩ
Ð´Ð¾ Ð¼Ð°ÑĤÐ¸
ĠÐ²ÑģÐ¸Ñĩ ÐºÐ°ÑĤÐ°
ĠÐ±Ñĥ ÑĩÐ¸ÑĨÐ¸
ĠÐ»Ñİ ÑĤÐ¸ÑĤÐµ
ĠÐ¼Ð¸ Ð½Ð¸Ð¼ÑĥÐ¼
ĠÐľÐ° Ñħ
Ð¿ÑĢÐ¸ Ð²Ð°ÑĤÐ°
ĠÑģÐºÐ° ÑĢÐ°ÑĤÐ°
Ð»Ñĥ Ð·Ð°
ĠÑģÐ°ÑĢÐ¼Ð¸ ÑĩÐºÐ¸
ĠÐĿÐ°ÑĢÑıÐ·Ð²Ð° ÑĤÐµ
ĠÑĢÐ°Ð·ÑĢÐµ Ð·Ð°
ĠÐ¸Ð·Ð¿ÐµÑĩÐµ ÑĤÐµ
Ð¶ÑĬÐ» ÑĤÐ¾
ĠÐ¿Ð¾ÑĤÑĬ Ð¼
ĠÐµÐºÑģÑĤÑĢÐ° ÐºÑĤ
Ð¿Ð»Ð¾Ð´Ð¾ Ð²Ðµ
ĠÑģÐºÐ¾ ÑĢÐ¾
Ġ ,
ĠÑģ ÑĢÑıÐ·Ð²Ð°
Ð²Ð° Ð¹ÑĤÐµ
Ð± ÑĥÐ»ÑĮÐ¾Ð½
ĠÐ¼Ð° Ð·
Ð¼Ð° ÑĤÐ½Ð¾
ĠÐ¶ ÐµÐ»Ðµ
Ð¾ÑĢÐºÐ¾ Ð²Ð°
ĠÐĶ ÐµÐºÐ¾
ĠÐĹÐ° Ð¿ÐµÑĩÐµÑĤÐµ
ĠÐĹÐ° ÑģÑĤÑĢÐ¾Ð¹
Ð¡ Ð²Ð°ÑĢÑıÐ²Ð°
ĠÐĺÐ· ÑĢÑıÐ·Ð²Ð°ÑĤ
ĠÑģÐµÑĢÐ²Ð¸ÑĢÐ° Ð¼Ðµ
Ð·Ðµ Ð¼ÐµÑĤÐµ
ĠÑĢÐµÐ·ÐµÐ½ ÑĩÐµ
ĠÐ¾Ð±ÑĢÑĬÑīÐ° Ð¼Ðµ
ĠÐ¿Ð¾ÑģÐ»ÐµÐ´Ð¾Ð²Ð°ÑĤÐµÐ»Ð½Ð¾ ÑģÑĤ
ĠÐ¿ÑĬÐ»Ð½Ð¸ Ð¼
ĠÑħÐ»ÐµÐ± Ð½Ð¸
ĠÐķ Ð¼ÐµÐ½ÑĤÐ°Ð»
ĠÐ´ÑĥÐ¿ ÐºÐ¸
ĠÐºÑĢÐ°Ð²Ðµ ÑĤÐ¾
ĠÐ¿ÑĥÑģ Ð½Ðµ
ĠÐŀÑĤÑģÑĤ ÑĢÐ°Ð½Ð¸
Ð¿Ð¾ÑĢ ÑĬ
ĠÐ¿ÑĢÐ¾Ð´ÑĬÐ»Ð³Ð¾ Ð²Ð°ÑĤÐ°
ĠÑĢÐ°Ð·Ð¿ÑĢÐµÐ´ ÐµÐ»ÐµÑĤÐµ
ĠÐ½Ð°Ð¼Ð¾Ðº ÑĢ
Ð¼ÐµÑģÑĤ Ð²Ð°
Ð¼ÐµÐºÐ²Ð° Ð½Ðµ
Ð²ÐµÐ½ÑĤÑĥ Ð°Ð»Ð½Ð¾
6 5
Ġ )[
ÑĤ ÐºÐ°ÑĤÐ°
Ð½ ÐµÐ½Ð¾
ĠÑģ Ð¿Ðµ
Ð² ÐµÐ½Ð¾ÑĤÐ¾
Ð² ÐµÐ½Ð¸Ñı
ĠÐ½Ð° Ð±Ð¾Ð¶Ð´Ð°
ÑĢÐ° Ñħ
ĠÐ¿Ð¾ ÐºÐ°
Ð¼Ðµ Ð´
Ð½Ðµ Ð¶
Ġ2 2
ĠÑĢÐ°Ð·Ð±ÑĬÑĢÐºÐ²Ð° Ð¼
Ð¡ Ð¿Ð°Ð³ÐµÑĤÐ¸ÑĤÐµ
ĠÑģÐ¼ Ð¸Ð½Ð´ÑĥÑħ
ĠÑĢÐ¾ Ð·Ð¼Ð°ÑĢÐ¸Ð½Ð°
ĠÐ»Ðµ ÐºÐ°
ĠÐ½Ð°Ð´ Ð»ÑĬ
ĠÐ¾Ð²ÐºÑĥÑģ ÐµÐ½Ð°
ĠÐ¿ÑĬÑĢ Ð²Ð¸ÑĤÐµ
ĠÑĦÐ¾ÑĢÐ¼Ð¸ ÑĩÐºÐ°
ĠÐ¿Ð¾ÑĢÑĤÐ¾ÐºÐ°Ð»Ð¾ Ð²Ð¸Ñı
ĠÐºÐ°ÑĢÐ°Ð¼ ÑĦÐ¸Ð»Ð°
ĠÐĺÐ·Ð¼Ð¸ Ð²Ð°ÑĤ
ĠÐ¸Ð·Ð²Ð°Ð´Ð¸ Ð¼
ĠÑģÐ°Ð» ÑĨÐ°
ĠÐŁÑĢÐ¾ Ð´ÑĬÐ»
ĠÐ¿Ð¾ÑħÐ»ÑĥÐ¿ Ð²Ð°ÑĤ
Ð¡Ð»Ð°Ð³Ð° Ð¼Ðµ
ĠÐ´ÑĬÐ»Ð³Ð¾ Ð·ÑĬÑĢÐ½ÐµÑģÑĤ
ĠÑĨÐµÐ»Ñĥ Ð²ÐºÐ¸
ĠÑģÐ¾ÑģÐ¸ ÐµÑĢÐ°
ĠÑģÐºÐ¾ÑĢÐ¾ ÑģÑĤ
ĠÐ½Ð°Ð´Ð»ÑĬ Ð¶Ð½Ð¾
2 30
Ðº ÐµÑĤ
ĠÐ² ÐµÑĢ
ÑĢÐµ Ð¹
ĠÐºÐ° ÑģÐ¸
Ġ1 8
ĠÐ·Ð°Ð¿ÑĬÑĢÐ¶ ÐµÐ½Ð¾ÑĤÐ¾
ÑģÐ¸Ð¿ ÐµÑĤÐµ
ĠÐ¿ÑĢÐ¾ Ð²ÐµÑĢÑıÐ²Ð°
ÐĴ Ð¾Ð´Ð°ÑĤÐ°
ĠÐĳ Ð¸ÑģÐºÐ²Ð¸ÑĤÐ¸ÑĤÐµ
ĠÐĳ ÐµÐºÐ¾Ð½ÑĬÑĤ
ĠÐĵ ÑİÐ²Ðµ
ĠÐ´Ðµ Ð²Ð¸ÑģÐ¸Ð»
ĠÐ¼Ðµ Ñħ
ĠÐ¿Ð¾ÑĢÑĨÐ¸ Ð¾Ð½
ĠÐ·Ð°ÑģÑĤ ÑĢÐ¾
ĠÐ½Ð°Ð±ÑĢÐ°ÑĪ Ð½ÐµÐ½
ĠÐ¾Ð±Ð¸ÐºÐ½Ð¾Ð² ÐµÐ½Ð°
ĠÐ½Ð¸ ÑģÐºÐ¾
Ð¡Ð¼Ðµ ÑĤÐ°Ð½Ð°ÑĤÐ°
ĠÐ·Ð°Ð´ÑĬÐ» Ð¶Ð¸ÑĤÐµÐ»Ð½Ð¾
ĠÐ²Ð°ÑĢÐ¸Ð°Ð½ ÑĤ
ĠÐ²ÑĬÑĤÑĢÐµÑĪÐ½Ð¾ ÑģÑĤÐ¸ÑĤÐµ
Ðµ Ð¼
ÐºÐ¾ Ð½
ÑģÑĤ ÑĢÑĬÐº
ĠÐŁ ÑĬÑĢ
Ġ1 20
Ð½Ð°ÑĤÐ° ÑĤÐ°
Ð¿Ð° Ð´Ð°
ÑĥÑĢ ÐºÐ¸ÑĤÐµ
Ð¶Ðµ ÑģÑĤ
ĠÐĿÐ° ÑģÑĤÑĬÑĢÐ¶ÐµÑĤÐµ
ĠÐ·Ð°Ð¿ÑĬÑĢÐ¶ ÐµÐ½Ð¸ÑĤÐµ
Ð¡ Ð¼ÐµÑģÐ²Ð°Ð¼Ðµ
ĠÐ¿ÑĢÐµÐ´ Ð²Ð¸Ð´
ĠÐ¿ÑĢÐµÑģ Ð¾Ð²Ð°ÑĤ
ĠÐľ Ð°ÑĢ
ĠÐ¸Ð·Ð¿ÑĬÑĢÐ¶ Ð²Ð°Ð¼Ðµ
Ð¿ÑĢÐµ ÑģÐ¾
ĠÐºÑĢÐ¾ ÐºÐµ
ĠÐŁÐ¾Ð´Ð½Ð°ÑģÑı Ð¼Ðµ
ĠÐ§ ÐµÑģÑĬÐ½Ð°
ĠÐł Ð¸
ĠÐ¿Ð¾Ð´ÑģÑĥÑĪ ÐµÐ½Ð¸
ÑĥÑĤ ÑĬÑĤ
ĠÑħÐ¾Ð¼Ð¾Ð³ÐµÐ½ Ð½Ð¾ÑģÑĤ
ĠÐ¾ÑħÐ»Ð°Ð´ ÐµÐ½Ð°
ĠÐ¾ÑģÐ½Ð¾ Ð²Ð½Ð¾
ĠÐĿÐµ Ð¿Ð¾ÑģÑĢÐµÐ´ÑģÑĤÐ²ÐµÐ½Ð¾
Ð±Ñı Ð»Ð¾
ĠÐ¿Ð¾Ð»Ð·Ð²Ð° ÑĤÐµ
ĠÐŀÐ±ÐµÐ» ÐµÐ½Ð¸ÑĤÐµ
ĠÐºÐ¾ÐºÐ¾ÑģÐ¾ Ð²Ð¾ÑĤÐ¾
ĠÐºÐ¾Ð½ÑĦÐ¸ ÑĤÑİÑĢÐ°
ĠÐ¾ÑħÐ»Ñİ Ð²Ð¸
ÑĪÑĥ ÑĤÐ¾
ĠÐłÑĥ Ð»Ð¾ÑĤÐ¾
ÐµÐ´Ð¸Ð½ ÑıÐ²Ð°ÑĤ
ĠÐ¸Ð·Ð¿Ð»Ñĥ Ð²Ð°ÑĤ
ĠÐ¿Ð¾Ð»ÑĥÐ¾ Ð¼ÐµÐºÐ²Ð°Ð½Ðµ
ĠÑĦÑĢÐ¸ÑĤÑİÑĢ Ð½Ð¸Ðº
Ð»Ð°Ð´ÐµÐ»ÑĦÐ¸ Ñı
1 10
Ð¾ Ð±Ð°
ĠÐ¿ ÑĤÐ¸
ĠÐ¿ ÐµÑģÑĤÐ¾
ÑĤÐ¾ Ð²Ðµ
Ð¿ ÑĥÑģ
ĠÐ· Ð´ÑĢÐ°
ĠÐ·Ð° ÐºÑĢÐµ
Ð½Ð° ÑĢÑıÐ·Ð°Ð½
ĠÐ´Ð¾ Ð¸Ð·
Ð²Ð¸ ÑĤÐ¾
ĠÐºÐ° Ð»
ÑģÑĤ Ð½Ð¾
ĠÑĤÐ¾ ÑĩÐµÐ½Ð¸
ĠÐ¿Ð¾Ð´ ÑĢÐµÐ´
ĠÐ¿Ð¾Ð» ÑĥÐº
ĠÐ¿Ð¾ÑĢÑĬÑģ ÑıÑĤ
ĠÐĿÐ° ÐºÐ¸Ñģ
ĠÐĺÐ· Ð¿Ð¸ÑĩÐ°ÑĤ
ĠÐ¾Ð±ÐµÐ» ÐµÐ½Ð°
ĠÐľ Ð°Ñģ
ĠÑĤÐ¸Ðº Ð²ÐµÐ½Ð¸
ĠÐºÐ°Ð¿Ð° ÑĩÐºÐ¸
ĠÐºÐµ ÑĢÐ°Ð¼Ð¸
ĠÐ³ÑĬÑĢ Ð½Ðµ
ĠÑģÐ¼Ð» ÐµÐ½Ð¸Ñı
ĠÐºÐ¾ÑĢ ÐµÐ½Ð¸ÑĤÐµ
ÐĽ ÐµÑīÐ°ÑĤÐ°
ĠÐ½Ð°ÐºÑĬÐ»ÑĨÐ° Ð½Ð¸ÑĤÐµ
ĠÐ¾ÑĨÐ²ÐµÑĤ ÑıÐ²Ð°
ĠÐ¼Ð°ÑĢÑĥÐ» ÑıÑĤÐ°
ĠÐ¸Ð·ÑģÑĤÐ¸Ð½Ð° Ð»Ð°ÑĤÐ°
ĠÐ·Ð°Ð² ÑĢÐ°ÑĤ
ĠÐ·Ð°ÑģÑĤÑĢÐ¾Ð¹ ÐºÐ°ÑĤÐ°
ĠÑĪÐºÐµÐ¼ Ð±ÐµÑĤÐ¾
ĠÐ´Ð¾Ð¼Ð°ÑĪ Ð½Ð°
ĠÐ¾ÑģÑĤÑĬÑĢÐ³ Ð²Ð°ÑĤ
ĠÑģÑĥÐ´Ð¶ ÑĥÐº
Ñĩ Ð½Ð¾ÑģÑĤ
Ñĥ ÐºÐ¸
ĠÐ½Ð° ÑĩÐ°
ĠÐ² Ð·ÐµÐ¼Ð°
ĠÐ´ ÐµÐ½Ð¾
ĠÐ± Ð»ÐµÐ´
Ð»Ð¸ Ð¿
ÑĢÑı Ð»Ð°
ĠÐºÐ° Ð¿Ð¸Ñı
ĠÐ¡ Ð°ÑĢ
Ð³Ð¾ ÑĢÑıÑĤ
ĠÐ¿Ð¾Ð» Ð·Ð²Ð°ÑĤ
ĠÐŁÐ¾ Ð²
ĠÐļ Ð¸Ð¿Ð²Ð°
ĠÑĦÐ¸ Ð³
ĠÐ»Ð¸Ð¼Ð¾ Ð½Ð¸ÑĤÐµ
ĠÐ¿Ñİ ÑĢÐ¸
ĠÐºÑĢÐ°ÑģÑĤÐ° Ð²Ð¸ÑĨÐ¸ÑĤÐµ
ĠÐ»ÑĬÐ¶Ð¸ ÑĨÐ°ÑĤÐ°
ĠÑģÑĤÑĥÐ´ ÐµÐ½Ð¾ÑĤÐ¾
ĠÐ½Ð¾ Ð²Ð°
ĠÑģÑĤÐµ Ð±
ÑħÐ° ÑĢÐ°
ĠÑĢÑĬ Ð¶
ĠÐľÐ° Ð¶Ðµ
ÑīÐ¸ ÑıÑĤ
ĠÐ±Ð¾Ð± ÑĬÑĤ
ĠÐºÐ¾ÑģÑĤÐ¸Ð» ÐºÐ°
ĠÐ¾Ð±ÑĬÑĢ Ð½ÐµÑĤÐµ
ĠÑĩÐµÑĤÐ²ÑĬÑĢ ÑĤÐ¸Ð½Ð¸
ĠÐŁÑĬÐ» Ð½Ð¸Ð¼
ĠÐ½Ð°Ð³Ð¾ÑĢÐµÑī ÐµÐ½Ð¾
ĠÑģÐ»ÑĬÐ½ÑĩÐ¾Ð³Ð»ÐµÐ´ Ð¾Ð²Ð¾
ĠÑģÐ»ÑĥÑĩÐ° Ñı
ĠÐ±ÑĢÐ°ÑĪ Ð½ÐµÐ½Ð°ÑĤÐ°
ĠÐºÐµÐ±Ð°Ð¿ ÑĩÐµÑĤÐ°
Ð¼ÐµÐºÐ½Ð° ÑĤÐ¾ÑĤÐ¾
ĠÐĴÐµ ÑĩÐ½Ð°
ĠÐ¼ÐµÑĢ Ð»ÑĥÐ·Ð°
ĠÑĩÐ¸Ð¿ Ñģ
ÑĥÐ»Ð³ÑĥÑĢ ÑĬÑĤ
ĠÐ´ÐµÐ½Ð¾ Ð½Ð¾
ÑĤ Ð²Ð¾ÑĢÐµÑĤÐµ
Ð» ÑĮÐ¾
Ð¿ Ñĥ
Ð½Ð¾ Ð²Ð¸
ÐºÐ¾ Ð²ÐµÑĤÐµ
ĠÐ¼Ð° Ð·Ð°
ĠÐ¸Ð· ÑĤÐ¸
ĠÐ¸Ð· Ð»Ð¸Ð²Ð°ÑĤ
ĠÐŁ ÑĬÑĢÐ²Ð¾
ĠÑĤÐ¾ ÑģÑĤÐµ
ĠÐ¿Ð¾Ð´ ÐºÐ¸ÑģÐµÐ»
ĠÑĤÐµ Ð»ÐµÐ½Ð°
Ð²Ðµ Ð³ÐµÑĤÐ°
Ð¾Ð»Ð¸ Ð¸ÑĤÐµ
ĠÐ¡Ð»ÐµÐ´ Ð²Ð°
ĠÐ¿Ð¾Ð´Ð¿ÑĢÐ° Ð²ÐµÑĤÐµ
ĠÐ·Ð°Ð¿ÑĬÑĢÐ¶ Ð²Ð°Ð½Ðµ
ĠÐĹÐ° ÐºÑĥÑģÐºÐ°
Ð±Ðµ ÑĢÐµÑĤÐµ
ĠÐ·Ð»Ð°ÑĤÐ¸ ÑģÑĤÐ¸
ĠÑħÑĥÐ±Ð° Ð²
ĠÐŁÐ¾Ð´Ð¿ÑĢÐ°Ð²Ñı Ð¼Ðµ
ÑĤÐ¾ÑĢ Ð¾ÑĤÐ¾
ĠÐ¿Ñı Ð½Ð°ÑĤÐ°
Ð³Ð¾Ð»Ñı Ð¼Ð°ÑĤÐ°
ĠÐ¿Ð¾Ð¾ Ñħ
ĠÑĩÐ¸Ð½Ð¸ Ð¹ÐºÐ¸
ĠÑģÑĤÑĢÐ¸ Ð²Ð°
ĠÐ½Ð°ÐºÑĬÐ»ÑĨÐ° Ð½Ð¸Ñı
ĠÐŁÐ° Ð»Ð°ÑĩÐ¸Ð½
ĠÐĺÐ·Ð¼Ð¸ Ð²Ð°
Ð³ÑĬ Ð²Ð°
ĠÐ¿Ð¾Ð¸Ð·ÑģÑĤÐ¸ Ð½Ð°ÑĤ
ĠÐ¼Ð»Ñı Ð½Ð¾
ĠÑĥÐ²ÐµÐ»Ð¸ ÑĩÐ°Ð²Ð°
ĠÐŀÐ± ÑĢÑĬÑīÐ°
ĠÐ½Ð°ÐºÑĬÐ»ÑĨ Ð²Ð°ÑĤ
ĠÐ¿Ð°ÑīÑĬÑĢ Ð½Ð°Ðº
ĠÐ¿ÐµÑĢÐ³Ð°Ð¼ÐµÐ½ ÑĤÐ¾Ð²Ð°
ĠÐ¾ÑģÐ²Ð¾ Ð±Ð¾Ð¶Ð´Ð°
ĠÑģÐ¿Ðµ ÑĨÐ¸
Ñģ Ð¼Ð°ÑĤÐ¸
ĠÑģ ÑĬÐ±Ð¸
ĠÐ½ ÑıÐºÐ¾
ĠÐ¾ Ðº
ÑĢÐ° Ð½ÑıÐ²Ð°ÑĤ
ĠÐ² ÑĤÐ¾ÑĢÐ¾ÑĤÐ¾
ĠÐ¸Ð· Ð¿Ð°
ĠÐ¼Ð°Ñģ Ð°ÑĤÐ°
ĠÑĤÐµ Ð¶ÐµÑģÑĤ
ÑģÐµ Ð¹ÑĤÐµ
ĠÑģÑĤ ÑĢÐµ
ĠÐ¼ÐµÑģ Ð°ÑĤÐ°
ĠÐĿÐ° Ð´
ĠÐ±Ð° ÑħÐ°ÑĢÐ°
ĠÐĹÐ° Ð´ÑĥÑĪÐµÑĤÐµ
ĠÐ¿ÑĢÐ¾ Ð¼ÐµÐ½Ð¸
ĠÐ¾ÑĢÐ¸Ð· Ð¾Ð²Ð¾
ĠÐ±Ð¸ ÑĤÐ°
Ðļ Ð°ÑĢÑĦÐ¸Ð¾Ð»ÑĬÑĤ
ĠÐ´Ð¶ Ð¾Ð±
ĠÐ³Ð¾ÑĢÑĩÐ¸ Ð²Ð¸Ð½Ð°ÑĤÐ°
ĠÐ¿ÑĢÐ¾Ð´ÑĬÐ» Ð¶ÐµÑĤÐµ
ĠÐ´ÑĬÐ»Ð¶Ð¸ Ð½Ð°ÑĤÐ°
ĠÐ¿ÑĬ Ð´Ð¿ÑĬÐ´ÑĬ
ĠÐ´Ð¶Ð¸Ð½Ð´Ð¶Ð¸ÑĦÐ¸Ð» ÑĬÑĤ
ĠÐ½Ð°Ð¿ÑĢÐ° Ð²Ð¾
ÐŁÐ¾ÑĩÐ¸ÑģÑĤ ÐµÐ½Ð¸ÑıÑĤ
ÐºÐ°Ð½ ÑĤÐ¸Ð½Ð°
ĠÐ¹ÐµÐ½ ÑģÐºÐ¾
ĠÐ¾Ð±ÑĢÐ°Ð·Ñĥ Ð²Ð°ÑĤ
ĠÐ½Ð°Ð¼Ð°ÑĩÐºÐ° Ð¹ÑĤÐµ
ĠÐ·Ð°ÑħÐ»ÑĥÐ¿ Ð²Ð°ÑĤ
ĠÐ¼Ð°ÑģÐºÐ°ÑĢ Ð¿Ð¾Ð½Ðµ
ĠÐºÐ¸Ð½Ð¾ Ð°
ĠÐ¿ÑĢÐ¾Ð´ÑĬÐ»Ð³Ð¾Ð²Ð° ÑĤÐ¸
ĠÑģÑĥÑĤÑĢÐ¸Ð½ ÑĤÐ°
ĠÐ±Ð»ÐµÐ´ Ð¾
Ġ 70
Ð¸ ÑģÐºÐ¸
ĠÐ½Ð° Ð³ÑĢÑı
Ð¿ ÑĦ
Ð± Ñĥ
ĠÐ· Ð½Ð°
ĠÐ·Ð° Ñħ
ĠÐºÐ° Ð¼
ĠÐºÐ¾ Ð¶Ð¸
Ñī Ð¸ÑĤÐµ
ĠÐ¿ÑĢÐµ Ð¿ÑĬÑĢÐ¶
ĠÐŁÐ¾ ÑĤÐ°Ð¿ÑıÑĤ
ÐºÐ¸Ð»Ð¸ Ð´ÐºÐ¸ÑĤÐµ
ĠÐ½Ð°Ð¼Ð°Ð· Ð½ÐµÐ½Ð¸
ĠÑĥ Ð¾Ðº
ĠÐ¼Ð¾ Ð¼ÐµÐ½ÑĤÐ°
Ð´Ð¾ Ð±
ĠÐ¿Ð¾ÑģÐ¾Ð» ÐµÐ½Ð¸
ĠÐŀÑģÑĤÐ°Ð²Ñı ÑĤÐµ
Ðŀ ÑĢÐ¸Ð·Ð°
ÐĿÐ° ÑĢÑıÐ·Ð°Ð½Ð¸ÑıÑĤ
ĠÐłÐ°Ð·Ð±ÑĬÑĢÐºÐ²Ð° ÑĤÐµ
ĠÑĢÐ°Ð·ÑĤÐ¾ ÑĩÐ²Ð°Ð¼Ðµ
ĠÐ½Ð°Ð¼Ð°Ñģ Ð»ÐµÐ½
ĠÑĨÑı Ð»
ĠÐ¾Ð²ÐºÑĥÑģÑıÐ²Ð° Ð¼Ðµ
ÑĤÑĢÐ¸ Ð²Ð°
ĠÐ¿Ð¾Ð¸Ð· Ð¿Ð°ÑĢÐ¸
ÐŁÐ¾ÑĩÐ¸ÑģÑĤ ÐµÐ½Ð°ÑĤÐ°
ĠÐ²ÑĬÑĤÑĢÐµÑĪ Ð½Ð°ÑĤÐ°
ĠÐ±ÑĬ Ð´Ð°ÑĤ
ĠÐ¼Ð°Ñħ Ð½Ðµ
ĠÐ·Ð°Ð»ÐµÐ¿ Ð²Ð°
ĠÐ½Ð°Ð´ÐµÐ½Ð¸ ÑĩÐºÐ¸
ĠÐĽÐ¸ ÑģÑĤÐ°ÑĤÐ°
ĠÐ¨Ð¾ÐºÐ¾Ð»Ð° Ð´ÑĬÑĤ
ĠÐ¿Ð¾ÑĢÐ¾Ð·Ð¾Ð²Ðµ Ðµ
ĠÑģÐ²ÐµÐ¶ Ð¾
ĠÐºÐ°Ð½Ð° Ð¿Ðµ
ĠÐ¼Ð°Ð·Ð° Ð½Ðµ
Ñĩ ÐµÐ½Ð¸Ðµ
ÑĤÐ° ÑĢÐ°
ĠÐ½Ð° Ð´Ð¸
ĠÐ½Ð° ÑĩÑĥ
ĠÐ½Ð° Ð»Ð°Ð³Ð°
ĠÐ½Ð° ÑĩÑĥÐºÐ°
ĠÐ² Ð¼ÐµÑģÑĤÐ¾
ĠÐºÐ° ÑĩÐ°
ĠÐŁ Ñİ
ĠÐŁ ÑĢÐµÐ´Ð²Ð°ÑĢÐ¸ÑĤÐµÐ»Ð½Ð¾
ÑĨÐµ Ð»Ð¸
ÐºÐ¾Ð» Ð±Ð°
ĠÑģÐ¼ÐµÑģ ÐµÐ½
ĠÑĩÐµÑĢÐ² ÐµÐ½Ð¸ÑĤÐµ
ĠÑĪ Ð¿ÐµÐºÐ¾
ĠÐ° ÑģÐ¿Ð¸
ĠÐ¸Ð·ÑģÑĤÐ¸ Ð²Ð°
ĠÐĵ Ð»Ð°
ĠÑĤÐ²ÑĬÑĢ Ð´Ð°
ĠÑħÐ° ÑĢÐµÑģ
ĠÐ½Ð°Ð¿ÑĬÐ» Ð½ÐµÑĤÐµ
ĠÐ¶ÑĬÐ»ÑĤÑĬÐº ÑĬÑĤ
ĠÐ±Ð»ÐµÐ½Ð´ ÐµÑĢÐ°
ĠÐ½Ð¸ Ð²Ð¾ÑĤÐ¾
ĠÐ½Ð°Ð¼Ð°ÑĩÐºÐ° Ð½Ð¸ÑĤÐµ
ĠÐ¥ ÑĥÐ±Ð°Ð²Ð¾
ĠÐ±Ð°Ð¼ ÑıÑĤÐ°
ĠÑĢÐµÑĨÐµÐ¿ ÑĤÐ°ÑĤÐ°
ĠÐ²ÑĬÐ·Ð¼Ð¾ Ð¶Ð½Ð¾
ĠÐ¿ÑĢÐµÑģÐµ ÑĩÐµ
ĠÐºÐ¸Ñģ Ð½Ðµ
ÐĶÑĢÐ¾Ð± ÑĩÐµÑĤÐ°ÑĤÐ°
3 30
Ð¸ ÑīÐ°
Ñı Ð³Ð°
ĠÐ·Ð° Ð²ÑĬÑĢÑĪ
ÑĤÐ¸ Ñģ
ĠÐ» ÑĥÐ½Ð¸
Ð»Ð¾ Ðº
ĠÐ¸Ð· ÑĤÐµÑĩÐµ
ĠÐºÐ¾ Ð·Ðµ
ÑĦÐ¸ Ð»Ð¸
ÑĥÑĪ ÑĥÐ»
ĠÐµ Ð»Ð¸Ð¿
ĠÐŁÐ¾ ÑħÐ»ÑĥÐ¿
ĠÐ±Ð° ÑģÐ¼Ð°ÑĤÐ¸
ĠÐĹÐ° ÑħÐ»ÑĥÐ¿
ĠÐºÑĢÐ° Ð¸ÑīÐ°
Ð´Ð¾ Ð²
ĠÐĳ ÑĥÑĢÐºÐ°
ĠÐ¸Ð·Ð¿ÑĬÑĢÐ¶ Ð¸
ĠÐ¿ÑĬÐ» Ð½
ĠÐ´ÑĢÑĥÐ³ Ð¾ÑĤÐ¾
ĠÐ½Ð°Ð¼Ð°Ð·Ð²Ð° ÑĤÐµ
ĠÐ½Ð°ÑĤÑĢÐ¾ÑĪ ÐµÐ½Ð¸Ñı
ĠÐ¾ÑĤÑģÑĤ ÑĢÐ°Ð½
ĠÐ¿Ð»Ð° ÑģÑĤÐ°
ĠÐ±Ð°Ð½Ð° Ð½Ð°
ĠÐ»Ð¸Ð¼Ð¾Ð½Ð° Ð´Ð°
ĠÐ¹ÐµÐ½ ÑģÐºÐ¸
ĠÐ¸Ð·ÑģÑĤÐ¸Ð½Ð° Ð»
ĠÑĢÑĥÐ» ÑĨÐ°ÑĤÐ°
ĠÐ°Ð²Ð¾ÐºÐ° Ð´Ð¾ÑĤÐ¾
Ð¨ ÑĥÐ½ÐºÐ°ÑĤÐ°
ĠÐ¸Ð·ÑĩÐ°ÐºÐ²Ð° Ð¼Ðµ
ĠÐŁÐ°ÑģÐ¸ ÑĢÐ°
ĠÑģÐ¸ÑĢ ÐµÐ½Ð°ÑĤÐ°
ÑģÐ²Ð¸Ð½Ñģ ÐºÐ¾
ĠÑĩÐ¾ Ð¿ÑĬÑĢ
ĠÐĴÑĬÑĤÑĢÐµ ÑĪ
ĠÐ¿ÑĬÐ¿Ðµ ÑĪ
ĠÐ¿ÑĢÐµÐ´Ñı ÑģÑĤÐ¸Ðµ
ĠÐ¶ÑĥÐ»Ð¸ ÐµÐ½Ð¸
ĠÐ»ÑĥÐ½Ð¸ ÑĩÐºÐ¸
Ġ 90
Ðº ÐµÑĢ
Ð´ Ð½Ðµ
Ð¼ Ð¾ÑĢ
ĠÐ½Ð° Ðº
Ð± Ð¾Ð´
ĠÐ² ÑĢÐµÐ»Ð¸
Ð¾Ð» Ð¾
Ð»Ð° Ð¼
Ð¼Ð° Ð·Ð°Ð½
ĠÐ¾ÑĤ ÐºÑĬÐ¼
Ð»Ð¾ Ð²
ĠÐ¡ Ð¿Ð°Ð³ÐµÑĤÐ¸ÑĤÐµ
ĠÑıÐ¹ ÑĩÐ½Ð°ÑĤÐ°
ĠÑģÐ»Ð° Ð±Ð¾
ĠÑĦ Ð°
ĠÐĶ Ð²Ð°ÑĤÐ°
ĠÑģÐ° ÑĩÐ°
ÐĹÐ° ÐºÐ²Ð°Ñģ
ĠÐ¾ÑģÑĤÐ°Ð½Ð° Ð»Ð¾
ĠÐ½Ð°Ð¼Ð°Ð· Ð½ÑıÐ²Ð°
ĠÐĺÐ· ÑĨÐµÐ¶Ð´Ð°ÑĤ
ĠÐ¸Ð·Ð¼Ð¸ ÑĤÐ¾
ĠÐ¿Ð¾ÑģÑĤÐ°Ð²Ñı ÑĤÐµ
ĠÐ½Ð°ÑĢÐµ Ð¶Ðµ
ĠÐ¸Ð·Ð²Ð° Ð´Ð¸ÑĤÐµ
ĠÐ»Ð¸Ð¼Ð¾Ð½ ÐµÐ½Ð°ÑĤÐ°
ĠÐĳ Ð»Ð°
ÑĨÐ°ÑĢÐµ Ð²Ð¸ÑĨÐ°
ĠÑĢÐ°Ð·ÑĤÐ¾Ð¿ ÑıÐ²Ð°ÑĤ
ĠÑĢÐ°Ð·ÑĤÐ¾Ð¿ ÑıÐ²Ð°Ð½Ðµ
Ð·Ðµ Ð»Ðµ
Ð¾ÑĤ Ð´Ð¾Ð»Ñĥ
Ðĳ Ð°
ĠÐ¿ÑĢÑĬ ÑĩÐ¸ÑĨÐ°
ĠÐ¢Ð° Ð±Ð°ÑģÐºÐ¾
ĠÐ¾ÑĤÑĨÐµÐ¶Ð´Ð° Ð¼Ðµ
ĠÑĢÐ°Ð·ÑĤÐ²Ð¾ÑĢ ÐµÐ½Ð¸Ñı
ĠÑģÐ°ÑĢ Ð¼Ð°
ĠÐ³Ð°ÑĢÐ½Ð¸ÑĤ ÑĥÑĢÐ°ÑĤÐ°
ÐŁÐ¾ÑĩÐ¸ÑģÑĤ ÐµÐ½Ð¸Ñı
ĠÐ²ÑĬÑĤÑĢÐµÑĪ Ð½Ð¾ÑģÑĤ
ÐŁÐ°ÑĤÐ»Ð°Ð´Ð¶ Ð°Ð½ÑĬÑĤ
ÑģÐ¼ Ð»ÐµÐ½Ð¸
ĠÐ±Ð¾ÑĢÐ¾Ð²Ð¸Ð½ ÐºÐ¸ÑĤÐµ
ĠÐ¿Ð°Ð½Ð¸ÑĢÐ¾ Ð²ÐºÐ°
ĠÐ±Ð°Ð´Ðµ Ð¼
ĠÐ¾Ð³Ð½ÐµÑĥÐ¿Ð¾ÑĢ Ð½Ð°
ĠÐĿÐ°ÑĢÑĬÑģ Ð²Ð°ÑĤ
Ð¿Ð¸Ð»Ðµ ÑĪÐºÐ¾
ĠÐŀÑħ Ð»Ð°Ð´
ĠÑĢÐ°Ð·Ð¿ÑĢÐµÐ´ ÐµÐ»Ð¸
ĠÐ¿Ð¾ÐºÐ°ÑĦÐµÐ½Ðµ Ðµ
ĠÑĦÐ¸Ð»ÐµÐ½ ÑĨÐ°
ĠÐŀÐ³ÑĬÐ½ ÑıÑĤ
ĠÐĶÑĬÑĢÐ¶ Ð¸
ÑĢÐµÐ¹ Ð¿ÑĦ
ĠÐ·Ð°ÑģÑĤÑĢÐ¾ Ð¹ÐºÐ°
ĠÐ¸Ð·Ð¿Ð° ÑĢÑı
1 90
ĠÑģ Ð²Ð¾
Ñĩ ÑĥÑĪ
ĠÐ¸ Ð³Ð»Ð°
Ð¼ Ð¾ÑĤÐ¾
Ð¼ Ð¾ÑĢÐºÐ¾
ĠÐ½Ð° Ð¾ÐºÐ¾Ð»Ð¾
Ñħ Ð¸ÑĤÐµ
ÑĢÑı Ð»Ð¾
ĠÑģÐ¸ Ð»Ð¸
Ñİ Ñģ
ÑĪÐºÐ° Ð²Ð°Ð»Ð°
ĠÐ½Ð°Ð¼Ð°Ð· Ð½ÐµÐ½
ĠÐ¿Ð¾ÑģÐ¾Ð» ÐµÐ½Ð°
ÐĿÐ° Ñħ
ĠÐ¾ÑĤÐ´ÐµÐ» Ð½Ð¸
ÑħÐ° Ð½Ð°
ĠÐ³ÑĬÑĢ Ð½ÐµÑĤÐ¾
ĠÑħÐ»Ð°Ð´ ÐºÐ¾
ĠÐ¿Ð°Ð»Ð°ÑĩÐ¸Ð½ ÐºÐ¾Ð²Ð¾
ĠÑĢÐ°Ð·ÑĤÐ²Ð°ÑĢÑı Ð½Ðµ
Ð¾Ð»Ð¸ÑĩÐµÑģÑĤ Ð²Ð¾ÑĤÐ¾
ĠÐ°ÑĢÐ¾ Ð¼Ð°ÑĤÐ¸ÑĤÐµ
ĠÐ°ÑĢÐ¾ Ð¼Ð°ÑĤÐ½Ð¾
ĠÐ¿Ð»Ð¸ ÐºÐ°
ĠÐŁÑĢÐ°Ð²Ð¸ Ð¼
ĠÐ½Ð°ÑĩÑĥÐ¿ Ð²Ð°
ĠÐĹ Ðµ
ĠÐĿÐ°ÑģÑĤÑĬÑĢÐ³ Ð²Ð°ÑĤ
ÑĤÑĬÐ½ ÐºÐ¸
ĠÐ»ÑĥÐºÐ°Ð½ ÐºÐ°
ĠÐ¡Ð»Ð°Ð´ÐºÐ¸ ÑĪÑĬÑĤ
ĠÑħÐ¾Ð¼Ð¾Ð³ÐµÐ½Ð¸Ð·Ð¸ÑĢÐ° Ð½Ðµ
Ð¼Ð¾ÑĢÐºÐ¾ Ð²Ð¸
Ðº ÑĤÐ°
ĠÑĢÐ°Ð· Ð¼ÐµÐºÐ½Ð°ÑĤÐ¾ÑĤÐ¾
ĠÐ¸Ð· Ð²Ðµ
ÑĨÐµ Ð»Ð°
ĠÐ¿Ð¾Ð´ Ð»Ñĥ
ĠÑħ Ð¸
ĠÐ° Ð¼Ð°
ĠÐµÐ´ Ð½Ð¾ÑĤÐ¾
ĠÐĿÐ° ÑĢÑıÐ·Ð°Ð½Ð¸ÑıÑĤ
ÐºÑĥ Ð±
ĠÐ¾ÑģÑĤÐ° Ð²Ð¸ÑĤÐµ
ĠÐĹÐ° Ð³
ĠÐ¿Ð¾ÑĩÐ¸ÑģÑĤ ÐµÐ½Ð°ÑĤÐ°
Ðľ Ð°ÑĢ
ĠÐ±Ñĥ ÑĤÐ°
ĠÐºÐ°Ð¿Ð° ÑĩÐµÑĤÐ°
ĠÐºÐ°Ð¿Ð° ÑĩÐµÑĤÐ¾
Ð·Ðµ Ð¼Ð°ÑĤ
ĠÑĢÐ°Ð·ÑĤÐ¾ ÑĩÐµÑĤÐµ
Ð¸Ð»Ð¸ Ð¹ÐºÐ¸ÑĤÐµ
ĠÐ¿Ð¾Ð´ÑħÐ¾Ð´Ñı ÑīÐ¾
ĠÐ¸Ð·Ð²Ð°Ð¶Ð´Ð° Ð½Ðµ
ĠÑģÐµÐ¼ ÐµÐ½Ð½Ð°ÑĤÐ°
Ð¸ÑĪÐµÑģÑĤÐµ ÑĤÐ¾
ĠÐ½Ð°Ð± ÑĥÑħ
ĠÐ³ÑĬ Ð±Ð°
ĠÑĦÐ°ÑģÑĥÐ» ÑĬÑĤ
ĠÐ²Ð°ÑĢ ÐµÐ½
Ð¸Ð½Ð´Ð¶Ð¸ ÑĦÐ¸Ð»
ĠÐ·Ð°ÑĤÐ¾Ð¿ Ð»ÐµÐ½Ð¾
ĠÑĢÐ¾Ð¼ ÑĬÑĤ
ĠÐ·Ð°Ð¿Ðµ ÑĩÐ°ÑĤÐ°
ĠÐ´Ð¾Ð» Ð½Ð°
ĠÑĪÑĥÐ¿ Ð½Ð°Ð»Ð°ÑĤÐ°
ĠÐºÑĢÑĥÑĪ Ð¸ÑĤÐµ
Ðĸ ÐµÐ»Ð°
ĠÑĥÐºÐ°Ð·Ð°Ð½Ð¸ ÐµÑĤÐ¾
ĠÐ½Ð°Ð´ÐµÐ½Ð¸ ÑĨÐ¸
ĠÐĿÐ°ÑģÑĤÑĬÑĢÐ³ Ð²Ð°
ĠÐ¤Ð¸Ð»Ðµ ÑĤÐ°ÑĤÐ°
ĠÑģÐµÐ´Ð¼Ð¸ ÑĨÐ¸
ĠÑģÑĥÐ¿ ÐµÐ½Ð°
ĠÐ¼Ð°ÐºÑģÐ¸Ð¼Ð° Ð»Ð½Ð°
ĠÐ·Ð°Ð»Ðµ ÑĤÐ¸
ĠÐ±ÐµÐ·ÑģÐ¾Ð» Ð½Ð°
ĠÐļÑİÑĦ ÑĤÐµ
Ð¶ÐµÐ»Ð° Ð½Ð¸Ðµ
ĠÐļÑĢÐ° Ð¸ÑīÐ°ÑĤÐ°
ĠÐ½Ð°ÑĩÐ° Ð»Ð¾ÑĤÐ¾
1 8
2 80
Ġ )
Ñģ ÐµÑĢ
Ñģ ÐºÐ¸ÑĤÐµ
Ñģ ÑĬÐº
Ð´ Ð²Ð°
ĠÐ½Ð° ÑģÐ¸
Ð¿ Ð»ÑĬÑĤ
ĠÐ³ ÑĢÑĬ
ĠÐ·Ð° Ð±Ð¾Ð¶Ð´Ð°ÑĤ
ĠÑĢÐ°Ð· Ð¼Ðµ
ĠÑĢÐ°Ð· Ð¼Ð°
ĠÐ¾Ð± Ð²Ð¸
ÑĤÑĬ Ðº
ÐµÐ»Ð° ÑĩÐºÐ°
Ð¿Ð¾ Ð½ÐµÑĤÐ¾
ĠÐ¿ÑĢÐ¾ ÑģÑĤÐ¾
ĠÐ·Ð°Ð³ ÑĬ
ÑĩÐ° ÐºÐ°Ð¹ÑĤÐµ
Ð¡ Ð°
ĠÐŀÑĤ ÑģÑĤÑĢÐ°
ĠÐ±Ð¸ Ð²Ð°
ĠÐŁÐ¾ÑĢ ÑĨÐ¸Ð¸ÑĤÐµ
ÐĿÐ° ÑĢÑıÐ·Ð°Ð½Ð¾ÑĤÐ¾
ĠÐ±Ð¸ÑģÐºÐ²Ð¸ ÑĤÐºÐ¸
ĠÐľÐ° ÑıÑĤÐ°
ĠÐ§ Ð¾ÑĢ
ĠÐ¾ÑĤÑĨÐµÐ´ ÐµÐ½Ð¸Ñı
ĠÐ¿ÑĢÐ¸Ð³Ð¾ÑĤÐ² ÐµÐ½Ð¾
ĠÐºÑĢÐµÐ½Ð²Ð¸ÑĢ ÑĪÐ°
ĠÑģÐ²Ð°Ð»Ñı Ð¼Ðµ
ĠÑĢÐ°Ð²Ð½Ð¾Ð¼ÐµÑĢ ÐµÐ½
ĠÐ¾Ð±ÑĬÑĢÐºÐ²Ð° Ð¼Ðµ
ĠÐ½Ñĥ Ð¶
ĠÐ¿ÑĢÐ¾Ð´ÑĬÐ»Ð¶Ð° Ð²Ð°Ð¼Ðµ
ĠÐ¾ÑģÐ½Ð¾ Ð²
ĠÐ¨ Ð°
ĠÐºÑĬÑģ Ð¾Ð²Ðµ
ĠÐºÐ¾ÑĤÐ»Ð¾Ð½ ÑĬÑĤ
ĠÐŀÐ²ÐºÑĥÑģÑıÐ²Ð° Ð¼Ðµ
ĠÐ¸Ð·Ð»Ð¸ ÑĪ
ĠÑģÐ°Ð» Ð²Ð¸Ñı
ĠÐ¾ÑĤÑģÑĤÑĢÐ° Ð½ÐµÑĤÐµ
ĠÐ·Ð°Ð²ÑĬÑĢ Ð·Ð²Ð°ÑĤ
ĠÐ¿ÑĬÐ½ ÑĩÐµÑĤÐ°
ĠÐºÐ¾Ð½Ð´ÐµÐ½Ð·Ð¸ÑĢÐ° Ð½Ð¾ÑĤÐ¾
ĠÐĸÐµÐ»Ð° ÑĤÐ¸Ð½ÑĬÑĤ
ĠÐ¼Ð°ÑĪÐ¸ Ð½Ð°ÑĤÐ°
ĠÐ½Ð°Ð¿Ð¸ ÑĤÐºÐ°
ĠÐļÐ¾Ð½ÑģÑĥ Ð¼Ð¸ÑĢÐ°
ĠÐ¼Ð°Ð½Ð´Ð°ÑĢÐ¸ Ð½Ð¸
ĠÐºÐ¾ÑĩÐ° Ð½Ð°
ÐºÑĤÐ¸ Ð²Ð¸ÑĢÐ°
ĠÐ¡Ð°ÑĢ Ð¼Ð¸ÑĤÐµ
Ñģ ÑıÑĤ
ÑĢ ÑĤÐ°
ÑĢ ÑĥÐº
ĠÑģ Ð¿ÑĢÐµ
Ð¼ Ð»Ñı
ĠÐ¼ Ð»Ð°Ð´
ĠÐ³ ÑĢÐµÐ¹Ð¿ÑĦ
ĠÐ´ ÑĬÑģÐºÐ°
ÑĢÐµ Ðº
ĠÐ¸Ð· Ð²Ð¸ÑĢÐ°
ĠÐ¸Ð· ÑĢÐ°Ð²
ĠÐ¡ Ð¼Ð¸
ĠÐ»Ð¸ Ð¼Ðµ
ĠÐºÑĥ Ð²ÐµÑĢ
ÑĩÐ¸ ÑĨÐ°ÑĤÐ°
ĠÑĪ ÑĥÑĪÑĥÐ»
ĠÐĹÐ° Ð³ÑĢÑıÐ²Ð°Ð¼Ðµ
ÐĹÐ° Ð³ÑĢÑıÐ²Ð°
ĠÑģÐºÐ¸Ð»Ð¸ Ð´ÐºÐ°ÑĤÐ°
ĠÐ¿ÑĬÑĢÐ¶ Ð¸ÑĤÐµ
ĠÑĥ Ð¿Ð¾ÑĤ
ĠÑĥ Ð¸ÑģÐºÐ¸
ĠÐ¾Ð±ÐµÐ» ÐµÐ½Ð¸Ñı
ÑģÐºÐ° ÑĢ
ĠÐ·Ð°Ð¿ÑĬÑĢÐ¶Ð²Ð° ÑĤÐµ
Ð´Ñĥ ÑĢÐ°ÑĤÐ°
ĠÐ·Ð°Ð»Ð¸Ð²Ð° ÑĤÐµ
ĠÐ¿Ð¾ÑĩÐ¸ÑģÑĤ ÐµÐ½Ð¸Ñı
ĠÐ¿ÑĥÐ´ Ð¸Ð½Ð³Ð°
ÑģÐ¾ Ð²Ð°
ÑĢÐ°Ð½ Ð¶Ð¸
ĠÐ¾ÑĤÐ´ÐµÐ» ÐµÐ½Ð°ÑĤÐ°
ĠÑĤÐµÑĩ Ð½Ð¸Ñı
Ðĳ Ð»Ð°ÑĤ
ĠÐ¿Ð¾ÑĢ ÑĨÐµÐ»Ð°
ÐłÐ°Ð· ÑĤÐ¾Ð¿
ĠÑģÐ¸Ð¿Ð²Ð° ÑĤÐµ
ĠÑģÐ¸ÑĢÐ¾Ð¿ ÑĬÑĤ
ĠÑĢÐ°Ð·Ð´ÐµÐ»Ñı Ð¼Ðµ
ĠÐ»Ð¾ Ð´ÐºÐ¸
ĠÑĪÐ¸ÑĪ ÑĩÐµÑĤÐ°ÑĤÐ°
ĠÐ¿Ð¾Ð»ÑĥÑĩ ÐµÐ½Ð¸ÑĤÐµ
ĠÑģÑĤÑĢÐ¸ ÑĤÐ°
ĠÐ³ÑĢÐ¸Ñģ ÑĬÑĤ
ĠÐ¿ÑĥÑħÐºÐ° Ð²Ð¾
ĠÐ½Ð°ÑĤÑĢÐ¸ Ð²Ð°ÑĤ
ĠÑĪÐ½Ð¸ÑĨÐµ Ð»Ð¸ÑĤÐµ
ĠÐ´Ð¾Ð¼Ð°ÐºÐ¸ Ð½ÑģÐºÐ°
ĠÐºÐ°ÑĪÐ¸ ÑĨÐ°
ĠÐ·Ð°Ð¿ÐµÑĩÐ°ÑĤ Ð²Ð°
ĠÐ¾Ð±Ð¸ÑĩÐ° ÑĤÐµ
ÐĽÐ¸ ÑģÑĤÐ°ÑĤÐ°
ĠÐ¶ÐµÐ»Ð¸ ÑĢÐ°
ĠÐ´Ð¸Ð°Ð³Ð¾ Ð½Ð°Ð»
Ð» ÐµÐ½Ð¸ÑĤÐµ
Ð¼ Ð½Ð¾Ð³Ð¾
ĠÐ¼ Ð»Ð°Ð´Ð¸
ĠÐ¾ Ð¼ÐµÑģÐµÑĤÐµ
ĠÐ² ÑĬ
ĠÐ² ÐµÐ½Ðµ
Ð»Ð¸ Ð²Ð¾
ĠÐ¼Ð° Ð»Ð¸
ĠÐ» Ð¾Ð´
ĠÑģÐ¸ ÑĢÐµÐ½
ĠÐ¿ÑĢÐµ Ð¿ÑĬÐ»
ĠÐ° Ð¿Ðµ
ĠÑĤÐ¾Ð¿ Ð»Ð¸Ñı
ĠÑĤÐ¾Ð¿ ÑĩÐ¸ÑĨÐ¸
ĠÐ¿Ð° ÑĤÐ¸
ĠÐľ Ð¾ÑĢÐºÐ¾Ð²Ð°
ĠÐ³ÑĢÐ° Ð½
Ð¶Ð° Ð²Ð°
ĠÐ¿Ð»Ð¾Ð´Ð¾ Ð²
ĠÐ¾ÑĤÑĨÐµÐ´ ÐµÐ½Ð°
ĠÐ¸Ð·ÑĩÐ¸ÑģÑĤ ÐµÐ½Ð¸ÑıÑĤ
ĠÐŁÑĬÑĢÐ¶ ÐµÑĤÐµ
ĠÐ·Ð°Ð¼ÑĢÐ°Ð· ÐµÐ½Ð°
ÑģÑĥ ÑħÐ°
ĠÐ¾ÑĤÐ² ÑģÑıÐºÑĬÐ´Ðµ
ĠÐ¿Ð¾Ð¸Ð· Ð²ÑĢÐ¸
ĠÑĤÑĢÐµ ÑĤÐ°ÑĤÐ°
ĠÐºÐ»Ð¾Ð½ ÐºÐ°
ĠÐºÐ»Ð¾Ð½ ÑĩÐµÑĤÐ°
ĠÐ¿ÑĢÐ°ÑģÐºÐ¾ Ð²Ð¸ÑĤÐµ
ĠÐ½Ð°Ð¼Ð°ÑĩÐºÐ²Ð° Ð¼Ðµ
ĠÑħÑĢÑĥÐ¿ÐºÐ° Ð²
ĠÑģÐ¼Ð° ÑĩÐºÐ²Ð°
ĠÐ¼Ð°ÑģÐ° Ð»Ð°
ĠÑĦÑĬÑģÑĤÑĬ ÑĩÐµÐ½Ð¾
ÐļÐ¾ Ð¿ÑĢÐ¸Ð²Ð°ÑĤÐ°
ĠÐļÑĢÐ°ÑģÑĤÐ° Ð²Ð¸ÑĨÐ°ÑĤÐ°
ĠÐ¤Ð¸Ð»Ðµ ÑĤÐ¾
Ð±ÐµÑĢ Ð³
ĠÐĹÐ°ÑģÑĤÑĢÐ¾Ð¹ Ð²Ð°
ĠÐºÐ°ÑģÐ¸ Ñģ
e r
Ñģ ÑĩÑĥÐºÐ°
ĠÐ² ÐµÑĤ
ĠÐ´Ð¾ ÑĢÐ¸
Ð²Ð¸ Ðµ
Ð´Ð° Ð²Ð°
Ð»Ðµ Ðº
ÑĢÐ°Ð· Ð°
ĠÑĢÐ°Ð· ÐºÑĬÑģ
ĠÑı ÑħÐ½Ð¸ÑıÑĤÐ°
ĠÐ¡ Ñĥ
ĠÑģÐ¾Ð» ÐµÐ½
ĠÑĤ ÑĥÐº
Ġ2 8
Ð²Ðµ Ðº
ĠÑĪ Ð¾Ð»
ĠÐļ Ð°ÑĢÑĤÐ¾ÑĦ
ĠÐĶ Ð°
ĠÐ·Ð°Ð¿ÑĬÑĢÐ¶ ÐµÐ½Ð¸Ñı
ĠÐĹÐ° ÐµÐ´Ð½Ð¾
ĠÐ´Ð¾Ð¼Ð°ÑĤ ÑĬÑĤ
ĠÑĢÐµ Ð´Ð¸ÑĤÐµ
ĠÐ³Ð° ÑĢÐ°Ð¼
ĠÐ³Ð¾ÑĢ ÑģÐºÐ¸
ĠÑĢÐ°Ð·ÑĤÐ¾Ð¿ ÑıÑĤ
Ð±ÑĬÐ» ÐºÐ°ÑĤÐ°
Ð¿ÑĬÐ» Ð½Ð°
ĠÑĢ ÑĥÐº
ĠÐ¿Ð¾ÑĢÑĤÐ¾ÐºÐ° Ð»Ð¸ÑĤÐµ
ĠÐ³ÑĬÑģÑĤÐ¾ ÑĤÐ°ÑĤÐ°
ĠÐ¸Ð·ÑĨÐµÐ´ ÐµÐ½Ð¸Ñı
ĠÑģÑĤÑĢÐ¸ ÑĤ
ĠÑĢÐ°Ð·Ð±ÑĬÑĢÐºÐ° Ð½Ð¸ÑĤÐµ
Ð²Ð¾ÐºÐ° Ð´Ð¾ÑĤÐ¾
ĠÐ²Ð°Ð½Ð¸Ð»Ð¾ Ð²Ð°ÑĤÐ°
ĠÐ¾ÑĤÐ»Ðµ Ð¶Ð°ÑĤ
ĠÐ¥ Ð»ÑıÐ±ÑĬÑĤ
ĠÐ²Ð¸Ð½ ÐµÐ½Ð°
ĠÐ½Ð°Ð´ÐµÐ½Ð¸ ÑĩÐºÐ¸ÑĤÐµ
ĠÐŁÑĢÐµÑģÑĤÐ¾ ÑıÐ²Ð°ÑĤ
ĠÑĢÑıÐ´ ÐºÐ¾
ĠÐĵÐ¾ ÑĢÐµ
ĠÑĪÐ°Ð¼Ð¿Ð° Ð½ÑģÐºÐ¾
ÑĤÐ°ÑĢÐ° ÐºÐ¸
ÐºÐ¾Ð»Ð±Ð° Ñģ
ĠÐ¸Ð·Ð²Ðµ ÑģÑĤÐ½Ð¾
ĠÐ²ÐµÑĤ ÑĢÐ¸
3 20
ĠÐ Ļ
Ð¸ Ð½Ð°
ÑĢ ÑĥÐ´
Ð´ ÑĢÑĬ
ĠÐ½Ð° Ð±Ð¾Ð¶Ð´Ð°ÑĤ
Ð¿ Ñı
ĠÐ·Ð° Ð¼ÐµÐ½Ð¸
ÐºÐ¾ ÑĢÐ°
Ð²Ð¸ Ð½Ð°
ÑĦ ÑĬÑģÑĤ
Ð»Ð¾ Ð²Ð°
ÐµÑģ ÐµÐ½
ĠÐ¡ Ð¾Ð»
Ð±Ð¸ Ð²Ð°
ĠÐºÑĥ ÑĤÐ¸
ÑģÐ° ÑĤ
ÑħÑĤÐ¸Ð½ ÑĬÑĤ
ĠÑģÐ¼ ÐµÐ½
ĠÐ³Ð»Ð°Ð²Ð¸ ÑĤÐµ
ĠÐ¿ÑĢÐ° Ð²Ñı
ĠÐ¸Ð·ÑģÑĤÐ¸ ÑģÐºÐ²Ð°ÑĤ
ĠÐĳ Ð°Ð½Ð¸
ĠÐ¿Ð¾ÑĩÐ¸ÑģÑĤ ÐµÐ½Ð¸ÑıÑĤ
Ð¹Ð¾Ð½Ðµ Ð·
ĠÐ³Ð¾ÑĢ Ð½Ð¸Ñı
ĠÑģÐµÑĢÐ²Ð¸ÑĢÐ° ÑĤÐµ
ĠÐ¿Ð»Ð¾ ÑģÐºÐ°
ĠÐ¿Ð»Ð¾ ÑģÐºÐ¸
Ð¾Ð± ÐµÐ»ÐµÐ½Ð¸
ĠÐ¾ÑĤÐ´ÐµÐ» ÐµÐ½Ð¸Ñı
Ð¶Ð° ÑĤÐ°
ĠÐºÐ°ÑĢÑĤÐ¾ÑĦ ÐµÐ½Ð°
ĠÐ·Ð°Ð¿Ð¾Ñĩ Ð²Ð°Ð¼Ðµ
ĠÐ¾ÑħÐ»Ð°Ð´ ÐµÐ½
ĠÐ½Ð°Ð¼Ð°Ð»ÑıÐ²Ð° Ð¼Ðµ
ĠÐ¿Ð»Ð°ÑģÑĤ Ð¼Ð°
ĠÐ»Ð¾ Ð¿Ð°
ĠÐ³Ð¾ÑĤÐ² ÐµÐ½ÐµÑĤÐ¾
ĠÐ±Ð¸ÑĪÐºÐ¾ ÑĤÐ¸ÑĤÐµ
ĠÑĨÐ¸Ð¿ Ð°ÑĤÐ°
ĠÐ¿Ð¾ÐºÐ°ÑĦ ÐµÐ½
Ð´Ð¾Ð¼Ð°ÑĤ ÐµÐ½
Ð¾Ð±ÑĢÐ°Ð· Ð½Ð¾
ÐºÐ°ÑĦÑı Ð²
ĠÐºÐ°Ð¿ÐµÑĢÑģÐ¸ ÑĤÐµ
ĠÐ¡Ð»Ð° Ð½Ð¸Ð½Ð°ÑĤÐ°
ĠÑģÐ¾Ð±ÑģÑĤ Ð²ÐµÐ½
ĠÐ·Ð°ÑĤÐ²Ð¾ÑĢ ÐµÐ½
ĠÑħÐ°ÑĢÑĤÐ¸ ÐµÐ½Ð¸
ĠÐ¿Ð¾ÑģÑĤÐ¾ Ð¸
ĠÐĿÐ°ÑĤÑĢÐ¾ ÑĪÐ°
ĠÐºÑĢÐ¾ÐºÐµ ÑĤÐ¸
ÐĹÐ°ÐºÐ²Ð°Ñģ ÐºÐ°ÑĤÐ°
ĠÑģÐ¸Ð»Ð¸ ÐºÐ¾
Ġ 9
Ðµ ÑģÑĤÑĢÐ°Ð³Ð¾Ð½
Ð´ Ð²Ðµ
ÑĤÐ° ÐºÐ°
ĠÐ½ ÑĥÐ´
ĠÐ½Ð° Ð²Ð¸Ð²Ð°Ð¼Ðµ
ĠÐ¾ Ð¼ÐµÑģÐ²Ð°Ð¼Ðµ
ĠÐ² ÑģÐµ
ĠÐ³ Ñĥ
ĠÐ´ Ð¾Ð»Ð¸Ð²Ð°Ð¼Ðµ
ĠÐ·Ð° ÑĤÐ¾Ð²Ð°
Ð»Ð¸ Ð°
ĠÐ´Ð¾ ÑģÑĤÐ¸
ÑģÑĤ ÑĢÐ¸
ĠÑĢÐ°Ð· Ð¼ÐµÑģ
ĠÑĢÐ°Ð· ÑģÑĤÐµÐ»ÐµÑĤÐµ
ĠÐ¡ ÑĤ
ÑĥÑĪ ÐµÐ½Ð¸ÑĤÐµ
ĠÐĴ ÑĤÐ¾
ÑĨÐ¸ Ð¸
ÑĩÐ¸ Ð»Ð¸
ĠÑĩÐ° ÑĪÐ¸ÑĤÐµ
ĠÑĢÐ°Ð·Ð±ÑĬÑĢÐºÐ²Ð° Ð¹ÑĤÐµ
ĠÐ¿Ð¾ÑĩÐ¸ÑģÑĤ Ð²Ð°Ð¼Ðµ
ĠÐ¼Ð¸ Ð½Ð°
Ð¿Ð¸ÑĩÐ° Ð¼Ðµ
Ð¿ÑĢÐµÐ´ ÐµÐ»ÐµÑĤÐµ
ĠÑĢÐµÐ´ Ð¾Ð²Ðµ
ĠÐ½Ð°Ð¼Ð°Ñģ Ð»ÑıÐ²Ð°
ĠÐ·Ð°Ð¿Ð¸ÑĩÐ° Ð½Ðµ
ĠÐ§ ÐµÑĢ
Ð¯ Ð¹ÑĨÐµÑĤÐ¾
ĠÐ¿Ð°ÑģÐ¸ÑĢÐ° Ð¼Ðµ
ĠÐ¿Ð°ÑģÐ¸ÑĢÐ° Ð½Ð¸Ñı
ÐºÐ»Ñİ ÑĩÐµÑĤÐµ
ĠÐ½Ð°ÑĢÐµÐ¶Ð´Ð° ÑĤÐµ
ĠÐĹÐ°Ð´ÑĥÑĪÐ° Ð²Ð°Ð¼Ðµ
ĠÐºÐ¾Ð½Ñı ÐºÑĬÑĤ
ĠÐ¾Ð±ÐµÐ·ÐºÐ¾ÑģÑĤ ÑıÐ²Ð°ÑĤ
ĠÐ£ÐºÑĢÐ° ÑģÑıÐ²Ð°ÑĤ
ĠÐ»ÐµÑĪÐ½Ð¸ ÑĨÐ¸ÑĤÐµ
ĠÐŀÐ±ÐµÐ» Ð²Ð°Ð¼Ðµ
Ð¸ÑģÐµ Ð»Ð¸ÑĤÐµ
ĠÐ½Ð°Ð³Ð¾ÑĢÐµÑī ÐµÐ½Ð°
Ð½Ð´ ÑĢÐ¸
ĠÐ¿ÑĢÐ¸Ð´Ð¾ Ð±Ð¸ÑıÑĤ
ĠÐ±Ð°Ð´ÐµÐ¼Ð¾ Ð²Ð¾
ĠÐŁÐ¾ÑĩÐ¸ÑģÑĤ ÐµÐ½Ð¸ÑĤÐµ
ÑĤÑĥ Ð·Ñĥ
Ð¼ÐµÐºÐ½Ð° Ð»Ð¾ÑĤÐ¾
ÑĢÐµÐ· ÐµÐ½
ĠÐºÐ°ÑĪÐ¸ ÑĩÐºÐ°
ĠÐ±ÑĬÐ±ÑĢÐµ ÑĨÐ¸
ĠÐºÐµÑģÑĤ ÐµÐ½Ð¸
ĠÐ³ÑĢÐµÐ¹Ð¿ÑĦ ÑĢÑĥ
Ñģ Ð»ÐµÐ´
Ñģ Ð¿Ð¾ÑĢÐµÐ´
ÑĤ ÐºÐ¸ÑĤÐµ
ĠÐ¸ Ð´Ðµ
ÑĤÐ° ÑĤ
ĠÐ½ Ð¸ÑĤÐ¾
Ð± ÐµÐºÐ¾
Ð³ ÑĢ
ÑĨ ÐµÐ»
ÐºÐ¾ Ð²Ðµ
ÐºÐ¾ Ð²Ð°ÑĤÐ°
Ð¹ ÐµÐ½
ĠÐŁ Ð»Ð¾Ð´Ð¾Ð²ÐµÑĤÐµ
ĠÐ¿Ð¾Ð´ ÑģÐ¾Ð»
ĠÐĴ Ð¸
ĠÐŀ Ð¼ÐµÑģÐ²Ð°Ð¼Ðµ
ĠÐ¿Ðµ ÑĤ
ĠÑĪ Ð¿Ð¸
ĠÐļ Ð¾Ð»Ð¸ÑĩÐµÑģÑĤÐ²Ð¾ÑĤÐ¾
ĠÐ¾Ð± ÑīÐ¾
ĠÐ·Ð°Ð¿ÑĬÑĢÐ¶ ÐµÐ½Ð¾
ĠÐ·Ð°Ð´ÑĥÑĪ ÐµÐ½Ð¸ÑıÑĤ
ĠÐºÑĢÐ° Ðº
ĠÐĺÐ· Ð¿Ð»Ð°
ĠÐľ Ð°Ð·Ð½Ð¸Ð½Ð°ÑĤÐ°
ĠÐ¿Ð¾ÐºÑĢÐ¸ ÑĤ
ĠÑĢÐ° Ð±Ð¾
ĠÐºÑĢÑĬ ÑģÑĤ
ĠÐºÑĢÑĬÐ³ ÑĩÐµÑĤÐ°ÑĤÐ°
ĠÐ½Ð°Ð¼Ð°Ð·Ð° Ð½Ð°ÑĤÐ°
ĠÐ¿Ð»Ð¾ Ð´Ð°
ĠÐ½Ð°ÑĤÑĢÐ¾ÑĪ ÐµÑĤÐµ
ĠÑģÐ¼Ð»Ñı Ð½Ð°
ĠÐĵÐ¾ÑĤÐ¾ Ð²Ð¸Ñı
ĠÑģÐ°Ð»Ð°Ð¼ ÑĥÑĢÐ°
ĠÑĢÐ°Ð·ÑĤÐ²Ð¾ÑĢ ÐµÐ½Ð¾ÑĤÐ¾
ĠÐ±Ð»Ð°ÑĤ ÑĬÑĤ
ÐºÐ°ÑĦ Ðµ
ĠÐ¾Ð¿Ð° ÑĪÐºÐ°ÑĤÐ°
ĠÐ¿Ð¾Ð»ÑĥÑĩ ÐµÐ½Ð¸ÑıÑĤ
ĠÐºÐ¾Ð½ÑģÐµÑĢÐ²Ð¸ÑĢÐ° Ð½Ð°
Ð³ÑĬ Ð²Ð°ÑĤ
ĠÐ²Ð¸ÑģÐ¾ Ðº
ĠÑģÑĤÐ¾ Ð¸
ĠÐ¼Ð°Ð¶Ðµ Ð¼
ĠÐ¿Ð¾Ð´Ð½Ðµ ÑģÐµÑĤÐµ
ĠÑģÐ»Ð°Ð´ÐºÐ¸ÑĪ ÑĬÑĤ
ĠÐ²ÑĬÐ½ ÑĪ
ĠÐ¡ÑĬÑħ ÑĢÐ°Ð½ÑıÐ²Ð°
ÐĺÐ·Ð²Ð° ÑĢÐ°ÑĤÐ°
Ð¢ÐµÐ»Ðµ ÑĪÐºÐ¾ÑĤÐ¾
ĠÐľÐ°Ñģ Ð»Ð¸Ð½Ð¸ÑĤÐµ
ĠÐļÑİÑĦÑĤÐµ ÑĤÐ°ÑĤÐ°
ĠÐ°Ð¿Ðµ ÑĤÐ¸
Ð¸ Ð¼
ÑĤÐ° Ð¼
Ñĥ ÑĩÐ¸
ĠÐ· ÑĢÐµÐ»Ð¸
ÑĨ Ð²ÐµÑĤ
ÐºÐ¾ Ð²Ð¸
ÐºÐ¸ Ð¼
ĠÐ¸Ð· Ð¼ÐµÑģÐ²Ð°
ĠÐ¡ Ð³Ð¾ÑĢÐµÑī
ĠÑĩÐµÑĢ Ð²Ð°
ĠÐ»ÑĥÐº ÑĩÐµÑĤÐ°ÑĤÐ°
ĠÐ¿ÑĢÐµ ÐºÐ°ÑĢ
Ð¿Ð° Ð½Ð°ÐºÐ°
ĠÑĤÐ° ÑĢÐ°
ĠÑĩÐµÑĢÐ² ÐµÐ½Ð°ÑĤÐ°
ĠÐĿÐ° Ð¿ÑĢÐ°Ð²ÐµÑĤÐµ
ĠÐ¾ÑĢÐ¸ Ð³Ð¸
Ð»Ñı ÑĤÐ°
ĠÐłÐ°Ð· ÑĢÑıÐ·Ð²Ð°ÑĤ
ĠÐ±ÑĥÐ»ÑĮ Ð¾
ĠÐľ ÐµÑģ
Ð¿Ðµ ÑĩÐµÐ½Ð°ÑĤÐ°
ĠÐ¿Ð¾ÑĩÐ¸ÑģÑĤ ÐµÐ½Ð¾
Ðŀ Ð¼ÐµÑģÐ²Ð°
ĠÐŁÑĢÐµ ÑģÑıÐ²Ð°
Ð»Ñİ ÑĤÐ¸
ĠÐ±Ð¾ÑģÐ¸Ð»ÐµÐº ÑĬÑĤ
ĠÐºÐ¾ÐºÐ¾ Ñģ
Ð´ÐµÐ¼Ð¸ ÑĤÐµ
ĠÐ·Ð°Ð¿Ð¾Ñĩ Ð½ÐµÑĤÐµ
ĠÐ¤ Ð¸Ð»Ð¸Ð¸ÑĤÐµ
ĠÐ·Ð°ÑĤÐ¾Ð¿ Ð»ÐµÐ½
ĠÐºÐ¾Ð»Ð±Ð° ÑģÐ¸
ĠÐºÐ¾ÑģÑĤÐ¸Ð» ÐºÐ°ÑĤÐ°
ĠÐºÑĢÐ¸ ÑĤÐ°ÑĢÐ°ÐºÐ¸
ĠÐ¿ÑĢÐ¾Ð·ÑĢÐ° ÑĩÐ½Ð¾ÑģÑĤ
ĠÐ²Ð¸ÑģÐ¾ ÐºÐ¸
ĠÐłÐ°Ð·Ð´ÐµÐ»Ñı Ð¼Ðµ
ĠÐµÐ´Ð¸ Ð½Ð¸ÑıÑĤ
ĠÐ½Ð°Ð¿ÑĢÑĬÑģ ÐºÐ²Ð°ÑĤ
ĠÐ¿ÑĢÐµÑĨÐµÐ´ ÐµÐ½Ð¸Ñı
ĠÐ¾Ð²Ð°Ð»Ñı Ð¹ÑĤÐµ
ÑĥÑħ Ð¸ÑĤÐµ
ĠÑħÐµÑĢ Ð¸Ð½Ð³Ð°
ÐŁÐ°ÑĢ Ð¼Ð°Ð·Ð°Ð½
ĠÐºÐ¾ÑĢÐµ Ð¼
ĠÐ¿Ð¾ÑĢÑĨÐ¸Ð¾Ð½ Ð½Ð¸
ĠÑĦÐ¸Ð³ ÑĥÑĢÐºÐ¸
ĠÐ¾ÑģÐ²Ð¾Ð±Ð¾Ð¶Ð´Ð° Ð²Ð°
ĠÐ§Ð¾ÑĢ Ð±Ð°ÑĤÐ°
ÑĢÐµÐº ÑĤÐ½Ð¾
ĠÐ³ÑĢÐ°Ð½ ÑĥÐ»Ð¸
* .
. ,
Ñģ Ð²Ð°ÑĤ
Ð¸ Ð´Ð¸ÑĤÐµ
Ð½ ÐºÐ°
Ð²Ð° Ð»ÐµÑĤÐµ
ĠÐ´ Ð¸Ð½
ĠÐ·Ð° Ð±ÑĬÑĢÐºÐ²Ð°
Ð¶ Ð¾Ð½ÑģÐºÐ°
ÑĦ ÑĢÐµ
ĠÐµ Ñģ
ĠÑģÐ»Ð° Ð¼
ĠÐ¿ÑĢÐµ ÑĨÐµÐ´ÐµÑĤÐµ
ĠÐŀ Ð¿Ð¸
ĠÐŀ Ð¼ÐµÑģÐµÑĤÐµ
ĠÐ¿Ðµ ÑĢÐ°ÑĤÐ°
ĠÐ¶ Ð°ÑĢ
ÑĩÐµÑĢ Ð²ÐµÐ½Ð°
Ð¾Ð²Ð¸ Ñı
ĠÐĹÐ° Ð²Ð¸Ð¹ÑĤÐµ
ĠÐ¿Ð° Ð´Ð°
ĠÐĺÐ· Ð¿Ð¾Ð»Ð·Ð²Ð°
Ð¼Ð°Ñģ Ð»ÐµÐ½Ð°
Ðĳ ÑĥÑĤÐµÑĢ
ĠÐ´ÐµÐ±Ðµ Ð»Ð¾
ĠÐľÐ° ÑģÐºÐ°ÑĢ
ÐºÐ²Ð°Ñģ ÐµÐ½Ð°
ÑīÐ¸ Ðµ
ĠÐ´Ð¸ ÑĢÐµÐºÑĤÐ½Ð¾
ĠÐł Ð°
ĠÐ¸Ð·ÑĩÐ¸ÑģÑĤ ÐµÐ½
ĠÐ¤ Ð¾Ð»Ð¸Ð¾ÑĤÐ¾
ĠÐ¿Ð¾ÑĢÑĤÐ¾ÐºÐ°Ð»Ð¾ Ð²Ð°ÑĤÐ°
ĠÑĤÑĢÐµ ÑģÐºÐ°
ĠÐ¸Ð·ÑģÑĤÐ¸Ð½Ð° Ð»Ð¸Ñı
ĠÐ·Ð°Ð»ÐµÐ¿ Ð²Ð°ÑĤ
ĠÑĢÑĥÐ» ÑĨÐµ
ĠÑĪÐ¾ÐºÐ¾Ð»Ð°Ð´Ð¾ Ð²Ð°
ÐŁÑĢÐ¸Ð³Ð¾ÑĤÐ²Ñı Ð½Ðµ
ÑĥÐ»ÑĮ Ð¾Ð½Ð°
ĠÑĨÐµÐ´ ÐµÐ½Ð¾ÑĤÐ¾
ĠÐºÑĢÐ¸Ð» ÑĨÐ°ÑĤÐ°
ĠÐĿÐ°Ð¿ÑĬÐ» Ð½ÐµÑĤÐµ
ĠÐłÐ°Ð·ÑĤÐ¾Ð¿ ÑıÐ²Ð°
ĠÑģÐµÐ´Ð¼Ð¸ ÑĨÐ°
ĠÐ¼Ð°ÑĪÐ¸ Ð½Ð°
ĠÑģÐ²Ðµ Ð¶Ð°
Ð½Ð°ÑĩÐ° Ð»Ð¾
ĠÐ¿ÑĢÐ¸ÑıÑĤ ÐµÐ½
ĠÐ¸Ð·Ð² ÑĬÐ½
ÐºÐµÑĤ ÑĩÑĥÐ¿
ĠÐ¿ÑİÑĢÐ¸ ÑĢÐ°ÑĤ
ĠÐ´ÐµÐ½Ð¾Ð½Ð¾ ÑīÐ¸Ðµ
ĠÑĤÐ¾ÑģÑĤÐµ ÑĢ
ĠÐĴÑĬÑĤÑĢÐµÑĪ Ð½Ð¾ÑģÑĤÑĤÐ°
ĠÐ½Ð°Ð±ÑĥÑħ Ð²Ð°ÑĤÐµ
ĠÐ²ÐµÑĤÑĢÐ¸ Ð»Ð¾
ĠÐ»Ð¾Ð¿Ð° ÑĤÐºÐ°
1 3
ĠÑģ Ð²ÑĬÑĢ
Ðº Ð»Ð¸
Ð´ ÑĢÐ°Ð²
ĠÐ³ Ð»Ñĥ
ĠÐ·Ð° Ð³Ð°
ĠÐ·Ð° Ð¼ÐµÑģÐµÑĤÐµ
Ð½Ð¸ ÐºÐ°
Ð»Ðµ ÑıÑĤ
ÑģÑĤÐ° Ð²ÐºÐ¸ÑĤÐµ
ÑĦÐ¸ Ð´Ðµ
ĠÐ¼Ð°Ñģ Ð»ÐµÐ½Ð°
ĠÐŀ ÑĢÐµÑħÐ¸ÑĤÐµ
Ð·Ð° Ð²Ð¸ÑģÐ¸
ĠÐ° ÐºÑĤÐ¸Ð²Ð¸ÑĢÐ°
ĠÑģÑĬ Ð¾ÑĤ
ÑĩÐ° Ð²Ð°ÑĤ
Ð»ÐµÑĤÐ° ÑĤÐ°
ĠÐ¢ Ñı
ĠÐļÐ¾ ÑĢÐ°ÑĤÐ°
ĠÐ¿Ð¾ÑĩÐ¸ÑģÑĤ ÐµÐ½
ĠÐ¼Ð°ÑĢ ÑĨÐ¸Ð¿
ĠÑħÑĥÐ±Ð° Ð²Ð°
ĠÐ¿Ð¾Ð»ÑĥÑĩÐ° Ð²Ð°ÑĤ
ĠÐ½Ð°Ð¹ Ð»Ð¾Ð½
ÐłÐ°Ð·Ð±Ð¸ Ð²Ð°
ĠÐ¾Ð±ÑĬÑĢ ÐºÐ°
ĠÐŀÑģÑĤÐ°Ð½Ð° Ð»Ð¸ÑıÑĤ
ĠÑĩÐµÑĢÐµ ÑĪÐ¸ÑĤÐµ
ĠÐ±ÑĥÐ»Ð³ÑĥÑĢ ÑĬÑĤ
ĠÐ¼Ð¾ÑĢ ÑģÐºÐ¸
ĠÑĨÐµÐ» ÑĤÐ°
ĠÐ¿ÑĢÐµÐ³ÑĬ Ð²Ð°ÑĤ
ĠÐ¾Ð¼ÐµÐºÐ½Ð° Ð»Ð¾ÑĤÐ¾
ĠÐ¾Ð²Ð°Ð»Ñı Ð½Ð¸
ĠÐ±ÑĥÑĤÐ¸ Ð»ÐºÐ¸
Ð·ÐµÐ»ÐµÐ½ÑĩÑĥ ÐºÐ¾Ð²
ĠÐ´Ð»Ð° Ð½
ĠÐ°Ð»ÐºÐ¾Ñħ Ð¾Ð»
ĠÐºÑĬÑĢÐ²Ð° Ð²Ð¸ÑĨÐ°
ĠÐ±ÐµÑĪÐ°Ð¼Ðµ Ð»Ð°
ĠÐľÐ°Ñħ Ð½ÐµÑĤÐµ
ĠÐŁÐ°Ð»Ð°ÑĩÐ¸Ð½ ÐºÐ¸ÑĤÐµ
ĠÐ½Ð°ÑģÐ¸ ÑĤ
ĠÐ²ÐµÐ½Ðµ ÑĨ
Ð²ÐµÐº Ð»Ð¾ÑĤÐ¾
! [
. ).
r a
Ð½ ÑĤÐ¸
Ð½ Ð´Ð°
Ðº ÑĬÐ²
ĠÐ¿ Ð»Ð°ÑĤ
ĠÐ³ ÑĢÑĥ
ÐºÐ° ÑĢÐ¸
ĠÐ¸Ð· Ð¿ÑĢÐ°
ĠÐºÐ¾ ÑĦÐ¸
ĠÐºÐ¾ ÑģÑĤÐµÐ½
ĠÐ¡ Ð²Ð°Ð»ÐµÑĤÐµ
Ð³Ð¾ Ð´Ð¸ÑĤÐµ
ĠÐµ Ð²ÐµÐ½ÑĤÑĥÐ°Ð»Ð½Ð¾
ĠÐµ Ð»ÐµÐº
ÑĩÐ¸ ÑĤÐµ
ĠÑģÑĤ ÐµÐ½Ð¸
ĠÑĪ Ð¸Ð¿
ĠÐ° Ð»
ĠÐĹÐ° Ð²ÑĬÑĢÑĪÐ²Ð°
ĠÐ¿ÑĢÐ¾ ÑĤÐµ
ĠÐ¿ÐµÑĩ ÐµÐ½
ĠÐ²Ð° Ñģ
Ð´Ð¾ ÐºÐ°ÑĤÐ¾
ĠÐŁÐ¾Ð´ ÑĢÐµÐ´ÐµÑĤÐµ
Ð°Ð½ Ð´ÑĬÑĢ
ĠÑĢÐµÐ· ÐµÐ½Ð¸ÑĤÐµ
ÐºÐ¾Ð² Ð¾ÑĤÐ¾
ĠÐ¿Ð¾Ð»Ð¾Ð²Ð¸Ð½ ÐºÐ¸ÑĤÐµ
Ð´ÐµÐ»Ñı Ð¼Ðµ
ĠÐ§ ÑĥÑĪÐºÐ°ÑĤÐ°
ĠÐĿÐ°Ð¼Ð° Ð·
ĠÐ¸Ð·ÑĩÐ¸ÑģÑĤ ÐµÐ½Ð¸Ñı
ĠÑģÐ°Ð»Ð°Ð¼ ÑĥÑĢÐ°ÑĤÐ°
ÑĤÑĢÐ¸ ÑĩÐµ
ĠÐºÐ¾Ð¼ Ð±Ð¸
ĠÐ¶ÐµÐ»Ð°ÑĤÐ¸Ð½ ÑĬÑĤ
ĠÑĪÐ¸ÑĪ ÑĩÐµ
ĠÑĪÐ¸ÑĪ Ð¾Ð²Ðµ
ĠÐ¿Ð¾Ð»Ð·Ð²Ð° Ñħ
ĠÐĺÐ·Ð¿ÑĬÑĢÐ¶ Ð²Ð°
ĠÐ±Ð»Ð°Ð½ÑĪÐ¸ ÑĢÐ°Ð½
ĠÐ¡Ð²Ð°Ð»Ñı Ð¼Ðµ
ĠÐºÑĢÑĥÑĪ Ð°
ĠÐ¾Ð±ÑĢÐ° Ð±Ð¾
Ð³ÑĢÐ° Ñħ
ĠÐ¿Ð¾ÑģÐ¸Ð¿ Ð°Ð½Ð°
ÐļÐ¾ ÑĢÐ¸ÑĤÐµ
ĠÑģÐºÑĥÐ¼ ÑĢÐ¸
ĠÐ²ÑĬÑĢ Ð½ÐµÑĤÐµ
ĠÐ·Ð°Ð± ÑĥÐ»
ĠÐĽÐ¸ Ð¼Ð¾
ĠÑĢÐ°Ð·Ð¼ÑĢÐ°Ð· ÑıÐ²Ð°
ĠÐ¼ÐµÑģÐµ ÑģÑĤÐ°ÑĤÐ°
ĠÑģÐ¸ÑĢ ÐµÐ½Ð°
ÑĪÐ¾ÐºÐ¾Ð»Ð° Ð´Ð¾Ð²Ð¸
ĠÐ¼Ð°ÑģÐºÐ°ÑĢ Ð¿Ð¾Ð½ÐµÑĤÐ¾
ĠÐĴÑĤÐ° ÑģÐ°
Ð´ÑĬÐ»Ð±Ð¾ Ðº
ĠÑĢÐ°Ð·Ð´ ÑĢÐ¾Ð±
ĠÐĶÐµÐºÐ¾ ÑĢÐ¸ÑĢÐ°
ÑĢÐ°Ñħ ÑĬÑĤ
ĠÐ¿Ð¾Ð´ÐºÐ¸ÑģÐµÐ» ÐµÐ½Ð°
ĠÑĪÐ¿ÐµÐºÐ¾ Ð²
Ð±ÐµÐºÐ¾ Ð½
ĠÐµÐ»ÐµÐº ÑĤÑĢÐ¸ÑĩÐµ
ĠÐ¿ ÑĢ
Ð´ Ð½Ð°
Ñĥ Ð½Ð°
Ð· ÑĬÑĢ
ĠÐ½Ð° Ð²Ð¸
ĠÐ½Ð° Ð»Ð¾Ð¶Ð¸
Ð¿ ÑĢÑı
Ð¿ Ð»ÑĬÐ½ÐºÐ°
Ð± ÐµÐ½
Ð± Ð»Ðµ
Ð½Ð° Ð¿ÑĢÐµÐ´
ÐºÐ¾ ÑĢ
ĠÑĢÐ°Ð· ÑĢÑıÐ·Ð²Ð°Ð¼Ðµ
ĠÑĢÐ°Ð· Ð¼ÐµÐº
ĠÑģÐ¸ Ð»Ð°ÑĤÐ°
ĠÐ¼Ð°Ñģ Ð»ÐµÐ½Ð°ÑĤÐ°
ÑģÑĤÐ¸ Ñı
Ð·Ð° Ð½Ð¾
ĠÑģÐ²Ð° Ð»ÐµÑĤÐµ
ÑģÐ¸Ð¿ Ð²Ð°ÑĤ
ĠÐĺÐ· Ð¿ÐµÑĩ
ĠÐ½Ð°ÑĢÐµ Ð¶Ð°ÑĤ
ĠÑĦÐ¸Ð»Ð¸ ÑĢÐ°Ð½Ð¸
ÑĪÐ° ÑĤÐ°
ĠÐĳ ÑĥÑĤÐµÑĢ
ĠÐ±ÐµÐ»ÑĤÑĬ ÐºÑĬÑĤ
ĠÐºÐ°Ð½Ðµ Ð»Ð¾
ĠÑĢÑĥ Ð»Ð°ÑĤÐ°
ĠÑģÐ»Ð°Ð´ ÐºÐ¸ÑĤÐµ
ĠÐ½Ð°Ð¿ÑĬÐ» Ð½Ð¸
ĠÐ´Ð¸ Ð¶Ð¾Ð½ÑģÐºÐ°
ĠÐĿ Ñı
ĠÐĿ Ð¸ÑĪÐµÑģÑĤÐµÑĤÐ¾
Ð§ ÐµÑĢ
ĠÑĥÐºÑĢÐ°ÑģÑıÐ²Ð° Ð¼Ðµ
ĠÑīÐ¸Ð¿ ÐºÐ°ÑĤÐ°
Ð±ÐµÐ· ÐºÐ¾ÑģÑĤ
ĠÐ¾ÑĨ Ð²Ðµ
ĠÐĺÐ·Ð¼Ð¸ Ð²Ð°Ð¼Ðµ
ĠÑħÐ»ÐµÐ± ÑĩÐµ
ÐĲ Ð³Ð½Ðµ
ĠÑĤÑĢÐ¸ÑĬÐ³ÑĬÐ»Ð½Ð¸ ÑĩÐµÑĤÐ°
ĠÐ¸Ð·ÑĨÐµÐ¶Ð´Ð° Ð¼Ðµ
ÑģÐ²Ð° ÑĢÐµÐ½
ĠÑĨÐ¸Ð¿ Ð¸
ĠÐ½Ð°ÑĩÑĥÐ¿ Ð²Ð°ÑĤ
ĠÐ±Ð°Ð´ÐµÐ¼Ð¾ Ð²Ð¸
ĠÐºÑĢÑĥÑĤÐ¾ Ð½Ð¸ÑĤÐµ
ĠÑĢÐ¸Ð±Ð¸ ÑĤÐµ
ĠÐ·Ð°Ð± Ð¾Ð´
ĠÐ´Ð¾Ð¼Ð°ÑĪ Ð½Ð¾
ÑĪÐ¾ÐºÐ¾Ð»Ð° Ð´
ĠÑģÑĤÑĢÐµ Ñĩ
ĠÐ¿ÑĬÐ»Ð½ ÐµÐ½Ðµ
ĠÐ»Ð¸Ð¼Ðµ ÑĨ
2 6
Ġ 750
Ñģ ÐºÐ¸Ð»Ð¸
Ð» ÐµÐ½Ð¸Ñı
Ðº ÑĥÑĢÐºÑĥÐ¼Ð°
ÑĬ ÐºÐ°
ÑĦ ÑĤÐµ
ÑģÑĤÐ° ÑĦÐ¸
ĠÑĢÐ°Ð· Ð´ÐµÐ»ÐµÑĤÐµ
ĠÑģÐ¸ Ð½Ð¸ÑĤÐµ
ĠÐ¡ Ð²Ð°Ð»ÑıÑĤ
ĠÐ¡ ÐºÐ¸Ð»Ð¸Ð´ÐºÐ¸ÑĤÐµ
Ġ1 25
Ð¼Ð¸ ÑĢÐ°ÑĤ
Ð´Ð¸ Ð½Ð°
ĠÐ¿Ð¾ÑĢÑĬÑģ Ð¸ÑĤÐµ
ĠÐ²Ð¸ Ð½Ð°
ÐºÑĥÑģ ÑĬÑĤ
ĠÐ¿ÑĢÐ¾ ÑĪÑĥÑĤÐ¾
ĠÐ¾ÑĢÐ¸Ð· Ð¾Ð²Ð°ÑĤÐ°
ĠÐĺÐ· Ð»Ð¸Ð²Ð°
ĠÐľ Ð½Ð¾Ð³Ð¾
Ð±Ð¾ Ð²ÐµÑĤÐµ
Ðļ ÑĢÐµ
Ð²ÑĢÐ¸ Ñı
ĠÐ²Ð°ÑĢÐ¸ Ð»Ð¸
ĠÐºÑĢÑĬÐ³ ÑĬÐ»
ÑģÐºÐ¾ Ð²Ð¸ÑĤÐµ
ĠÐ½Ð°ÑĤÑĢÐ¾ÑĪ ÐµÐ½
ĠÐ±ÑĥÑĤ ÑĩÐµÑĤÐ¾
Ð»ÐµÐ¿ Ð½Ðµ
ÐĶ Ð²Ð°ÑĤÐ°
ĠÑģÑĥÑĢÐ¾ Ð²Ð¸ÑĤÐµ
ÑģÑĥ Ð¿Ð°
ĠÐºÐ°ÑĢÑĦÐ¸Ð¾Ð» ÑĬÑĤ
ĠÑĥÐºÑĢÐ°ÑģÐ° ÑĤÐ°
ĠÐ³Ð°ÑĢÐ½Ð¸ÑĢÐ° Ð½Ð¾
ĠÑģÑĬÑĢ ÑĨÐ°ÑĤÐ°
ĠÐ¿Ð¸ÑĤ ÐºÐ¸ÑĤÐµ
ĠÑģÐ°ÑĢÐ¼Ð¸ ÑĩÐºÐ¸ÑĤÐµ
ĠÑģÑĤÐµÑĢÐ¸Ð»Ð¸Ð·Ð¸ ÑĢÐ°
ĠÐ¡Ð¸ ÑĢÐ¾
ĠÑģÑĤÑĢÐ¸ Ð²Ð°ÑĤ
ĠÐ¿ÑĢÑĬÑģÑĤ ÐµÐ½Ð¸
ĠÐłÐ°Ð·ÑĤÐ¾ ÑĩÐ²Ð°ÑĤ
ÑĢÑıÐ·Ð° Ð½Ð¾
ĠÑĥÐ´Ð²Ð¾ ÑıÐ²Ð°Ð½Ðµ
ĠÑĪÐ¾ÐºÐ¾Ð»Ð°Ð´Ð¾Ð²Ð¸ Ñı
ĠÐ¶ÑĬÐ» ÑĤÐ¸
ĠÐ¾Ð±ÑĢÐ° Ð±Ð¾ÑĤ
ĠÐ¦ ÐµÐ»
ĠÐ°Ð¹ ÑĢÑıÐ½
Ð½Ð°ÑģÑĤÑĬÑĢÐ³Ð° Ð½Ð°ÑĤÐ°
ÐºÐ¾ÑĢÐ¸ Ð°Ð½Ð´ÑĬÑĢ
ĠÐ¸Ð·ÑģÑĤÐ¸ÑģÐºÐ° Ð½
ĠÐĴÐµ Ð³ÐµÑĤÐ°
ÑıÐ¹ ÑĨÐ°
ĠÐºÐ¸ÑĤÐ° Ð¹ÑģÐºÐ¾
ĠÐŁÐ¾Ð´ÑĢÐµÐ¶Ð´Ð° Ð¼Ðµ
ĠÐ´Ð²Ð¾ Ð¹Ð½Ð¾
ĠÐĵÐ° ÑĥÐ´Ð°
Ð¨Ð¾ÐºÐ¾Ð»Ð° Ð´ÑĬÑĤ
ĠÐ²ÐµÑĢ Ð¼
ĠÐĳÐ°Ð½Ð¸ ÑĨÐ°ÑĤÐ°
3 75
Â ł
Ġ âĢĶ
Ġ ÑĥÑĪÐ¸
Ñģ Ð¿Ð°Ð½Ð°Ðº
Ñĩ Ð½Ð¸ÑĤÐµ
Ñĥ ÑģÐ°
Ð»Ð¸ Ð·Ð°
ÐµÑĢ Ð²Ð°
ĠÐ¿Ð¾ Ð·
ÑĦ ÐµÑĤÐ¾
ĠÐ¾ÑĤ Ð½ÐµÐ¼Ð°
Ð»Ð¾ Ð¶
Ð½Ðµ ÑĢÐ°
Ð¾ÑĢ Ð¼Ð°
ÑĬÐ» ÑĪÐµ
ĠÐ¿ÑĢÐµ Ð¼ÐµÑģÐ²Ð°
ĠÑĦ ÑĥÐ½Ð¸
Ð´Ð¸ Ð½Ð¸
ĠÐ½Ðµ Ð¿Ð¾ÑģÑĢÐµÐ´ÑģÑĤÐ²ÐµÐ½Ð¾
ĠÐ° Ð¼
ĠÐĶ Ð²Ðµ
ĠÐĿÐ° Ð»ÐµÐ¹ÑĤÐµ
ĠÐ²Ð¸ Ð´Ð¾Ð²Ðµ
ĠÑģÐ° Ð¼Ð¸
Ð¶Ð¸ ÑĤÐµ
ĠÐłÐ°Ð· ÑĢÑıÐ·Ð²Ð°
ĠÐŀÑĤ Ð´ÐµÐ»ÑıÑĤ
ÐŁ Ð¾Ð»
ÐŁ ÑĢÑıÑģÐ½Ð¾ÑĤÐ¾
Ð²ÑĬÑĢ Ð´Ð¾
ĠÐĶÐ¾Ð±Ð°Ð²Ñı Ð¼
ĠÐºÑĢÑĬ Ð³Ð°
ĠÐ·Ð°Ð´ÑĥÑĪÐ°Ð²Ð° Ð¹ÑĤÐµ
ĠÑĨ ÑĥÐºÐ¸
ĠÐ·ÐµÐ»Ðµ Ð²Ð¸Ñı
ĠÐºÐ°Ð¿Ð° ÑĩÐºÐ°
ÑĬÐº ÑĢÑıÑĤ
ĠÐĺÐ·Ð²Ð° ÑĢÐ°ÑĤÐ°
Ð¾ÑĤ ÐºÐµÑĢ
ĠÐºÐ°ÑĢÑĤÐ¾ÑĦ ÐºÐ¸
ĠÑĤÐ²ÑĬÑĢ Ð´Ðµ
ĠÐ¿Ð¸ ÑĨÐ°ÑĤÐ°
ĠÐ¿Ð¸ ÑĤÐ°ÑĤÐ°
ĠÐ²ÑĤÐ°ÑģÐ° Ð»Ð°ÑĤÐ°
ĠÐ¿ÑĢÑĬ ÑĩÐºÐ¸
ĠÑħÐ»Ð°Ð´ ÐºÐ¾ÑĤÐ¾
ĠÐ¾ÑħÐ»Ð°Ð´ ÐµÐ½Ð¸Ñı
Ð»Ð¾Ð½ ÑĬÑĤ
ĠÐ²ÑĤÐ¾ ÑĢÐ°
ĠÑĤÑĢÐ¾ ÑħÐ¸ÑĤÐµ
ĠÐ¿Ð¾Ð¿Ð°ÑĢ ÐµÐ½
ĠÑģÑĤÐµÑĢÐ¸Ð»Ð¸Ð·Ð¸ ÑĢÐ°Ð½
ĠÑĩÐ¸Ð½Ð¸ Ð¸ÑĤÐµ
Ð¿Ð°Ð´ Ð½Ðµ
ĠÐºÑĬÑģ Ð°ÑĤ
ĠÐ¾Ð±Ð¸ÐºÐ½Ð¾Ð² ÐµÐ½
ĠÐŁÐ° Ðº
ĠÐ³ÑĬÐ± ÐµÐ½Ð°
ĠÐŁÑĢÐ¸Ð³Ð¾ÑĤÐ²Ñı Ð¼Ðµ
ĠÐ¿Ð¾ÑģÑĤÐ° Ð²Ð¸
ĠÑĩÐ¾ÑĢ Ð±Ð°ÑĤÐ°
ĠÐºÐ°Ð¿ ÑģÑĥ
ĠÐ¤Ð¸ Ð»Ð°Ð´ÐµÐ»ÑĦÐ¸Ñı
ĠÐ´Ð¾Ð¿ÑĬÐ» Ð²Ð°
ĠÐ¿Ð¾Ð¼Ðµ Ð¶Ð´Ñĥ
ĠÐ°Ð½Ð°Ð½Ð° ÑģÐ°
ĠÐ¸Ð·ÑĤÐ¸ ÑĩÐ°
ĠÐľÐ°ÑģÐºÐ°ÑĢ Ð¿Ð¾Ð½Ðµ
ÐºÐ°ÑĢÐ¸ Ð´Ð¸ÑĤÐµ
Ð¾ Ð²Ð¾ÑĤÐ¾
Ñĩ ÐµÐ½Ð¸Ñı
Ð¼ Ð±
Ñĥ ÑĢÐ¸
ĠÐ½Ð° ÑĢ
ĠÐ¾ Ð¿ÐµÐºÐ°ÑĤ
ĠÐ² Ð»Ð°
ĠÑĩ ÑĥÐºÐ°
Ð½Ð° Ð»Ð¾
Ð½Ð° Ð¿ÑĢÐ¸Ð¼ÐµÑĢ
Ð»Ð¸ ÑĩÐ°
Ð½Ð¸ ÑĨÐ°
Ð»Ðµ Ð´Ð°
Ð³Ð° ÑģÐ¸
ĠÐ¡ ÑĤÐµ
ĠÑģÐ¼Ðµ Ð»ÐµÑĤÐµ
ĠÑĤÐ° Ð²Ð¸
ĠÐ¼ÐµÑģ ÐµÐ½Ðµ
Ð±ÑĬÑĢÐºÐ²Ð° Ð¼Ðµ
Ð¿Ð¸ ÑĢÐ°ÑĤ
ĠÑģÐ¼ÐµÑĤÐ° Ð½Ð¾Ð²
ĠÑģÑĥ ÑĦÐ»Ðµ
ÐŁ Ð¾ÑĢ
ĠÑĢÐ° ÐºÐ¸
ÑĩÐºÐ° Ð¹ÑĤÐµ
ĠÐ»Ð¸Ð¼Ð¾Ð½ ÑĤÑĥÐ·Ñĥ
ĠÐĳ Ð°Ð½Ð°Ð½Ð¸ÑĤÐµ
ĠÐĵ Ð¾ÑĢ
ĠÑĥÐºÑĢÐ° Ñģ
ĠÐ¾ÑĤÑĨÐµÐ´ ÐµÐ½Ð°ÑĤÐ°
ĠÐ·Ð°Ð²Ð¸ Ð¹ÑĤÐµ
ĠÐ¿Ð»ÑĬÑĤ ÐµÐ½
ĠÐ¿ÑĢÐµÑħÐ²ÑĬÑĢ Ð»ÐµÑĤÐµ
ĠÐ½Ð°ÑĤÑĢÐ¾ÑĪÐ° Ð²Ð°Ð¼Ðµ
Ð³Ð¾Ð»Ñı Ð¼Ð¾
ĠÑĢÐ¸Ð± Ð½Ð¾
ÐĶÐ¾ Ð¿ÑĬÐ»Ð½Ð¸ÑĤÐµÐ»Ð½Ð¾
ĠÐĺÐ·Ð¼Ð¸ ÑĤÐ¸ÑĤÐµ
ĠÑħÐ»ÐµÐ± Ð½Ð¸ÑĤÐµ
ĠÐłÐ°Ð·ÑĤÐ¾ ÑĩÐµÑĤÐµ
ÑĢÑĥÑĪ Ð¸ÑĤÐµ
ĠÐ·Ð°Ð»ÐµÐ¿ Ð½Ð°ÑĤ
ĠÐłÐµ Ð´Ð¸Ð¼
ĠÐ²ÑĢÑĬÑħ ÑĩÐµÑĤÐ°
ĠÑģÐ»ÐµÐ¿ ÑıÑĤ
ĠÐ²Ð°Ð´Ð¸ Ð¼
ĠÐļÑĢÐ°ÑģÑĤÐ° Ð²Ð¸ÑĩÐºÐ¸ÑĤÐµ
ÐĿÐ°ÐºÐ¸Ñģ Ð½ÐµÑĤÐµ
ĠÐ¿Ð¾ÐµÐ¼Ð° Ð½Ðµ
ĠÐ¿ÑĬÑģÑĤÑĬÑĢ Ð²Ð¸
ĠÐľÐ°ÑĢÐ¸ Ð½Ð¾Ð²Ð°
Ð¼Ð°ÑĢÐ¸ Ð½Ð¾Ð²Ð°
ĠÐŁÑĥÑģÐºÐ° ÑĤ
ĠÐ½Ð°ÑĩÑĥ Ð¿ÐµÐ½
ĠÐµÐ»Ð¸Ð¿ ÑģÐ¾Ð²Ð¸
ĠÐĻ Ð¾ÑĤÐºÐµÑĢ
ĠÐ¾Ð±ÑĢÐ°Ð±Ð¾ ÑĤÐºÐ°
ÑģÑĤÐ°ÑĦÐ¸ Ð´Ð¸
ĠÐ²Ð¸Ð½Ð° Ð³Ð¸
Ð¸ Ð·Ð²Ð°
ĠÑģ Ð²Ð°Ð»ÑıÑĤ
Ð² ÐµÑģ
ĠÐ¼ Ð»Ð°
ĠÐº ÑĥÐºÑĬÑĢÐ°
Ð¿ ÑĢÐ°Ð·
ÑĤÐµ ÑĤÐµ
Ð³ Ð¾Ð´Ð°
Ð»Ð° Ð±Ð°
Ð¶ ÑĬÐ»ÑĤÑĬ
ĠÐ¼Ð° ÑĢÑĥ
ÑĩÐµ ÑģÐ½Ð¾
ĠÑı ÑģÑĤÐ¸Ñı
ÑĢÐ¾ Ñģ
Ð±Ð¸ ÑĤÐµ
ĠÐĴ ÐµÑĩÐµ
Ġ2 30
ÑģÐ° ÑĤÐ°
Ð²Ðµ Ð·
ĠÐļ ÑĬÑģ
ÐĹÐ° Ðµ
Ð¡ Ð¾Ð´Ð°ÑĤÐ°
ĠÐ¿ÑĢÐµÐ´ Ð½Ð°ÑĤÐ°
ĠÐ¿ÐµÑĩ ÑĥÑĢÐºÐ¸ÑĤÐµ
ĠÑĢÐ¸ Ð½
ĠÐŁÐ¾Ð´ ÑģÑĥÑĪ
ĠÐ»Ñİ ÑĤÐ¸Ñı
Ð´Ðµ Ð»Ð¸ÑĤÐµ
ĠÐ¿Ñĥ ÑģÐ½Ð°
ĠÑģÐ¼ÐµÑģÐ²Ð° ÑĤÐµ
Ð½Ð°Ñģ Ð¾Ð½
Ð¢ Ð¸ÐºÐ²Ð¸ÑĩÐºÐ°ÑĤÐ°
ĠÐŁÐ¾Ð´Ð¿ÑĢÐ° Ð²ÐºÐ¸ÑĤÐµ
ĠÐ½Ð°ÑĢÑĬÑģ ÐµÐ½Ð°
ĠÐ¿Ð°ÐºÐµÑĤ ÑĩÐµÑĤÐ¾
ĠÐ±ÑĥÑĢÐºÐ°Ð½ ÑĩÐµ
ĠÐ¿Ð¾ÑģÐ»ÐµÐ´ Ð½Ð°ÑĤÐ°
ĠÐ´ÑĬÑĢÐ² ÐµÐ½Ð¸
ÐºÐ°ÑĦ ÑıÐ²Ð°
ĠÑģÑĤÑĢÐ¸ ÑĤÐ¸ÑĤÐµ
ĠÐºÑĬÑģ Ð¸
ĠÑĪÐ°ÑĢ ÐµÐ½Ð¾
ĠÐ·Ð°Ð¿Ð° Ð·
ĠÑĪÐ½Ð¸ ÑĨÐµÐ»
ÑģÑĥÑĪ ÐµÐ½Ð¸
ÐĹ Ðµ
ĠÑĩÐµÑĤÐ¸ ÑĢÐ¸ÑĤÐµ
ĠÑģÑĬÑħ ÑĢÐ°Ð½
ĠÐ½Ð°Ð³Ð¾ÑĢÐµÑī ÐµÐ½
ĠÐĵÐ°ÑĢÐ½Ð¸ ÑĢÐ°ÑĤ
ĠÐŁÑĢÐ¾ Ð²ÐµÑĢÑıÐ²Ð°
ĠÐŀÐ± ÑĢÑĬÑīÐ°ÑĤ
ĠÐ½Ð°Ð´ÑĥÐ¿ ÑĩÐ²Ð°ÑĤ
ĠÑĨÐ²ÐµÑĤ ÑĩÐµÑĤÐ°
ÐĹÐµÐ» ÐµÐ½Ð¸ÑıÑĤ
ĠÐŁÐ¾ÑģÐ»ÐµÐ´ Ð¾Ð²Ð°ÑĤÐµÐ»Ð½Ð¾
ĠÐľÐ°Ð³Ð´Ð°Ð½Ð¾Ð· ÑĬÑĤ
ĠÐŁÑİ ÑĢÐµÑĤÐ¾
ÐĿÐ°Ñħ ÑĥÑĤÑĬÑĤ
ĠÑħÐ¸ Ð¼Ð°Ð»Ð°Ð¹ÑģÐºÐ°
ĠÐºÑĥÐ²ÐµÑĢ ÑĤÑİÑĢ
ĠÑĢÑĥÐº Ð¾Ð»Ð°
ĠÑģÐ²ÑĬÑĢ ÑĪÐ¸
Ð° ÑĢÐµ
ĠÑģ Ð³Ð¾ÑĤ
Ñı Ð»Ð°ÑĤÐ°
Ñĩ ÑĥÐºÑĬÑĤ
Ð´ ÑĢÑĥ
ĠÐ¸ Ð¼Ð°ÑĤ
ĠÐ·Ð° Ð¿ÐµÑĩ
Ð»Ð¸ Ð¼
ÑĢÐ¸ Ð»
Ð»Ð° Ð½
ÑĨ ÐµÑģ
ÐºÐ¸ Ð²Ð°
ĠÑĢÐ°Ð· ÑĢÐµÐ¶ÐµÑĤÐµ
ĠÐ¸Ð· Ð¿ÐµÑĩÐµÐ½Ð¸ÑĤÐµ
ÐºÐ¾Ð» Ð¸
ĠÐĴ ÑĬÑĢ
ĠÐĴ Ð°ÑĢ
ĠÑĤÐ° ÑĢÑĤÐ°
ĠÐºÑĥ ÑħÐ¸
Ð·Ð° ÐºÐ²Ð°ÑģÐµÐ½Ð°
ĠÐµÐ´ ÑĬÑĢ
ĠÐĶ ÑĢÐ¾Ð±
ĠÑĦÐ¸ Ð»
ĠÑģÐ° Ð½ÑĤÐ¸
ĠÐ¿Ð° ÑĢÐ°ÑĤÐ°
Ð»Ñı Ð²Ð°ÑĤ
Ð¡ Ð¾
ĠÐŀÑĤ ÑĤÐµÐ³Ð»Ñı
ĠÐ¾Ð±ÐµÐ» ÐµÐ½Ð°ÑĤÐ°
ĠÐ·Ð°Ð´ÑĥÑĪÐ°Ð²Ð° Ð¼
Ðŀ Ð»Ð¸Ð¾ÑĤÐ¾
ÑĢÐ°Ð½ ÑĬÑĤ
ĠÐ¿Ñĥ ÑĢÐ¸
ĠÐ²ÑĢÑı ÑīÐ¸Ñı
ĠÑģÑĤÑĢÑĬÐº ÑĩÐµ
Ð´ÑĬÐ» Ð³Ð¾
ĠÐ¿Ð¾Ð´Ñģ Ð»Ð°Ð´Ð¸ÑĤÐµ
ĠÐºÐ¾ÐºÐ¾ ÑĪÐºÐ°ÑĤÐ°
ĠÐ´Ð¶Ð¾Ð´Ð¶ÐµÐ½ ÑĬÑĤ
ĠÐ¼Ñĥ Ñģ
ĠÐ¿ÑĢÐ¸Ð³Ð¾ÑĤÐ² ÐµÐ½Ð¾ÑĤÐ¾
ĠÐ¿Ð¾Ð² ÑĤÐ¾ÑĢ
ĠÐ¸Ð·ÑĨÐµÐ´ ÐµÐ½Ð¸ÑĤÐµ
Ðł Ð¸
ĠÐºÑĬÑģ Ð°
ĠÐ¾ÑģÐ¾Ð» ÐµÐ½Ð¸
ĠÐ¿Ð¾Ð·Ð° ÑĩÐµÑĢ
ĠÑħÐ»ÐµÐ± ÑĩÐµÑĤÐ°
ĠÐ²Ð¸ÑģÐ¾ ÑĩÐ¸Ð½Ð°
ĠÑĪÐ¸ÑĢÐ¾ Ðº
ĠÐ¼ÐµÑģÐ¸ Ð¼
ĠÑĩÑĥÑĪÐ»ÐµÑĤÐ° ÑĤÐ°
ĠÐŁÐ¾Ð» ÐµÐ¹ÑĤÐµ
ÑģÐ»Ð°Ð´ ÑĬÐº
ĠÐ¿Ð¾ÑģÐ¾ ÐºÐ°
ĠÐŀÐ±ÑĬÑĢÐºÐ²Ð° Ð¼Ðµ
ĠÐ¼Ð°Ð½ Ð³Ð¾
ĠÐ±ÑĥÑĤÐ¸ Ð»ÐºÐ°
ĠÑĩÐ¾ÑĢÐ±Ð° Ð´Ð¶Ð¸
ĠÐ³Ð½ÐµÐ· Ð´Ð¾
ĠÑģÐ³ÑĬ Ð²Ð°
ÑĢÑĬÐ³ ÑĩÐµÑĤÐ°
ĠÐ±ÑĢÐ¾ Ñı
ÐºÐ¾Ð½Ñģ ÐµÑĢÐ²Ð°
ĠÐºÐ°Ð¼Ðµ ÑĢÐ°ÑĤÐ°
ĠÐ¿Ð¾Ð¾Ñħ Ð»Ð°Ð´Ð¸
ĠÐ½Ð°Ð´Ð¸ Ð³Ð½Ðµ
ÑĩÑĥÑĪ ÐºÐ¸
Ð´ÑĢÑĬ Ð¿Ð²Ð°
ĠÐµÑģ Ð¿ÑĢÐµÑģÐ¾
ĠÐ¿Ð¾Ð²ÑĤÐ¾ÑĢ Ð½Ð¾
a r
Ð° Ð³Ð°
Ðµ ÑĢÐµ
Ñĩ Ð½Ð¾ÑģÑĤÑĤÐ°
Ð´ ÐµÐ½Ð¸
Ð¼ Ð¸Ð½
ĠÐ½Ð° ÑĤÐ¾Ð¿
Ð¿ Ð²Ð°Ð¼Ðµ
ĠÐ¾ ÑģÐ¾Ð»ÐµÐ½Ð°
ĠÐ· Ð²ÐµÐ·
ÐºÐ¾ Ð²Ð¸Ñı
ĠÐ¿Ð¾ ÑĩÐµÑĢ
Ð½Ð¸ Ð½Ð°
ĠÐ¼Ð° Ð¹Ð¾Ð½ÐµÐ·
Ð¼Ð° ÑĢÐ¸ÑĤÐµ
ĠÐºÐ° Ð¿Ð²Ð°
ÑĥÑĢ Ð³
ĠÑĤÐ° ÐºÐ¸Ð²Ð°
ĠÐ¿Ðµ ÐºÐ°
ĠÑĩÑĥÑĪ Ð»Ðµ
ĠÐ¾Ð± Ð»Ð¸Ð²Ð°
ĠÐĹÐ° ÑĪÐ¸
ĠÐ¿Ð° ÑģÑĤÑĬÑĢ
ĠÐłÐ°Ð· Ð¿ÑĢÐµÐ´ÐµÐ»ÐµÑĤÐµ
ĠÐºÑĢÐ° ÑĩÐµÑĤÐ°
ĠÐ¿ÑĢÐ° Ð²Ð¸ÑĤÐµ
ĠÑĢÐ¸ ÐºÐ¾ÑĤÐ°
ĠÐļÐ¾ ÐºÐ°
ĠÐ²ÑĢÑĬÐ· ÐºÐ°ÑĤÐ°
ĠÐ¸Ð·ÑģÑĤÐ¸ Ð²Ð°Ð½Ðµ
ÐµÑĤ ÐºÐ°ÑĤÐ°
ĠÑĢÐ°Ð·ÑĤÐ¾Ð¿ ÐµÐ½Ð°ÑĤÐ°
ĠÑĤÐ°ÐºÐ° Ð²Ð°
ĠÐļÐ° ÑĪÐºÐ°Ð²Ð°Ð»Ð°
Ðĳ ÑĥÐ»Ð³ÑĥÑĢÑĬÑĤ
ÐłÐ°Ð· ÑĤÐ²Ð°ÑĢÑı
ĠÐ³ÑİÐ²Ðµ ÑĩÐµÑĤÐ¾
ĠÐ¿Ð°ÑĢÑĩÐµ ÑĤÐ¾
ĠÐºÐ¾Ð½ ÑĤÑĢÐ°
ĠÐ½Ð°ÑģÑĤ ÑĬÑĢÐ¶
ĠÐ¿Ð¾Ð² ÑĢÑıÑĤ
ĠÐºÐµÐºÑģ Ð¾Ð²Ð°ÑĤÐ°
Ð¼ÐµÐ½ ÑıÑĤ
ĠÐ¾ÑĤÑģÑĤÑĢÐ°Ð½ÑıÐ²Ð° Ð¼Ðµ
ĠÐ²ÑĬÐ· Ð´ÑĥÑħ
ĠÐĺÐ·Ð¿ÑĬÑĢÐ¶ ÐµÐ½Ð¸ÑĤÐµ
ĠÑĢÐ°Ð·ÑĤÐ²Ð¾ ÑĢÑıÑĤ
ĠÑģÑĬÑĢÑĨÐµ Ð²Ð¸Ð½Ð°
ĠÐ½Ð°Ð² ÑĬÑĤÑĢÐµ
ĠÐłÐµ Ð¶Ð°ÑĤ
ÑĤÐ²ÑĬÑĢ Ð´Ð¾
ĠÐŁÐ¸ ÑĨÐ°ÑĤÐ°
Ð»ÑİÑĤ ÐµÐ½Ð¸ÑĨÐ°
ĠÑĢÐµÐ¿Ð¸ ÑĩÐºÐ¸ÑĤÐµ
ĠÐ¿Ð¾ÑĤÐ¾Ð¿ ÐµÐ½Ð¸
ĠÐ¾Ð¼ÐµÐºÐ½Ð° Ð»Ð¾
ĠÐ¡Ð²Ð°ÑĢÑı Ð²Ð°Ð¼Ðµ
ĠÐ²Ð¸ÑĪ Ð½Ð¾Ð²
ĠÐ¾Ð¿Ð¸ Ñģ
ĠÐ°ÑģÐ¿ÐµÑĢÐ¶Ð¸ ÑĤÐµ
ĠÐŁÑĢÐ¸Ð³Ð¾ÑĤ Ð²ÐµÑĤÐµ
ĠÑģÑĩÑĥÐ¿ Ð²Ð°ÑĤ
ĠÐļÐ¾ÑĤ Ð»Ð¾Ð½ÑĬÑĤ
ĠÐ´ÑĢÑĬ Ð¿Ð½ÐµÑĤÐµ
ĠÐ°Ð»ÐºÐ¾Ñħ Ð¾Ð»Ð°
ĠÐ½Ð°ÐºÐ¸ÑģÐ½Ð°ÑĤÐ¸ ÑıÑĤ
ĠÐ¿Ð¾ÑģÑĤ Ð»Ð°Ð½Ð°
ĠÑħÐ²Ð° Ð½Ð°ÑĤ
ĠÐ¿Ð¾ÑĤÑĬÐ¼ Ð½Ðµ
ĠÑģÐ¿ÐµÑĨÐ¸ Ð°
ĠÐ¸Ð·Ð²Ð¸ÑĢÐ° Ð½Ðµ
ÐµÑģÐµÐ½ ÑĨÐ¸Ñı
ĠÑģÐ¼ÐµÐ½ Ñı
Ñģ Ð¿Ð°
Ð½ ÐºÐ¸
Ð½ ÐµÐ½Ð¸Ñı
ĠÑģ Ð²Ð¸
Ð» ÐµÑĢ
ĠÐ¼ ÐµÐ»
ÑĤÐµ ÑĩÐµÐ½
ĠÐ´ Ð¾Ð»Ð¸Ð²Ð°ÑĤ
ĠÐ·Ð° Ð¼ÐµÑģÐ²Ð°Ð¼Ðµ
ĠÐ¾ÑĤ Ð½Ð°ÑĩÐ°Ð»Ð¾
ÑģÑĤ ÑĤÐ°
ĠÐ¿ÑĢÐµ Ð¼ÐµÑģÑĤÐ²Ð°
ÑĩÐ¸ Ð½Ð°ÑĤÐ°
ÑĥÐ» ÑıÑĤÐ°
ĠÐ° ÑĢÐ°Ð½Ð¶Ð¸
ÑģÐ¸Ð¿ Ð²Ð°Ð¼Ðµ
ĠÐ¿ÑĢÐ¾ ÑĢÐµ
Ð»Ñı Ð±Ð°
ĠÐ¾ÑģÑĤÐ°Ð½Ð° Ð»
Ð»Ð¸Ñı ÑĤÐ°
ĠÑĩÐ¸ ÑģÑĤ
ĠÐ·Ð°Ð´ÑĥÑĪÐ°Ð²Ð° ÑĤÐµ
ĠÐ»Ñİ ÑĤÐ¾
ĠÐ¿Ð»Ð¾ ÑĩÐ°
ĠÑĤÐµÑĩ Ð½Ð¾
ĠÑĤÐµÑĩ Ð½Ð¸ÑĤÐµ
ĠÐ·Ð»Ð°ÑĤÐ¸ÑģÑĤÐ¾ Ð¶ÑĬÐ»ÑĤÐ¾
ĠÐ³Ð¾Ð»ÑıÐ¼Ð° ÑĤÐ°
ĠÐºÑĬ Ð´ÑĢÐ°
ĠÐºÐ°Ð¿Ð°Ðº ÑĬÑĤ
ĠÐºÐ°ÑĢÑĤÐ¾ÑĦ ÑĬÑĤ
Ðĳ Ð°Ð½Ð°Ð½Ð¸ÑĤÐµ
ĠÐ§ ÐµÐ´ÑĬÑĢ
ĠÐ°Ð³Ð½Ðµ ÑĪÐºÐ¾ÑĤÐ¾
ĠÐ»ÑİÑĤÐ¸ Ð²Ð°
ÐĺÐ·Ð¼Ð¸ Ð²Ð°ÑĤÐµ
ĠÐºÐ°Ðº Ð²Ð¾ÑĤÐ¾
Ð»ÐµÐ½Ð¾ Ð²
ĠÑĩÐ¸Ð»Ð¸ ÑĤÐ¾
ĠÐ¾ÑĤÐ´ÐµÐ»Ñı Ð¼Ðµ
Ðł Ðµ
ĠÐ½Ð°ÐºÑĬÐ»ÑĨÐ° Ð½Ð¸ÑıÑĤ
ĠÐ±Ð»Ð°Ð½ÑĪÐ¸ ÑĢÐ°Ð½Ð¸
ĠÐ²ÐºÐ»Ñİ ÑĩÐµÐ½
ĠÐ¾Ð³Ð½ÐµÑĥÐ¿Ð¾ÑĢ Ð½Ð¸
ÐµÐ»Ð¸ Ð½Ð°ÑĤÐ°
Ð¼Ð°ÑĢ Ð¼Ð°Ð»Ð°Ð´
ĠÐ·Ð°ÑħÐ»ÑĥÐ¿ ÐµÐ½
ĠÐ·Ð°ÑħÐ»ÑĥÐ¿ Ð²Ð°Ð¼Ðµ
ÐĹÐ°Ð¿ÑĬÑĢÐ¶ ÐµÑĤÐµ
ĠÐ¡Ð¸Ð¿ Ð²Ð°Ð¼Ðµ
ĠÐ¿Ð¾Ð´ÑģÐ»Ð°Ð´ ÐµÐ½Ð°
ĠÑģÐ¸Ð½Ð°Ð¿ ÐµÐ½Ð¾
ĠÐ¸Ð·Ð»Ð¸Ð·Ð° ÑĤ
ĠÐłÐ°Ð·ÑĤÐ¾Ð¿ ÐµÑĤÐµ
ĠÐ³Ð½ÐµÐ· Ð´Ð°
ĠÐ±ÑĢÐµÐ½Ð´Ð¸ ÑĤÐ¾
ÐºÐ°Ðº ÑĬÐ²
ĠÐĶÐ¾Ð¼Ð°ÑĤ ÑĬÑĤ
ĠÐ·Ð°ÑģÑĤÑĬ Ð¿Ð²Ð°ÑĤ
ĠÐ±ÑĥÑħ Ð½Ðµ
ĠÑģÑĬÐ´ÑĬÑĢÐ¶ Ð°Ð½Ð¸ÐµÑĤÐ¾
ĠÐŁÑĬÑĢ Ð²Ð°ÑĤÐ°
Ð¼Ð¾ÑĢ ÑģÐºÐ°
Ð·ÑĬÑĢ Ð½Ð°
ÑĬÐ»ÑĪÐµ Ð±ÐµÐ½
* ,
g i
ÑĢ ÐµÐ½Ð°ÑĤÐ°
Ð³ ÑĢÐµ
Ð³ ÑĬÑģÑĤ
ÐºÐ° ÐºÐ²Ð°
ÑĪ Ð¿Ð°
ÐºÐ¾ Ð·Ð°
ĠÐ´Ð¾ Ð±Ð¸ÑıÑĤ
Ð»Ð¾ Ð·Ð¾Ð²Ð¸
ÑĢÑıÐ· Ð°Ð½Ð°
Ð°ÑĢ Ð¿Ð°Ð´Ð¶Ð¸Ðº
ĠÐ¡ Ð½ÐµÐ¼Ð°
ÑĦÐ¸ ÑĤÑİÑĢ
ÑĢÐ¾ ÐºÐ°
Ð±Ð¸ ÑĢÐ°Ð¼Ðµ
ĠÐ¿ÑĢÐµ ÑĨ
ĠÐŀ Ð±ÑĬÑĢÐºÐ²Ð°ÑĤ
ĠÑĤÐ° Ð¼
ĠÐ½Ðµ Ð»ÐµÐ¿Ð½Ðµ
ÐµÐºÐ¾ ÑĤÐ¾
ĠÐ·Ð°Ð¿ÑĬÑĢÐ¶ ÐµÐ½Ð°ÑĤÐ°
ĠÐŁÑĢÐ¸ Ð±Ð¸ÑĢÐ°
ĠÐĺÐ· Ð¿Ð¸ÑĩÐ°
ĠÐ¸Ð·Ð¼Ð¸ ÑĤÐ°ÑĤÐ°
Ð½Ð¾Ð² ÑĢÐµÐ¼ÐµÐ½Ð½Ð¾
Ðļ Ð¸
Ð´Ñĥ Ð¿
ĠÐŁÑĢÐ¸Ð±Ð°Ð²Ñı ÑĤÐµ
ÐĿÐ° ÑģÑĤÑĬÑĢÐ³Ð°
ÐºÑĬÑģ Ð²Ð°ÑĤ
ĠÐ½Ð°Ð¼Ð°Ð·Ð° Ð½Ð¾
ĠÑģÐ³Ð¾ÑĢÐµÑī ÐµÐ½
ĠÐ²ÑĢÑı ÑīÐ¾ÑĤÐ¾
Ðĳ Ð¾Ð±Ð°
ĠÐ¢Ð° Ð²Ð°
ÐłÐ°Ð· Ð±ÑĬÑĢÐºÐ°Ð¹ÑĤÐµ
Ð¢ ÐµÑģÑĤÐ¾
ĠÐ½Ð°ÑĢÑĬÑģ Ð²Ð°Ð¼Ðµ
ĠÐĽ Ð°
ĠÐ¿Ð¾Ñĩ Ð½Ðµ
ĠÐ¾Ð±ÑĢÑĬÑīÐ° ÑĤÐµ
ĠÐ¸Ð·Ð´ÑĬÐ»Ð±Ð° Ð½Ð°ÑĤÐ°
ĠÐ¸Ð·Ð´ÑĬÐ»Ð±Ð° Ð½Ð¸ÑĤÐµ
ĠÑĥÐ´ Ð¾Ð±
ÑĤÐµÐ³ Ð»ÑıÑĤ
ĠÐºÐ²Ð°Ð´ÑĢÐ°ÑĤ Ð½Ð¸
Ð¼Ð±Ð¸ ÑĤÐµ
ĠÐ³Ð¾ÑĤÐ²Ð¸ Ð¼
ÐĹÐ°Ð¿ÑĬÑĢÐ¶ Ð²Ð°
ĠÐķÐ´ Ð½Ð°
ĠÐ´Ð¶Ð¾Ð» Ð°Ð½Ð°
ĠÐ²ÑĢÐ°ÑĤ Ð½Ð¸
ĠÐ°Ð¹ Ñģ
ĠÐ¿ÑĢÐµÑĨÐµÐ´ ÐµÐ½
ĠÐ½Ð°Ð¹Ð»Ð¾ Ð½Ð¾Ð²Ð°
ĠÐ½Ð°ÐºÑĬÑģÐ° Ð½Ð¾
ÑıÐ¹ ÑĨÐµ
Ð¿ÑĥÑĪ ÐµÐ½Ð¾
ĠÐ·Ð°Ð¼ ÑĢÑĬÐ·
ĠÐºÑĥÐ¿ÑĩÐ¸Ð½ ÐºÐ¸
ĠÑģÐ¾ÑĢ ÑĤ
ĠÐ¿Ð¾ÐºÐ°ÑĦÐµÐ½ ÑıÐ²Ð°Ð½Ðµ
8 50
Ñĩ ÑĬÑĤ
ĠÐ¿ ÑĬÐº
Ð´ ÐµÐ½Ð¸ÑĤÐµ
ĠÐ¸ Ð½Ð´ÑĢÐ¸
Ñĥ ÑĤÐ¸
ĠÐº ÑĬÐºÑĢÑıÑĤ
ÑĢÐ° Ð±Ð¸
ÑĤÐ¸ ÑĪÐ¾
ĠÐºÐ° ÐºÐ²Ð°
ĠÐ¾ÑĤ Ð¿ÑĥÑģ
Ġ1 4
ĠÑĤÐ¾ ÑĩÐ½Ð¾
ĠÐ¿ÑĢÐ¸ Ð±Ð¸ÑĢÐ°ÑĤ
ĠÑĦ ÑĢÐµÐ½
Ð´Ð¸ ÑĢÐ°
ĠÐ½Ðµ ÐºÑĤÐ°
ĠÐ° Ð½Ð°ÑģÐ¾Ð½
ĠÐ·ÐµÐ» ÐºÐ¸
ĠÐļ Ð¸ÑģÐµÐ»Ð¸ÑĤÐµ
ĠÑģÑĬ ÐµÐ´Ð¸Ð½ÑıÐ²Ð°ÑĤ
ĠÐ´Ð¾Ð±Ð°Ð²Ñı Ð¹ÑĤÐµ
ĠÐĹÐ° Ð²Ð¸Ð²Ð°Ð¼Ðµ
Ð¡ ÑĬ
Ð·Ð¸ ÑĢÐ°Ð½Ð°
ÐĴ Ð°
ĠÐĳ ÑĥÑĤÑĩÐµÑĤÐ°ÑĤÐ°
ĠÐ±ÑĬÑĢÐºÐ° Ð½ÐµÑĤÐ¾
ĠÐ²Ð°ÑĢÐ¸ ÑĤÐµ
ĠÑģÐ»Ð¾ Ñĥ
ÐĿÐ° ÑĤÑĢÐ¾
ĠÐºÑĬ Ð¿Ð¸
ÐĺÐ· Ð±Ð¸ÑĢÐ°ÑĤ
ÐŀÑĤ Ð´ÐµÐ»ÑıÑĤ
ĠÑĢÐ°Ð·Ð¼Ð¸ ÑĤÐ°
ĠÐ¿Ð¾Ð² ÑĢÐ°ÑĤ
ĠÐ¾Ð±ÐµÐ· ÑģÐ¾Ð»
ÑĤÑĢÐ¸ Ð²Ð°ÑĤ
ĠÐ½Ð°Ð±ÑĢÐ°ÑĪ Ð½ÑıÐ²Ð°
ĠÑģÐ»Ð¾Ð¶Ð¸ Ð»Ð¸
ĠÐ¼Ð»Ðµ ÑĩÐ½Ð¸Ñı
Ð³ÑĬ ÑģÑĤÐ°
ĠÐ¶ÑĬÐ» ÑĤ
ĠÐŀÑĦÐ¾ÑĢÐ¼Ñı Ð¼Ðµ
ĠÐĺÐ·Ð´ÑĬÐ»Ð±Ð° Ð½Ð°ÑĤÐ°
ĠÐŁÐ°ÑĤÐ»Ð°Ð´Ð¶ Ð°Ð½ÑĬÑĤ
ĠÐ½Ð°Ð¿ÑĢÐ°Ð²Ð¸ Ñħ
ĠÑİÑĦ ÐºÐ°ÑĤÐ°
ĠÐ´ÑĢÑĬ Ð¿Ð²Ð°
ĠÐ²Ð´Ð»ÑĬÐ±Ð½Ð° ÑĤÐ¸Ð½Ð°
ĠÐ·Ð°Ð¼Ðµ ÑģÐ¸
ĠÑĤÐ» ÑĬÑģÑĤÐ¸
ĠÐ¢Ð¸ Ð³Ð°Ð½
Ð¿Ð¾ÑĢÑĬ ÑĩÐ¸ÑĤÐµÐ»Ð½Ð¾
ĠÐ¿ÑĬÐ´Ð¿ÑĬÐ´ÑĬ ÑĨÐ¸
ĠÐ½Ð°Ð³ÑĢÑı ÑĤÐ°
ÑĤÐ¸Ñģ Ð½ÐµÑĤÐµ
ĠÐĳÑĥÑĢÐºÐ° Ð½Ð¸ÑĤÐµ
ĠÐĴÑĤÐ°ÑģÐ° Ð»Ð¾ÑĤÐ¾
ĠÐ½ÐµÐ»ÐµÐ¿Ð½Ðµ ÑīÐ¾
1 1
5 50
6 50
] *
Ġ M
Ð° Ð²Ð°ÑĤ
ÑĢ Ð¾ÑĤÐ¾
Ñı Ð´ÐºÐ¸
ÑĤÐ¾ Ð¿Ð¾Ð´
ĠÐ¾ Ð¿ÐµÑĩÐµÐ½Ð¸
ÑĤÐµ Ñģ
ÑĢÐ° Ð½Ð¾
ĠÐ´ Ð¾Ð»Ñĥ
Ð¶ ÐºÐ¸
Ð¹ Ð½Ð¸
ĠÐ¸Ð· ÐºÐ¸Ñģ
ĠÐ¸Ð· ÑĢÑıÐ·Ð²Ð°Ð¼Ðµ
ĠÐŁ Ð¾Ð»Ð¸Ð²Ð°Ð¼Ðµ
ĠÑı Ð´ÐºÐ°
ĠÐ¿ÑĢÐ¸ ÑīÐ¸Ð¿
Ð²Ðµ ÑĤÐ½Ð¾
ĠÐļ Ñĥ
ĠÐĶ Ð¶
ĠÐ²Ð¸ ÑģÑıÑĤ
ĠÐ¿Ð¾Ð´Ð¿ÑĢÐ°Ð² ÐµÐ½Ð°
ĠÐ¿ÑĢÐµÑģ Ð½Ð¸ÑıÑĤ
ĠÑĢÐµ Ð±ÑĬÑĢ
ĠÐ¢ Ð¸ÐºÐ²Ð°ÑĤÐ°
ĠÑĨ Ð²ÐµÑĤÐµ
ĠÑĢÐ¾ Ð½
ĠÑĢÐ°Ð·ÑĤÐ¾Ð¿ ÐµÑĤÐµ
ÐĿÐ° ÑģÑĤÑĬÑĢÐ³
ĠÐ´ÑĬÐ»Ð±Ð¾ ÐºÐ¸
ĠÐļÐ° Ð¿Ð°
Ð½Ð´Ð¸ ÑĪÐ¿Ð°
Ð»Ñİ ÑĤÐ°
Ð»Ñİ ÐºÐ¾Ð·Ð°
ĠÐ§ ÑĥÐº
ĠÑĩÐ¸Ð½Ð¸ Ð¹ÐºÐ°
ĠÑĢÐ¸Ð± ÐºÐ¸
ĠÐ´Ð¾Ð±Ð°Ð²Ð¸ Ð¼
ĠÐ´Ð¾Ð±Ð°Ð²Ð¸ Ñħ
ĠÑĩÐµÑĤÐ²ÑĬÑĢ ÑĤ
ĠÐ½Ð°Ð¼Ð°ÑĩÐºÐ° Ð½Ð¾ÑĤÐ¾
ÐŁÑĢÐ¸ Ð³Ð¾ÑĤ
ĠÑĦÑĬÑģÑĤ ÑĬÐº
ĠÑĤÑĢÐ¸ÑĬÐ³ÑĬÐ»Ð½Ð¸ ÐºÐ°
Ð¨ Ð°
ĠÐ¿ÑĬÐ»Ð½Ð¾ Ð¼Ð°ÑģÐ»ÐµÐ½Ð¾
Ð¿Ð¾ÑĢ ÑĤÐ¾ÐºÐ°
ÑĩÐºÐ²Ð° Ð¼Ðµ
ĠÐ¸Ð·ÑģÑĤÑĥÐ´ ÑıÐ²Ð°
ĠÐ¿Ð¾Ð±Ðµ Ð»ÐµÑıÑĤ
ĠÐºÐ¸ÑĤÐ° Ð¹ÑģÐºÐ¸
ĠÐľÐ°Ð³Ð´Ð°Ð½Ð¾Ð· Ð°
ĠÐ¼ÐµÑħ ÑĥÑĢ
ĠÐ·Ð´ÑĢÐ° Ð²Ð¸
ĠÐºÐ°ÑĩÐ° Ð¼Ð°Ðº
Ð¾Ð»Ð¾ Ð½Ðµ
ĠÐĹÐµ ÑħÑĤÐ¸Ð½ÑĬÑĤ
ĠÑĥÐ¿Ð¾ÑĤ ÑĢÐµ
ĠÐ¿Ð»Ð°ÑģÑĤÐ¼Ð° ÑģÐ¾Ð²Ð°
ĠÐ²ÑĬÐ½ÑĪ Ð½Ð¸ÑĤÐµ
ĠÐ±ÑĥÐ»ÑĮÐ¾ Ð½Ð¸ÑĤÐµ
ĠÐ½Ð°Ð±ÑĥÑħÐ²Ð°ÑĤÐµ Ð»
ĠÐ¸Ð·Ð¿ÑĢÐ° Ð²ÐµÐ½Ð¸
ÐŁÐ¾Ð» Ð¾Ð²Ð¸Ð½Ð°ÑĤÐ°
2 2
Ð° Ð»Ð½Ð¸
Ð¾ Ð±Ð¸
Ñģ ÑĬÑģ
ĠÐ´ Ð°ÑĢ
Ð¼Ð° Ð¹Ð»Ð¸
ĠÑĢÐ°Ð· Ð»Ð¸Ð²Ð°
ĠÑĢÐ°Ð· Ð¿Ð»Ðµ
ĠÐ¸Ð· ÑĩÐ°ÐºÐ°Ð¹ÑĤÐµ
ĠÑı Ð³Ð¾Ð´Ð°
ĠÐ¿ÑĢÐ¸ ÐºÑĢÐµ
ĠÐĴ Ð·ÐµÐ¼Ð°ÑĤ
Ð¿ÑĬÑĢÐ¶ Ð²Ð°
ĠÑħ Ð²Ð¾
ĠÐµÐ´ Ð½Ð¾Ð²ÑĢÐµÐ¼ÐµÐ½Ð½Ð¾
ĠÐļ Ð°ÑĢÑĦÐ¸Ð¾Ð»ÑĬÑĤ
ĠÐĶ ÑĢÑĬ
ÐµÐ´ ÑĬÑĤ
Ð¡ Ð»ÐµÐ´
ĠÐłÐ°Ð· ÑĤÐ²Ð°ÑĢÑı
ĠÐºÑĢÐ° ÑģÐ¸
ĠÐ¿Ð¾Ð»Ñĥ Ñģ
ĠÑĥ Ð¿Ð»ÑĬÑĤ
ĠÐ²Ð° Ð¶Ð½Ð¾
ĠÐ²Ð°Ð½Ð¸ Ð»ÐµÐ½Ð°ÑĤÐ°
ĠÑĢÐ° Ð²ÐµÐ½
Ðļ Ð°ÑĢÑĤÐ¾ÑĦ
ĠÑĩÐ¸ ÐµÑĤÐ¾
ĠÐĳ Ð»Ð°ÑĤ
ĠÐĳ ÑĢÐ¾ÐºÐ¾Ð»Ð¸ÑĤÐµ
ÐºÑĢÐ° ÑģÑĤÐ°
ĠÑĢÐ¾ Ð½ÐµÐ½Ð°
ĠÐ¿Ð»Ð¾ ÑĩÐºÐ¸
ĠÐ¿Ð»Ð¾ ÑģÐºÐ¾
ĠÑģÐ³Ð¾ÑĢÐµÑī Ð¸
ĠÐ²Ð½Ð¸Ð¼Ð° Ð²Ð°ÑĤÐµ
ĠÑĢÑĥ Ð»Ð°Ð´Ð¸
Ðĳ Ð»Ð°
ĠÐ¿ÑĢÑĬ ÑĩÐºÐ°
ĠÐ¸Ð·ÑĨÐµ Ð´ÐµÑĤÐµ
Ð»ÐµÐ¿ Ð²Ð°ÑĤ
ĠÐ´Ð¶Ð¸Ð½Ð´Ð¶Ð¸ ÑĦÐ¸
ĠÐ¿Ð¾Ð²Ðµ ÑĩÐºÐ¾
ĠÑĨÐ°ÑĢÐµÐ²Ð¸Ñĩ ÐµÐ½
ĠÐ½Ð°ÐºÑĬÑģ Ð°Ð½Ð¸
ĠÐĳÑĬÑĢÐºÐ° Ð¹ÑĤÐµ
ĠÐ¼ÐµÐ½ ÑĤÐ°ÑĤÐ°
ĠÐºÐ°Ð¹ÑģÐ¸ Ð¸ÑĤÐµ
ĠÐ³ÑĬÐ± ÐµÐ½Ð¸Ñı
ĠÑĩÐµÑĢÐµ ÑĪÐ°
ĠÐ¸Ð·ÐºÐ»Ñİ ÑĩÐµÐ½Ð¸Ðµ
ĠÐ¾Ð±ÑĢÐ°Ð·Ñĥ Ð²Ð°Ð½Ðµ
ĠÐ²ÐºÐ»Ñİ ÑĩÐµÑĤÐµ
ĠÐ»ÐµÐ½ ÑĤÐ¸ÑĤÐµ
ĠÐ¿Ð¾Ð´Ð½Ðµ ÑģÐ°ÑĤ
ÑĢÑĥÑĤÐ¾ Ð½Ð¸
ÐºÑĢÐµ Ð¼
ĠÑĢÐ°Ð·ÑĢÐµÐ´ ÐµÐ½Ð¾
ĠÐ¤Ð¾ÑĢ Ð¼Ð°ÑĤÐ°
ĠÑģÐ¿Ð»Ðµ ÑģÐºÐ²Ð°ÑĤ
ĠÐŁÑĢÐ¸ÑĤÐ¸ÑģÐºÐ° ÑĤ
ĠÑģÐ°Ð½Ð´Ð²Ð¸Ñĩ Ð¸
ĠÑĢÐ¾Ð¼Ð±Ð¾ Ð²Ðµ
ĠÐ¿ÑĢÐ¾ÑĤÐµ Ð¸Ð½
ĠÐµÐ»ÐµÐºÑĤÑĢÐ¸ÑĩÐµ ÑģÐºÐ°
Ð²ÐµÑģ ÐµÐ½Ð¸ÑĤÐµ
ĠÐ´Ð°ÑĢ Ð¾Ð²Ðµ
2 8
c h
e l
e t
Ð½ ÐºÐ¸ÑĤÐµ
Ð¿ ÑıÑĤ
Ð± ÑĥÑĤ
ĠÐ³ Ð»ÑİÐºÐ¾Ð·Ð°
ĠÐ± ÐµÐ»Ð°ÑĩÐºÐ°
Ð¼Ð° Ð¹Ð¾
ÑĦ ÑĢÐ°Ð½Ð°
ĠÐ¾ÑĤ Ð´ÐµÐ»ÐµÑĤÐµ
ÑĨÐµ Ð»Ð¸ÑĤÐµ
ĠÐµ Ð¼Ð°Ð¹Ð»Ð¸
ĠÐ¿Ð¾Ð´ Ð»Ð¾Ð¶
ĠÐ¿Ðµ Ð¿ÐµÑĢ
ĠÐ½Ð°Ð¼Ð° Ð¶Ðµ
ÑĩÐµÑĢ Ð²ÐµÐ½Ð¾
ĠÐļ ÑĥÐ¿Ð°ÑĤÐ°
ĠÐļ ÑĢÐµÐ½Ð²Ð¸ÑĢÑĪÐ¸ÑĤÐµ
ĠÐĶ Ð¾Ð»
ĠÐ¿Ð°ÑĢ ÑĤÐ¸
ĠÐ³Ð¾ ÑĦÑĢÐµ
Ð¾Ð½ ÑĤÐ°
Ġ3 50
ĠÐ¿Ð° ÑĩÐ¸
ÐĹÐ° Ð´ÑĥÑĪÐµÑĤÐµ
ĠÐľ ÑĥÑģÐ°
ĠÐ²Ð° ÑĪÐµ
ÐŁ Ñĥ
ÑĢÐµÐ± Ð¾Ð»Ð¸Ð¸ÑĤÐµ
ĠÑĨÐµ Ð»Ð¾
ĠÐ½Ð¾ Ñģ
ĠÐºÐ°Ð¿Ð° ÑĩÐºÐ¸ÑĤÐµ
Ð´Ðµ Ð²ÐµÑģÐ¸Ð»
ĠÐĲ ÑĢÐ¾
ĠÐ»Ð¸Ð¼Ð¾Ð½Ð¾ Ð²Ð¸ÑĤÐµ
ĠÐ¿Ð°ÑģÐ¸ ÑĢÐ°Ð½
ĠÑĪÐ° Ð¹
ĠÐ·ÑĬÑĢ Ð½Ð¾
Ðĳ ÑĢÐ¾ÐºÐ¾Ð»Ð¸ÑĤÐµ
ĠÐºÐ¸Ð¼Ð¸Ð¾Ð½ ÑĬÑĤ
ĠÐ¾Ð²ÐºÑĥÑģ ÐµÐ½Ð¾
ĠÐ»ÐµÐ½ÑĤÐ¸ ÑĩÐºÐ°
ĠÐľÐ¾ ÑĨÐ°ÑĢÐµÐ»Ð°ÑĤÐ°
ĠÐ¼Ð°ÑĢÐ³Ð°ÑĢÐ¸Ð½ ÑĬÑĤ
ĠÐºÐ¸Ð¿ Ð²Ð°Ð½Ðµ
ĠÐ¿Ð°Ð»Ð°ÑĩÐ¸Ð½ ÐºÐ°ÑĤÐ°
ĠÐ¿Ð¾ÑģÐ»ÐµÐ´ Ð½Ð¸ÑĤÐµ
ĠÐ»ÑİÑĤÐ¸ Ð²Ð¸ÑĤÐµ
ĠÐ¾Ð±Ðµ Ð¼
Ð¤ Ð¸Ð»Ð¸Ð¸ÑĤÐµ
ĠÐ¼Ð°ÑħÐ° ÑĤÐµ
ĠÐ¾ÑħÐ»Ð°Ð´ ÐµÑĤÐµ
ĠÐ¿Ð¾ÑĢÑĤÐ¾ÐºÐ°Ð»Ð¾ Ð²Ð¸ÑĤÐµ
ĠÑĢÐ°Ð·Ð±ÑĬÑĢÐºÐ° Ð½Ð¸
ĠÐ¸Ð·ÐºÐ»Ñİ ÑĩÐ¸
ĠÐĺÐ·Ð¿ÑĬÑĢÐ¶ ÐµÑĤÐµ
ĠÑĢÐ°Ð·ÑĤÐ²Ð¾ ÑĢÐµÑĤÐµ
ĠÐ¸Ð·ÑģÑĤÐ¸Ð½Ð° Ð»Ð¸
ĠÐºÐ°ÑĦÑı Ð²Ð¸
ĠÐ½Ð°Ð¼Ð°ÑĩÐºÐ° Ð½Ð¸
ĠÐ±Ð¾Ð½ ÑĦÐ¸Ð»Ðµ
Ð¼Ð°ÑĢ Ð´Ð°
ĠÐ¾ÑĤÐ²Ð¾ ÑĢÐ¸
ĠÐ¾ÑĤÐ²Ð¾ ÑĢÑıÑĤ
ÑĢÐ°Ð² Ð½Ð¸
ĠÐ°ÑĢ ÑĤÐ¸ÑĪÐ¾
ĠÑģÐ²ÑĬÑĢÑĪ Ð²Ð°Ð½Ðµ
ĠÐĺÐ·Ð´ÑĬÐ»Ð±Ð° Ð²Ð°ÑĤ
ĠÐºÐ°Ð¼Ð±Ð¸ ÑĤÐµ
ĠÐ½Ð°Ð¿Ð¾ Ð´Ð¾Ð±
ĠÐºÐ¾ÑĪÐ½Ð¸ ÑĩÐºÐ¸
ĠÐ¾Ð¿Ð¸ ÑĤÐ²Ð°
ĠÐ¸Ð½ ÑģÑĤ
ĠÐ¿Ð¾ÑĢÐ¾Ð·Ð¾Ð²Ðµ ÑıÑĤ
ĠÑģÑĤÐ¸ Ð³Ð½Ðµ
ĠÐ²ÑĤÐ°Ñģ Ð²Ð°Ð½Ðµ
ĠÐĶÑĢÑĥ Ð³
Ð´ÑĬÑĢÐ¶ Ð°
ĠÐ¸Ð·Ð³ Ð»Ðµ
ĠÐ½Ð°Ðº Ð»Ð¾
ĠÑģÐºÑĥÐ¼ÑĢÐ¸ Ð¸
ĠÐ¼Ð»Ð° Ð´Ð°
ĠÐĳÐ»Ð°ÑĤ ÑĬÑĤ
. ),
i s
Ð» Ð´Ð°ÑĤÐ°
Ð² ÐµÐ½Ð¸ÑıÑĤ
Ð² ÐºÑĥÑģÐ½Ð¾
Ðº ÑĢÑĥÑĤÐ¾Ð½Ð¸
Ð· Ð¾ÑĤÐ¾
Ð· Ð¾Ð²Ð°
ĠÐ½ Ð¾ÑĢÐ¼Ð°
Ð¿ Ð»Ð¸
Ð»Ð¸ Ð²Ð¸
Ð»Ð¸ Ð²Ð¸ÑĤÐµ
Ð¼Ðµ ÐºÐ¾
ĠÐ¼Ð° ÑĩÐºÐ°
ĠÐºÐ° Ð½
Ð»Ðµ Ð±Ð¾
ĠÐ¾ÑĤ Ð»ÐµÐ¿
ĠÐ¸Ð· Ð¿ÐµÑĩÐµÐ½Ð¸
ĠÐ¸Ð· ÑĤÑĬÐ½
ĠÐ¿ÑĢÐ¸ ÑĤÐµÑģ
ĠÐ¿ÑĢÐµ Ð³Ð¾ÑĢÐ¸
ĠÐ¿ÑĢÐµ ÑĨÐµÐ½
ĠÑĦ Ð¸Ð½
ĠÐ³Ð»Ð° Ð²Ð¸ÑĩÐºÐ°
Ð¿ÑĬÑĢÐ¶ Ð²Ð°ÑĤ
ÑĢÑĬÑģ ÐºÐ²Ð°
ĠÐºÐ¸ ÑģÐ½Ð°
ĠÐ½Ð°Ð¼Ð° Ð¶Ð°ÑĤ
ĠÑĪ ÐµÑĢÐ¸
ĠÑĤÐ¸ Ð¿Ð¾
ĠÐĿÐ° ÑĢÑıÐ·Ð°Ð½Ð¸Ñı
ĠÑĤÐ¾Ð¿ ÐºÐ¸ÑĤÐµ
ĠÑĢÐ°Ð·Ð±Ð¸ Ðµ
ĠÑĦÐ¸ Ð½Ð°
ĠÐ¿Ð° Ð½Ð´Ð¸ÑĪÐ¿Ð°
ĠÐłÐ°Ð· Ð¼ÐµÑģÐ²Ð°
ĠÐłÐ°Ð· ÑģÑĤÐµÐ»ÐµÑĤÐµ
ÑĪÐºÐ¾ ÑĤÐ¸ÑĤÐµ
ĠÐ¼Ð¾ Ðº
Ð¿Ðµ ÐºÐ°ÑĢ
ĠÐ±Ð¸ ÑĦÑĤÐµ
ĠÑĨÐµ Ð»Ð¸Ñı
Ðļ ÑĢÐµÐ½Ð²Ð¸ÑĢÑĪÐ¸ÑĤÐµ
ĠÐŀÑģÑĤÐ°Ð²Ñı Ð¼
ĠÐ·ÐµÐ»Ðµ Ð²Ð°ÑĤÐ°
ĠÑģÑĤÑĥÐ´ ÐµÐ½Ð°ÑĤÐ°
Ð²Ð°ÑĢÑı Ð²Ð°ÑĤ
ĠÐ¾ÑĤÐ´ÐµÐ» ÐµÐ½Ð¾ÑĤÐ¾
ĠÑĪÐ° ÑĦÑĢÐ°Ð½Ð°
ĠÐ¿ÑĢÐµÑģÑĤÐ¾ Ñı
ĠÐ³Ð°ÑĢÐ½Ð¸ ÑĢÐ°Ð½Ð¸
ĠÐ½Ð°Ð»Ð¸Ð²Ð° ÑĤÐµ
ĠÐľÐ¾ Ð¶ÐµÑĤÐµ
ĠÐĿÐ°Ð¼Ð° ÑĩÐºÐ²Ð°ÑĤ
ĠÐ²Ð¾Ð´ ÐºÐ°ÑĤÐ°
ĠÑħÐ»Ð°Ð´ ÐºÐ°ÑĤÐ°
ĠÐºÐ°ÑĢ Ð½Ð°
ĠÐºÑĥÐ¿Ð¸ ÑĩÐºÐ¸ÑĤÐµ
ĠÑĢÐ°Ð·ÑĤÐ²Ð°ÑĢÑı Ð¼Ðµ
Ð§ Ð°
ĠÐºÐ¾Ð¼ Ð¿Ð»Ðµ
ĠÑĪÐµ Ð¹Ðº
ĠÐ³Ð»Ð°Ð´ ÐºÐ¾ÑģÑĤ
ĠÐ¾Ð±ÐµÐ·ÐºÐ¾ÑģÑĤ ÐµÐ½Ð¸
ÐŁÐ°ÑĤÐ»Ð°Ð´Ð¶ Ð°Ð½Ð°
ĠÐĹÐ°Ð¿Ð¸ÑĩÐ° Ð¼Ðµ
ĠÐ·Ð°Ðµ ÑĪÐºÐ¾
ĠÐ³ÑĬÐ± ÐµÐ½Ð°ÑĤÐ°
ĠÐ³ÐµÐ² ÑĢÐµ
ĠÑĪÐ¾ÐºÐ¾Ð»Ð°Ð´Ð¾Ð²Ð¸ ÑĤÐµ
ĠÐºÐ¾ÑĤÐ»Ðµ ÑĤ
ĠÐ¿ÑĥÑģ Ð½ÐµÑĤÐµ
ĠÐ¾ÑĤÐ²Ð° ÑĢÐ°ÑĤÐ°
ĠÑĢÑĬÑģ ÑıÑĤ
ĠÑģÑĥÑģÐ°Ð¼Ð¾ Ð²
ĠÐ¿ÑĢÐµÐ¿ÐµÑĩ ÐµÐ½Ð°
ĠÐ¿Ð°ÑģÐ¸ÑĢÐ°Ð½Ð¸ ÑıÑĤ
ĠÐºÐ¾ÑĪÐ½Ð¸ ÑĩÐºÐ¸ÑĤÐµ
ĠÐĿÐ°Ð¿ÑĬÐ» Ð²Ð°ÑĤ
ÑģÐ²Ð¸Ð½Ñģ ÐºÐ¸
ĠÐ°Ð¼Ð¾Ð½Ñı ÑĩÐ½Ð°ÑĤÐ°
Ð¼Ð°Ð»Ð° Ð´Ð°
ÐºÐ°Ðº ÑĤÐ¾
ĠÑģÐ¿Ð»Ðµ ÑģÐºÐ²Ð°
ĠÐ¿Ð¾Ð´Ð³Ð¾ÑĤ Ð²ÐµÐ½Ð¸ÑĤÐµ
ĠÐļÐ¾Ð» ÐºÐ¾ÑĤÐ¾
ĠÑĢÑĬÐ¶ ÐµÐ½Ð¾
ĠÑĢÐ°Ð·Ð¼Ðµ ÑĢÐ°
Ð¼Ð»Ñı Ð½Ð¾ÑĤÐ¾
ĠÑĢÐ°ÐºÐ¸ ÑıÑĤÐ°
ÐºÐ¾Ð»Ð¸ ÑĩÐµÑģÑĤ
ĠÐĴÑĬÑĢ Ð½ÐµÑĤÐµ
ĠÐ¿Ð¾Ð·Ð°ÑĩÐµÑĢ Ð²Ð¸
ĠÐ¿ÑĢÐ¾ÑĢÐµ Ð·Ð¸
ĠÑĪÐ°Ð¹ Ð±Ð°
Ð»ÐµÐ±Ð¾ Ð¿ÐµÐºÐ°ÑĢ
3 60
Ð° Ð²Ð°
ÑĤ Ð»
ĠÐº Ð»ÐµÐ½Ð¾Ð²
ĠÐ¾ ÑģÐ¼
Ð± ÑĥÑĤÐµÑĢ
ĠÐ³ ÑĥÐ»Ð°
Ð³ Ð»Ð¾
Ð»Ð° ÑĦ
ÑĦ Ñĥ
ĠÐºÐ° ÑģÐµÑĢ
Ð¸Ð½ ÐºÐ¸
ÑĦÐ¸ Ð´Ð¸ÑĤÐµ
ĠÐ¼Ð°Ñģ Ð»ÐµÐ½Ð¸
ÑģÐ¾Ð» ÑıÐ²Ð°
ĠÐ½Ðµ Ð¿ÑĬÐ»Ð½Ð°
ĠÑĩÐ° ÐºÐ°
ĠÐĶ Ð¾Ð»Ð¸Ð²Ð°Ð¼Ðµ
ĠÐĿÐ° ÑĢÑıÐ·Ð°Ð½Ð°ÑĤÐ°
ÑĤÑĬ Ð¿
ĠÐ·Ð°Ð¿ÑĬÑĢÐ¶ ÐµÐ½Ð¸
ĠÐ·Ð°Ð´ÑĥÑĪ ÐµÐ½Ð°ÑĤÐ°
ĠÐ¿Ð¾Ð´Ð¿ÑĢÐ°Ð² ÐµÐ½Ð¾
ĠÐ´Ð¾Ð¼Ð°ÑĤ ÑĩÐµÑĤÐ°ÑĤÐ°
ĠÐłÐ°Ð· Ð´ÐµÐ»ÑıÑĤ
ĠÑĥ ÑģÑĤÐ°
ĠÐ¼Ð¾ ÐºÑĢÐ°
Ð·Ð¸ ÑĢÐ°ÑĤ
ĠÐĳ Ð»Ð°ÑĤÐ°
ĠÐ±Ñĥ Ð»Ð¾
ÐµÑĤ ÑĥÑĩÐ¸
ĠÐ¸Ð·Ð¿ÑĬÑĢÐ¶ ÐµÐ½Ð¸Ñı
ĠÐ¼Ð¸ Ð½Ð¸
ĠÐ¿ÑĢÐ¸Ð³Ð¾ÑĤ Ð²Ð¸ÑĤÐµ
ĠÐŁÑĢÐµ ÑģÐµÐ¹ÑĤÐµ
ĠÐ¾ÑĦÐ¾ÑĢÐ¼ ÐµÐ½Ð¸ÑĤÐµ
ĠÐ¿Ð»Ð¾ ÑĤÐ°
ĠÐ³Ð¾ÑĢÑĩÐ¸ Ð»ÐºÐ°ÑĤÐ°
ĠÑĤÐ²ÑĬÑĢ Ð´Ð°ÑĤÐ°
ĠÐ¾Ð±Ð¸ ÑĢÐ°
ĠÑĢÐµÐ½Ð´ Ð¾Ñģ
ĠÐ¿Ð¸ ÑĤÐ°
ĠÐ¿Ð¸ ÑĨÐ¸
ĠÐľÐ° ÐºÐ°ÑĢÐ¾Ð½Ð¸ÑĤÐµ
ĠÑģÐ°Ð¼Ð¾ ÑģÑĤÐ¾Ñı
ĠÑĪÐ°Ð¹Ð±Ð¸ ÑĤÐµ
ĠÐºÐ¾Ð½ ÑĨÐ¸
ĠÐ½ÐµÐ¾Ð±ÑħÐ¾Ð´Ð¸ Ð¼Ð°
ĠÐ»Ð° Ð¿Ð°Ð´Ð°
ĠÐ¤ Ð¸Ð»Ð¸Ð¹ÐºÐ¸ÑĤÐµ
ÐĶ Ð¶
ÐĺÐ·Ð¼Ð¸ ÑĤÐ¾ÑĤÐ¾
ĠÑĨÐ²Ðµ ÑĤÐ¾Ð²Ðµ
ĠÐ¾ÑħÐ»Ð°Ð´ ÐµÐ½Ð¸
ĠÐ¿Ð¾Ð´ÑģÑĥÑĪÐ° Ð²Ð°Ð¼Ðµ
ĠÐ·ÐµÐ»ÐµÐ½ÑĩÑĥÐºÐ¾ Ð²Ð¸ÑıÑĤ
Ð¹ÑģÐ¸ Ð¸ÑĤÐµ
ĠÑĦÐ¸Ð»Ð¸Ñı ÑĤÐ°
ĠÐ¾ÑģÐ¾Ð» ÑıÐ²Ð°Ð¼Ðµ
ĠÐ¢Ð¾ Ð·Ð¸
ĠÐ´ÐµÐ½ ÑĤÐµ
ĠÐ°ÑĢÐ¾Ð¼Ð°ÑĤ Ð½Ð¸ÑĤÐµ
ĠÑĢÐµÐ´Ñĥ Ð²Ð°
ĠÐ¿Ð¾ÑĤÐ°Ð¿Ñı Ð¼Ðµ
ÐĹÐ°Ð¿ÑĬÑĢÐ¶ Ð²Ð°ÑĤ
ĠÐ¢Ðµ ÑĩÐ½Ð¾ÑģÑĤÑĤÐ°
ĠÐ¿ÑĢÐµÐ¿ÐµÑĩ ÐµÐ½Ð¾ÑĤÐ¾
ĠÐŁÐ°ÑĤÐ»Ð°Ð´Ð¶ Ð°Ð½Ð°
ĠÐĵÐ¾ÑĤ Ð²ÐµÑĤÐµ
ĠÐ½ÐµÑģ ÐºÐ°ÑĦÐµ
ĠÐĹÐµÐ» ÐµÐ½Ð¸ÑıÑĤ
Ð¿Ð¾Ð»Ð·Ð²Ð° Ñħ
ĠÐļÐ¾ÑĤ Ð»ÐµÑĤÐ¸ÑĤÐµ
ĠÐ¼ÐµÑĤÐ° Ð»ÐµÐ½
ĠÐºÐ¾ÐºÐ° Ð»
ĠÑĤÑĢ ÑĥÐ´
ĠÐĹÐ°Ð¿Ð¾ ÑĩÐ²Ð°
ĠÐ§Ð° ÑģÑĤ
ĠÐĶÐµÑģ ÐµÑĢ
ĠÑĦÐ¸ÑĤÐ¸ Ð»
ĠÑĢÐ¾Ð¼Ð±Ð¾ Ð¸
Ð·Ð°Ð¼ÑĢÐ°Ð· ÐµÐ½
ĠÐŀÑĤÑģÑĤÑĢÐ° Ð½ÑıÐ²Ð°ÑĤ
ĠÐ¾ÑĢÐ¸Ð³Ð¸ Ð½Ð°Ð»
ÑĥÐ½Ð° Ð²Ð¸Ñı
ĠÐ¦ÐµÐ» ÑĤÐ°
Ð³Ð°ÑģÐ¸ ÑĥÑģ
ĠÐ¼Ð°ÑĢÑĥ Ð»Ð¸
ĠÐ°Ð¹Ñģ Ð±ÐµÑĢÐ³
ĠÐ¢Ð¸Ð³Ð°Ð½ ÑĬÑĤ
ĠÐ¼ÐµÑħÑĥÑĢ ÑĩÐµÑĤÐ°
ĠÐľÑĥÑģÐ° ÐºÐ°ÑĤÐ°
Ð £
Ð¾ ÑģÐ°
ÑĢ ÑĤ
Ð² Ð¾Ð»
ĠÐ¿ ÐµÑģÑĤÐ¾ÑĤÐ¾
ĠÐ½Ð° ÐºÐ°
ĠÐ¼ ÑĥÐ»
ĠÐ¼ ÐµÐ»Ð°
ĠÐ¼ ÑİÑģ
Ð¿ ÑĬÑĤ
ĠÐ¾ Ð¿ÐµÑĩ
ĠÐ² ÐºÑĥÑģÐ½Ð¾
Ð³ Ð½ÐµÑĤÐ¾
ĠÐ± Ð¾ÑĢ
ĠÐ·Ð° ÑģÐ¸
ĠÐ·Ð° Ð¿ÑĬÐ»Ð½Ð¸
ÑĢÐµ ÑĪ
ÑĪ ÐµÑĤÐµ
ĠÐ¿Ð¾ Ñı
ĠÐ¾ÑĤ Ð´ÑĢÑĬÐ¿Ð²Ð°
ĠÐ¸Ð· ÑĤ
ĠÐŁ ÑĬ
ĠÐ¿Ð¾Ð´ Ð³ÑĢÑıÐ²Ð°
Ð¼Ð¸ ÐºÑģ
Ð¼Ð¾ Ð²Ð°
ÑĨÐ¸ ÑĢÐ°
ĠÐ¼Ð°Ð» ÐºÐ¸ÑĤÐµ
ĠÑĤÐ° ÑħÐ°Ð½Ð°
ĠÑĩÐµÑģ Ð½Ð¾Ð²Ð¾
ĠÐļ Ð¸Ð¿
ĠÐĿÐ° Ð´ÑĥÐ¿
ĠÑĦÐ¸ ÐºÑģÐ°
ĠÑģÐ° Ð¼Ð°ÑĢÐ´Ð°
ĠÐ¿Ð¸Ð»Ðµ ÑĪÐºÐ°ÑĤÐ°
ĠÐĹÐ° Ð´ÑĥÑĪ
ÐĹÐ° Ð³ÑĢÑıÐ²Ð°Ð¼Ðµ
Ð¡ ÑĬÑĢ
ĠÐ·Ð°Ð³ÑĢÑı Ð½Ð°
ĠÐŀÑĤ ÑĨÐµÐ´
ĠÐŀÑĤ Ð´ÐµÐ»ÐµÑĤÐµ
ĠÐ¼Ð¾Ð¶Ðµ Ð¼
ĠÐ±Ñĥ ÑħÑĤÐ¸
ĠÐ´Ð¶ Ð°Ð½
ĠÑģÐ»Ð¾ Ðµ
Ð¾Ð± ÑħÐ¾Ð´Ð¸
ĠÐµÐ´Ð½Ð° ÐºÐ²Ð°
ĠÐ¿Ð¾Ð»ÑĥÑĩÐ¸ Ð¼
ĠÐŁÐµ ÐºÑĬÑĤ
ĠÐ´ÑĢÐ¾Ð± ÑĬÑĤ
ĠÐłÐ°Ð·Ð±Ð¸ Ð²Ð°ÑĤÐµ
ĠÐĽ Ñİ
ĠÑĢÐ°Ð·Ð¼Ð¸ ÑĤÐ°ÑĤÐ°
ĠÐ·Ð°ÑĤÐ¾Ð¿ Ð»Ð¸
ĠÐºÐµÐºÑģ ÑĩÐµÑĤÐ°
ĠÐ´Ð¾Ð±Ð° Ð²ÐºÐ°
ĠÑģÐ»Ð°Ð´ÐºÐ¸ ÑĪÐ¸
ĠÐ¾ÑħÐ»Ð°Ð´ ÐµÐ½Ð°ÑĤÐ°
ĠÐ¸Ð·ÑĨÐµÐ´ ÐµÐ½Ð¸
ĠÐ³Ð¾ÑĤÐ²Ð°ÑĢ ÑģÐºÐ°ÑĤÐ°
ĠÐ½Ð°ÐºÑĬÐ»ÑĨÐ° Ð½Ð¸
ĠÐ¼Ð»Ðµ ÑĩÐ½Ð°
ĠÑĢÐµÐ´Ñĥ ÑĨÐ¸ÑĢÐ°
ĠÑģÑĤÐ¾Ð¿ ÐµÐ½Ð¾
ĠÐ£ÐºÑĢÐ°ÑģÑıÐ²Ð° Ð¼Ðµ
ĠÐ¡Ð²Ð°ÑĢ ÐµÐ½Ð¾ÑĤÐ¾
ĠÐ¡Ð²Ð°ÑĢ ÐµÐ½Ð°ÑĤÐ°
ĠÑĪÐ¿ÑĢÐ¸ÑĨ Ð¾Ð²Ð°ÑĤ
ĠÐ±Ð°Ð´ÐµÐ¼Ð¾ Ð²Ð°
ĠÐ¿Ð»Ðµ ÑĪÐºÐ°ÑĤÐ°
ĠÐľÐ°ÑħÐ° Ð¼Ðµ
ĠÐŁÐ°ÑģÐ¸ ÑĢÐ°Ð¹ÑĤÐµ
ĠÐ¤Ð¾ÑĢ Ð¼Ð°
ĠÑģÑĩÑĥÐ¿ Ð²Ð°
ÐĿÐ°ÐºÐ¸Ñģ Ð²Ð°Ð¼Ðµ
ĠÐĶÐ¾Ð¼Ð°ÑĤ ÐµÐ½Ð¾ÑĤÐ¾
ĠÐºÐ¾ÐºÑĤÐµÐ¹ Ð»Ð½Ð¸
ĠÐ¸Ð·ÑģÑĬÑħ Ð½Ð°ÑĤ
ĠÑģÐ°Ð»Ð°ÑĤ ÐµÐ½Ð°
ÐºÐ¾Ð½ ÑĦÐ¸ÑĤÑİÑĢ
ĠÐ¿Ð¾Ð»ÑĥÐº ÑĢÑĬÐ³ÑĩÐµÑĤÐ°
Ð»ÑĮÐ¾ Ð½Ð¸ÑĤÐµ
ĠÐ³ÑĢÑĬ Ð±
ĠÐ¿Ð°ÑĤÐ¸ ÑĨÐ°
ĠÐ´Ð¾ÑģÑĤÐ¸ Ð³Ð½Ðµ
ĠÐ¼Ð°ÑĢÑĨÐ¸Ð¿ Ð°Ð½
ĠÐ°Ð¼ Ð¿
Ð¸Ð·Ð²Ð° ÑĢÐ°
ĠÑģÑĬÑħÑĢÐ°Ð½ ÐµÐ½Ð¸Ðµ
Ð¸ ÑĦ
Ðº ÑĢÐµÐ½Ð²Ð¸ÑĢ
Ñĩ Ð²Ð°Ð½Ðµ
Ð¼ Ð¾ÑĢÐºÐ¾Ð²
Ð± Ð¾Ð½
Ð½Ð¾ Ð¿
Ð³ Ð»Ð¸
ĠÐ± Ð»Ð¾Ðº
ĠÐ¿Ð¾ ÑģÑĤÐ¸Ð»Ð°
Ð½Ð¸ ÑĨÐµÐ»Ð¸ÑĤÐµ
ĠÐ´Ð¾ Ð¿Ð¸ÑĩÐ°ÑĤ
Ð²Ð¸ ÑģÐ¾ÐºÐ°
ÑĩÐµ ÑģÐºÐ¸
ĠÑĢÐ°Ð· Ð¿ÑĢÑĬÑģ
ĠÐ¡ Ð²Ð¸Ð½Ñģ
ĠÐ¿ÑĢÐµ Ð¿Ð¸ÑĩÐ°
ĠÐ¿Ð¾Ð» ÑıÑĤÐ¾
ĠÐ¶ Ð¸ÑĤÐ¾
ÐµÐºÐ¾ Ð½Ð°
ĠÑģÑĬ ÑīÐ¸ÑıÑĤ
ÑĮ Ð¾ÑĤÐ¾
ĠÐĹÐ° Ð³ÑĢÑı
ĠÐ¿ÑĢÐ¾ ÑĨÐµÑģ
ĠÐ¿ÑĬÑĢÐ¶ Ð¾Ð»
ĠÑĥ Ð²Ð¸
ĠÐ¿ÑĢÐµÑģ Ð½Ð¸ÑĤÐµ
ÐŁ Ð¸
Ð½Ð°ÑĤ ÑĢÐ¾
ĠÐºÑĢÑĬ Ð²
ĠÐĵ Ð¾Ð»
ĠÐŁÑĢÐµ ÑĨÐµÐ´ÐµÑĤÐµ
ĠÐºÑĢÐ¾ Ð°Ñģ
ĠÑĪÐ° Ð¿
ĠÑĢÑĥ ÑģÐºÐ°
ĠÐºÐ°ÑĢÑĤÐ¾ÑĦ ÐºÐ¸ÑĤÐµ
ĠÐ½Ð°Ð¿ÑĬÐ» Ð½ÐµÐ½Ð¸ÑĤÐµ
ĠÐ·ÐµÐ»ÐµÐ½Ð¸ ÑĪÐ¸
ĠÐ¾ÑĤÑĨÐµÐ´ ÐµÐ½Ð¸ÑıÑĤ
ĠÐ¸Ð·Ð¿Ð¾Ð»Ð·Ð²Ð° Ð¹ÑĤÐµ
ĠÐ»ÑİÑĤÐ¸ Ð²
ĠÑħÐ¾Ð¼Ð¾Ð³ÐµÐ½ Ð½Ð¾
ĠÑģÐ¾Ðµ Ð²Ð¸
ÐŁÐ¾ÑĩÐ¸ÑģÑĤ Ð²Ð°Ð¼Ðµ
ĠÑĢÐµÑĪ ÐµÑĤÐºÐ°ÑĤÐ°
Ð´Ð¶ Ð¸Ð½Ð´Ð¶Ð¸ÑĦÐ¸Ð»
Ð¿Ð°Ð´ ÑĬÑĤ
ĠÐ½Ð¸ Ð²Ð¾
ĠÑĪÐ¸ÑĢÐ¾ ÐºÐ°ÑĤÐ°
ĠÐ½Ð°ÑħÑĥÑĤ ÑĬÑĤ
Ð³Ð¾Ð»ÐµÐ¼Ð¸ ÑĤÐµ
ĠÑĤÑĬÐ¼ Ð½Ð°
ĠÑģÐ»ÐµÐ´Ð²Ð° ÑīÐ°ÑĤÐ°
ĠÐ¿ÑĪÐµÐ½Ð¸ ÑĩÐµÐ½
Ð¡Ð»Ð°Ð³Ð° ÑĤÐµ
ĠÐ¸Ð·Ð±ÑĢÐ¾ ÐµÐ½Ð¸
ĠÐ¢Ð¾Ð¿ ÐµÐ½Ð¾ÑĤÐ¾
ĠÐ¾Ñģ Ð²ÐµÐ½
ĠÐ¨Ð¾ÐºÐ¾Ð»Ð° Ð´Ð°
ĠÐłÑĥ Ð»Ð°ÑĤÐ°
Ð¦ Ð²ÐµÐºÐ»Ð¾ÑĤÐ¾
ĠÑģÐºÑĬÐ»ÑĨÐ° Ð½Ð¸Ñı
ĠÑĤÐµÑģÑĤ ÐµÐ½Ð¸
ÐĶÑĢÐ¾Ð± ÑĬÑĤ
ÐĹÐ°Ð´ÑĥÑĪÐ° Ð²Ð°
ĠÑģÐ¿Ð°Ð½Ð° ÑĩÐµÐ½Ð°ÑĤÐ°
ĠÑĤÑĢ ÑİÑĦ
ĠÐ¿Ð°Ð½ Ð³Ð°ÑģÐ¸ÑĥÑģ
ĠÑĥÑģÑĥÐº Ð²Ð°ÑĤ
ĠÐĿÐ°Ð¼Ð°Ñģ Ð»ÐµÑĤÐµ
ĠÐ½Ð°Ð¼Ð¾ÐºÑĢ ÐµÐ½Ð°
ĠÐĳÐ»Ð° Ð½ÑĪÐ¸
ĠÐ¸Ð·Ð¿Ð°ÑĢÑı Ð²Ð°Ð½Ðµ
ĠÐ¾Ð±Ð²Ð¸ Ð²ÐºÐ°ÑĤÐ°
ĠÐ³ÑĢÐµÐ¹Ð¿ÑĦÑĢÑĥ ÑĤ
ĠÑĪÐ¿Ð¸ ÐºÐ¾Ð²Ð°
ĠÐĿÑı ÐºÐ¾Ð»ÐºÐ¾
ĠÐ²Ð»Ð° Ðº
ĠÑĩÐ¾ÑĢÐ±Ð°Ð´Ð¶Ð¸ Ð¹ÑģÐºÐ¸
Ð¾Ð»Ð¾Ð½Ðµ Ð·Ðµ
ĠÐ¸Ð½ÑģÑĤ ÑĢÑĥÐº
ĠÑĤÐ¸Ð¿Ð¾ Ð²Ð¾
ĠÑĢÐ¾Ð¼Ð±Ð¾Ð¸ Ð´Ð¸
Ð¾ Ð²ÐºÑĥÑģ
ĠÑģ Ð»Ðµ
ĠÐ½ ÐµÐ½Ð°
ĠÐ¾ Ð¿ÑĢÐµÐ´ÐµÐ»
ĠÐ± Ð¾Ð´
ÑĤÐ¸ Ð³Ð°Ð½
ÑĢÐ¸ Ð²Ð¾
Ð¼Ðµ ÑģÑĤÐ¸
Ð²Ð¸ Ð´Ñĥ
Ð¼Ð° Ñı
Ð¹ Ð½
ĠÑĢÐ°Ð· ÑĢÑıÐ·Ð°Ð½Ð¸
ĠÑĢÐ°Ð· ÑĤÐµÐ³Ð»Ñı
ĠÐŁ ÑĢÐ°Ð·Ð°
ĠÑģÐ¸ Ð²ÑĢÐ¸Ñı
ĠÐ¡ Ð¾Ð´Ð°ÑĤÐ°
ĠÐŀ Ð¼
ĠÑĤÐ° Ð»Ñı
ĠÐ³Ð»Ð° Ð²Ð¸ÑĩÐºÐ¸
ĠÐĶ Ð¾Ð»Ð¸Ð²Ð°ÑĤ
ĠÑĤÐ¾Ð¿ Ð¸
Ð¿Ð¸ ÑĤÐµ
ĠÑĦÐ¸ ÐºÑģ
ĠÑģÐ¼ÐµÑĤÐ° Ð½Ð¾Ð²Ð¸Ñı
Ð¡ Ð»Ð°
Ð¡ Ð¼ÐµÑģÐ²Ð°
ĠÐĺÐ· Ð¿ÐµÑĩÐµÐ½Ð¸ÑĤÐµ
ĠÑģÑĤÐ° ÑĢÐ°
ÐŁ ÑĬ
ĠÐ¿ÑĢÐ° ÑħÐ°
ĠÐ¢ ÐµÐ»Ðµ
Ðļ ÑĥÑģ
ĠÐĳ ÐµÐ·
ĠÑĢÐ°Ð·ÑĤÐ¾Ð¿ ÐµÐ½Ð°
ÐĿÐ° ÑģÑĤÑĬÑĢÐ¶ÐµÑĤÐµ
ÑģÐ¾ Ð±
ĠÐºÐ°ÐºÐ° Ð¾Ð²Ð¸
ĠÐ¼Ð°ÑĢ Ð¼Ð°Ð»Ð°Ð´Ð°
ĠÐ³Ð¾ÑĢÑĩÐ¸ Ð²Ð°ÑĤÐ°
ĠÐ±Ð¸ÑģÐºÐ²Ð¸ ÑĤÐ°
ÑĨÐ¸Ñı ÑĤÐ°
ĠÐ¾Ð²ÐºÑĥÑģ ÑıÐ²Ð°Ð½Ðµ
ĠÐĺÐ·ÑģÐ¸Ð¿ Ð²Ð°ÑĤÐµ
Ð¢ Ð¾
ĠÐĵÐ¾ÑĤÐ¾ Ð²Ð¸
ĠÐ¿ÑĢÐ¸Ð³Ð¾ÑĤÐ² ÐµÐ½Ð¸ÑıÑĤ
ĠÐŁÐ¾Ð»Ñĥ ÑĩÐ°Ð²Ð°ÑĤ
ÑĥÑĤ ÑĩÐµÑĤÐ¾
ĠÐºÐ°Ðº Ð²Ð¸ÑĤÐ¾
ĠÐ¾Ð±ÑĬÑĢ Ð½Ðµ
ĠÐ¾Ð±ÑĬÑĢ ÐºÐ°Ð¹ÑĤÐµ
ĠÐ·Ð°ÑĤÐ²Ð°ÑĢÑı Ð¼Ðµ
ĠÐ·Ð°Ð¿Ðµ ÑĩÐµÐ½
ĠÑĪÐ°ÑĢ ÐµÐ½Ð°ÑĤÐ°
ĠÑĤÐµÐ½Ð´Ð¶ ÐµÑĢÐºÐ°ÑĤÐ°
ĠÐ½Ð°Ð±ÑĬÐ± Ð½Ð°ÑĤ
ĠÑģÑĤÐ¾ ÑıÑĤ
Ð¿Ð¾ÑĩÐ¸ Ð½Ðµ
Ð¡Ð²Ð°ÑĢÑı Ð²Ð°ÑĤÐµ
ĠÑĤÑĢÐ¸ÑĬÐ³ÑĬÐ»Ð½Ð¸ Ðº
ĠÐ¥ Ð°
ĠÐ½Ð°ÑĩÑĥÐ¿ ÐµÐ½Ð¸Ñı
ÐŁÑĢÐ¸Ð³Ð¾ÑĤÐ²Ñı Ð¼Ðµ
ĠÐĵÐ°ÑĢÐ½Ð¸ ÑĢÐ°Ð¹ÑĤÐµ
ĠÐłÐ°Ð·Ð¿ÑĢÐµÐ´ÐµÐ» ÑıÑĤ
ĠÑģÑĥÑģÐ°Ð¼Ð¾ Ð²Ð¾ÑĤÐ¾
ĠÑĥÑģ Ð²Ð¾
ĠÐŀÑĤÑĨÐµÐ¶Ð´Ð° Ð¼Ðµ
ÐĹÐµÐ» ÐºÐ°ÑĤÐ°
ÑģÐ²Ð°ÑĢ ÐµÐ½Ð¾
ĠÐ¿ÑĢÐ¾Ð³ÑĢÐ° Ð¼Ð°ÑĤÐ°
ĠÑģÑĥÐ¿ ÐµÐ½Ð¸
ĠÐ²ÑĤÐ¾ÑĢÐ¸ ÑıÑĤ
ĠÐ¼Ð°ÐºÑģÐ¸Ð¼Ð° Ð»Ð½Ð¾
Ð½Ð°ÑĩÐ° Ð»Ð½Ð¾
ĠÐ¡Ð»Ð°Ð´ÐºÐ¸ ÑĪÐ°
ÐºÐ¾Ð½Ñģ ÐµÑĢÐ²Ð¸ÑĢÐ°
ĠÐ²Ð¾Ð´Ð¸ ÑĩÐºÐ°
ĠÐŁÐ¾Ð´ÑħÐ¾Ð´Ñı ÑīÐ°
ĠÐ·Ð°Ñħ Ð²Ð°
ĠÑģÑĬÐ¾ÑĤ Ð²ÐµÑĤÐ½Ð¾
Ð¼Ð°ÑĢÐ¸Ð½Ð¾Ð²Ð° Ð½Ð¸
ĠÐ¿Ð¾Ð´ÑģÐ»Ð°Ð´Ð¸ÑĤÐµ Ð»
ĠÐºÑĬÐ¿Ð¸ Ð½Ð¸
ĠÑĤÑĢÑĥÐ´ Ð½Ð¾
ĠÐ¼ÑĥÐ» ÑĤÐ¸Ðº
a g
Ġ :[
Ð´ Ð½Ð°ÑĤ
ĠÐ¸ Ð²Ð¸ÑĨÐ°
ĠÐ¼ ÐµÐ·
ĠÐ¾ ÑģÑĤ
ĠÐ¾ ÑĢÐ°Ð½
ĠÐ² Ð´Ð¸
ĠÐ´ ÐµÐ½Ð°
ĠÐ·Ð° Ð¼Ð°Ð·Ð²Ð°
Ñħ Ð»Ð°Ð´
ÑĦ Ð»Ð°
Ð¹ Ð·
Ð»Ðµ ÐºÐ¾
ĠÐŁ ÑĢÑıÑģÐ½Ð¾ÑĤÐ¾
ĠÑı ÑĢÐµ
Ð±Ð¸ ÑĤÐ°
ĠÐ¿ÑĢÐµ Ð¿ÐµÑĩÐµÐ½
Ġ2 3
ĠÐ¼ÐµÑģ Ð½Ð¸Ñı
ĠÐ° Ð±
ĠÐŁÐ¾ ÑĤÐ°Ð¿Ñı
ĠÐĿÐ° Ð¿ÑĢÑĬÑģ
Ð¿Ð¾ ÐºÑĢÐ¸
ĠÐ¿ÑĢÐ¾ Ð²ÐµÑĢ
ĠÐ¿ÑĢÐ¾ Ð²ÐµÑĤ
Ð¡ Ñĥ
ĠÐ¿ÑĢÐ¸Ð±Ð°Ð²Ñı Ð¼
ĠÑĢÐµ Ð¶ÐµÑĤÐµ
ĠÐ²ÐºÑĥÑģ Ð½Ð¸
ĠÐĳ Ð¾
ĠÐĳ ÑĥÐ»ÑĮÐ¾Ð½Ð°
ĠÐ¿ÑĢÐ¸Ð³Ð¾ÑĤ Ð²ÐµÑĤÐµ
ĠÐºÐ°Ð¿Ð° ÑĩÐºÐ°ÑĤÐ°
ĠÐŁÐ¾ÑĢ ÑĤÐ¾ÐºÐ°
ĠÐ¿Ð¾Ð´Ð½Ð°ÑģÑı Ð¼Ðµ
ĠÑĥÐºÑĢÐ° ÑģÐµÑĤÐµ
ĠÐ»Ðµ ÐºÐ¸
ĠÐ²ÑĢÑı Ð»
ĠÐ²ÑĢÑı Ð»Ð¾
ĠÐĴÐ° Ð´ÑıÑĤ
ÐłÐ°Ð· Ð±ÑĬÑĢÐºÐ²Ð°Ð¼Ðµ
ÑĩÑĥÐº Ð²Ð°Ð¼Ðµ
ĠÐºÐ¾Ð½ ÑĤÐµÐ¹
ĠÑħÐ¾ ÑĢÐ¸Ð·
ĠÐ¿ÑĢÐ¸Ð³Ð¾ÑĤÐ² ÐµÐ½Ð¸
ĠÐ½Ð°Ð¿ÑĢÐ° Ð²ÑıÑĤ
Ðĵ ÑĢÐ¸
ĠÐ´ÑĢÑĬÐ¶ ÐºÐ¸
ĠÐ»Ð¾ Ð¹
ĠÐºÐ¾ÑĢ ÐµÐ½Ð°
ĠÑģÑĤÑĢÐ¸ ÑĤÐ¸Ñı
ĠÐ£ÐºÑĢÐ° ÑģÐµÑĤÐµ
ĠÐ¼Ð»Ðµ ÑĩÐ½Ð¾
ĠÑģÑĤÐµÐ³ Ð½Ð°ÑĤÐ¸
ĠÐ¸Ð·ÐºÐ»Ñİ ÑĩÐµÑĤÐµ
ĠÐ¿ÑĢÐ°ÑģÐºÐ¾ Ð²Ð°
ĠÑħÑĢÑĥÐ¿ÐºÐ° Ð²Ð¾
ÐĲ Ð²Ð¾ÐºÐ°Ð´Ð¾ÑĤÐ¾
ĠÐ±Ð°Ð¼ Ð±
ĠÑĢÐ¾Ð» ÑĨÐ°ÑĤÐ°
ĠÐµÐ·Ð¸ ÐºÐ°
Ð¾ÑĢÐµÑħ Ð¾Ð²Ð¸
ĠÐłÐ°Ð·ÑģÑĤÐ¸Ð»Ð° Ð¼Ðµ
ĠÐ±ÑĢÐ°ÑĪ Ð½Ð°ÑĤÐ°
ĠÐ¿ÑĢÑĬÑģ ÑĤÐ¸ÑĤÐµ
ĠÐºÐ¾Ð½ÑģÐ¸ÑģÑĤÐµÐ½ÑĨÐ¸Ñı ÑĤÐ°
ĠÐºÐ¾Ð·Ñĥ Ð½Ð°
ĠÐ±Ð¾Ð½Ð±Ð¾ Ð½Ð¸ÑĤÐµ
ÐĿÐ°Ð¼Ð° Ð·Ð²Ð°Ð¼Ðµ
ĠÐ·Ð°Ð¿ÐµÑĩÐ°ÑĤ Ð²Ð°ÑĤ
ÑĤÐµÐ»Ðµ ÑĪÐºÐ¾
ĠÑģÐ²Ðµ Ð¶Ð¸
ĠÑģÐ³ÑĬ Ð²Ð°ÑĤ
ĠÐ¿ÑĬÑģÑĤÑĬÑĢ Ð²Ð°
ĠÐĶÑĢÑĥ Ð³Ð°ÑĤÐ°
ĠÐļÐµ ÐºÑģ
ĠÑĢÐ°Ð·Ð²Ð°ÑĢÑı ÑĤ
ĠÐ¾Ðº ÑĤÐ¾Ð¿Ð¾Ð´
ĠÐ°ÑģÐ¿Ð¸ ÑĢÐ¸Ð½Ð°
ĠÐ½ÑĥÐ´ ÑĬÐ»
ĠÐºÐ¾ÑĦÐ¸ ÑĩÐºÐ°
ĠÐĴÐ°ÑĢ ÐµÐ½ÐµÑĤÐ¾
ÐĿÐ°ÑģÑĤÑĬÑĢÐ³ Ð²Ð°Ð¼Ðµ
ĠÐ¿Ð»Ð¾ÑģÐºÐ¾ ÑģÑĤ
ĠÐºÐ¾Ð¼Ð¿Ð»Ðµ ÐºÑĤ
ĠÐ³ÑĥÐ»Ð° ÑĪ
ĠÐºÐ°ÑģÐµÑĢ Ð¾Ð»Ð°
ĠÑģÐ°Ð¼Ð¾ÑģÑĤÐ¾Ñı ÑĤÐµÐ»Ð½Ð¾
ĠÐ°Ð¼Ð¿ ÑĥÐ»Ð°
Ð¼ÐµÑģÑĤÐ¸ Ð¼Ð¾ÑģÑĤ
ĠÐ¿ÑĢÐ¾Ð²ÐµÑĤ ÑĢÐ¸Ð²Ð¾
s a
Ðµ Ð»Ð¸ÑĤÐµ
ÑĤ Ð²Ð¾ÑĢ
Ð» ÑĩÐµ
ĠÐ¿ ÑĩÐµ
Ñĥ Ð²Ð°ÑĤ
Ñĥ Ð´Ð¸
ĠÐ¾ ÐºÐ°
Ð± ÑĢ
ÑĢÐ° ÑģÑĤÐ¸ÑĤÐµ
Ð½Ð¾ Ð²Ð¸ÑĤÐµ
ĠÐ·Ð° Ð¿ÑĢÐ¸
ĠÐ·Ð° Ð³Ð¾ÑĢÑıÑĤ
ÑĪ Ð½Ð¾
ÑĤÐ¸ ÐµÑĤÐ¾
ÑĨ Ð²Ðµ
Ð¼Ð° Ð»
ĠÐ¾ÑĤ ÑĢÐµÐ¶ÐµÑĤÐµ
Ð»Ð¾ Ð½Ð°
Ð»Ð¾ Ð²Ð¸Ð´
Ð±Ð° Ð»ÑģÐ°
Ð°ÑĢ Ð¾
ĠÑĢÐ°Ð· Ð´ÐµÐ»
ĠÐ¸Ð· ÑĢÐµÐ¶ÐµÑĤÐµ
ĠÐŁ ÑĢÐµÐ´
ĠÑĦ ÐµÑĤÑĥÑĩÐ¸
Ð¼Ð¾ Ð²
ĠÑĤÐµ ÑģÐµÐ½
ĠÐŀ Ð²Ð°Ð»Ñı
ĠÑģÑĤ ÑıÐ³Ð°
ÑĩÐµÑĢ Ð²ÐµÐ½Ð¸
ĠÑĦÑĥÑĢ Ð¼Ð¸ÑĤÐµ
ĠÐĶ ÑĥÐ½Ð°Ð²Ð¸Ñı
ĠÑĤÐ¾Ð¿ ÑıÑĤ
ĠÑģÐ° Ð»ÑģÐ°
ĠÑĢÐ°Ð·Ð±ÑĬÑĢÐºÐ²Ð° Ð½ÐµÑĤÐ¾
ĠÐ·Ð°Ð¿ÑĬÑĢÐ¶ ÐµÐ½
ĠÐ¿Ð° Ð¹
ĠÑĥ Ð²ÑĢÐ¸
ĠÑĢÐµ Ð¶Ð°
ĠÐ²Ð° ÑĢÑı
Ð½Ð°ÑĤ ÑĥÑĢÐ°
ĠÐ¾Ð¼Ðµ ÑģÐ¸
Ð¿Ðµ Ðº
ĠÐ±Ð¸ ÑıÑĤ
ĠÐĳ Ð°Ñģ
ĠÑĢÐ¾ Ð·Ð¾Ð²Ð°
ĠÐ¼Ð¸ ÑĢÐ¸
ĠÐ´Ð¶ Ð¸Ð½
ĠÐ¯ ÑħÐ½Ð¸ÑıÑĤÐ°
ĠÐ¯ Ð±ÑĬÐ»ÐºÐ°ÑĤÐ°
ÑĩÑĥÐºÐ° Ð¹ÑĤÐµ
ĠÑģÑĢÐµÐ´ Ð½Ð°ÑĤÐ°
ĠÐ½Ð°Ð¹ Ð»Ð¾Ð½Ð¾Ð²
ĠÐĴÐ° Ð¶Ð½Ð¾
ÐłÐ°Ð· ÑĤÐ²Ð¾ÑĢÐµÑĤÐµ
ĠÐŀÑģÑĤÐ° Ð²Ð°
ĠÐ·Ð°ÐºÐ²Ð°Ñģ ÐºÐ°ÑĤÐ°
ĠÐ¸Ð½Ð´Ð¸ Ð²Ð¸Ð´Ñĥ
ĠÐ¾ÑĤÑĨÐµÐ´ ÐµÐ½Ð¾
ĠÐ¸Ð·Ð¿Ð¾Ð» Ð·Ð²Ð°Ð¼Ðµ
ĠÐ½ÐµÐ¾Ð±ÑħÐ¾Ð´Ð¸ Ð¼Ð¸
ĠÐ½ÐµÐ¾Ð±ÑħÐ¾Ð´Ð¸ Ð¼Ð¾ÑĤÐ¾
ĠÐ»Ð° Ð¹Ð¼Ð°
ĠÐ·Ð°ÑĤÐ¾Ð¿ Ð»ÑıÑĤ
ÐĺÐ·Ð¼Ð¸ ÑĤÐ°ÑĤÐ°
ĠÐ¸Ð·Ð´ÑĬÐ»Ð±Ð° Ð²Ð°Ð¼Ðµ
ĠÑıÐ³Ð¾ Ð´Ð¾Ð²
ĠÐ£ Ð½Ð¸
ĠÐ±Ðµ Ð»Ð¸ÑĤÐµ
ĠÐ¿ÑĢÐ¸ÑĤÐ¸ÑģÐºÐ° Ð¼Ðµ
ĠÐ½Ð¾Ð¶ ÑĩÐµ
ĠÑĤÑĢÐµ ÑĤÐ¸Ñı
ĠÑħÐ»ÐµÐ± ÑĩÐµÑĤÐ°ÑĤÐ°
ĠÐ´Ð¾Ð» Ðµ
ĠÐ´Ð¾Ð» Ð½Ð¸Ñı
ĠÐķ Ð´Ð¸
ĠÐ·Ð°Ð¿Ð° Ð·Ð²Ð°ÑĤ
ĠÐ·Ð°Ð»ÐµÐ¿ ÑıÑĤ
ÑĢÐ°Ð¼Ðµ Ð»Ð¸Ð·Ð¸
ĠÐ½Ð°Ð² ÑĬÐ½
ĠÑĥÐ· ÑĢÑıÐ»Ð¾
ÑĮÐ¾Ð¼Ð³Ð° ÑĤÐ°
ĠÑģÑĬÑħ ÑĢÐ°Ð½ÑıÐ²Ð°ÑĤ
ĠÐ·Ð°ÑħÐ»ÑĥÐ¿ ÐµÐ½Ð¾
ĠÐ½Ð°Ð³Ð¾ÑĢÐµÑī ÐµÐ½Ð¾ÑĤÐ¾
ĠÐ³ÑĢÐ¾Ð· Ð´Ð¾Ð²Ð¸
ĠÐĳÐµ Ð¹Ð»Ð¸
ĠÐ¿ÑĥÐµ ÑĪÐºÐ°
Ðķ Ð¼ÐµÐ½ÑĤÐ°Ð»
ĠÐŁÐ¾ÑĩÐ¸ÑģÑĤ Ð²Ð°ÑĤ
ĠÐŁÑĢÐµÑħÐ²ÑĬÑĢ Ð»ÑıÑĤ
ĠÑģÐ²ÐµÑĤÐ»Ð¾ ÐºÐ°ÑĦÑıÐ²Ð¾
ĠÐºÐ¾Ð·Ñĥ Ð½Ð°ÐºÐ°
ÐºÐ°ÑĢÑĤÐ¾ ÑĦ
ĠÑģÐ¾Ð±ÑģÑĤ Ð²ÐµÐ½Ð¸Ñı
ĠÐ¾ÑģÑĤÑĬÑĢÐ³ Ð²Ð°
ĠÐļÐ¾Ð½ÑģÑĥ Ð¼Ð¸ÑĢÐ°ÑĤ
ĠÐ±Ð°ÐºÐ»Ð° Ð²Ð°
ĠÐ¿ÑĢÐ¾ÑĨÐµ Ð´ÑĥÑĢÐ°ÑĤÐ°
ĠÐ¿Ð¾Ð´Ð¾Ð± Ð½Ð¾
ÐļÑĢÐ°ÑģÑĤÐ° Ð²Ð¸ÑĨÐ°ÑĤÐ°
ÐļÑĢÐ°ÑģÑĤÐ° Ð²Ð¸ÑĨÐ¸ÑĤÐµ
ĠÐ¿Ð¾Ð²Ð´Ð¸ Ð³Ð°ÑĤ
ĠÐŁÐ¾Ð² ÑĤÐ°ÑĢÑı
ĠÑģÑĬÐ±Ð¸ ÑĢÐ°ÑĤ
ĠÐĿÐ°Ð´ ÐµÐ½Ð¸ÑĨÐ°ÑĤÐ°
ĠÑģÐ²Ð¾ Ð±Ð¾Ð´
ÐºÑĥÐ± ÑĩÐµÑĤÐ°
ÑĦÑĬÑģÑĤ ÑĬÐº
ĠÐ¼Ð¸Ð½Ð° Ð²Ð°
ÑĨÐ²ÐµÑĤ Ð½Ð¸
ĠÐ´Ð¸Ð½ Ñı
ĠÑĢÐ°Ð·Ð¼ÐµÐº Ð½Ð°ÑĤÐ¾
ÑĩÐµÑģÐ½Ð¾ Ð²
Ð¼Ð°Ð¹Ð¾ ÑĢÐ°Ð½Ð°
ĠÐ¿ÑĢÐµÑĨÐµÐ½ ÐºÐ°
ĠÑģÐ°Ð¼Ð°ÑĢÐ´Ð° Ð»Ð°
Ð¡Ð»Ð° Ð½Ð¸Ð½Ð°ÑĤÐ°
ĠÑħÐ¾ÑĢÐ¸Ð· Ð¾Ð½ÑĤÐ°
ÑĢÐ°ÑģÑĤÐ¸ÑĤÐµ Ð»Ð½Ð°
ĠÐĳÐ°Ñģ Ð¼Ð°ÑĤÐ¸
Ġ .
Ġ B
Ð¾ ÐºÐ°
Ð¾ ÑĢÐ¸Ð·
Ñģ Ð»Ð¾
Ñģ Ð½Ð°ÑĤÐ°
ĠÑģ Ð¿Ð¸
ĠÑģ Ð¿Ð¾
Ðº Ð¿ÑĥÐ»
ÑĤÐ° Ð»Ð¸Ð°
ĠÐ½Ð° Ð²Ð¸Ð¹ÑĤÐµ
Ð½Ð° ÑĤÐ¸ÑĤÐµ
ÑĦ Ðµ
ĠÐºÐ° Ð¹ÐµÐ½
Ð½Ðµ Ð´
ĠÐ¸Ð· Ð±Ð¸
ĠÐŁ ÐµÑĤ
ÐµÐ½Ð¸ ÐµÑĤÐ¾
Ð³Ð¾ Ð´Ð¸
ĠÑģÐ»Ð° Ð¹Ñģ
ĠÐĴ Ð¼ÐµÑģÑĤÐ¾
ĠÐĴ ÑĢÑĬÑīÐ°ÑĤ
ĠÐĴ Ð·ÐµÐ¼ÐµÑĤÐµ
Ġ2 40
ÑĩÐ¸ Ñı
ĠÑħ Ð»ÐµÐ±Ð¾Ð¿ÐµÐºÐ°ÑĢ
ĠÐ½Ð°Ð¼Ð° Ð»Ð¸
ĠÐµÐ´ ÑĢÐ¾ÑĤÐ¾
ĠÐĿÐ° Ð¾ÐºÐ¾Ð»Ð¾
ĠÐĿÐ° ÑĢÑıÐ·Ð°Ð½Ð¾ÑĤÐ¾
ĠÑģÐ»ÐµÐ´ Ð½Ð°ÑĤÐ°
ĠÐ¾Ð± Ð¾
ĠÐ¾Ð± Ð»Ð¸
Ð¿Ð¸ ÐºÐ°Ð½ÑĤÐ¸Ð½Ð°
Ð¶Ð¸ ÑĨÐ°
ĠÐĹÐ° Ð¼ÐµÑģÐ²Ð°Ð¼Ðµ
Ð¼ÐµÑģ ÑĤÐµÑĤÐµ
ĠÐłÐ°Ð· ÑĢÐµÐ¶ÐµÑĤÐµ
ĠÐ¾ÑĢÐ¸Ð· Ð¾Ð²Ð¸
ĠÐ¿ÑĬÑĢÐ¶ ÐµÐ½Ð°
ĠÐ·ÐµÐ»ÐµÐ½ ÑĩÑĥÐºÑĬÑĤ
ÐŁ Ð»ÑĬÐ½ÐºÐ°
ĠÐ¿ÑĢÐ¾Ð´ÑĥÐº ÑĤ
ĠÑģÐ²Ð¸Ð½Ñģ ÐºÐ¸ÑĤÐµ
ĠÐ·ÐµÐ»Ðµ Ð²Ð°
ĠÐ½Ð¾ ÑīÑĤÐ°
ĠÑĢÐ°Ð·ÑĤÐ¾Ð¿ ÐµÐ½Ð¸ÑıÑĤ
ÐĿÐ° ÑĢÑıÐ·Ð°Ð½Ð¸Ñı
Ð´Ðµ Ð²Ð¸ÑģÐ¸Ð»
ĠÐ¾ÑĤÐ´ÐµÐ» ÐµÐ½Ð¸ÑĤÐµ
ĠÐļÐ° Ð½Ðµ
ĠÐºÐ°ÑĢÑĤÐ¾ÑĦ ÐµÐ½Ð¸ÑĤÐµ
ĠÑĢÑĬ Ð±Ð¾Ð²ÐµÑĤÐµ
ĠÑħÐ° Ð»Ð²Ð°
ĠÑħÐ° Ð¿ÐºÐ¸ÑĤÐµ
ĠÐºÐ¾ÐºÐ¾ ÑģÐ°
ĠÐł ÑĬÑģ
Ð¿Ð¾Ð´ ÑģÐ»Ð°Ð´
Ð¯ Ð³Ð¾Ð´Ð¸ÑĤÐµ
ĠÐĿ Ð°Ð½Ð¸
ÐºÐ°ÑĢ ÑģÐºÐ°
ĠÐ¿Ð¾ÑģÐ»ÐµÐ´ Ð½Ð¸Ñı
ĠÑĤÐ¾Ð¿Ð»Ð¸ Ð½Ð°ÑĤÐ°
ĠÐºÐ²Ð° ÑģÐµÐ½Ð°
ĠÐ¿Ð°ÑĤÐ»Ð°Ð´Ð¶Ð°Ð½ ÑĬÑĤ
ÐļÐ° ÑĪÐºÐ°Ð²Ð°Ð»ÑĬÑĤ
ĠÐºÑĢÐ¸ Ð»Ð°ÑĤÐ°
ĠÐ¿ÑĢÐµÑģÑıÐ²Ð° Ð¼Ðµ
ĠÐºÐ»Ð°Ð´ÐµÐ½ ÑĩÐµÑĤÐ¾
ĠÐ´Ð¾Ð» Ð½Ð¸
ĠÐ¿ÑĢÐµÑħÐ²ÑĬÑĢÐ»Ñı Ð¼Ðµ
ĠÐ¸Ð·ÐºÐ»Ñİ ÑĩÐ²Ð°Ð¼Ðµ
ĠÐ¸Ð·ÑģÑĤÐ¸Ð½Ð° Ð»Ð¸ÑĤÐµ
ĠÐºÐ²Ð°Ð´ÑĢÐ°ÑĤ Ð½Ð°
ĠÐ¾Ð¿Ð°ÐºÐ¾Ð² ÐºÐ°
ĠÐ¶ÑĬÐ» ÑĤÐ¾
ĠÐŁÐ¾Ð» Ð¾Ð²Ð¸
ÑĥÑģ Ð½ÐµÑĤÐµ
ĠÑĪÐ½Ð¸ÑĨÐµ Ð»Ð°
ÑĢÐ°Ð² Ð½Ð°
ĠÑĢÐ°Ð·Ð¿Ð¾Ð» Ð°Ð³Ð°
ĠÑģÑĮÐ¾Ð¼Ð³Ð° ÑĤÐ°
ĠÐĴÑĢÑĬÑīÐ° Ð¼Ðµ
ĠÐ°Ð¹ ÑĢÐ°Ð½
ĠÑĢÐ°Ð·ÑĤÐ°Ð¿Ñı Ð½Ðµ
ĠÐ²ÑĤÐ²ÑĬÑĢ Ð´ÑıÑĤ
ĠÐ¡Ð¾ ÐºÑĬÑĤ
ĠÐĸÐµÐ»Ð° ÑĤÐµÐ»Ð½Ð¾
ĠÐ¸Ð·Ð¿Ð»Ð°Ðº Ð½ÐµÑĤÐµ
ĠÐĴÑĤÐ° ÑģÐ²Ð°
ĠÐ·Ð°ÑģÑĤÑĬ Ð¿
ĠÐ¡ÑĬÑħ ÑĢÐ°Ð½ÑıÐ²Ð°ÑĤ
ÐŁÐ° ÑģÑĤÐ°ÑĤÐ°
ĠÐ½Ð°Ð²Ð»Ð°Ð¶ Ð½ÐµÐ½Ð°
Ð´ÑĬÐ»Ð±Ð¾ ÐºÐ°
ĠÐ¿Ð¾Ð²Ð´Ð¸ Ð³Ð°
ĠÑĥÑģÑĥÐº Ð²Ð°
ĠÐ¡ÑĤÐ° Ð²Ð°
ĠÐºÐ°ÑĦÐµÐ½Ð¸ÐºÐ° Ð²
ĠÐºÐ°ÑĦÐµÐ½Ð¸ÐºÐ° Ð²Ð°
ĠÐºÐ¾Ð¼Ð±Ð¸ Ð½Ð¸
ĠÐ¡ÑĤÐµ ÑĢÐ¸Ð»Ð¸Ð·Ð¸
ĠÐµÐ»Ð¸Ð¿ÑģÐ¾Ð²Ð¸ Ð´Ð½Ð¸
ĠÐ¸Ð½Ð´ÑĢÐ¸ ÑĪÐµ
ĠÐ¼ÐµÐ· Ðµ
% [
) :[
2 3
ĠÑģ Ð²Ð¸Ð²Ð°ÑĤ
ĠÑģ ÐºÐ»Ð¸
Ð» ÑģÐºÐ¸
Ñı Ð»Ð¾ÑĤÐ¾
Ð¼ ÑĥÐ¼
ĠÐ½Ð° Ð»Ð¸Ð¼
ĠÐ³ Ð»ÐµÐ´Ð°
Ð³ Ð½Ð°ÑĤ
ÑĤÐ¸ ÐºÐ°
ÐºÐ¾ ÑĤÐ°ÑĤÐ°
ĠÐ¿Ð¾ ÐµÐ»
ÑĬÑĢ Ð´Ð¸ÑĤÐµ
Ð¶ ÐºÐ¸ÑĤÐµ
ĠÐ» Ð¸Ð¿
ĠÐ» ÐµÐ²
Ð±Ð° Ð´ÐµÐ¼Ð¸
ÑģÑĤ ÐµÐ½Ð¸ÑĤÐµ
ĠÐ¸Ð· ÑĩÐ¸ÑģÑĤÐµÑĤÐµ
ĠÐŁ ÑĥÐ´
ÐµÐ½Ð¸ ÑĩÐºÐ¸ÑĤÐµ
ÐµÐ» Ñı
ĠÐ¿ÑĢÐ¸ Ð±ÐµÑĢÐµÑĤÐµ
ÑıÐºÐ¾ Ð³Ð°
ÑĥÑĢ Ð´Ð°
Ġ2 10
ĠÑħ ÐµÐº
Ð¿Ð¾ ÑĩÐ¸ÑģÑĤ
ĠÐ¿ÑĢÐ¾ Ð±Ð²Ð°
ĠÐ¿ÑĢÐ¾ Ð¿Ð¾ÑĢ
ĠÑģÐºÐ¸Ð»Ð¸ Ð´Ð¸
ĠÐĺÐ· ÑĨÐµÐ´
ĠÑĥ ÑģÐµ
ĠÐ¼Ð¾ Ñı
ÐŁ Ðµ
Ð±Ð¾ ÑĢÐ¸
Ðļ Ð¾ÑĤ
ĠÑĤÑı Ð»Ð¾ÑĤÐ¾
ĠÐ¿Ð¾ÑĩÐ¸ÑģÑĤ ÐµÐ½Ð¾ÑĤÐ¾
ĠÑĢÐ¾ Ð·Ð°
ĠÐŁÑĢÐµ ÑĨÐµÐ¶Ð´Ð°ÑĤ
ĠÐ¾Ð²Ð°Ð» ÑıÑĤ
ÑĩÑĥÐºÐ° Ð½Ð¸ÑĤÐµ
ĠÐ´Ðµ Ð»Ð¸
ĠÑģÑĩÑĥÐºÐ° Ð½Ð°
ĠÑĪÐ° ÑĢÐ°Ð½Ð°
ĠÐ³Ð¾ÑĤ Ð²ÑıÑĤ
Ð¢ Ð²ÑĬÑĢÐ´Ð¾
Ð»Ð¸Ð¼Ð¾ Ð½ÐµÐ½Ð°
ĠÐ¾ÑĦÐ¾ÑĢÐ¼Ñı ÑĤÐµ
ĠÐºÑĬÑĢÐ¿Ð° ÑĤÐ°
ĠÑģÐ°ÑĢ Ð´Ð¸Ð½Ð¸
ĠÐ½Ð°Ð±ÑĢÐ°ÑĪ Ð½ÐµÐ½Ð¸
ĠÐ¸Ð·ÑĨÐµÐ´ ÐµÐ½Ð¾ÑĤÐ¾
Ð³Ð¾ÑĤÐ¾ Ð²
ÐµÐ»Ðµ Ð²Ð¸ÑĤÐµ
ĠÐ¿Ð¾Ð¿Ð°ÑĢ ÐµÐ½Ð¸
ĠÐºÐ°ÑĢÐ°Ð¼ÑĦÐ¸Ð» ÑĬÑĤ
ĠÐ¿Ð¾Ð·Ð° Ð´ÑĥÑĪ
ĠÑĤÑĢÐµ ÑĤÐ°
ĠÐ´Ð¾Ð» ÐµÐ½
ĠÐ¿Ð¾Ð»ÑĥÐ³Ð¾ÑĤÐ¾ Ð²Ð¾
ĠÑĥÐºÐ° Ð·Ð°Ð½Ð¾
ĠÐ¿ÑĢÐµÐ´Ð¿Ð¾ÑĩÐ¸ÑĤÐ° ÑĤÐµ
ĠÑģÐ¸Ð½ ÑĮÐ¾ÑĤÐ¾
ĠÐ¿Ð¸ÐºÐ°Ð½ ÑĤÐµÐ½
ĠÐ¿ÑĥÐµ ÑĪÐºÐ¸
ĠÐ¿Ð¾ÑģÑĤÐ° Ð²ÐµÐ½Ð¸
ĠÐ¿Ð¾ÑģÑĤÐ° Ð²ÐµÐ½Ð°
ĠÐ¼Ð°Ð¹Ð¾ ÑĢÐ°Ð½
ĠÐĿÐ°ÑģÑĤÑĬÑĢÐ³ Ð²Ð°Ð¼Ðµ
ĠÐ·Ð°Ð³Ð»Ð°Ð¶Ð´Ð° Ð¼Ðµ
ĠÐ¾ÑħÐ»ÑİÐ² ÑĩÐµÑĤÐ°
ĠÐ¢Ð¾Ð¿ ÑĩÐµÑĤÐ°ÑĤÐ°
ĠÑĢÑĬÑģÐ¸ Ð¼
ĠÐ²Ð¸ÑĪ Ð½Ðµ
ĠÐ²Ð¾Ð´ÐµÐ½Ð¸ ÑĩÐºÐ¸ÑĤÐµ
ĠÐ±ÑĬÐ±ÑĢÐµ ÑĨÐ¸ÑĤÐµ
ĠÐ½Ð°ÑĢÐµÐ´ ÐµÐ½Ð¸
ÑĤÐ¸Ðº Ð²Ð¸ÑĩÐºÐ¸
ĠÐĹÐ°Ð¿Ð¾ Ñĩ
ĠÐ±Ð¸ÑģÐºÐ²Ð¸ÑĤ ÐºÐ¸ÑĤÐµ
ĠÐ¿Ð°Ð½ Ð´ÐµÐ»
ĠÑĦÐ¸ÑĤÐ¸ Ð»Ð¸
ĠÐ²Ð´Ð»ÑĬÐ±Ð½Ð° ÑĤÐ¸Ð½Ð¸
ĠÐ·Ð°Ð¿ÑĬÐ» Ð²Ð°ÑĤ
ĠÐĿÐ°Ð¼Ð°Ñģ Ð»ÑıÐ²Ð°
ĠÑĤÐ» ÑĬÑģÑĤÐ¾
ĠÐ½Ð°Ð¼Ð¾ÐºÑĢ ÐµÐ½Ð¸
ĠÐŁÑĢÐ¾Ð´ÑĬÐ» Ð¶Ð°Ð²Ð°
ĠÐłÐ¸ ÐºÐ¾ÑĤÐ°
ĠÐŁÐ¾ÑħÐ»ÑĥÐ¿ Ð²Ð°ÑĤ
ÐĸÐµÐ»Ð° ÑĤÐ¸Ð½ÑĬÑĤ
ĠÐ¸Ð·ÑĢÐ°Ð² Ð½ÑıÐ²Ð°
ĠÑĪÑĥÑĪÑĥÐ» ÐºÐ°
ĠÐ¾ÑĨÐ²Ðµ ÑĤÐ¸
ÐĹÐ°Ðµ ÐºÑĬÑĤ
ÐµÑĢÐµ ÑĪÐ¸ÑĤÐµ
ĠÐ¿Ð°ÑģÑĤÑĬÑĢ Ð¼Ð°
ĠÐ¿ÑĢÐµÑĨ ÐµÐ½Ð¸ÑĤÐµ
ĠÐĲÑĢÐ¾ Ð¼Ð°ÑĤÐ¸
ĠÐ¾ÑĢÐ¸Ð³Ð¸Ð½Ð°Ð» Ð½Ð°ÑĤÐ°
ĠÐ¼ÑİÑģ Ð»Ð¸
ĠÐ¾ Ð¿Ð¸ÑĩÐ°
ĠÐ¾ Ð¼Ð°Ð·
Ð± ÑĢÐ°
ĠÐ² Ð¼ÐµÑģÑĤÐ¸Ð¼Ð¾ÑģÑĤ
ĠÐ³ ÑĢÐµÐ±
Ð½Ð° ÑĢÑıÐ·Ð°Ð½Ð¾
ÑĢÐµ Ð´Ð°ÑĤÐ°
ÑĤÐ¸ ÑĨÐ°ÑĤÐ°
Ð½Ð¸ ÑĩÐºÐ¾
ĠÐ´Ð¾ Ð¿ÐµÑĩÐµÑĤÐµ
ĠÐ» ÑĬÑģÐºÐ°
ÑĦ ÐµÐº
ĠÐ¾ÑĤ Ð½Ðµ
Ð»Ð¾ Ð²Ð¸Ñı
ĠÐ¿Ð¾Ð´ Ð²Ð¸
ĠÑĦ ÐµÑĤÐ°
ĠÑģÐ¾ ÑĩÐ½Ð¸
ĠÑģÐ»Ð°Ð³Ð° Ð¹ÑĤÐµ
ĠÑĤÐ° ÐºÑĬÐ²
ĠÑģÐ¼ÐµÑģ Ð²Ð°Ð½Ðµ
ÑĩÐµÑĢ Ð¸
ĠÐ° Ð³Ð½ÐµÑĤÐ¾
ĠÐĿÐ° ÑģÑĤÑĬÑĢÐ³Ð°
ĠÐĶÐ¾ Ð¿Ð¸ÑĩÐ°
ĠÑģÐ° Ð¼Ð°ÑĤÐ°
ÑĥÐ´ ÐµÑģ
ĠÑģÑĤÑĢÑĬ ÐºÐ¾Ð²Ðµ
ÐºÑĢÐ° Ð¹
ĠÑģÐ¿Ð° Ð´Ð½Ðµ
ĠÐ³Ð¾ÑĢ Ð½Ð°
ÐĿÐ° Ð¹
ĠÐĴÑģÐ¸Ñĩ ÐºÐ¸ÑĤÐµ
ĠÐ¸Ð·Ð¼Ð¸Ð²Ð° ÑĤÐµ
ĠÐ²Ð½Ð¸Ð¼Ð° Ð²Ð°Ð¼Ðµ
ĠÐ¾Ð²ÐºÑĥÑģ ÑıÑĤ
ĠÐ¸Ð·ÑĩÐ¸ÑģÑĤ ÐµÐ½Ð°ÑĤÐ°
ĠÐ¿Ð°ÑģÐ¸ÑĢÐ° Ð½Ð°ÑĤÐ°
ÑĢÑĬÐ¶ ÐºÐ°ÑĤÐ°
ĠÐºÐ¾Ð½ ÑĨÐ¸ÑĤÐµ
ĠÐºÐ¸Ð¿ Ð½Ð°ÑĤ
ĠÐ·Ð°Ð¼ÑĢÐ°Ð· ÐµÐ½Ð¸ÑĤÐµ
ĠÑģÑĥÑĢÐ¾ Ð²Ð¾ÑĤÐ¾
ĠÐ¸Ð·Ð´ÑĬÐ»Ð±Ð° Ð¹ÑĤÐµ
ĠÑĢÐ°Ð·ÑĤÐ²Ð¾ÑĢ ÐµÐ½Ð¸
ĠÐ¼Ð°ÑĢÐ¸Ð½Ð¾Ð²Ð° Ð½Ð¸ÑĤÐµ
ĠÐ½Ð°ÐºÑĬÑģ Ð°Ð½Ð¸ÑĤÐµ
ĠÑĢÐ°Ð·ÑĤÐ¾Ð¿ÑıÐ²Ð° Ð¼Ðµ
Ðĵ ÑĢÐ°ÑħÑĬÑĤ
ĠÑģÑĤÑĢÐ¸ ÑĤÐ°ÑĤÐ°
ĠÐ½Ð°ÐºÑĬÐ»ÑĨÐ° Ð½Ð¾
ĠÑģÑĥÑħÐ¾ Ð¶Ð¸
ĠÐ´ÐµÐ±ÐµÐ»Ð¸ Ð½Ð°ÑĤÐ°
ĠÑĩÑĥÐº Ð½ÐµÑĤÐµ
ĠÐĿÐ°Ð¼Ð°Ð·Ð²Ð° ÑĤÐµ
ĠÑĢÐ°Ð·Ð±Ð¸ÑĤÐ¸ ÑıÑĤ
ĠÐ³Ð»Ð¸ Ð½ÐµÐ½Ð¾
ÑģÑĥÑĪ ÐµÐ½
ĠÐµÐ´Ð½Ð°Ðº Ð²Ð¾
ĠÐ»Ð¸ÑģÑĤÐµÐ½ ÑĨÐ°ÑĤÐ°
ĠÐ¦ ÑıÐ»Ð°ÑĤÐ°
ĠÑĤÐ¾ÑĩÐ¸ Ð»ÐºÐ°ÑĤÐ°
ĠÑĩÐµÑĢÑĥÐ¿ ÐºÐ¸
ĠÐ¶Ð¸ ÑĤÐ¾ÑĤÐ¾
ÑģÐ¼Ð»Ñı Ð½Ð°
ĠÑĢÐ°Ð·ÑĢÐµÐ´ ÐµÐ½
ĠÐ¼ÐµÐºÐ¸ ÑĨÐ¸
ĠÐĸÐµÐ»Ð° ÑĤÐ¸Ð½Ð°
ÐŁÑĢÐµ ÑģÑıÐ²Ð°
ĠÐĹÐ°ÑĤÐ²Ð°ÑĢÑı ÑĤ
ĠÐ±Ð°Ð»ÑģÐ°Ð¼Ð¸ ÐºÐ¾
ÑĢÑĬÐ³ ÑĩÐµÑĤÐ°ÑĤÐ°
ĠÐ¿ÑĢÐ¸ÑıÑĤ Ð½Ð¾
ÑĨÐµÐ½ ÑĤ
ĠÐ¸Ð·ÑģÑĬÑħ Ð½Ðµ
ĠÑĢÑıÐ´ ÑĬÐº
ĠÐºÐ¾ÑĢÐµ Ð¼Ð°
ĠÑħÐ°ÑĢÐµÑģ Ð²Ð°
ĠÐ¡Ð¼Ð¸ Ð»Ð°
ĠÐ¼Ð°Ð»Ð¸ Ð½Ð¾Ð²
ĠÐ»Ð¾Ð´ ÐºÐ°
ÑģÑĩÑĥÐºÐ° Ð½
ĠÐ¡Ð³Ð¾ÑĢÐµÑī ÑıÐ²Ð°
ĠÐŁÑĢÐµÑģÑıÐ²Ð° Ð¼Ðµ
ĠÑģÐ»Ð°Ð¼ ÐºÐ¸
ĠÐ´Ð»Ð°Ð½ ÑĤÐ°
ĠÐĿÐ°Ð¼Ð°Ð· Ð½ÑıÐ²Ð°
ĠÐºÐ°Ð½ÐµÐ»Ð¾ Ð½Ð¸
ĠÑĨÑĥÐºÐ¸ Ð½Ð¸
ĠÐļÑĬÑģ Ð°ÑĤ
ĠÑĢÐ¸Ð½ Ð³
ĠÐºÐ°ÐºÐ²Ð° ÑĤÐ¾
ĠÐ½Ð°Ð¿Ð¾Ð´Ð¾Ð± ÑıÐ²Ð°
ĠÐ¿ÑĢÐ¸ÑĤÐµÑģ Ð½ÑıÐ²Ð°
ĠÑĪÐµÐ¹Ðº ÑĬÑĢ
ÑĤÐ» ÑĬÑģÑĤÐ¾
Ð¡ÑĬÑĢ ÑĨÐ°ÑĤÐ°
ĠÐ¼ÑĥÐ»ÑĤÐ¸Ðº ÑĥÐºÑĬÑĢÐ°
3 40
Ð½ ÑıÐ²Ð°Ð½Ðµ
ĠÑģ Ð½Ðµ
Ð» Ð½Ð¸Ñı
Ð² Ð½Ð¸Ð¼Ð°
Ñı ÑģÑĤÐ¸ÐµÑĤÐ¾
ĠÐº ÐµÐ´ÑĢÐ¾
Ð¿ ÑĥÐº
ĠÐ¾ ÑĢ
ÑĢÐ° Ð´Ð¸
ĠÐ³ ÑĢÐµÐ±Ð²Ð°
ĠÐ· Ð´ÑĢÐ°Ð²
Ð³ Ñĥ
ĠÐ·Ð° Ð¼ÐµÑģÐ²Ð°ÑĤ
Ð½Ð° ÑĩÐµ
ÐºÐ¾ Ð¿
Ð½Ð¸ ÑģÐºÐ°
Ð¼Ðµ ÑĤÐ¸
ĠÐ¼Ð° ÑĢÐ¾ÐºÐ°
ÑĢÑı Ð½Ð°
Ð¼Ð° Ð·Ð°Ð½Ð°
ĠÐ¾ÑĤ Ð»Ð¸Ð²Ð°
ĠÐ¾ÑĤ Ð¿ÐµÐ½
ÑģÑĤ ÑĬ
ĠÑĢÐ°Ð· ÐºÐ°
ĠÐ¸Ð· Ð´ÑĬÑĢ
ĠÐ¸Ð· ÑĢÐµÐ·
ÑĢÐ¾ Ð½
ĠÑĤÐ¾ ÑĦÑĥ
ĠÑĦ ÑĢÐµÑĪ
ĠÑĤÐµ ÑĢ
ĠÐºÑĥ ÑĢÐ°Ð±Ð¸
ĠÐ¶ Ð°Ñģ
ÑĩÐµÑĢ ÑĤÐ°
ĠÐ¿ÑĢÐ¾ Ð¼ÐµÐ½ÑıÑĤ
Ð¡ Ð»Ð°Ð´
Ð¡ ÑĥÑħÐ¸ÑĤÐµ
Ð»Ð°Ð´ Ð½Ð¸ÑĨÐ°
ĠÐ³Ð¸ Ð¹
ĠÑĥ Ð³Ð°
ĠÐ½Ð°ÑĢÐµ Ð´Ð¸
ÑĥÐºÐ° ÑĤ
Ð¿ÑĬÑĢ ÑĬÑĤ
ĠÑĤÐ¸Ðº Ð²ÐµÐ½Ð¸ÑĤÐµ
ĠÐºÐ¾ÑĢÐ¸ ÑĩÐºÐ°ÑĤÐ°
ĠÐ½Ñı ÐºÐ°ÐºÑĬÐ²
Ð´Ñĥ ÑħÐ°
ĠÐĳ Ð¾Ð»Ð¾Ð½ÐµÐ·Ðµ
Ðľ Ð°Ð·Ð½Ð¸Ð½Ð°ÑĤÐ°
Ðľ Ð¸Ð´Ð¸ÑĤÐµ
Ðľ ÐµÐºÐ¾ÑĤÐ¾
ĠÐ»ÑĬÐ¶Ð¸ ÑĩÐºÐ¸
ĠÐ±Ñĥ Ð»Ð¾ÑĤÐ¾
ĠÐ¸Ð·Ð¿ÑĬÑĢÐ¶ ÐµÐ½Ð¾ÑĤÐ¾
ĠÐºÐ¾Ð½ÑģÐµÑĢ Ð²Ð¸
ÐºÑĬÑģ Ð²Ð°
ĠÑĢÐµÐ´ Ð¾Ð²ÐµÑĤÐµ
ĠÑģÐ³Ð¾ÑĢÐµÑī ÐµÐ½Ð¸Ñı
ĠÐ·Ð°ÑĩÐµÑĢ Ð²ÑıÐ²Ð°
ĠÐ³ÑĬÑĢ Ð±Ð°
ĠÑħÐ° Ð¼Ð±
ĠÑĢÐ¸Ð³Ð°Ð½ ÑĬÑĤ
ĠÑĦÐ¾ÑĢÐ¼Ð¸ ÑĩÐºÐ°ÑĤÐ°
ĠÐ¿Ð¾ÑģÐ»ÐµÐ´ Ð½Ð¾
ĠÑĢÐ¾Ð¼ Ð±
ĠÐ´ÑĢÑĥÐ³Ð¸ ÑıÑĤ
ĠÐ¼Ð°ÑĢÐ¸Ð½Ð¾Ð²Ð° Ð½Ð°
ÑĤÐµÐ½ Ð·Ð¸
ĠÐºÐ»Ðµ ÑĩÐºÐ°ÑĤÐ°
Ð³Ð¾ÑĤÐ¾ Ð²Ð¸
ĠÐ´Ð¾Ð» ÐµÐ¹ÑĤÐµ
ĠÐ¡ÑĬ Ð´Ð°
ĠÐłÐ°Ð·ÑĤÐ¾ ÑĩÐ²Ð°Ð¼Ðµ
ĠÐ»ÐµÑĪÐ½Ð¸ Ðº
ĠÑĢÐµÐ´Ñĥ Ð²Ð°ÑĤÐµ
ĠÐ¡Ð²Ð°ÑĢ ÐµÐ½Ð¸ÑıÑĤ
ĠÐ·Ð°Ð²ÑĬÑĢ Ð·Ð°Ð½Ð¸
ĠÐ¾ÑħÐ»Ñİ Ð²Ð¸ÑĤÐµ
ÐºÐµÐ¼ Ð±ÐµÑĤÐ¾
ĠÐķÐ´ Ð¸Ð½
ĠÐ¿Ð¾ÑģÑĤÐ° Ð²ÐµÐ½
ĠÐ¿ÑĢÐµÑģÐµ Ð¹ÑĤÐµ
ĠÐŁÐ°ÑģÐ¸ ÑĢÐ°ÑĤ
ĠÐºÐ¾ÑĪÐ½Ð¸ ÑĩÐºÐ°
ĠÐºÐ¸ÑĦÐ»Ð¸ ÑĩÐºÐ¸ÑĤÐµ
ÐĺÐ·ÑĩÐ¸ÑģÑĤ ÐµÐ½Ð¸ÑıÑĤ
ĠÐ´ÐµÑģÐµÑĢ ÑĤÐ°
ĠÐ´ÐµÑģÐµÑĢ ÑĤÐ½Ð¸
ĠÐŁÑĥ Ð¹ÐºÐ°ÑĤÐ°
ĠÐ¼Ð°ÐºÑģÐ¸ Ð¼ÑĥÐ¼
ĠÐ²Ð¸ÑĪ Ð½Ð¸ÑĤÐµ
ÐĿÐ°Ð¼Ð° Ð·Ð²Ð°
ÐŁÑĢÐµ ÑģÐµÐ¹ÑĤÐµ
ĠÐ½Ð°ÐºÐ¸ÑģÐ½Ð° ÑĤÐ¸ÑĤÐµ
ÑĤÐµÐ»Ðµ ÑĪÐºÐ¸
Ð·ÐµÐ»ÐµÐ½ÑĩÑĥ ÑĨÐ¸
ĠÐ½Ð°Ð´ÑĢÐ¾Ð± ÑıÐ²Ð°
ĠÐ½Ð°ÑĢÐµÐ´ ÐµÐ½Ð¸ÑĤÐµ
ĠÐ¸Ð·Ð¿Ð»Ð°Ðº Ð½Ð°ÑĤ
ĠÐ±Ð¸ÑģÐºÐ²Ð¸ÑĤ ÐµÐ½Ð°ÑĤÐ°
ĠÐ»Ð¸Ð¼Ð¾Ð½ÑĤÐ¾Ð·Ñĥ ÑĤÐ¾
ĠÐŀÑģÐ¾Ð» ÑıÐ²Ð°ÑĤ
ĠÐĺÐ·ÑģÑĤÐ¸Ð½Ð° Ð»Ð¸ÑıÑĤ
ĠÐ¡Ð»Ð°Ð´ ÐºÐ¸ÑĤÐµ
ĠÐ¡Ð»Ð°Ð´ ÐºÐ¾ÑĤÐ¾
ĠÐºÐµÑĢÐ°Ð¼Ð¸ ÑĩÐ½Ð°
ÐľÐ°ÑĢ ÑĥÐ»ÑıÑĤÐ°
ĠÐ·Ð°Ð³ÑĬ Ð²Ð°
ĠÑģÐ¸Ð»Ð¸ÐºÐ¾ Ð½Ð¾Ð²Ð°
ĠÐ¸Ð´Ðµ Ð°Ð»Ð½Ð¾
ĠÐŀÐ¿Ð¸ ÑĤÐ²Ð°
ÐŁÐ¾ÑĢ ÑĤÐ¾ÐºÐ°
Ð¶ÑĬÐ»ÑĤÑĬ Ðº
ĠÐ²Ð¸ÑĪÐ½Ð¾Ð² ÐºÐ°
ĠÐ¾Ð¿Ð¸Ñģ Ð°Ð½Ð¸ÐµÑĤÐ¾
ĠÑĦÑĢÐµÐ½ ÑģÐºÐ¾
Ð¡ÑĬ ÑģÑĤÐ°Ð²ÐºÐ¸ÑĤÐµ
ÐĴÐ° ÑĢÐ¸
Ð¨Ð° ÑĢÐ°Ð½ÑĬÑĤ
ĠÐ¿Ð¾Ð´Ð»Ð¾Ð¶ ÐºÐ°
ĠÐĶÐ¾Ð» ÐµÐ¹ÑĤÐµ
ĠÐ¸Ð·Ð³Ð»Ðµ Ð¶Ð´Ð°
ĠÐ¿ÑĩÐµ Ð»ÐµÐ½
Ð¼Ð°Ð» ÑĬÐº
ÐļÐ¾ÑĤ Ð»ÐµÑĤÐ¸ÑĤÐµ
2 10
8 5
i l
Ġ D
Ġ G
Ġ P
Ġ ÑĢÑıÐ·Ð°
Ð½ ÑıÐºÐ¾Ð³Ð°
ĠÑģ ÑĢÐ°Ð²Ð½Ð¸
Ñı ÑĢ
Ñĥ Ð¶
ĠÐ½Ð° ÑĤÑĬÐ¿
ĠÐº ÐµÑģÐ¸
ĠÐº Ð»Ð¾Ðº
ĠÐº Ð½ÐµÐ´
ĠÐ¾ ÑģÐµÐ¼
ĠÑĩ Ð¾Ð²Ðµ
ĠÐ·Ð° Ð¹
ÑĤÐ¸ Ð»Ð°
Ð½Ð¸ ÑĪ
Ð½Ð¸ ÑĩÐºÐ¸
ĠÐ¼Ð° Ð¶ÐµÑĤÐµ
ÑĢÐ°Ð· ÑĤÐ¾Ð¿ÐµÐ½Ð¾
ĠÐ¸Ð· Ð¿ÐµÑĩÐµÐ½
ĠÐ¡ ÐºÐ°ÑĢÐ¸Ð´Ð¸ÑĤÐµ
ÑĢÐ¾ Ð¼Ð¸Ð´
Ð±Ð¸ Ð²Ð°ÑĤ
ĠÐ¿ÑĢÐ¸ ÐºÐ»Ñİ
ĠÐ¿ÑĢÐ¸ Ð´Ð°Ð²Ð°
ĠÐ¿ÑĢÐµ ÑģÐ¸Ð¿Ð²Ð°
ĠÐĴ ÐºÐ»ÑİÑĩÐ²Ð°
ĠÑģÑĬÑģ ÑĤÐ¾
ĠÑĤÐ° Ð¹Ð½Ð¸
ÑĥÐ» ÐºÐ°
ĠÑħ Ð°Ð½
ĠÐµÐ´ Ð²Ð°
Ð¿Ð¸ ÑĩÐºÐ¸ÑĤÐµ
Ð¿Ð¾ Ð¾Ð»Ñĥ
ĠÐ¿Ð° ÑĤÐµ
Ð¡ Ð¿Ð°Ð½Ð°ÐºÐ°
ĠÐ¿ÑĬÑĢÐ¶ ÐµÐ½
ĠÑģÐ¾Ñģ Ð¾Ð²Ðµ
ĠÐ¿ÐµÑĩ ÐµÐ½Ð¾ÑĤÐ¾
Ð¼ÐµÑĢ Ð½Ð¾
ĠÐ¢ Ð¸ÐºÐ²Ð¸ÑĩÐºÐ°ÑĤÐ°
Ð¿Ðµ ÑĩÐ°ÑĤ
Ġ4 8
ĠÐ¡Ð»Ð°Ð³Ð° Ð¼
Ðļ Ð¾Ð»Ð°
ĠÐ·Ð°Ð¿ÑĬÑĢÐ¶Ð²Ð° Ð¼
ĠÐ½Ñı ÐºÐ°ÐºÐ²Ð°
ĠÐĳ ÐµÐ»ÑĤÑĬ
Ðľ Ð¾ÑĢÐºÐ¾Ð²ÑĬÑĤ
ĠÑģÑĤÑĥÐ´ ÐµÐ½Ð¸Ñı
ĠÐ¸Ð·Ð± Ðµ
ĠÐ³Ð¾ÑĢ Ð½Ð¸ÑĤÐµ
Ð°Ñģ ÑĤÐµ
Ð°Ð½ Ð´
ÑģÐ¾ Ð²
ĠÐĲ ÑĢ
ĠÑģÐ¸ÑĢÐ¾ Ð¿Ð¸ÑĢÐ°ÑĤ
Ðĳ ÐµÐºÐ¾Ð½ÑĬÑĤ
ĠÐ³Ð°ÑĢÐ½Ð¸ ÑĢÐ°Ð½Ð°
ĠÐ²ÑĤÐ°ÑģÐ° Ð»Ð¾
ÐĺÐ· ÑĩÐ¸ÑģÑĤÐµÑĤÐµ
ĠÐ¿ÑĢÐ¾Ð´ÑĬÐ» Ð¶Ð¸ÑĤÐµÐ»Ð½Ð¾
ĠÐ²Ð¸Ð»Ð¸ ÑĨÐ°ÑĤÐ°
ĠÐ½ÐµÐ¾Ð±ÑħÐ¾Ð´Ð¸ Ð¼Ð°ÑĤÐ°
ĠÐ¿ÑĬÑĢ Ð»ÐµÐ½
ĠÐ¿ÑĬÑĢ Ð²Ð¾ÑĤÐ¾
ĠÐĽ Ð¾
ÑĮÐ¾ Ð¿Ð¾Ð¾Ð»Ñĥ
ĠÑģÐ³ÑĬÑģÑĤ ÑıÑĤ
Ð¤ Ð¸
ĠÑģÐ°Ð»Ð°Ð¼ ÑĬÑĤ
ĠÐĹÐ°Ð´ÑĥÑĪÐ° Ð²Ð°Ð½ÐµÑĤÐ¾
Ð§ ÐµÑģÑĬÐ½Ð°
ÐłÐ°Ð·Ð±Ð¸ Ð²Ð°ÑĤÐµ
ĠÐ½Ð°Ð¿ÑĢÐ° Ð²Ð°ÑĤÐ°
ĠÑģÑĬÑĢ Ð½Ðµ
ÑħÐ¸ Ð¼Ð°Ð»Ð°Ð¹ÑģÐºÐ°
Ðĵ Ð»Ð°
ĠÐ´ÑĢÑĬÐ¶ ÐºÐ°
ÐĽ Ñİ
ĠÐ¨ Ð¸ÑĪ
ĠÐ¨ Ð½Ð¸ÑĨÐµÐ»Ð¸ÑĤÐµ
ĠÑĢÐ¸Ð± Ð½Ð¸ÑĤÐµ
ĠÐ½Ð°ÐºÑĬÐ»ÑĨÐ° Ð½Ð¾ÑĤÐ¾
ĠÐ¿ÑĢÐµÑģÐ¾Ð²Ð° Ð½Ð¸ÑıÑĤ
ĠÐºÐ¾ÐºÐ¾ÑģÐ¾ Ð²
ĠÐ¼ÑĬÑĦÐ¸ Ð½Ð¸ÑĤÐµ
ĠÑģÐ¼ÐµÑģÐ¸ ÑĤÐµ
ÐļÐ¾ ÐºÐ¾
ĠÐ¿Ð¾ÑħÐ»ÑĥÐ¿ ÐµÑĤÐµ
ĠÐºÐ¾ÑģÑĤ ÑĤÐ°
ĠÐĺÐ·Ð´ÑĬÐ»Ð±Ð° Ð²Ð°Ð¼Ðµ
ĠÐµÐ» Ð´Ð°ÑĤÐ°
ĠÐŁÐ¾ÑĩÐ¸ÑģÑĤ Ð²Ð°Ð¼Ðµ
ĠÐŁÑĢÐµÑħÐ²ÑĬÑĢ Ð»ÐµÑĤÐµ
ÐĺÐ·ÑĩÐ¸ÑģÑĤ ÐµÐ½Ð¸ÑĤÐµ
Ð´ÑĢÐµÐ± Ð¾Ð»Ð¸Ð¸ÑĤÐµ
ĠÑĩÐµÑĢÐ¿Ð° ÐºÐ°
ĠÐºÐ¸Ñģ Ð½Ð°ÑĤ
ĠÐĵÐ¾ÑĤÐ²Ð¸ Ð¼
ĠÐ¼ÐµÑĤÐ° Ð»Ð½Ð°
ĠÑģÐ»Ð¾Ð¶ ÐµÐ½Ð¸
ĠÑģÐ»Ð¾Ð¶ ÐµÐ½Ð°
ĠÐºÑĬÑĢÐ²Ð° Ð²Ð¸ÑĨÐ°ÑĤÐ°
ĠÐ²ÑĤÐ°Ñģ Ð²Ð°ÑĤ
ĠÐĶÐµÑģ ÐµÑĤÐ¸Ð½Ð°
ĠÐ·Ð°Ð¼Ðµ ÑģÑĤÐ¸
ĠÐºÑĥÐ¿ÑĩÐ¸Ð½ ÐºÐ°
ĠÐĿÐ°ÐºÐ¸Ñģ Ð½ÐµÑĤÐµ
ĠÐ½Ð°ÑĩÑĥÐºÐ° Ð½Ð¸ÑĤÐµ
ĠÐĹÐ°ÑħÐ»ÑĥÐ¿ Ð²Ð°Ð¼Ðµ
ĠÐ¾ÑĤÑģÑĤÑĢÐ°Ð½ ÑıÑĤ
ĠÐ·Ð°Ð¿ÐµÑĩÐ°ÑĤÐ° ÑĤ
ĠÐ¸Ð·Ð»Ð¸ÑĪ Ð½Ð¾ÑĤÐ¾
ĠÐĴÑĤÐ¾ ÑĢÐ°ÑĤÐ°
Ð¿ÑĢÑı ÑģÐ½Ð°
Ð´ÑĢÑĥ Ð³Ð¸
ĠÐ¿ÑĥÑĢÐ¸ ÑĩÐºÐ¸
ĠÐĹÐ°ÑĪÐ¸ Ð²Ð°
ĠÐ¿Ð¾ÑĤÑĬÐ¼Ð½Ðµ Ðµ
ÐŁÑĢÐ¸Ð³Ð¾ÑĤ Ð²ÐµÑĤÐµ
ĠÑĨÐµÐ»Ð¾ ÑĦ
ĠÐ¾ÑĢÐ°Ð½ Ð¶Ðµ
ĠÐŁÑĢÐµÐ´ ÑıÑģÑĤÐ¸ÐµÑĤÐ¾
ĠÐºÐ»Ð¾Ðº Ð½Ðµ
1 15
2 70
a n
Ġ 900
Ð° Ð³Ð½Ðµ
Ñģ Ð¾ÑĢ
ÑĤ ÐµÐ½Ð°ÑĤÐ°
Ð½ ÐµÐ½Ð¾ÑĤÐ¾
Ð² ÐµÐ½Ðµ
Ðº Ð»Ðµ
Ð´ Ð½Ð°ÑĤÐ°
ĠÐ¸ Ð½Ð°ÑĩÐµ
Ð¼ Ð»
Ð· Ð¾Ð»Ð°
Ð¿ Ð»Ð¾
ĠÐ· ÑĢÐµ
ĠÐ·Ð° Ð»ÐµÐµ
ÑĢÐµ Ð²
ÑĤÐ¸ Ðµ
Ð»Ð¸ ÑĤÑĢÐ°
ÑĢÐ¸ Ð½Ð¾
ÑĢÐ¸ Ð·Ð¾
ÑĨ Ð¾Ð²Ð°
ĠÐ¿Ð¾ ÑĪ
ĠÐ¼Ð° Ð»Ð¸Ð½Ð¸ÑĤÐµ
Ð´Ð° Ð¸ÑĦ
Ð»Ðµ ÑĤÐ¸
Ð»Ð¾ Ð±
ĠÐ¸Ð· Ð¿ÑĬÐ»
ĠÐ¿Ð¸Ð¿ÐµÑĢ ÑĬÑĤ
Ð¾ÑĤÐ¾ Ð¿
ĠÑĩÐµÑĢ Ð²Ð°ÑĤÐ°
Ð¼Ð¸ Ð´Ð°
ĠÐ¿ÑĢÐµ Ð²
Ð´Ð¸ Ð¼Ð¾
ĠÐŀ Ð±ÐµÐ·ÐºÐ¾ÑģÑĤ
ÑģÐ¸ Ð»Ð¸
ÑģÐ¸ ÑĢÐ¾
ĠÐ½Ðµ Ð±ÐµÐ»
ÑģÐ° Ð»Ð°Ð¼
ÑĥÐ» ÑĨÐ°ÑĤÐ°
ĠÐĿÐ° Ð²Ð¸Ð¹ÑĤÐµ
ĠÑĢÐ°Ð·Ð±ÑĬÑĢÐºÐ²Ð° Ð¹ÐºÐ¸
ĠÐĹÐ° Ð¼ÐµÑģÐµÑĤÐµ
Ð¡ Ð¾Ð»
ĠÐºÑĢÐ° ÐºÐ°ÑĤÐ°
ĠÐ¸Ð·Ð¼Ð¸ ÑĤÐ¾ÑĤÐ¾
ĠÐ¾ÑĢÐµÑħ Ð°
ĠÐ¾ÑĢÐµÑħ Ð¾Ð²Ð°
ĠÐ¾Ð±ÐµÐ» ÐµÐ½Ð¸ÑıÑĤ
ĠÐ²ÐºÑĥÑģ Ð½Ð°
ĠÐĳ ÐµÐºÐ¾Ð½Ð°
ĠÑģÐ¿Ð° Ð´Ð½Ð°ÑĤ
ĠÐ¸Ð·Ð¿ÑĬÑĢÐ¶ ÐµÐ½Ð¾
ĠÐ¿ÑĬÐ» Ð½Ð¸ÑĤÐµ
Ð±Ðµ ÑĢÐµ
Ðŀ Ð²ÐºÑĥÑģ
Ðŀ Ð²ÐµÑģÐµÐ½Ð¸ÑĤÐµ
ĠÐłÐ°Ð·Ð±ÑĬÑĢÐºÐ²Ð° Ð¹ÑĤÐµ
ĠÐºÑĢÐ¾ ÐºÐ°Ð½
Ð¾ÑĤ ÑĨÐµÐ´
ĠÐºÐµ Ð¹
ĠÐ¿Ð¸ Ð»Ð°ÑĦ
ĠÐľÐ° Ð¶Ð°ÑĤ
ĠÐ³Ð¾ÑĤÐ¾Ð²Ð¸ ÑıÑĤ
ÐºÐ»Ñİ ÑĩÐ²Ð°Ð¼Ðµ
Ð¿Ð°ÑĢ Ð²Ð°
Ð¼ÐµÐ½ Ñı
Ð§ ÑĥÑĪÐºÐ°ÑĤÐ°
ĠÐ»Ð¸Ð¼Ð¾Ð½Ð° Ð´Ð°ÑĤÐ°
ĠÑģÐ¾Ðµ Ð²Ð¾
ĠÐ¿ÑĥÑģÐºÐ° Ð¼Ðµ
ĠÐ¿ÑĢÐ¸ÑĤÐ¸ÑģÐºÐ° ÑĤÐµ
ĠÐŁÑĢÐ° ÑģÐºÐ¾Ð²Ð¸ÑĤÐµ
ĠÐ¿Ð¾ÑĩÐ¸ Ð½Ð°ÑĤ
ĠÐ¾ÑģÐ½Ð¾ Ð²ÐµÐ½
ĠÐŁÐ° ÑģÑĤÐ°ÑĤÐ°
ĠÑĪÐ°ÑĢ ÐµÐ½
ĠÑĢÐ°Ð·Ð±ÑĬÑĢÐºÐ° Ð½Ð°ÑĤÐ°
Ð²Ð°Ð½Ð¸ Ð»Ð¾Ð²Ð°
ĠÐŀÐ±ÐµÐ» Ð²Ð°
ĠÐ·Ð°Ð¿ ÑĥÑĪ
ĠÑĪÐ¸ÑĢÐ¾ ÑĩÐ¸Ð½Ð°
ĠÑĢÐ°Ð·ÑĢÐµ Ð´Ð¸
ĠÑģÑĬÑĢÑĨÐµ ÑĤÐ¾
ĠÐ´ÐµÐºÐ¾ ÑĢÐ¸
ĠÐ´ÑĬÑĢÐ¶Ð¸ Ð¼
ĠÐ»Ð¸ÐºÑĮÐ¾ÑĢ ÑĬÑĤ
ĠÐ´Ð¾Ð¿Ð¸ÑĩÐ° Ð¼Ðµ
ĠÐºÑĥÑħÐ½ÐµÐ½ÑģÐºÐ¸ Ñı
ĠÑĦÑĬÑģÑĤÑĬ ÑĩÐµÐ½Ð¾ÑĤÐ¾
ĠÑģÐ²Ð°Ð»Ð¸ Ð¼
ĠÐ¼Ð°Ðº ÐµÐ´
ĠÑĤÐµÑĦ Ð»Ð¾
ĠÑĥÐ½Ð¸ ÑģÐ¾Ñģ
ĠÐ¿ÑĥÐµ ÑĪÐºÐ¾ÑĤÐ¾
ĠÐķÐ´ Ð½Ð¾
ĠÑĩÐµÑĢÑĥÐ¿ ÐºÐ°ÑĤÐ°
ĠÐ¾ÑĩÐ¸ ÑĩÐºÐ¸
ĠÐłÐ°Ð·Ð¿ÑĢÐµÐ´ÐµÐ»Ñı Ð¼Ðµ
ÑĤÑĬÐ½ ÐºÐ¾
ĠÐ´Ð¾Ð¼Ð°ÑĪ ÐµÐ½
ĠÑĢÐ°Ð·ÑĢÐµÐ´ ÐµÐ½Ð°
ĠÑģÐ¼Ð°ÑĩÐºÐ° Ð½Ð¸
ĠÐĳÐ° Ð´ÐµÐ¼Ð¸ÑĤÐµ
ĠÐ»Ð¾Ð·Ð¾Ð²Ð¸ ÑĤÐµ
Ð¦ Ð°ÑĢÐµ
ĠÐ½Ð°ÐºÑĬÑģÐ° Ð¹ÑĤÐµ
ĠÐ¤Ð¾ÑĢ Ð¼Ð¸
ÐĹÐ°Ð´ÑĥÑĪÐ° Ð²Ð°Ð¼Ðµ
ĠÐ½Ð°ÑĢÐµÐ´ ÑıÑĤ
ĠÑħÐµÑĢ Ð¼ÐµÑĤÐ¸
ĠÐ±ÑĢÐ¾ Ð¹
ĠÐ¿Ð¾ÑģÑĤÐ¾ ÑıÑĤ
ĠÐ¿ÑĢÐµÐ¼Ð°Ñħ Ð½ÐµÑĤÐµ
ĠÑģÐ½Ð¸Ð¼ ÐºÐ¸ÑĤÐµ
ĠÐ¸Ð·Ð¿ÐµÑĩ ÐµÐ½Ð¾
ĠÐ¿Ð¾Ð¼Ðµ Ñī
Ð¿Ð¾ÑĢÑĬ ÑĩÐ²Ð°
Ð»ÑĮÐ¾ Ð½Ð¸
ĠÐ½ÑıÐºÐ¾ Ð¸
ĠÐºÐ°Ð¼ Ð±Ð°
ĠÐ¿ÑĥÑħÐºÐ°Ð²Ð¾ ÑģÑĤ
ĠÐ¿ÑĢÐµÐºÐ°ÑĢ Ð²Ð°
ĠÐ²ÐµÑĢÐ¼ ÑĥÑĤ
ĠÐ¿ÑĥÑģÐ½Ð° Ð»Ð¸
ĠÑĦÐ¸Ð» ÑĤÑĢÐ¸
ĠÐ¾ÑĤÐ¿ÑĥÑģ Ð½Ðµ
ĠÑĢÐµÐ±ÑĬÑĢ ÑĨÐ°
ĠÑĢÐ¾Ð½ Ð»Ð¸Ð²Ð¾
ĠÐµÐ¼Ð°Ð¹Ð»Ð¸ ÑĢÐ°Ð½
ÐºÐ¾Ð»Ð¸ÑĩÐµÑģÑĤ Ð²Ð¾ÑĤÐ¾
ĠÐ¾ÑģÐ¼ Ð¸Ð½ÐºÐ¸
ĠÑģÐ»Ð¾Ðµ Ð²Ðµ
ĠÑĤÐ°Ð»Ñı ÑĤÐµÐ»Ðµ
ĠÐºÐ¾Ð½ÑĤÐµÐ¹ Ð½ÐµÑĢÐ°
ĠÐŀÐ²Ð°Ð»Ñı Ð¹ÑĤÐµ
ĠÑħÐ¾ÑĢÐ¸Ð·Ð¾Ð½ÑĤÐ° Ð»Ð½Ð¾
ĠÐ¿Ð¾Ð´Ð²Ð¸ Ð¶Ð½Ð¾
ĠÐ¼Ð°ÑĢÐ¾ÐºÐ° Ð½ÑģÐºÐ¸
ĠÑģÑĢÐ°Ð²Ð½Ð¸ ÑĤÐµÐ»Ð½Ð¾
ĠÑħÐ°Ð½ ÑĥÑĤ
. .
Ġ L
Ġ ÑĨÐ°
Ġ 75
Ðµ ÑĤÐ¸ÑĤÐµ
Ð² Ð½Ð°
Ð² Ð¾Ð´Ð°ÑĤÐ°
ĠÐ¿ ÑĥÐ»
ÑĤÐ° Ð¼Ð°ÑĤ
ÑĤÐ¾ Ð¿Ð¸
ÑĢÐ° Ð±
ÑĢÐ° Ð²Ñı
ĠÑĩ ÑĢÐµÐ·
ĠÐ± ÑĥÐº
ĠÐ·Ð° Ð´Ð°
Ð¼Ð° ÐºÐ°
ĠÐºÐ° Ð½Ð°Ð¿
ĠÐ¾ÑĤ ÑħÐ»ÑĥÐ¿Ð²Ð°
Ð°ÑĢ Ð¿Ð°
ĠÑĢÐ°Ð· ÑģÑĤ
ĠÑĢÐ°Ð· Ð²Ð°ÑĢÐ¸
ĠÑĢÐ°Ð· Ð¿Ð°Ð´Ð½Ðµ
ĠÐ¸Ð· Ð´Ðµ
ĠÐ¸Ð· Ð»ÐµÐ¹ÑĤÐµ
ĠÐ¸Ð· Ð³Ð¾ÑĢÐ¸
ÑĨÐµ Ð´ÑĥÑĢÐ°ÑĤÐ°
ĠÑģÐ»Ð° Ð¹
ĠÐ¿ÑĢÐ¸ Ð½
Ð¼Ð¸ Ð½Ð¾Ð²
ĠÐ·Ð°ÑħÐ°ÑĢ Ð½Ð¸
Ð¼Ð¾ Ð½
ĠÐĴ ÐºÐ»ÑİÑĩÐµÑĤÐµ
Ñİ ÐµÑĢ
ĠÑģÑĤ ÑĢÐ°Ð½Ð¸ÑĤÐµ
Ð²Ðµ Ð¶Ð´Ð°
ĠÐļ ÑĢÑĥÑĪÐ¸ÑĤÐµ
ĠÐĿÐ° ÑĩÑĥÐºÐ²Ð°ÑĤ
ĠÐĶÐ¾ Ð¿ÑĬÐ»
Ġ3 2
Ð¾Ð²Ð¸ ÑıÑĤ
Ð½Ñģ ÐºÐ¾ÑĤÐ¾
Ð¡ Ð»Ð¸Ð²Ð¸ÑĤÐµ
Ð»Ð°Ð´ ÐµÑĤÐµ
ĠÐŀÑĤ Ð´ÐµÐ»
ĠÐŀÑĤ ÑĢÑıÐ·Ð²Ð°ÑĤ
ĠÐŀÑĤ Ð½ÐµÐ¼Ð°
ĠÑģÑĤÐ° ÑĢÐ¸
Ð·Ð¸ Ð¼Ð°ÑĤ
ĠÑĢÐ° Ð¼
ĠÐļÐ¾ Ð¿ÑĬÑĢÑĬÑĤ
ÐĴ Ð¸
ÐĴ ÑĬÑĢÑħÑĥ
ĠÐ´ÑĬÐ» Ð³Ð°
ĠÐºÑĢÐ°ÑģÑĤÐ° Ð²Ð¸ÑĩÐºÐ°ÑĤÐ°
ÑĪÐ¸ Ñı
ÐµÑĤ ÐºÐ¸
ĠÐ¸Ð·Ð¿ÑĬÑĢÐ¶ ÐµÐ½
ĠÐ¸Ð·Ð¿ÑĬÑĢÐ¶ ÐµÐ½Ð°ÑĤÐ°
ĠÐ¿ÑĬÐ» Ð½ÐµÐ½Ð¸ÑĤÐµ
ĠÐ³Ð¾Ð»ÐµÐ¼Ð¸ ÑĤÐµ
Ðŀ Ð¼ÐµÑģÐµÑĤÐµ
Ðŀ ÑĢÐµÑħÐ¸ÑĤÐµ
ÐºÑĬÑģ Ð°
ĠÑıÐ±ÑĬÐ» ÐºÐ¾Ð²Ð¸Ñı
ĠÐ»Ðµ Ð³
ĠÐ½Ð°Ð¼Ð°Ñģ Ð»ÐµÐ½Ð¾
Ð³Ð¸ Ð½Ð°
ĠÐł ÑĥÐ»ÑĨÐ°ÑĤÐ°
ĠÐĽ ÐµÑīÐ°ÑĤÐ°
Ð¼ÐµÐ½ ÑĤ
ĠÐºÐ¾Ð»Ð¸ÑĩÐµÑģÑĤ Ð²Ð°
ĠÐ½Ð°ÐºÑĬÑģ Ð²Ð°Ð¼Ðµ
ĠÐ¼ÐµÐ½ ÑĤÐ¾
ĠÐ²ÑĬÐ· Ð´ÑĥÑħÐ°
ĠÑĢÐ¸Ð± ÐµÐ½Ð¾
ÐĶÐ¾ Ð¼Ð°ÑĤ
ĠÑĢÐ¾Ð·Ð¸ ÑĩÐºÐ°
ĠÑĢÐ¾Ð·Ð¸ ÑĩÐºÐ¸ÑĤÐµ
ĠÑĤÑĢÐµ ÑĤÐ¸
ĠÐ¿ÑĢÐµÑģÐ¾Ð²Ð° Ð½Ð¸ÑĤÐµ
ĠÐºÐ°Ð¹ÑģÐ¸ Ñı
Ð±Ñı Ð»Ð°ÑĤÐ°
ĠÐºÑĢÐ°Ð¹ ÑĩÐµÑĤÐ°ÑĤÐ°
ÐŀÐ±ÐµÐ» Ð²Ð°ÑĤ
ĠÐ·Ð°Ð² ÑĢÑıÐ»Ð°
ĠÐ¿ÑĢÐ¸Ð±Ð° Ð²Ð¸ÑĤÐµ
ĠÑģÐ»ÑĬÐ½ ÑĨÐµ
ĠÐ¿Ð¾Ð·Ð°Ð¿ÑĬÑĢÐ¶ Ð²Ð°
ĠÐ½Ð°ÑĩÑĥÐ¿ ÐµÐ½Ð¸
ĠÐŁÑĬÐ» Ð½Ð¸
ÑĢÐ°Ð² Ð½ÑıÐ²Ð°
ĠÐŀÐ²Ð°Ð» Ð²Ð°Ð¼Ðµ
ĠÐ¿Ð¸ÐºÐ°Ð½ ÑĤÐ½Ð°
ĠÐŁÐ¸ ÑĤÐºÐ¸ÑĤÐµ
ĠÑĤÑĥÑĢÑĪÐ¸ ÑıÑĤÐ°
ĠÐ·Ð°Ð³ÑĢÐµ ÑĤÐ¸Ñı
ĠÐĺÐ·Ð´ÑĬÐ»Ð±Ð° Ð²Ð°
ĠÐŀÑħ Ð»Ð°Ð¶Ð´Ð°ÑĤ
Ð¿Ð°Ð³Ðµ ÑĤÐ¸
ĠÑģÐ¼Ð¾ÐºÐ¸ Ð½Ð¸ÑĤÐµ
ĠÐ½Ð°ÐºÑĬÑģÐ° Ð½Ð¾ÑĤÐ¾
Ð·ÐµÐ»ÐµÐ½ÑĩÑĥ ÐºÐ¾Ð²Ð°
ĠÐ¸Ð½ ÑĤÐµÐ½Ð·Ð¸
ĠÑĤÐµÑģÑĤ ÐµÐ½Ð¸ÑĤÐµ
ĠÐ¸Ð·Ð¿Ð»Ð°ÐºÐ²Ð° Ð¼Ðµ
Ð¿ÑĢÐ¾ Ñģ
ĠÐ´Ð»Ð° Ð½Ð¸ÑĤÐµ
ĠÐ²ÑĬÐ½ ÑĪÐ½Ð°ÑĤÐ°
Ð»Ð¾Ð¶Ð¸ Ñħ
ĠÐ·Ð°Ð¿ÑĬÐ» Ð²Ð°
ĠÐ¢Ð¸ Ð³Ð°Ð½Ð°
ĠÑģÑĬÐ±Ð¸ ÑĢÐ°
ÑĦÐ¸Ð»Ð¸ Ð¸
ĠÑĦÐ° Ð·Ð°Ð½
ĠÐ°Ð¼Ð° ÑĢÐ°Ð½
ĠÐ¿Ð¾ÑĢÑĨÐµÐ»Ð° Ð½Ð¾Ð²Ð°
ĠÐ¿ÑĢÐµÐ¿ÑĬÐ» Ð½ÐµÐ½Ð°
ĠÐļÐ°ÑĢÑĤÐ¾ÑĦ ÐµÐ½Ð¾ÑĤÐ¾
ĠÐºÑĥÑĤÐ¸ Ð¸
ĠÐĿÐ°ÑĤÑĢÐ¾ÑĪÐ° Ð²Ð°
ĠÐ¿Ð¾Ð´ÑģÐ¾Ð» ÐµÐ½Ð°ÑĤÐ°
ĠÑĤÐ°ÑĢÐ° Ð»Ðµ
ĠÐ³Ð»Ñĥ ÑĤÐ°Ð¼Ð°ÑĤ
ĠÐ·Ð°Ð±ÑĥÐ» ÑıÑĤ
ĠÐ·Ð°Ð¿Ð°Ð· ÑıÑĤ
ÐĹÐµ ÑħÑĤÐ¸Ð½Ð°
ĠÐ·Ð°Ð¼ÑĢÑĬÐ· Ð½Ðµ
ÐºÑĢÐ°ÑģÑĤÐ° Ð²Ð¸ÑĨÐ°
ÐĶÐ¶ Ð¾Ð»
Ð½Ð°ÑĤÑĢÐ¾ ÑĪ
ĠÐ¸Ð½ÑģÑĤÑĢÑĥÐº ÑĨÐ¸Ð¸ÑĤÐµ
ÑģÐ¾Ð± ÐµÐ½Ð¾
ĠÐĳÐµÐ¹Ð»Ð¸ Ñģ
ĠÐ¾Ð±Ð¾ ÑĢÐ¾
ĠÐ¿Ð¾Ð·Ð°Ð´ÑĥÑĪ Ð°ÑĤ
e n
Ġ ÑĬÐ³ÑĬÐ»
Ð° Ð»
Ðº Ð»Ð¾Ð½
ĠÑģÐµ Ð»ÑĬ
Ñĩ ÐµÐ½Ðµ
Ð´ ÐµÐ»Ð°
ÑĤÐ° Ð¹ÑĤÐµ
Ð¼ Ð»Ðµ
ĠÐ½Ð° Ð³Ð°ÑĢ
ĠÐº Ð»Ð°
ĠÐº ÑĮÐ¾Ð¿Ð¾Ð¾Ð»Ñĥ
ÑĤÐµ Ð»Ð½Ð¸
ÑĢÐ° Ñģ
ÐºÐ° Ð¾ÑĤÐ¾
Ð¾Ð» ÐµÐ´
ĠÐ·Ð° ÑĤÐ¸ÑģÐºÐ°
ĠÐ·Ð° Ð¿ÐµÑĩÐµÐ½Ð¸ÑĤÐµ
Ð»Ð° Ð¿Ð°Ð´
Ð¼Ðµ ÑĤÑĢÐ°
ĠÐºÐ° ÑĤ
ÑģÑĤÐ° Ð½
ĠÑĢÐ°Ð· Ð²Ð°ÑĢÑıÐ²Ð°
ĠÐ¸Ð· ÑģÑĤ
ĠÐŁ Ð°ÑģÑĤÐµ
ÑĥÐº ÑĬÑĢ
ĠÐ¡ Ð¿Ð°Ð½Ð°ÐºÐ°
ĠÑĩÐµÑĢ Ð½Ð¾
Ð±Ð¸ Ð»Ð½Ð¾
Ð±Ð¸ ÑģÐºÐ²Ð¸
ĠÐ¼Ð°Ñģ Ð»ÐµÐ½Ð¸Ñı
ĠÐµ Ð¼ÐµÐ½ÑĤÐ°Ð»
ĠÐ¿Ð¾Ð´ Ð²Ð¸Ð¶
ĠÑĦ Ñĥ
ĠÑĦ ÐµÑĢ
ĠÑĦ Ð»Ðµ
ĠÐ·Ð°ÑħÐ°ÑĢ Ð½Ð¸Ñı
ÑĢÑĬ ÑģÑĤ
ĠÑģÐ¾ ÑĩÐ½Ð¾
Ð¿Ð° ÑģÐ¸
ĠÐ½Ðµ ÐºÐ°
ĠÐ¿Ð¾Ð» ÑıÑĤ
Ð²Ð¾ ÑĢÐ¸
ĠÑĩÐ° Ðº
ĠÑģÑĤ Ñı
ĠÐ° Ð»Ð°Ð±Ð°
ĠÐŁÐ¾ ÑģÐ¸Ð¿Ð²Ð°
ĠÐļ ÑĢÑĬÐ³ÑĩÐµÑĤÐ°ÑĤÐ°
ĠÐĿÐ° ÑģÐ¸Ð¿Ð²Ð°
ĠÐ³Ð¾ Ð´Ð¸Ð½Ð°
Ð¾Ð½ Ð´Ð°
ĠÐ½Ð°ÑĢÑıÐ·Ð²Ð° Ð¼
ĠÐ½Ð°ÑĢÑıÐ·Ð° Ñħ
ĠÐĹÐ° Ð¿
ĠÐ¿ÑĢÐ¾ Ð¸Ð·
Ð¡ Ð¾Ñģ
ĠÐ¾ÑĢÐ¸Ð· Ð¾Ð²
ÑĢÐµÑħ Ð¾Ð²Ð¸ÑĤÐµ
ĠÐĺÐ· ÐºÐ»ÑİÑĩÐ²Ð°
ĠÑģÑĤÐ° Ð¿Ñı
ĠÐ²Ð° ÑĦÐ»Ð¸
ÐŁ ÑĥÐ´
ÑĤÐ¾Ð¿ Ð¾Ð´Ð°
ĠÐ¿Ð¾ÐºÑĢÐ¸ Ð²Ð°Ð½Ðµ
ĠÐ´ÑĢÐµÐ± Ð½Ð°
ĠÑĩÐ¸ Ñı
ĠÑĩÐ¸ ÑģÑĤÐ¾
ĠÑĤÐ¸Ð³Ð°Ð½ ÑĬÑĤ
ĠÐ³Ð° ÑģÐ¸
Ðŀ Ð¼ÐµÐºÐ½Ð°Ð»Ð¾ÑĤÐ¾
ĠÑĢÐ°Ð·ÑĤÐ¾ ÑĩÐ¸
ĠÑģÑĩÑĥÐºÐ° Ð½Ð°ÑĤÐ°
ĠÑĪÐ° Ð»Ð¾
ĠÐ»Ðµ Ð´Ð°
ĠÑĢÑĬ ÐºÐ°ÑĤÐ°
ĠÐ¾Ð²ÐºÑĥÑģ ÐµÐ½Ð¸
ĠÐ¾Ð²ÐºÑĥÑģ ÐµÐ½Ð°ÑĤÐ°
ĠÐ¿Ð¸ ÑĢÐ¾
ĠÐºÐ°ÐºÐ°Ð¾ Ð²Ð°ÑĤÐ°
Ð²Ð°ÑĢ ÐµÐ½Ð¸
Ð²Ð°ÑĢ ÐµÐ½Ð°
ĠÐ¿ÑĢÐ¸Ð³Ð¾ÑĤÐ²Ñı Ð¼
ĠÑģÑĥÑħÐ° ÑĢÐ¸
ĠÐŀÑģÑĤÐ° Ð²Ð°Ð¼Ðµ
Ð²ÐµÑĤ ÑĬÐ»
ĠÐ¸Ð·ÑĩÐ¸ÑģÑĤ ÐµÐ½Ð°
ĠÐ½Ð°ÑģÑĤÑĬÑĢÐ³Ð²Ð° ÑĤÐµ
ĠÐ·Ð°Ð¼ÑĢÐ°Ð· ÑıÐ²Ð°
ĠÐºÑĥÐ¿Ð¸ ÑĩÐºÐ°ÑĤÐ°
ÐĶ ÑĢÐµÐ±Ð¾Ð»Ð¸Ð¸ÑĤÐµ
ÐĺÐ·Ð¼Ð¸ Ð²Ð°ÑĤ
ÑĤÐµÐ½ ÑĨÐ°ÑĤÐ°
ÐľÐ° Ð¹Ð¾Ð½ÐµÐ·Ð°ÑĤÐ°
ĠÐºÐ¾Ð»Ð±Ð°Ñģ ÑĬÑĤ
ĠÐ¿ÑĢÐµÑĨÐµÐ¶Ð´Ð° Ð¼Ðµ
ĠÐ¿Ñı ÑģÑĬÐº
ĠÐ¾Ð±ÑĬÑĢ Ð½Ð°ÑĤÐ¸
ĠÐºÑĥÑħÐ½ÐµÐ½ ÑģÐºÐ¾
Ð´Ð¶ Ð¸Ð½
ĠÐ·ÐµÐ»ÐµÐ½ÑĩÑĥÐºÐ¾ Ð²Ð¸
ĠÐºÐ°ÑĢÐ°Ð¼ÑĦÐ¸Ð» ÑĩÐµÑĤÐ°ÑĤÐ°
ĠÑĢÐ¸Ð± Ð½Ð°
ĠÐ¿Ð¾Ð·Ð° Ð¿ÐµÑĩÐµ
ĠÐ¡Ð° Ð»Ð°
ĠÑĢÐ°Ð·Ð±ÑĬÑĢÐºÐ° ÑĤÐµ
ĠÑĢÐ°Ð·Ð±ÑĬÑĢÐºÐ° Ð½Ð°
ĠÐ²Ð¸ÑģÐ¾ ÑĩÐ¸Ð½Ð°ÑĤÐ°
ĠÐ¸Ð·ÑģÑĤÐ¸Ð½Ð° Ð»Ð°
ĠÐ¼Ð¾ÑĢ ÑģÐºÐ°ÑĤÐ°
ĠÐ½Ð°ÑĤÑĢÐ¸ ÐµÐ²
ĠÐŀÐ²Ð°Ð» Ð²Ð°
ĠÐŁÑĢÐ¾ ÑĨÐµÐ´ÑĥÑĢÐ°ÑĤÐ°
Ð¿Ð°ÑĤ Ð»Ð°Ð´Ð¶
ĠÐ¿Ð¾Ð´ÑģÐ»Ð°Ð´ ÐµÐ½Ð¾ÑĤÐ¾
Ð¿Ð°Ð´Ð¶Ð¸ ÐºÑĬÑĤ
Ðķ Ð»Ð´Ð°ÑĤÐ°
ĠÐĴÐ½Ð¸Ð¼Ð° Ð²Ð°
ĠÐ¿Ð¾ÑĤÐ¾Ð¿ ÑıÐ²Ð°ÑĤ
ĠÐ¿ÑĬÐ»Ð½Ð¾Ð·ÑĬÑĢÐ½Ðµ ÑģÑĤ
ĠÐµÐº Ð»ÐµÑĢ
ĠÐ¿ÑĢÐµÐºÐ° Ð»ÑıÐ²Ð°
ÑģÑĬÑħ Ð½Ð°ÑĤ
ĠÐ¾Ð²Ð½Ðµ ÑĪÐºÐ¸
ĠÐĿÐ°Ð¿ÑĬÐ» Ð½ÐµÐ½Ð¸ÑĤÐµ
Ð¡Ð²Ð¸Ð½Ñģ ÐºÐ¸ÑĤÐµ
ĠÑĢÐ°ÑģÑĤÐ¸ÑĤÐµ Ð»ÐµÐ½
ĠÑĢÐ°Ð·ÑĢÐµÐ´ ÐµÐ½Ð¾ÑĤÐ¾
ĠÐ´ÐµÑģÐµÑĢ ÑĤ
ĠÑĢÐ¾Ð·Ð¾ Ð²
ĠÑħÐ°Ð¹ Ð²ÐµÑĢÐ°
ĠÐ³Ð½ÐµÐ· Ð´Ð°ÑĤÐ°
ÐŁÑĢÐµ Ð´Ð¸
ĠÐ¸Ð½ ÑģÑĤÐ°Ð½
ĠÑģÐºÑĬÐ»ÑĨÐ° Ð½
ĠÐľÐ°ÑĢÐ¸ Ð½Ð¾
ĠÑĢÑıÐ¿Ð° ÑĤÐ°
ĠÑģÐ»Ð¾Ð¶ ÐµÐ½Ð¾
ÐŁÐ°ÑĢ ÑĩÐµÑĤÐ°ÑĤÐ°
ĠÐ½Ð°ÑĤÐ¸ÑģÐºÐ° ÑĤ
ĠÐļÑİÑĦ ÑĤÐµÐ½ÑĨÐ°ÑĤÐ°
ÐŁÐ° ÑģÐ¸
ĠÐŀÑģÐ¾Ð» ÑıÐ²Ð°
ĠÐĺÐ·ÑģÑĤÐ¸Ð½Ð° Ð»Ð¸ÑĤÐµ
ĠÐļÐ¾Ð» Ð±Ð°
ĠÑī ÑĢÑĥÐ´
ÑģÐ»Ð° Ð±
ĠÑģÑĤÐµÐ± Ð»Ð°
ĠÐŀÑħÐ»Ð°Ð´ ÐµÑĤÐµ
ĠÐ¿Ð¾Ð´Ð»Ñĥ ÑĩÐµÐ½Ð¾
Ð¸Ð½Ð´Ð¶Ð¸ÑĦÐ¸Ð» ÑĬÑĤ
ĠÐ¡Ñĥ ÑĢÐ¾
ĠÐºÐ¾ÑĢÐµÐ¼ Ð½Ð°ÑĤÐ°
ÑģÐºÐ¸Ð»Ð¸ Ð´ÐºÐ¸
ĠÑĦÑĥÐ½Ð¸ Ð¹ÐºÐ¸
ĠÐ¿ÐµÐ¿ÐµÑĢ ÑĥÐ´Ð°
ĠÐĶÑĢÑĥÐ³ Ð¸ÑĤÐµ
ĠÐ¿ÑĬÑĢÐ¶Ð¾Ð» ÐºÐ¸
ÐºÐ¾Ð½ÑģÐµÑĢÐ²Ð¸ÑĢÐ° Ð½Ð¸
ĠÐ¸Ð½Ð´Ð¸Ð²Ð¸Ð´Ñĥ Ð°Ð»Ð½Ð¸
ĠÐ¾Ð±Ð»Ð¸ ÑĨÐ¾Ð²Ð°
ĠÑģÐºÐ»Ð¸ Ð´ÐºÐ¸
Ð±Ð¾ÑĢÐ¸ Ð¾
ĠÐĹÐ°Ð¿Ð¾Ñĩ Ð½ÐµÑĤÐµ
ÐºÐ»Ðµ ÑĩÐºÐ¸
ĠÐ¸Ð·Ð´Ðµ Ð»Ð¸Ñı
ĠÑģÐµÐ»ÑĬ ÑĢÐ¸
Ġ S
Ñģ Ð¿Ð°Ð³ÐµÑĤÐ¸
Ñı Ð³Ð¾Ð´Ð¸
Ñĩ Ð½Ð¸ÑıÑĤ
ÑĬ Ð±ÑĢÐµ
ĠÐ¿ ÑĪ
ĠÐ½Ð° Ñģ
ĠÐº Ð»Ð°Ð´Ð½Ð¸ÑĨÐ°
ĠÐ¾ Ð¼Ð°
ĠÐ¾ Ð¿ÐµÑĩÐµÐ½Ð¸ÑĤÐµ
ÑĢÐ¸ Ð½Ð¸
Ñħ Ð»ÑıÐ±
ĠÐ¿Ð¾ Ð³Ð°
ĠÐ¿Ð¾ Ð¶ÐµÐ»Ð°Ð½Ð¸Ðµ
ÑĢÑı Ð±
Ð²Ð¸ Ð·Ð°
Ð¼Ð° ÑĪ
Ð»Ðµ ÑĤÐ¾
ĠÐ¾ÑĤ Ð¿Ð¾ÑĩÐ¸Ð½Ðµ
ÑģÑĤ Ð²Ð¾
ĠÑĢÐ°Ð· Ð´ÐµÐ»Ð¸
ĠÐ¸Ð· Ð´Ñĥ
ĠÐŁ Ð¾ÑĤÐ¾Ð¿
ĠÑģÐ¸ ÑĤÐ½Ð°
ĠÐ¡ ÑĥÑħÐ¸ÑĤÐµ
ÑĦÐ¸ Ð½Ð¸
ĠÑĤ ÑĢÑĬÑģ
Ð¼Ð¾ ÑıÑĤÐ°
ĠÐĴ ÑĢÐµÐ¼Ðµ
ÑģÐ¸ Ñı
ĠÑģÑĤ ÑĬ
ĠÑģÑĤ ÑĬÐ±
ĠÐ¼ÐµÑģ ÐµÐ½ÐµÑĤÐ¾
ĠÐ¶ ÐµÐ»ÐµÑĤÐ¾
ĠÑĤÐ¾Ð¿ Ð²Ð°ÑĤ
ĠÐ²Ð¸ Ðµ
ĠÐ²Ð¸ Ð´Ð¸Ð¼Ð¾
Ð¿Ð¸ Ð¸
ĠÐ´Ð¾Ð±Ð°Ð²Ñı Ð½Ðµ
ĠÑģÐ¼ÐµÑĤÐ° Ð½Ð¾Ð²Ð°ÑĤÐ°
ĠÐĹÐ° ÑĤÐ¾Ð¿Ð»Ñı
Ð¡ ÑĤÐ°
Ð¡ Ð¼Ð»ÑıÐ½Ð¾ÑĤÐ¾
Ð¼ÐµÑģ ÐµÐ½
ĠÐ¾ÑĢÐ¸Ð· Ð¾Ð²Ð°
ĠÐºÑĢÐ° ÐºÐ°
ĠÑģÑĤÐ° Ð½Ð´Ð°
ĠÐºÐ°Ð¹Ð¼Ð° Ðº
ÐŁ ÑĬÑĢ
Ð·Ð¸ ÐºÑĬÑĤ
ĠÑĢÐ¸ Ð·Ð¾ÑĤÐ¾
ĠÐ¾Ð¼Ðµ ÐºÐ²Ð°ÑĤ
ĠÐ¿Ð¾ÑģÐ¾Ð» ÐµÐ½
Ġ4 50
ĠÐŁÐ¾Ð´ Ð³Ð¾ÑĤ
ĠÑĨÐµ Ð¿Ð²Ð°ÑĤ
ĠÐ»Ð¸Ð¼Ð¾Ð½ ÑĬÑĤ
ĠÑĩÐ¸ Ð¹Ð·
ĠÑģÐ²Ð¸Ð½Ñģ ÐºÐ°ÑĤÐ°
Ðľ Ð¾
ÑĪÐ¸ ÑĢÐ¾
ÐĿÐ° ÑĩÑĥÐ¿
ĠÐµÐ´ÑĢÐ¾ ÑģÐ¼Ð»ÑıÐ½Ð°
ĠÐ¿Ð»Ð¾ ÑģÑĬÐº
ĠÐļÐ° ÑĪÐ°ÑĤÐ°
ĠÐºÐµ Ð¹Ðº
ĠÐ²ÑĤÐ°ÑģÐ° Ð»Ð¾ÑĤÐ¾
ĠÐ¿Ð¾Ð»Ð¸ Ð²Ð°ÑĤÐµ
ÐłÐ°Ð· Ð±ÑĬÑĢÐºÐ²Ð°ÑĤ
Ð¢ Ð°
Ð¯ Ð±ÑĬÐ»ÐºÐ°ÑĤÐ°
ĠÐ·Ð°Ð²Ð¸ Ðµ
ĠÐ·Ð°Ð²Ð¸ ÑĤÐ¸
ĠÐ·Ð°Ð¼ÑĢÐ°Ð· ÐµÐ½Ð¾
Ð¿Ð°ÑĢ Ð¼ÐµÐ·Ð°Ð½
ĠÑĢÐ°Ð·ÑĤÐ²Ð°ÑĢÑı Ð½ÐµÑĤÐ¾
ĠÐ²Ðµ ÑģÑĤ
ĠÑĢÐ°Ð·ÑĤÐ²Ð¾ÑĢ ÐµÐ½Ð¸ÑĤÐµ
ĠÐ±Ðµ ÑĪÐµ
ĠÐ±ÑĢÐ¾ÐºÐ¾Ð» Ð¸ÑĤÐ¾
ĠÑģÑĥÑħÐ¸ Ñı
ĠÐ¾Ð¿Ð° ÑĪÐºÐ°
ÑĨÐµÑĤ ÑĬÑĤ
ĠÐ© Ðµ
ĠÐ¼ÑĬ Ð½Ð¸ÑĩÐºÐ¾
ĠÐ¿ÑĢÐ°Ð²Ð¾ÑĬÐ³ÑĬÐ»Ð½Ð¸ ÐºÐ°
ÐŀÐ±ÐµÐ» Ð²Ð°ÑĤÐµ
ĠÐºÐ¾Ð½Ðµ ÑĨÐ°
ĠÑĥÐ· ÑĢÑıÐ»
ĠÐ¿ÑĬÐ»Ð½Ð¾ Ð¼Ð°ÑģÐ»ÐµÐ½Ð°
ĠÐŁÐ¸ ÑĤÐ°ÑĤÐ°
ĠÐ¢Ðµ Ð·Ð¸
ĠÐºÑĢÐ¸ÑģÑĤÐ° Ð»Ð½Ð°ÑĤÐ°
ĠÐ¿ÑĢÑĬÑģÑĤÐµÐ½ ÑĩÐµÑĤÐ°
ĠÐŁÐ°ÑģÐ¸ ÑĢÐ°Ð¼Ðµ
ĠÐºÐ¸ÑĦÐ»Ð¸ ÑĩÐºÐ°
ĠÐ½Ð°Ð¿ÑĢÐ°Ð²Ð¸ Ð¼
ÐĺÐ·ÑĩÐ¸ÑģÑĤ Ð²Ð°Ð¼Ðµ
ĠÐ±Ð°Ð»ÑģÐ°Ð¼Ð¾ Ð²Ð¸Ñı
ĠÐĹÐµÐ» ÐµÐ½Ð¸ÑĤÐµ
ĠÐ·ÑĢÑĬÐ½ ÑĨÐ°ÑĤÐ°
ĠÐ½Ð°Ð¼Ð¾Ðº ÑĢÑıÑĤ
ĠÑĥÐ½Ð¸Ð²ÐµÑĢÑģÐ° Ð»Ð½Ð°ÑĤÐ°
ÑĢÐ°Ð¼ ÑĦÐ¸Ð»
ĠÑģÐ¿Ð¸ÑĢÐ° Ð»Ð¾Ð²Ð¸Ð´
ĠÑĤÑĢ ÑĬÑĤ
ĠÐĹÐ°Ð¿Ð¾ ÑĩÐ²Ð°Ð¼Ðµ
ĠÑĪÐ°Ð¼Ð¿Ð° Ð½ÑģÐºÐ¾ÑĤÐ¾
ĠÐĴÐ·Ð¸Ð¼Ð° Ð¼Ðµ
ĠÐŁÑĢÐ¾Ð´ÑĬÐ» Ð¶Ð°
ĠÐĵÑİÐ²Ðµ ÑĩÑĬÑĤ
ĠÐ¼ÐµÑħ ÑĥÑĢÐ¸
ĠÐºÐ°Ð» Ð¼Ð°ÑĢÐ¸
ĠÐ¿Ð¾Ð´ÑĢÐµÐ´ ÐµÐ½Ð¸
ĠÑģÑĤÐµÐ± Ð»Ð°ÑĤÐ°
Ð·ÐµÐ»Ðµ Ð²
ĠÐ¾ÑģÐ½Ð¾Ð² Ð½Ð¸Ñı
ĠÐ¡ÑĤ ÑĥÐ´
ĠÑĢÐ°Ð±Ð¾ ÑĤÐ¸
ĠÐ²ÐµÑĤÑĢÐ¸Ð»Ð¾ Ð¾Ð±ÑĢÐ°Ð·Ð½Ð¾
ĠÐºÐ°Ð¿ÑģÑĥ Ð»Ð°
ĠÑģÐ°Ð½ÑĤÐ¸ Ð¼ÐµÑĤÑĬÑĢ
ĠÐ·Ð²ÐµÐ· Ð´Ð¸
ĠÑĥÐ´Ð¾Ð± Ð½Ð¾
ĠÐ¾Ð±ÐµÐ·ÑģÐ¾Ð» ÐµÐ½Ð¾
ĠÐºÐ°Ð½ ÑĤ
ĠÐĶÐµÑģÐµÑĢ ÑĤÑĬÑĤ
ĠÐ´Ð¶Ð°Ð½ ÐºÐ¸
ag gi
ĠÐ·Ð°Ð¿ÑĢÐ¸ Ð»Ð¸ÑĩÐ°
ĠÐºÐµÐ´ÑĢÐ¾ Ð²Ð¸ÑĤÐµ
ĠÐ¸Ð·ÑģÑĤ ÑĥÐ´Ð¸
ĠÐĹÐ°Ð¿ ÑĢÑĬÐ¶ÐºÐ°ÑĤÐ°
; [
c e
c o
l a
Ð¾ Ð´Ð¾
Ñģ Ð¾Ð½
Ð½ ÐµÐ½Ð¸Ðµ
Ñı Ð±ÑĬÐ»
Ñĩ ÑĥÑĢÐºÐ¸ÑĤÐµ
Ð¼ ÑıÑĤÐ°
ÑĤÐ¾ ÑĢÐµÑĤÐµ
ĠÐ½Ð° Ð³ÑĢÑıÐ²Ð°
Ð¿ Ð¾Ð½
Ð± Ð»Ð°
Ð± ÑĥÑĪ
ĠÐ² ÑĢÐ°ÑĤÐ°
Ð½Ð¾ Ð°ÑĤÐ°
ÐºÐ° ÑĢÐ°Ð¼ÑĦÐ¸Ð»
ĠÐ·Ð° ÑīÐ¸Ð¿
Ð½Ð° ÑĤÐ¸Ñı
ÑĤÐ¸ ÑĢÐ°
ÑĨ Ð²Ð°
Ñħ Ð²Ð°
ĠÐ¿Ð¾ Ð½ÑıÐºÐ¾Ð³Ð°
ĠÐ¼Ð° Ð½Ð´
ÑĢÑı Ð½ÑĬÑĤ
ĠÐ´Ð¾ Ð³Ð¾ÑĢÐµ
Ð¼Ð° ÑĩÐºÐ°
ĠÐ¾ÑĤ ÑĢÑıÐ·Ð²Ð°Ð¼Ðµ
Ð³Ð° Ð½Ð¸
Ð³Ð° ÑĢÑı
Ð³Ð° Ð²Ðµ
ĠÑĢÐ°Ð· Ð½Ð¾
ĠÑĢÐ°Ð· Ð»ÐµÐµ
ĠÐ¸Ð· ÑĩÐµ
ĠÐ¸Ð· ÑĤÐµÐ³Ð»Ñı
ĠÐµ ÑģÑĤÑĢÐ°
ĠÐ¿ÑĢÐ¸ ÑĤÐ¾Ð¿Ð»Ñı
ĠÐ¿ÑĢÐµ Ð¿Ð¸ÑĩÐ°ÑĤ
ĠÐ¿ÑĢÐµ Ð³Ð¾ÑĢÑıÑĤ
ĠÐĴ ÑĬÐ»ÑĪÐµÐ±ÐµÐ½
ĠÑĩÐµÑģ Ð½Ð¾Ð²Ð¸Ñı
ĠÑĩÐ° ÑĪÐºÐ¸ÑĤÐµ
ĠÐ¼ÐµÑģ Ð¸ÑĤÐµ
ĠÑĪ ÐµÑĢ
ĠÐºÐ¸ÑģÐµ Ð»Ð°ÑĤÐ°
ÐºÑĥ Ð»Ð°
ĠÑĤÐ¾Ð¿ Ð¸Ð½Ð³Ð°
ÑĤÑĬ ÐºÐ°
ĠÐ·Ð°Ð´ÑĥÑĪ ÐµÐ½Ð¾ÑĤÐ¾
ĠÐ¿Ð¾Ð´Ð¿ÑĢÐ°Ð² ÐµÐ½
ĠÐ¿Ð° Ð´Ð½Ðµ
ĠÐ¶ÐµÐ»Ð° Ð½Ð¸Ñı
ĠÐ¾Ð±ÐµÐ» Ð²Ð°ÑĤÐµ
ĠÐ¿ÐµÑĩ ÐµÐ½Ð°ÑĤÐ°
ĠÑĢÐµ Ð·Ð°Ð½
ĠÐ²Ð° ÑĦ
ĠÐ¿ÑĢÐ° ÑģÐµÐ½
ĠÐ¿Ð¾ÑĢÑĬÑģÐ²Ð° Ð¼
ĠÑĢÐ° ÑĩÐµ
ĠÐ²ÑģÐ¸Ñĩ ÐºÐ¾ÑĤÐ¾
Ð½Ñı Ðº
ĠÐºÑĢÐµ ÑģÐ¾Ð½
ĠÐĳ ÑĥÐ»Ð³ÑĥÑĢÑĬÑĤ
ĠÐ³Ð° Ð½Ð°
ĠÐºÑĢÑĬÐ³ Ð»Ð¾
ÑĨÐ°ÑĢÐµ Ð²Ð¸Ñĩ
ĠÐŁÑĢÐ¸Ð±Ð°Ð²Ñı Ð¼
ÐĿÐ° Ð´
Ð´Ðµ Ð±ÐµÐ»Ð°
ĠÐĲ Ð²Ð¾ÐºÐ°Ð´Ð¾ÑĤÐ¾
ÑģÐº ÑĥÐ»
ĠÐ»Ðµ Ð¿Ð¸
Ðĳ Ð¸
ĠÐ´ÐµÐ±Ðµ Ð»Ð¸ÑĤÐµ
ĠÐ·Ð°Ð³ÑĢÑıÐ²Ð° ÑĤÐµ
ĠÐ³Ð¾ÑĤ Ð²Ð¸ÑĤÐµ
ĠÐ¸Ð·Ð²Ð°Ð¶Ð´Ð° ÑĤÐµ
ĠÑħÐ° Ð¿ÐºÐ°
ĠÐ¿ÑĢÐ¸Ð³Ð¾ÑĤÐ²Ñı ÑĤÐµ
ĠÐĴÐ° Ð´Ð¸
ÐłÐ°Ð· Ð´ÐµÐ»ÑıÐ¼Ðµ
ĠÐĿÐ°Ð¼Ð° Ð»ÐµÑĤÐµ
ĠÐ¼Ñĥ ÑģÐºÑĥÐ»
ĠÐ¾ÑĤÑĨÐµÐ´ ÐµÐ½Ð¾ÑĤÐ¾
ĠÐł Ð¾
ÐŀÑĤ Ð´ÐµÐ»ÐµÑĤÐµ
ĠÑĢÐµÐ·ÐµÐ½ ÑĩÐµÑĤÐ°ÑĤÐ°
Ð¤ Ð¸Ð»Ð¸Ð¹ÐºÐ¸ÑĤÐµ
ĠÐ´ÑĬÑĢ Ð²ÐµÐ½
ĠÐºÐ¾Ð¼ Ð±Ð°
ĠÐ¿ÑĢÐ¸ÑĤÐ¸ÑģÐºÐ° Ð½Ðµ
ĠÐ¿Ð»ÑĬÑĤ Ð½Ð°
ÐļÐ° ÑĦÐµÑĤÐ¾
ĠÑĤÐµÐ»ÐµÑĪÐºÐ¸ Ñı
ĠÐ¼Ð¸Ðº ÑģÐ°
ĠÐŁÐ°ÑĢ Ð¼ÐµÐ·Ð°Ð½Ð°
ĠÑĪÐ¸ÑĪ Ð°ÑĢ
ĠÐ¿Ð»Ð¸ ÑĤÐºÐ¸
ĠÐ·Ð°Ðµ ÑĪÐºÐ¾ÑĤÐ¾
ĠÐ½Ð¸ ÑīÐ¾
ĠÑĤÑĢÐµ Ð²Ð°
ĠÑĤÑĢÐµ ÑĤÐ¸Ð½Ð°
ĠÐ¾ÑĨÐ²ÐµÑĤ ÐµÐ½Ð¾
ĠÐ»ÐµÐ´ ÐµÐ½Ð°
ĠÐºÐ°ÑĢÐ°Ð¼ÐµÐ»Ð¸Ð·Ð¸ ÑĢÐ°Ð½Ð°
ĠÐłÐµ Ð´Ð¸
ĠÐ±Ð¾Ð½ Ð±Ð¾Ð½
ĠÑĢÐ°Ð·Ð»Ð¸ ÑĩÐ½Ð¸ÑĤÐµ
ĠÑĢÐ°Ð·Ð¿Ð¾Ð»Ð¾ Ð²ÑıÐ²Ð°
ĠÐ¿Ð¾ÑĤÐ¾Ð¿ ÐµÑĤÐµ
ĠÐ¾ÑĩÐ¸ ÑĤÐµ
ĠÐ²ÑĤÐ²ÑĬÑĢ Ð´
ĠÐ¾ÑĤÐ²Ð¾ÑĢ ÑĬÑĤ
ĠÐ¸Ð·ÑģÑĤÐ¸ÑģÐºÐ° Ð¹ÑĤÐµ
ĠÑģÐ²ÐµÑĤÐ»Ð¾ Ð¶ÑĬÐ»ÑĤÐ¾
ĠÐ»ÐµÐ¿Ð½Ðµ ÑīÐ¾
ĠÐ»ÐµÐ¿ÐºÐ° Ð²Ð°
ĠÑģÐ¼Ð°ÑĩÐºÐ° Ð½Ð¸ÑĤÐµ
ĠÐ¼ÐµÑģÐµ ÑģÑĤÐ°
ĠÐ¼ÐµÑģÐµ ÑĨÐ°
ĠÐ»ÑĥÐºÐ°Ð½ ÐºÐ°ÑĤÐ°
ĠÐ±ÑĢÑİÐºÑģÐµÐ»ÑģÐºÐ¾ ÑĤÐ¾
ĠÐŁÐ¾ÑģÐ»ÐµÐ´ Ð½Ð¾
ĠÐ¼Ð°Ð½Ð´Ð° ÑĢÐ¸Ð½Ð°
ÑĢÐ°Ð½Ð·ÐµÐ»Ð° ÑĤÐ°
ĠÐ½Ð°Ð´ÑĢÐ¾Ð± ÐµÐ½Ð¾ÑĤÐ¾
ĠÐºÐ¾ÐºÐ° Ð»Ð°
ĠÐĺÐ·ÑĩÐ°ÐºÐ²Ð° Ð¼Ðµ
ĠÐ¿ÑĢÐµÐ¼Ð°Ñħ Ð²Ð°
ĠÐºÐ¸Ð½Ð¾ Ð°ÑĤÐ°
Ð¹Ñģ ÐºÐ¸ÑĤÐµ
ĠÐ·Ð°Ð¿Ð°Ð·Ð¸ ÑĤÐµ
ĠÐĳÐ¸ ÑĪÐºÐ¾ÑĤÐ¸ÑĤÐµ
ĠÐ·Ð½Ð° ÑĩÐ¸
ĠÐ°ÑģÐ¿Ð¸ ÑĢÐ¸Ð½
ĠÐĵÐ»Ð° Ð²Ð°ÑĤÐ°
ĠÐĳÐ»Ð° ÑĤÐ¾Ð²ÐµÑĤÐµ
Ð¡Ð° Ð»Ð°ÑĤÐ°ÑĤÐ°
ÑģÑĩÑĥÐºÐ° Ð½Ð¸
ĠÐ¿ÑĢÐµÐºÐ°ÑĢ Ð²Ð°ÑĤ
ĠÐ·Ð°Ð³Ð° ÑĢÑı
ÑģÐºÐ¸Ð»Ð¸ Ð´ÐºÐ°
ĠÑĥÐºÑĢÐ°Ñģ ÐµÐ½Ð¸
ÑĢÐ¸Ð» ÑĨÐ°ÑĤÐ°
ĠÐĶÑĢÐ¾Ð± ÑĩÐµÑĤÐ°ÑĤÐ°
ÐłÐ¸ Ð±
Ð¾Ð±Ð¸ ÐºÐ½Ð¾Ð²
ĠÑĢÐ°Ð·Ð¿Ð»Ðµ ÑģÐºÐ²Ð°
ĠÑħÐ²Ð¾ Ð¹Ð½Ð°
ĠÐĶÑĢÑĬ Ð¿Ð½ÐµÑĤÐµ
ĠÐ½ÑĥÐ´ÑĬÐ» Ñģ
ĠÑĦÐµÑĤÑĥÑĩÐ¸ Ð½Ð¸
ĠÐķÐ´Ð¸ Ð½Ð¸ÑıÑĤ
ÐºÐ°ÑĢÑĤÐ¾ÑĦ ÐµÐ½Ð¾
ĠÐĿÐ°Ð½Ð¸ Ð·Ð²Ð°ÑĤ
ĠÐ»ÐµÐ² ÑĥÑĢÐ´Ð°
ĠÐĲÑĢÐ¾Ð¼Ð°ÑĤÐ¸ Ð·Ð¸ÑĢÐ°
ĠÑģÑĬÑģÑĤÐ¾ Ñı
ĠÑĨÐµÐ»Ð¾ÑĦ Ð°Ð½
ĠÐ¼Ð°ÐºÐµÐ´ Ð¾Ð½ÑģÐºÐ°
ĠÐ¾Ð±Ð¾ÑĢÐ¾ ÑĤÐ¸
2 60
5 5
] [
® ÑĦ
Ð» ÑĥÐºÐ°
Ðº ÐµÑĢÐ²Ð¸Ð·
Ñĩ Ð²Ð°Ð½ÐµÑĤÐ¾
Ð´ ÑĢÐ¸
Ñĥ Ð²Ð°
Ð· Ð²Ð°Ð½Ðµ
ĠÐº Ð½Ð¸
ĠÐ¾ ÐºÐ¾
ÑĤÐµ Ð»Ð°
ÑĢÐ° Ðº
ĠÐ² Ð»Ð°Ð³Ð°
ĠÐ³ ÑĬÐ»
ĠÐ´ Ð²Ð¸Ð¶
ĠÐ· Ð¼Ð¸
ĠÐ·Ð° ÐºÑĥÑģÐºÐ°
Ð½Ð° Ð»Ð¾ÑĤÐ¾
ÐºÐ¾ ÑĢÐ¸Ñı
Ð¼Ðµ ÑĤÑĬÑĢÐ°
ĠÐ¼Ð° ÐºÐ¾Ð²Ð¾ÑĤÐ¾
ĠÐ´Ð¾ Ñģ
Ð¼Ð° Ð»ÐºÐ¸ÑĤÐµ
ÑĦ ÐµÑĢÐ¸
ĠÐºÐ° ÑĩÐµÑģÑĤ
ĠÐ¾ÑĤ ÐºÑĢÐ¸
Ð»Ð¾ Ð½Ð¸ÑĤÐµ
ÑģÑĤÐ° ÑĢ
ÑĩÐµ ÑģÑĤÐ¾
ĠÑĢÐ°Ð· ÑĢÐµÐ¶Ð´Ð°ÑĤ
ĠÑĢÐ°Ð· Ð»Ð°ÑĤ
ĠÐ¸Ð· ÑĤÑĬÑĢ
ĠÑı Ð´Ðµ
ĠÑĩÐµÑĢ Ð½Ð°ÑĤÐ°
ĠÐ¼Ð¸Ð½Ñĥ ÑĤÐºÐ°
ĠÐ¿ÑĢÐµ Ð¿Ð¾ÑĢÑĬÑĩÐ¸ÑĤÐµÐ»Ð½Ð¾
ĠÑĦ ÐµÐ½
ĠÑĦ Ð°Ð½
ĠÐ·Ð°ÑħÐ°ÑĢ Ð¾ÑģÐ°
ĠÐŀ Ð¿ÐµÑĩ
ĠÐŀ Ð±ÑĬÑĢÐºÐ°Ð¹ÑĤÐµ
ĠÐŀ Ð¼ÐµÐºÐ½Ð°Ð»Ð¾ÑĤÐ¾
ĠÐ½Ðµ ÑĤÐ»ÑĬÑģÑĤÐ¾
ĠÑģÐ¼ÐµÑģ ÐµÐ½Ð¾ÑĤÐ¾
ĠÐ½Ð°Ð¼Ð° Ð»ÑıÐ²Ð°ÑĤ
ĠÑĪ Ð¿ÐµÐº
ĠÐ° Ð³Ð°Ð²Ðµ
ĠÐĿÐ° ÑĤÑĢÐ¸Ð²Ð°
ĠÐ¾Ð± Ð²Ð¸Ð²Ð°
ĠÑģÐ²Ð° Ð»Ð¸ÑĤÐµ
ĠÐĹÐ° ÑĤÐ²Ð¾ÑĢÐµÑĤÐµ
ĠÐ¿Ð° Ð»
ÐĹÐ° ÑĤÐ¾Ð¿Ð»Ñı
ĠÐłÐ°Ð· Ð¼ÑĢÐ°Ð·
ĠÐ¿ÑĬÑĢÐ¶ ÐµÐ½Ð¸ÑĤÐµ
ĠÑģÐ¼ ÐµÐ½Ð¸
ĠÑĥ Ð²
ÐŁ ÑĢÐ°Ð·Ð°
ÑģÐºÐ° Ð¹ÑĤÐµ
ĠÐ¢ ÑĥÑĢ
ĠÐ¸Ð·Ð²Ð° Ð´
ĠÑĢÐ° Ð²Ð¸
ĠÐ¿Ð» ÑİÑģ
ĠÑģÑĥÑħ Ð¾ÑĤÐ¾
ĠÐºÐ¾ÑĤ Ð»ÐµÑĤÐ°
ĠÐºÐ¾Ð» ÐµÐ»Ð°
ĠÐ´ÑĬÐ» ÑĬÐ³
ĠÐĳ Ð°Ð½Ð°
Ðľ ÐµÑģ
ĠÐ³Ð° Ð²Ð°Ð½
Ð²Ð°ÑĢÑı ÑĤ
ĠÐĵ ÑĢ
ĠÐ¿Ð¸Ð»ÐµÑĪÐºÐ¸ ÑıÑĤ
Ðŀ Ð±ÐµÐ·ÐºÐ¾ÑģÑĤ
ĠÐ¿Ð»Ð¾ ÑĩÐºÐ°
ĠÐ´ÑĬÐ»Ð±Ð¾ ÐºÐ¾
ÑħÐ° ÑĤÐ°
ĠÐ³ÑĬÑĢ Ð»Ð¾ÑĤÐ¾
ĠÐ¿ÑĢÑĬ ÑĩÐ¸ÑĨÐ¸ÑĤÐµ
ÐłÐ°Ð· Ð¼ÑĢÐ°Ð·
ÐłÐ°Ð· Ð´ÐµÐ»ÑıÑĤ
ĠÐ½Ð°Ð± Ñĥ
ĠÐĿÐ°Ð¼Ð° ÑĩÐºÐ°Ð¹ÑĤÐµ
ĠÑģÑĥÑĪ Ð¸
Ð¿Ð¾Ð´ ÑħÐ¾Ð´Ñı
ĠÐŁÐ¾ÑģÑĤÐ°Ð²Ñı ÑĤÐµ
ĠÐ¿Ð¾Ð´ÑģÑĥÑĪ ÐµÐ½Ð°
ĠÐ´Ð¸Ð° Ð¼ÐµÑĤÑĬÑĢÐ°
ÐĶ ÑĬÐ½Ð¾ÑĤÐ¾
ĠÑģÑĥÑĢÐ¾ Ð²Ð°ÑĤ
ÐĺÐ·Ð¼Ð¸ ÑĤÐ¸ÑıÑĤ
ĠÐ¾Ð±ÐµÐ· Ð¼Ð°ÑģÐ»ÐµÐ½Ð¾
ĠÑĨÐ²Ðµ ÑĤÐ¾Ð²ÐµÑĤÐµ
ĠÐ·Ð°Ð²Ð¸Ð²Ð° ÑĤÐµ
ĠÐºÐ°ÑĢÐ°Ð¼Ðµ Ð»ÐµÐ½
ĠÑģÐ¾Ðµ Ð²Ð¸ÑĤÐµ
ĠÐ¿Ð¾Ð½Ðµ Ð¶Ðµ
ĠÑĢÐ¾Ð·Ð¼Ð°ÑĢÐ¸Ð½ ÑĬÑĤ
ÐļÐ° Ð¼Ð±Ð¸ÑĤÐµ
ĠÐºÐ²Ð°Ð´ ÑĢÐ°ÑĤÐ°
Ð³Ð¾ÑĤÐ¾ Ð²ÐºÐ°
ĠÐ¿ÑĬÑĢÐ²Ð¾ Ð½Ð°ÑĩÐ°Ð»Ð½Ð¾
ĠÑĥÐ´ ÑĢÑı
ĠÐĸ ÑĬÐ»ÑĤÑĬ
ÐºÑĥÐ¼ ÑĢÐ¸
ĠÐ¿ÑĢÐµÑģÐ¾Ð²Ð° Ð½Ð¸
ĠÐ³ÑĬÐ± ÐºÐ°
Ð¸Ð½Ð³ ÑĬÑĤ
ĠÐºÐ¾ÐºÐ¾ÑģÐ¾ Ð²Ð°
ÑħÐ»Ñİ Ð²Ð¸ÑĤÐµ
ÑģÐ»Ð°Ð´ ÐºÐ°
ĠÐ·Ð°Ð²ÑĬÑĢ ÑĤÐ°
ĠÑĦÑĬÑģÑĤÑĬ ÑĨÐ¸ÑĤÐµ
ĠÐ°ÑĢ Ð¿Ð°
ĠÐ¶Ð¸ Ð»ÐºÐ¸
ĠÐºÐµÑĢÐµÐ²Ð¸Ð· ÑĬÑĤ
ĠÐ·Ð°ÑĤ Ð²Ð¾ÑĢÐµÑĤÐµ
Ð»ÐµÑĤ ÑĬÑĤ
ĠÐ¾ÑĤÐ²Ð¾ÑĢ ÐµÐ½
ĠÐ´Ñİ Ð»Ð¸ÑĤÐµ
Ð°ÑĢÑĦÐ¸Ð¾Ð» Ð°
ÑģÐ²Ð¸Ð½Ñģ ÐºÐ°
ÐĿÐ°Ð¼Ð° Ð¶ÐµÑĤÐµ
Ð¼ÐµÑģÑĤ Ð²Ð°Ð¼Ðµ
ĠÐºÐ¸Ñģ ÐµÐ»
Ð¦ ÐµÐ»Ð¸Ð½Ð°ÑĤÐ°
ĠÐºÐ°ÑĪÑĥ ÑĤÐ¾
ĠÐĹÐ°ÑĤÐ²Ð°ÑĢÑı Ð¼Ðµ
Ð¿ÑĥÑĪ ÐµÐ½
ĠÐĺÐ·ÑĩÐ¸ÑģÑĤ ÐµÐ½Ð¸ÑĤÐµ
ĠÐ´Ð»Ð° Ð½Ð¸
ĠÐ¼ÐµÑĤÐ° Ð»Ð½Ð¸
ĠÐ¸Ð·Ð² ÑĢÑıÐ»Ð°
ĠÐ·Ð°Ð¼ ÐµÐ½Ð¸ÑĤÐµ
ĠÐºÐµÑģÑĤ ÐµÐ½Ð¸ÑĤÐµ
ĠÑĢÑĬÐ± ÑĩÐµ
ĠÑģÐ½Ð¸Ð¼ ÐºÐ°ÑĤÐ°
ĠÐ¡ÑĤÐ° Ð²Ð°ÑĤ
ĠÐºÐ°Ð» Ð¼Ð°ÑĢÐ¸ÑĤÐµ
ĠÐ¿Ð¾Ð»ÑĥÐº ÑĢÑĬ
ĠÐ¾Ðº ÑĤÐ¾Ð¿Ð¾Ð´Ð°
ÐĸÐµÐ»Ð° ÑĤÐ¸Ð½Ð°
ĠÐŀÑĤÑģÑĤÑĢÐ° Ð½ÐµÑĤÐµ
ĠÐĺÐ·Ð¿Ð»Ð° ÐºÐ²Ð°
ĠÐ³Ð»Ñĥ ÑħÐ°ÑĢ
Ð»Ð¸Ð·Ð° ÑĤ
Ð¼Ð¸Ð½ ÑĥÑĤÐ¸
ĠÐ¿ÑĢÐ¸ÑīÐ¸Ð¿ Ð²Ð°ÑĤ
ÐŁÑĥ Ð¹ÐºÐ°ÑĤÐ°
ĠÐ¾ÑĤÐ»ÐµÐ¿ Ñı
ĠÐ³ÑĢÑĬÐ± Ð½Ð°ÐºÐ°
ĠÐºÑĢÐ¾Ð°Ñģ Ð°Ð½Ð¸
Ð¾Ð²ÐºÑĥÑģ ÐµÐ½Ð°
ĠÑĢÐ¾Ð¼Ð± ÑĩÐµÑĤÐ°
ĠÑĢÑıÐ·Ð° Ð½Ðµ
ÑģÐ¸ÑĢÐ¾ Ð¿
ĠÑĤÐµÑĦÐ»Ð¾ Ð½Ð¾Ð²Ð°
ĠÑħÐµÑĢÐ¼ÐµÑĤÐ¸ ÑĩÐµÑģÐºÐ¸
ÑĢÑıÐ± Ð²Ð°ÑĤ
ÑĤ ÑĢÑĥ
ĠÑģ ÐºÑĢÐ¸
ĠÑģ ÑĢÑıÐ·Ð°Ð½Ð¸
Ð» Ð½Ð¸ÑĤÐµ
ÑĬ ÑĩÐ½Ð¾
ĠÐ¿ ÑĥÐºÐ°
Ð¼ ÐµÐ½ÑĤÐ¸
Ð· Ð»Ð°ÑĤÐ¸
ĠÐ½Ð° ÑģÐ¸ÑĤÐ½Ð¾
ĠÐ¾ ÑģÐ¾Ð±ÐµÐ½Ð¾
ÑĢÐ° ÑħÐ°
ĠÐ³ Ð»
ĠÐ· Ð»Ð°ÑĤ
ĠÐ·Ð° Ð»Ñı
ÑĢÐµ ÑĤÐ¸
Ð»Ð° Ð½Ð¸
Ð½Ð¸ ÑĪÐ¾
Ð¼Ð° Ð¹ÑĤÐµ
ĠÐºÐ° ÑĪ
ĠÐºÐ° Ð´Ð°Ð¸ÑĦ
ĠÐ¾ÑĤ ÐºÑĬÑģÐ²Ð°ÑĤ
ÑģÑĤÐ° Ð²Ð°
ĠÑĢÐ°Ð· ÑĨÐµ
ĠÑĢÐ°Ð· Ð²Ð¸Ð²Ð°
ĠÑĢÐ°Ð· ÑģÑĤÐµ
ĠÑĢÐ°Ð· Ð¼Ð°Ð·Ð²Ð°
ĠÐºÐ¾ ÑĢÐ¾
ĠÐŁ Ð»Ð¸
ĠÐŁ ÐµÐºÐ¾
ĠÐŁ ÐµÑĢÐ¸
ĠÐŁ ÑĥÑģÐ½ÐµÑĤÐµ
Ñī Ñı
ÑĢÐ¾ Ð¼
ĠÐµ ÑĤÐ°Ð¿
ÐºÐ¾Ð» Ð°
ĠÐ¿ÑĢÐ¸ ÑĤÐ¸ÑģÐ½ÐµÑĤÐµ
ÑĨÐ¸ Ð¾Ð½
ÑĥÐ» Ð³ÑĥÑĢÐ°
ĠÐ¼ÐµÑģ Ð½Ð°ÑĤÐ°
ĠÐºÐ¸ ÑĦÐ»Ð°
ĠÐĿÐ° ÐºÑĬÐ»
ĠÑģÐ»ÐµÐ´ Ð¸
ĠÐ¾Ð± Ð»ÐµÐ¿Ð²Ð°
ĠÑģÑĬ ÑĨÐ²Ðµ
ĠÑĤÐ¾Ð¿ Ð»Ð¸ÑĤÐµ
ĠÑģÐ²Ð° ÑĢÐ¸ÑĤÐµ
ĠÐ±Ð° Ð»Ð¾Ð½
ĠÐ¿Ð° Ð¼
ĠÐ¶ÐµÐ»Ð° Ð½Ð¸ÑĤÐµ
ĠÐłÐ°Ð· ÑĢÑıÐ·Ð²Ð°Ð¼Ðµ
ĠÐ¿Ð¾Ð»Ñĥ Ð¸Ð·
ĠÐ¿ÑĢÐµÐ´ Ð¿Ð°
ĠÐĺÐ· Ð»ÐµÐ¹ÑĤÐµ
ĠÐĺÐ· Ð»Ð¸Ð²Ð°Ð¼Ðµ
ĠÑĥ ÑĤÑĢÐ¾
ĠÐ¼Ð¾ ÑıÑĤÐ°
ĠÐľ Ð¸Ð´Ð¸ÑĤÐµ
ĠÐ¿Ð¾ÑģÑĤÐ°Ð²Ñı Ð¼
Ð·Ð¸ ÑĤÐµ
ĠÐ¢ ÑĢÐ¸ÑĤÐµ
ĠÑĢÐ° Ñģ
ĠÐ¶ÑĬÐ»ÑĤÑĬ ÑĩÐ½Ð°ÑĤÐ°
ÐĴ ÑģÑıÐºÐ°
ĠÐ¸Ð·ÑģÐ¸Ð¿Ð²Ð° Ð¼
ĠÐºÐ¾Ð» Ð°
ĠÐ±ÑĬÑĢÐºÐ° Ð¹ÐºÐ¸
ĠÐ¼Ð¸ Ð»Ð¸
ĠÐ¿ÑĬÐ» Ð½Ð°ÑĤÐ°
ĠÐ¾ÑĦÐ¾ÑĢÐ¼ ÐµÐ½Ð¸
Ð¾Ð± ÐµÐ·
ĠÐ·Ð»Ð°ÑĤÐ¸ÑģÑĤÐ¾ ÐºÐ°ÑĦÑıÐ²Ð¾
ĠÐºÑĬ Ð´ÑĢÐ°Ð²
ĠÐ¼Ðµ ÐºÐ°ÑĤÐ°
ĠÐ²ÑģÑıÐºÐ° Ðº
ĠÑĤÐ²ÑĬÑĢ Ð´Ð¸ÑĤÐµ
ÐĺÐ· ÑģÐ¸Ð¿ÐµÑĤÐµ
ĠÐ¢Ð° Ð²Ð¸ÑĩÐºÐ°
ĠÐ½Ð°Ð¿ÑĬÐ» Ð½ÑıÑĤ
ÐłÐ°Ð· ÑĢÑıÐ·Ð²Ð°Ð¼Ðµ
ĠÐ³ÑĢÐ¸ ÑģÑĤÐ°
ÐŀÑĤ ÑĢÑıÐ·Ð²Ð°
ĠÐºÐ¸Ð¿ Ð²Ð°Ð½ÐµÑĤÐ¾
ĠÐ·Ð°ÑĤÐ¾Ð¿ Ð»ÐµÐ½Ð°ÑĤÐ°
ĠÐ¹ ÐµÐ½Ð°
ÑģÑĥ ÑħÐ¸
ĠÑĪÐµ ÑģÑĤ
ÐºÐ°ÑĦ ÐµÐ½Ð¸ÐºÐ°
ĠÑĪÐ¸ÑĪ Ðµ
ÐĽ Ð°
ĠÐ¾ÑģÐ¾Ð» ÐµÐ½Ð¾
ĠÑĢÐ¸Ð± Ð½Ð¸
ĠÑĢÐ°Ð·ÑĢÑıÐ·Ð²Ð° ÑĤÐµ
ĠÐ¼ÑıÑģÑĤÐ¾ ÑĤÐ¾
ÑĨÐµÐ´ ÐµÐ½Ð¾
ĠÑģÐµÐºÑĥ Ð½Ð´Ð°
ĠÐ´ÑĥÐ¿ ÑĩÐ¸
ĠÐ´ÑĥÐ¿ ÐºÐ°ÑĤÐ°
ĠÐ³Ð»Ð¸ Ð½ÐµÐ½Ð¸
ĠÐļÑĢÐµ Ð¼
ĠÑģÑĤÐ¾Ð¿ ÑıÑĤ
ĠÑģÑĤÐ¾Ð¿ ÐµÐ½Ð¾ÑĤÐ¾
ĠÐ¿ÑĢÐµÐ´Ð¿Ð¾ÑĩÐ¸ÑĤÐ° Ð¼
ĠÐ¿ÑĢÐµÐ´Ð¿Ð¾ÑĩÐ¸ÑĤÐ° Ð½Ð¸ÑıÑĤÐ°
ĠÐ¥ Ð»ÑıÐ±Ð°
ĠÑĢÐ°Ð·Ð»Ð¸ ÑĩÐ½Ð¾
Ð²Ð°Ð½ Ð´Ñĥ
ĠÐ·Ð°ÑħÐ»ÑĥÐ¿ ÐµÑĤÐµ
ĠÑģÐ»ÐµÐ¿ Ð²Ð°
ĠÐ´Ð¾Ð¾ Ð¼ÐµÑģÐ²Ð°
ĠÐŁÐ¸ ÐºÐ°Ð½ÑĤÐ¸Ð½Ð°
ĠÐµÐ·Ð¸ ÑĩÐµ
ĠÐ»Ð°Ð·Ð°Ð½Ñı ÑĤÐ°
Ð¿Ð¾Ð»Ð¾Ð²Ð¸ Ð½
ĠÐ¿ÑĢÐµÑĨÐµÐ´ ÐµÐ½Ð¸ÑıÑĤ
ĠÐ´Ñİ Ð»Ñı
ĠÐ¸Ð·ÑģÑĤÑĥÐ´ ÐµÐ½Ð°
ĠÐºÐµÐ±Ð°Ð¿ ÑĩÐµÑĤÐ°ÑĤÐ°
Ð²ÐµÑĢÑģÐ° Ð»Ð½Ð°
ĠÐļÑĢÐ°ÑģÑĤÐ° Ð²Ð¸ÑĨÐ¸ÑĤÐµ
ĠÐ¼ÐµÑģÐµ ÑĨ
ĠÐºÐ¾Ð½ÑģÑĥÐ¼Ð¸ÑĢÐ° Ð½Ðµ
ĠÐ²Ð¸ÑĪ Ð½Ð°
ĠÑĢÐ°Ð·ÑĢÐµÐ·Ð¸ ÑĤÐµ
ĠÑģÐºÑĬÐ»ÑĨÐ° Ð½Ð¸ÑĤÐµ
ĠÐľÐ°ÑĢÐ¸ Ð½Ð°ÑĤÐ°ÑĤÐ°
ÐĹÐ°Ð´ÑĥÑĪÐ° Ð²Ð°ÑĤ
ĠÐ·Ð°Ð´ÑĬÐ» Ð¶Ð¸ÑĤÐµ
ĠÐ±Ð°ÐºÐ»Ð° Ð²Ð°ÑĤÐ°
ĠÑĤÑĢÐ° Ð´Ð¸
ĠÐ¿Ð¾Ð´Ð¾Ð± Ð½Ð°
ÐļÑĢÐ°ÑģÑĤÐ° Ð²Ð¸ÑĩÐºÐ¸ÑĤÐµ
ĠÑħÐ²Ð° ÑīÐ°
ĠÐĺÐ·ÑĨÐµÐ¶Ð´Ð° Ð¼Ðµ
ĠÐľÐ°Ñħ Ð°ÑĤ
ĠÐĵÑİÐ²Ðµ ÑĩÐµÑĤÐ°ÑĤÐ°
ĠÐĹÐ°ÑħÐ»ÑĥÐ¿ Ð²Ð°ÑĤ
ĠÐ½Ð°Ðº Ð»Ð¾Ð½
ÐĳÐ° Ð´ÐµÐ¼Ð¸ÑĤÐµ
ĠÐ¡Ð¼Ð¸ Ð»Ð°ÑĤ
ĠÐ²ÑĬ Ð¿ÑĢÐ¾Ñģ
ĠÑģÐ¸ÑĢÐµÐ½ ÑĨÐ°
ĠÐ¿Ð°ÑĤÐ¸ ÑĨÐ°ÑĤÐ°
ĠÑĢÐ°Ð·ÐºÑĬÑģ Ð²Ð°
ĠÐ¡Ð¾Ð» ÑĤÐ°
ĠÑĥÐºÑĢÐ°Ñģ ÐµÐ½Ð¾
ĠÐĶÑĢÐ¾Ð± ÑĬÑĤ
ĠÐ¿Ð¾ÑĩÐµÑĢ Ð²ÐµÐ½Ðµ
ĠÐ½Ð°ÑģÑĤÑĬÑĢÐ¶ Ðµ
ĠÐºÑĬÐ´ÑĢÐ° Ð²Ð°
ÐļÐ¸ Ð½Ð¾Ð°ÑĤÐ°
ĠÐºÑĢÐ°ÑģÐ¸ Ð²Ð¾
ĠÐĳÐ»Ð°Ð½ÑĪÐ¸ ÑĢÐ°ÑĤ
ĠÐŀÐ¼ Ð»ÐµÑĤÑĬÑĤ
ĠÐ·Ð°ÑħÐ²Ð° ÑīÐ°
ĠÐļÐ°Ð½Ðµ Ð»Ð¾Ð½Ð¸ÑĤÐµ
ÐºÐ¾Ð¿ ÑĩÐ°Ð²Ð°
Ð±Ð¸ÑģÐºÐ²Ð¸ ÑĤÐ¸
Ð¿Ð°ÑĤÐ»Ð°Ð´Ð¶ Ð°Ð½Ð¸
ĠÑĩÐ¸Ð¹Ð· ÐºÐµ
ĠÑģÑĬÑģÑĤÐ¾Ñı Ð½Ð¸Ðµ
k er
r o
Ð ĺ
Ð° Ð¼ÐµÑĤÑĬÑĢ
Ñģ Ð¾ÑĤÐ¾
ĠÑģ Ð°ÑĤ
ĠÑģ Ð°Ð·
ĠÑģ Ð½ÐµÐ¶
ĠÐ¿ ÐµÐ½
ĠÐ¿ ÐµÐ»
Ð´ Ð¾Ð»
ĠÐ¸ Ð²Ð¸ÑĨÐ¸ÑĤÐµ
ĠÐ¸ ÑĤÐ°Ð»Ð¸Ð°
Ð¼ Ð»ÐµÐ½Ð¸ÑĤÐµ
Ð· Ð±Ð°ÑĤÐ°
ĠÐ¼ Ð½Ð¾
ĠÐ¼ ÑĬÑĤ
Ð± Ð¾ÑĢ
ÑĤÐµ Ð»Ð¸
ĠÐ² Ð·ÐµÐ¼ÐµÑĤÐµ
ĠÐ² Ð¾Ð´Ð¾
Ð½Ð¾ Ð²Ð¸ÑıÑĤ
ÐºÐ° Ð¹Ð¼Ð°
ÐºÐ° Ð¿ÐµÑĢÑģÐ¸
ĠÑĩ ÑĥÐ´ÐµÑģ
ĠÑĩ ÑĢÐµÐ²
ĠÐ·Ð° Ð´ÑĬÑĢÐ¶
Ð½Ð° Ð»Ð¸Ñı
ÑĢÐ¸ Ð½Ð°ÑĤÐ°
Ñħ Ð¾
ÐºÐ¾ ÑģÑĤÐµÑĤÐµ
ĠÐ¿Ð¾ Ð¿Ð°
ÑĬÑĢ Ð½ÐµÑĤÐ¾
ÑĢÑı Ð´
ĠÐ´Ð¾ Ð¿ÐµÑĩÐµ
Ð´Ð° Ð´Ðµ
Ð²Ñı ÑĤÐ°
ĠÐ¾ÑĤ ÑĢÑıÐ·Ð°Ð½Ð°ÑĤÐ°
ĠÐ¾ÑĤ Ð¼ÐµÑģÑĤÐ²Ð°
Ð»Ð¾ Ð³
Ð¸Ð¿ ÐµÑĢ
ÑģÑĤ Ð²Ð°
ĠÐ¡ ÑĬÐ±Ð¸
ĠÑģÐ¾Ð» Ð¸
ĠÑıÐ¹ ÑĩÐµÐ½
ĠÐ¿ÑĢÐ¸ Ð±Ð¸ÑĢÐ°Ð¼Ðµ
Ð±ÑĬÑĢ ÑĨÐ¸
ĠÑĤÐµ ÑģÐ½Ð¸
ĠÑħ ÑĢÐ¸
ĠÐ¿Ðµ Ðº
ĠÐ¿Ðµ ÐºÐ¾ÑĢÐ¸
ĠÐ¾Ð± Ð»Ð¸Ð²Ð°ÑĤ
ĠÑĤÐ¾Ð¿ ÐºÐ°ÑĤÐ°
ĠÐ¾ÑģÑĤÐ° Ð²Ð°Ð¼Ðµ
ĠÐĶÐ¾ Ð±Ð°
ÐµÐ´ ÑĢÐ°
ĠÐ¿ÑĢÐ¾ Ð¿ÑĥÑģ
ĠÐ¿ÑĢÐ¾ Ð±Ð»Ðµ
Ð¡ Ð¼Ð¸
Ð¡ Ð¾ÑģÑĬÑĤ
ĠÐ¿ÑĬÑĢÐ¶ ÐµÐ½Ð¾
ĠÐ¿ÑĬÑĢÐ¶ Ð¸Ð»Ð¸
ĠÐ¿ÑĢÐµÐ´ Ð½Ð¸Ñı
ĠÑĥ ÑĢÐµ
ĠÐ¸Ð·Ð¼Ð¸ ÑıÑĤ
ĠÐ¼Ð¾ Ð¼ÐµÐ½ÑĤ
ĠÐ¿ÑĢÐ° ÑģÐµ
ĠÐ¿ÑĢÐ¾Ð´ÑĥÐº ÑĤÐ°
ĠÑĤÐ¸Ðº Ð²ÐµÐ½Ð¾ÑĤÐ¾
ĠÐ¸Ð·ÑģÑĤÐ¸ Ð²Ð°Ð½ÐµÑĤÐ¾
ĠÑĩÐ¸ ÑģÑĤÐ¸
ĠÑĨ Ð²ÑıÑĤÐ°
ĠÐ»ÑĬÐ¶Ð¸ ÑĩÐºÐ°ÑĤÐ°
ĠÐ»Ñİ ÑģÐ¿Ð°
ĠÐ½Ð¾ Ð¶Ð¸ÑĨÐ°
ĠÐ¸Ð·Ð¿ÑĬÑĢÐ¶ Ð²Ð°Ð½ÐµÑĤÐ¾
ĠÐĵ ÑĢÐ°ÑħÑĬÑĤ
Ð°Ð½ ÐºÐ°
ĠÐ±ÐµÐ»ÑĤÑĬ ÑĩÐ½Ð°ÑĤÐ°
Ð´Ðµ Ð¹
ĠÐ´Ðµ Ð²ÐµÑģÐ¸
ĠÐ¾ÑĤÐ´ÐµÐ» ÐµÐ½Ð°
ĠÐ¾ÑĤÐ´ÐµÐ» Ð½Ð¸ÑĤÐµ
ĠÐ³ÑĢÐ°Ð´Ñĥ ÑģÐ¸ÑĤÐµ
ÐµÐ½ÑĤÐ¸ ÑĢÐ¾Ð²
ĠÐ½Ð°ÑĤÑĢÐ¾ÑĪ ÐµÐ½Ð°ÑĤÐ°
ĠÑģÑĢÐµ Ñī
ĠÑģÐ»Ð°Ð´ ÐºÐ°ÑĤÐ°
ĠÐ¼ÐµÐ´ ÐµÐ½
ĠÐ½Ð°ÐºÐ¸Ñģ Ð½Ð°ÑĤÐ°
ĠÐŁÐ¾ÑĢÑĬÑģÐ²Ð° ÑĤÐµ
ĠÐ¼Ñĥ ÑĨ
ĠÑĢÐ°Ð·Ð¿ÑĢÐµÐ´ÐµÐ»Ñı Ð¼
ĠÐĵÐ¾ÑĤÐ¾ Ð²Ð¾
ĠÐ²Ð¾Ð´ Ð½Ð¸
ĠÐ¿ÑĢÐµÐ· ÑĢÐµÐ»Ð¸
ÐŀÑĤ Ð´ÐµÐ»ÑıÐ¼Ðµ
ĠÐĹÐ°Ð¿ÑĬÑĢÐ¶ Ð²Ð°ÑĤÐµ
ĠÐ¿ÑĬÑĢ Ð²Ð¸ÑıÑĤ
ĠÐ»Ð° Ð²Ð°Ð½Ð´Ñĥ
ĠÐ¤ ÐµÑĤÐ°
ĠÐºÐ¾Ð»Ð±Ð° ÑģÐ¸ÑĤÐµ
ÑĥÑĤ ÑĢÐ°
ĠÐºÐµÐºÑģ ÑĬÑĤ
ĠÐºÐµÐºÑģ ÑĩÐµÑĤÐ°ÑĤÐ°
ĠÐĹÐ°Ð»Ð¸Ð²Ð° ÑĤÐµ
ĠÐŀÑĦÐ¾ÑĢÐ¼ ÐµÐ½Ð¸ÑĤÐµ
ĠÐºÐ²Ð° Ñģ
ĠÐ´ÐµÑģ ÐµÑĤ
Ð³Ð¾ÑĤÐ¾ Ð²Ð°
ĠÐºÐ°ÑĦÐµ Ð¼ÐµÐ»Ð°ÑĩÐºÐ°
ĠÐµÐ´Ð½Ð¾ÑĢÐ¾Ð´ Ð½Ð¾
ĠÑģÑĤÑĢÐ¸ ÑĤÐ¸
ĠÐ²ÑĬÐ· Ð´ÑĥÑĪ
ĠÐ¿ÑĢÐ¾Ð·ÑĢÐ° ÑĩÐ½Ð¸
Ð³ÑĬ Ð½ÐµÑĤÐµ
ĠÐ»ÐµÐ´ ÐµÐ½Ð¾
ĠÐ·Ð°Ð¿Ð° Ð»Ð²Ð°
ÑģÐ¼ Ð¸Ð½Ð´ÑĥÑħ
ÑĢÑıÐ·Ð° Ñħ
ĠÐ¿ÑĢÐ¸Ð±Ð° Ð²ÐµÐ½Ð¸
ĠÐ¾ÑĦÐ¾ÑĢ Ð¼Ð¸ÑĤÐµ
ĠÐ²ÐºÐ»Ñİ ÑĩÐµÐ½Ð°
ĠÐ²Ð½Ð¸Ð¼Ð°Ð²Ð° Ð¹ÑĤÐµ
ÑģÐ»Ð°Ð´ Ð¾Ð»ÐµÐ´
ĠÐ½Ð°ÑĩÑĥÐ¿ ÐµÐ½Ð¸ÑĤÐµ
ĠÑģÐ»Ð°Ð´ÐºÐ°ÑĢ ÑģÐºÐ¸
Ð¿Ð»Ðµ ÑĪÐºÐ°
ĠÐĹ ÐµÐ»ÐµÐ²Ð¸ÑĤÐµ
ÑĪÐµÐ½Ð¸ ÐµÑĤÐ¾
ĠÐŁÐ¸ ÑĤÐ¸ÐµÑĤÐ¾
ĠÐ·Ð°Ð¿Ð¾ÑĩÐ²Ð° ÑĤÐµ
ĠÐ¦ ÐµÐ»Ð¸Ð½Ð°ÑĤÐ°
ĠÐ¿Ð¾ÑħÐ»ÑĥÐ¿ ÐµÐ½Ð¸
ĠÐ½Ð°Ð¿ÑĢÑĬÑģ ÐºÐ°
ĠÐ¿ÑĢÐµÑģÐµ Ð´Ð¸
Ð½Ð°ÑģÑĤÑĬÑĢÐ³Ð° Ð½Ð¸
Ð¥ Ð»ÑıÐ±Ð°
ĠÑĨÐ²ÐµÑĤ Ð½Ð¸
ÐŁÑĢÐ° ÑģÐºÐ¾Ð²Ð¸ÑĤÐµ
Ð³Ð°ÑĢÐ¸Ð½ ÑĬÑĤ
Ð½ÑĦÐ»ÐµÐ¹ ÐºÑģ
ĠÐ½Ð°Ð½Ð¸ Ð·Ð²Ð°
ĠÐŁÑĢÐ¸Ð³Ð¾ÑĤ Ð²ÐµÐ½Ð°ÑĤÐ°
ĠÑģÐ¾Ð±ÑģÑĤ Ð²ÐµÐ½Ð°ÑĤÐ°
ĠÑĨÐ¸ ÐºÐ¾ÑĢÐ¸Ñı
ĠÐºÐ¾ÑĢÐ½ÑĦÐ»ÐµÐ¹ ÐºÑģÐ°
ĠÐĺÐ·ÑĩÐ¸ÑģÑĤ Ð²Ð°Ð¼Ðµ
ĠÐ¼Ð¾ÐºÑĢÐ¸ ÑĤÐµ
ĠÐ¿Ð¾Ð´Ð³Ð¾ÑĤ Ð²ÐµÐ½Ð°ÑĤÐ°
ÐĽÐ¸ Ð¼Ð¾
ĠÐ²Ð·Ð¸Ð¼Ð° Ð¼Ðµ
ĠÐłÐµÐ¶Ðµ Ð¼
ĠÐŁÑĢÐµÑħÐ²ÑĬÑĢÐ»Ñı Ð¼Ðµ
ĠÐ¿ÑĢÐ¾ÑĨÐµ Ð´Ð¸ÑĢÐ°
ĠÐ¿ÑĬÐ¿Ðµ ÑĪÐ°
Ð´Ð¿ÑĬÐ´ÑĬ ÑĨÐ¸ÑĤÐµ
ĠÐ¿Ð¾Ð´Ð¾Ð± ÐµÐ½
ĠÐ¼Ð°Ð½Ð´Ð°ÑĢÐ¸ Ð½Ð¸ÑĤÐµ
ĠÐ±ÐµÑĪÐ°Ð¼Ðµ Ð»Ð¾Ð²
ĠÑĦÐ¸Ð»ÐµÐ½ ÑĨÐ°ÑĤÐ°
ĠÑģÐ½Ð¸Ð¼ ÐºÐ°
ÐŁÐ¾Ð´ Ð¿ÑĢÐ°
ĠÐ»Ñĥ ÑĩÐµÐ½Ð°ÑĤÐ°
ĠÐºÐ°Ð¼Ðµ ÑĢÐ°
Ð·Ð°Ð¼ÑĢÐ°Ð· ÐµÐ½Ð¸
ĠÐ½Ð¸ÑģÐºÐ¾ Ð¼Ð°ÑģÐ»ÐµÐ½Ð¾
ĠÐ·Ð´ÑĢÐ° Ð²Ð¾
ĠÐ·Ð°ÐºÑĢÐµ Ð¿Ð²Ð°ÑĤ
ĠÐ¿Ð¾Ð¾Ñħ Ð»Ð°Ð´
ĠÐ·Ð½Ð° ÑĩÐµÐ½Ð¸Ðµ
ĠÐ¿ÑĢÐµÐ¿ÑĬÐ» Ð½ÐµÐ½Ð¸
ĠÑģÐ»Ð°Ð¼ ÐºÐ°
ĠÐĺÐ·Ð¿ÐµÑĩ ÐµÐ½Ð¸ÑıÑĤ
ĠÐ¿Ð¾Ð· Ð»Ð°ÑĤ
ĠÐºÑĥÑħÐ¸ Ð½Ð°
ĠÑģÐ°Ð½ÑĤÐ¸ Ð¼ÐµÑĤÑĢÐ°
ÐłÐ°Ð·ÑĤÐ²Ð°ÑĢÑı Ð¼Ðµ
ĠÐ°ÑĢÑĤÐ¸ÑĪÐ¾ Ðº
ĠÐºÐ°ÑĢÐ½Ð° ÑĩÐµÑĤÐ°
ĠÐ³ÐµÐ²ÑĢÐµ ÑĩÐµÑĤÐ°
ĠÐ½Ð°ÐºÐ° Ð¿Ð²Ð°
ĠÐ±Ð¾ÑĢ Ð´
ĠÑģÐ²Ð¾Ð±Ð¾Ð´ Ð½Ð¾
ĠÐ¶Ð°Ñģ Ð¼Ð¸Ð½Ð¾Ð²
ĠÑģÑĬÑĢÐ½Ðµ Ð»Ð¸
ÐĽÑİ ÑĤÐ¸ÑĤÐµ
ĠÑģÐ»Ð°Ð¹ ÑģÐ¾
Ð¡ÑĤÐ° ÑĦÐ¸Ð´Ð¸ÑĤÐµ
ĠÐµÑģÑĤÑĢÐ° Ð³Ð¾
ÑĨÐ°ÑĢÐµÐ²Ð¸Ñĩ Ð½Ð¾
®ÑĦ ÐºÐ°ÑĤÐ°
ĠÐ´Ð²Ð¸Ð¶ ÐµÐ½Ð¸Ñı
ĠÐĵÑĢ ÑİÐµÑĢ
ĠÐŁÐµÑĢÐ¸ Ð¾Ð´Ð¸ÑĩÐ½Ð¾
ĠÑģÐ°Ð· Ð´ÑĬÑĢ
ĠÐ´ÐµÐ²ÐµÑģÐ¸ Ð»Ð°
4 20
f i
i n
Ġ F
Ġ T
Ð° Ð»Ð½Ð°
Ðµ Ð¼Ð°
Ðµ ÑĪÐºÐ¾
Ð¾ ÑıÑĤ
ÑĤ ÐµÐ½Ð¾
Ð½ ÐµÐ½Ð¸ÑıÑĤ
Ð² ÑĬÑĤÑĢÐµ
Ð²Ð° ÑĢÐµÐ½
Ð´ ÐµÐ½ÐµÑĤÐ¾
ÑĤÐ° ÑĢÐ¾Ñģ
Ñĥ ÑģÐº
Ð¿ ÑĢÑĬ
Ð¿ Ñİ
ĠÐ¾ ÑĩÐ¸ÑģÑĤ
Ð± ÑĢÐ°ÑĤÐ°
ĠÐ² ÑĬÐ»ÑĪÐµÐ±ÐµÐ½
ÐºÐ° Ð¿Ð¸Ñı
Ð½Ð° Ð´
ÑĢÐµ Ð¾
Ð»Ð¸ Ð²ÐºÐ°ÑĤÐ°
ĠÐ¿Ð¾ Ð½Ð¸
ĠÐ¿Ð¾ ÑĢÐ°Ð·
ÑĬÑĢ ÑĨÐµ
Ð¼Ðµ ÑĤ
Ð¼Ð° Ð»ÐºÐ°ÑĤÐ°
ĠÐºÐ° ÑĤÑĬÐº
Ð¹ ÑĤÐ°
Ð°ÑĢ ÑĦÐ°
ĠÑĢÐ°Ð· ÑĤÐµÐ³Ð»ÑıÑĤ
ĠÐ¸Ð· Ð»Ð¸Ð²Ð°Ð¼Ðµ
ĠÐ¸Ð· ÑĢÑıÐ·Ð°Ð½Ð¸
ĠÐŁ ÑĢÐ°Ð·
ĠÐŁ ÑĢÐµÐ¼Ðµ
ĠÐ¼Ð» ÐµÐ½Ð¸
ĠÑģÐ¸ ÑĤÐµÐ½
ĠÐ¡ Ð¼Ð°
ĠÐ¡ Ð½ÐµÐ¶
ĠÑĤÐ¾ ÑĩÐµÐ½Ðµ
ĠÐ¿ÑĢÐµ Ð²ÑĬÑĢ
Ð´Ð¸ Ð°Ð¼ÐµÑĤÑĬÑĢ
ĠÑĤÐ° Ð±Ð°ÑģÐºÐ¾
ĠÑĤÐ° Ð»Ð¸Ð°
Ð²Ð¸Ñĩ Ð½Ð¾ÑĤÐ¾
ĠÐ¼ÐµÑģ ÐµÑĤÐµ
Ð·Ð° Ð½Ð¾ÑĤÐ¾
ĠÐļ ÑĢÑĬ
ĠÐĶ ÑĬÑĢÐ¿Ð°
ĠÐĿÐ° Ð¿Ð¸
ĠÐ¾Ð± ÐµÐ´Ð¸Ð½ÑıÐ²Ð°ÑĤ
ĠÐĶÐ¾ Ð¼Ð°ÑĤÐ°
ĠÐĹÐ° Ð¿ÐµÑĩÐ°ÑĤ
ĠÐ¿ÑĢÐ¾ Ð±Ð°
ÐĹÐ° Ð¿Ð¾
Ð¡ ÐºÐ°ÑĢÐ¸Ð´Ð¸ÑĤÐµ
ĠÐ¿ÑĬÑĢÐ¶ Ð°
ĠÐ¿ÑĬÑĢÐ¶ Ð¾Ð»Ð°ÑĤÐ°
ĠÐŀÑĤ Ð²Ð¾ÑĢ
ĠÐ½Ð°Ð¼Ð°Ð· Ð½ÑıÐ²Ð°ÑĤ
ĠÐĺÐ· ÑģÑĤÑĥÐ´
ĠÐĺÐ· ÑĩÐ°ÐºÐ°Ð¹ÑĤÐµ
ĠÑĥ ÑĢÐµÐ´
ĠÐ¸Ð·ÑģÐ¸Ð¿ Ðµ
Ð´Ð¾ Ð±ÑĬÑĢ
ĠÐ¢ ÑĢÐµ
ÑĪÐºÐ¸ ÑıÑĤ
ĠÑģÑĤÑĢÑĬ ÐºÐ¾Ð²ÐµÑĤÐµ
ĠÐ¿Ð¾ÑģÐ¾Ð» ÐµÐ½Ð¸ÑĤÐµ
ÐĴ Ð·ÐµÐ¼ÐµÑĤÐµ
ĠÐ²ÑĢÑĬÐ· Ð²Ð°
Ðļ Ðµ
Ðļ Ð¸Ð¿
ĠÐ¸Ð·ÑģÑĤÐ¸ Ð²Ð°ÑĤ
ÑĪÐ° Ð²Ð°
ĠÐĳ Ð¾Ð±ÑĬÑĤ
ĠÐĳ ÑĥÑĤÑĩÐµÑĤÐ¾
ÑĤÐ¸Ñı ÑĤÐ°
ĠÐ½Ð¾ Ð²Ð¾
ĠÐ»Ð¸ÑģÑĤ ÑĩÐµÑĤÐ°
ĠÐ¯ Ð´ÐºÐ¸ÑĤÐµ
ĠÐ¼Ð°ÑģÐ»Ð¸ Ð½Ð°ÑĤÐ°
ĠÐŁÑĢÐµ Ð¼ÐµÑģÐ²Ð°
ĠÐ´Ðµ Ð±ÑĬÑĢÑĨÐ¸
ĠÐ¿Ð»Ð¾ ÑĩÐ°ÑĤÐ°
ĠÐºÐ°ÑĦ ÐµÐ½Ð°
ĠÐ²ÑģÑıÐºÐ° ÐºÑĬÐ²
Ð»ÐµÐ½ Ð´Ð¸
Ð»ÐµÐ½ ÑĨÐ°ÑĤÐ°
ĠÐ±Ð¾Ð± ÐµÐ½Ð°ÑĤÐ°
Ð¢ Ð¾Ð²Ð°
ĠÐ³ÑĢÐ¸ Ð»Ð°
ĠÐ±ÑĥÑĢÐºÐ°Ð½ ÑĩÐµÑĤÐ°ÑĤÐ°
ĠÐºÐ¾Ð½ ÐºÐ¸
ĠÐ·Ð°Ð¿Ð¾Ñĩ Ð²Ð°ÑĤ
ĠÐ¿Ð¾ÑģÐ»ÐµÐ´ Ð½Ð¾ÑĤÐ¾
ĠÐ´Ð¾Ð»Ð¸Ð²Ð° Ð¼
ĠÐ¿ÑĢÐ°Ð²Ð¾ÑĬÐ³ÑĬÐ» ÐµÐ½
ĠÑĤÐ¾Ð¿Ð»Ð¸ ÑĩÐºÐ¾
ĠÑıÐ³Ð¾ Ð´Ð¾
ĠÐ£ Ð²Ð¸Ð²Ð°
ĠÑĢÐ°Ð·ÑĤÐ¾Ð¿ÑıÐ²Ð° Ð½ÐµÑĤÐ¾
ĠÐ¾ÑħÐ»Ð°Ð´ ÐµÐ½Ð¾ÑĤÐ¾
ĠÐ½Ð°Ð¿ÑĢÐ° Ð²ÐµÐ½
ÐļÐ° Ð¹ÑģÐ¸Ð¸ÑĤÐµ
ĠÐ¸Ð·ÑĨÐµÐ´ ÐµÐ½Ð¸ÑıÑĤ
ĠÐ±Ð°ÑħÐ°ÑĢ ÑĬÑĤ
ĠÑĢÐ°Ð·ÑĢÐµÐ¶Ð´Ð° Ð¼Ðµ
ÐĽ ÐµÐºÐ¾
ĠÑģÑĤÑĬÐº Ð»ÐµÐ½Ð¾
ĠÑĤÑĢÐµ ÑĤÐ¾ÑĤÐ¾
ĠÐŀÐ²ÐºÑĥÑģÑıÐ²Ð° ÑĤÐµ
ĠÐ¡ÑĬ ÑīÐ¾ÑĤÐ¾
ĠÑĩÐµÑĢÐµ ÑĪÐ¾
ĠÐ½Ð°Ð±ÑĬÐ± Ð²Ð°Ð½Ðµ
ĠÑģÑĤÐ¾ ÑĢÐ¸
ĠÐ³Ð¾Ð²ÐµÐ¶ Ð´Ð¾ÑĤÐ¾
ĠÐºÐ°ÑĢÐ°Ð¼ÐµÐ»Ð¸Ð·Ð¸ ÑĢÐ°ÑĤ
ĠÐ´Ð¾ÑģÑĤÐ°ÑĤÑĬ ÑĩÐ½Ð¸
ĠÐ·Ð°Ð² ÑĢÑı
ĠÐ²ÐºÐ»Ñİ ÑĩÐ²Ð°Ð¼Ðµ
ÑĨÐµÐ¿ ÑĤÐ°ÑĤÐ°
ĠÑĢÐ°Ð·Ð»Ð¸ ÑĩÐµÐ½
ĠÑģÑĬÑħ Ð½Ð°ÑĤ
Ðĸ Ð¸
ÐļÐ¾ ÑĢÐ°ÑĤÐ°
ĠÑĥÐ²ÐµÐ»Ð¸ ÑĩÐµÑĤÐµ
ĠÐ¡Ð¼ÐµÑģÐ²Ð° ÑĤÐµ
ĠÐºÑĢÐ¸ÑģÑĤÐ° Ð»Ð¸
ĠÐ¿ÐµÑĢÐ¸ ÑĦÐµÑĢÐ¸
ĠÐºÐ°ÑĢÐ´Ð°Ð¼Ð¾ Ð½
ĠÐºÐ°ÑĢÐ´Ð°Ð¼Ð¾ Ð¼Ð°
ĠÑĢÐ¸Ð±Ð¸ ÑĨÐ°
ĠÐ½Ð°Ð¿Ð¾ Ð¸
ĠÐ²ÑĬÑĢ Ð´Ð¶Ð¸Ð½
ĠÐ°ÑĢÐ¾Ð¼Ð°ÑĤÐ¸ Ð·Ð¸ÑĢÐ°Ð½Ð°
ÑģÑĢÐµÐ´ Ð½Ð¾
Ð»ÑĬ ÑģÑĤÐ°
ĠÐ´ÐµÑģÐµÑĢ ÑĤÐ½Ð¾
ĠÐºÑĢÐµÑħ ÐºÐ¸
ĠÐ»ÑĥÐºÐ°Ð½ ÐºÐ¾Ð²
ĠÐĳÐ° ÐºÐ¿ÑĥÐ»
Ð¼ÐµÑģÑĤ Ð²Ð°ÑĤ
ĠÐŁÑĢÐ¸Ð³Ð¾ÑĤ Ð²ÑıÑĤ
Ð»ÐºÐ¾Ñħ Ð¾Ð»
ĠÐļÐ¾ÑĤ Ð»Ð¾Ð½Ð°
ĠÐ½Ð°Ð´ÑĢÐ¾Ð± ÐµÐ½Ð¾
ĠÑģÐ¿Ð»Ðµ ÑģÐºÐ°
ĠÐ¸Ð·ÑģÑĥÑĪ ÐµÐ½
ĠÑģÑĤÐ¸ Ð³Ð°
ÐĿ Ðµ
ĠÐ±ÐµÐ·ÑģÐ¾Ð» Ð½Ð¾
ĠÑĤÑĢÐ° ÑħÐ°Ð½Ð°
Ð¹Ñģ Ð±ÐµÑĢÐ³
ĠÐĶÐµÑģ ÐµÑĤ
ĠÑĢÐ°Ð·Ð²Ð°ÑĢÑı Ð²Ð°ÑĤ
ĠÐĵÑİÐ²Ðµ ÑĩÐ°
ĠÐºÐµÑĢÐ°Ð¼Ð¸ ÑĩÐµÐ½
ĠÐĵÐ»Ð° Ð·ÑĥÑĢÐ°ÑĤÐ°
ĠÐ·Ð°Ð²ÑĬÑĢÑĪ Ð²Ð°Ð¼Ðµ
ĠÐĹÐµ ÑħÑĤÐ¸Ð½Ð°
ĠÐ¿Ð¾Ð´Ð»Ñĥ ÑĩÐµÐ½Ð¾ÑĤÐ¾
ÐºÑĥÐ± ÑĩÐµ
ÐłÐ°Ð·ÑĤÐ¾Ð¿ ÑıÐ²Ð°Ð¼Ðµ
ĠÑĢÐ°Ð±Ð¾ ÑĤÐ°
ĠÐŀÐ¿Ð¸ ÑĤÐ°Ð¹ÑĤÐµ
ĠÑĢÐ°Ð·Ð´ÑĢÐ¾Ð± ÑıÐ²Ð°
ĠÐºÐ°Ð½ÐµÐ»Ð¾ Ð½Ð¸ÑĤÐµ
ÐļÑĢÐµ Ð¼Ð°
ĠÐºÐ°Ð¿ÑģÑĥ Ð»Ð¸
ĠÐŁÐ¾Ð´ÑģÑĥÑĪ Ð°Ð²Ð°ÑĤ
ĠÐĶÐ¶ Ð¸Ð½Ð´Ð¶Ð¸ÑĦÐ¸Ð»ÑĬÑĤ
ĠÐ§ÑĥÐº Ð²Ð°
ĠÑĥÐ¿Ð¾ÑĤÑĢÐµ Ð±Ð°
ĠÐ½Ð°ÐºÐ»Ð¾ Ð½ÐµÐ½
ĠÐļÐ¸Ð¿ Ð²Ð°ÑĤ
ĠÐ±Ð»Ð¾Ðº ÑĩÐµÑĤÐ°
ĠÐ²Ð»Ð°Ðº Ð½Ð°
ĠÑģÐ»Ðµ Ð³Ð½Ðµ
ĠÑģÑĤÐ°ÑĢÐ° ÑĤÐµÐ»Ð½Ð¾
Ð¢Ð¾ Ð¿
ĠÑĥÑģÐ²Ð¾ Ð¸
ÐĵÑĢÐ¸ ÑģÑĬÑĤ
ĠÐ¼Ð¸ÑĢÐ¸ Ð·Ð¼Ð°
ĠÐ´Ð¾Ð»Ðµ Ðµ
Ð¿Ð¾Ð´ÑģÐ»Ð°Ð´ ÐµÐ½Ð¾
ĠÐŁÐ¾Ð»Ð¾Ð²Ð¸ Ð½
ĠÐ¾ÑĤÐ½Ðµ Ð¼Ðµ
Ð²Ð½Ð¸Ð¼Ð° Ð²Ð°Ð¹ÑĤÐµ
ĠÐºÐ½ÐµÐ´ Ð»Ð¸
ĠÑĩÐ¾Ð²Ðµ Ðº
ĠÐ¿Ð¾Ð¼ÐµÑī ÐµÐ½Ð¸Ðµ
ĠÑĢÐ°Ð¼ ÑģÑĤÐµ
ĠÐ°Ð»Ð°Ð±Ð° ÑĪ
ĠÐĴÑĢÐµÐ¼Ðµ ÑĤÐ¾
ĠÐ³Ð°Ð²Ð°Ð½ ÐºÐ°
ĠÐ²Ð¾Ð´Ð¾ ÑĢÐ°Ñģ
ĠÐŀÑĤÐ²Ð¾ÑĢ ÑĬÑĤ
, [
i t
t ra
Ġ O
ÑĢ ÐµÐ½Ð¸
ÑĢ ÐµÐ½Ð°
Ð² Ð´Ð¶Ð¸
Ðº ÑĢÐ¾Ð¼Ð¸Ð´
ĠÑģÐµ Ðº
Ð²Ð° Ð»Ð¸
Ð´ Ñı
Ð¼ Ð±ÐµÑĢ
Ð· Ð½Ð°
ĠÐ½Ð° Ð³ÑĢÐµÐ¹ÑĤÐµ
ĠÐ½Ð° Ð¿ÑĢÑı
ĠÐ¼ ÑĥÑĪ
ĠÐ¾ Ð¼ÐµÑģÐ²Ð°Ð½Ðµ
ÑĢÐ° Ð½Ðµ
ĠÐ³ ÑĬÑģÐºÐ°
ĠÐ± ÑĢÐ°
ĠÐ·Ð° ÑģÑĬÑħ
Ð½Ð° Ð±
ÑĤÐ¸ Ð½Ð°ÑĤÐ°
ÑĤÐ¸ ÑĢÐ°ÑĤ
ÑĤÐ¸ Ð½ÑģÐºÐ°
ÑĢÐ¸ Ð½Ð¸ÑĤÐµ
Ñħ ÑĥÐ±Ð°Ð²Ð¾
ÐºÐ¾ Ð²Ð¸ÑĤÐµ
ÐºÐ¾ ÑĢÐµÐ½
ÐºÐ¾ Ð²Ð¸ÑıÑĤ
ĠÐ¿Ð¾ ÐºÑĬÐ»
Ð²Ð¸ ÑģÐ¾
Ð¹ Ð½Ð°ÑĤÐ°
Ð»Ð¾ Ð³ÑĢÐ°
ÑģÑĤÐ° Ð½Ðµ
Ð³Ð° ÑĢÐ¸Ð½Ð°
ĠÑĢÐ°Ð· Ð´ÑĬÑĢ
ĠÑĢÐ°Ð· ÑĤÐµÐ³
ĠÐ¡ Ð»ÐµÐ¿Ð²Ð°ÑĤ
Ð±Ð¸ Ð²Ð°Ð½Ðµ
ĠÑģÐ¼Ðµ Ð»Ð¸
ÑĥÑĪ Ð»ÐµÑĤÐ°ÑĤÐ°
ĠÐµ Ð»ÐµÐ½
ĠÑĦ Ð»Ð°
ĠÑĤ ÑĢÑıÐ±Ð²Ð°ÑĤ
ĠÑģÐ¾ Ñı
ĠÑģÐ¾ ÑĩÐµÐ½
Ð¿Ð° ÑĤÐ°
ĠÐ¼Ð°Ð» ÐºÐ°ÑĤÐ°
ĠÐŀ Ð±ÑĬÑĢ
ĠÑĤÐ° Ð²Ð¸ÑĩÐºÐ¸
ĠÑĤÐ° ÑĢÐ¾Ñģ
ĠÐ»Ð¸ ÑĤÑĢÐ°
ĠÑĩÐµÑģ Ð½Ð¾Ð²Ð°ÑĤÐ°
ĠÐ½Ðµ Ð³Ð¾Ð»ÐµÐ¼Ð¸
ĠÑģÐ¸ÑĤÐ½Ð¾ ÑĤÐ¾
ÑģÐ° Ð»Ð°
ÑĥÐ» Ñĥ
Ð²Ð¾ ÑĤÐ¸Ð½ÑģÐºÐ°
ĠÑħ Ð²ÑĬÑĢ
ĠÐ¼ÐµÑģ Ð½Ð¸
Ð·Ð° Ð»ÐºÐ¾ÑħÐ¾Ð»
ĠÐļ Ð¸
ĠÐļ ÑĬ
ĠÐļ ÑĢÐ¾
ĠÑĢÐ°Ð·Ð±Ð¸ ÐµÑĤÐµ
ĠÐ¾ÑĢÐ¸ ÐµÐ½ÑĤÐ¸ÑĢÐ¾Ð²
ĠÐ½Ð°ÑĢÑıÐ·Ð° Ð»Ð¸
ĠÐĹÐ° Ð»Ð¸Ð²ÐºÐ°ÑĤÐ°
ĠÐ¿Ð¾Ð´Ð¿ÑĢÐ°Ð² ÐµÐ½Ð¸
ĠÐ¿Ð° Ð¿Ð°ÑĢ
ĠÐ¿ÑĢÐ¾ Ð¼
ĠÐ¿ÑĢÐ¾ ÑĤÐ¸
ÑĩÐ° ÐºÐ²Ð°ÑĤ
Ð»Ñı Ð³Ð°
ĠÐ¶ÐµÐ»Ð° Ð½Ð°
ĠÐ´Ð¾Ð¼Ð°ÑĤ ÑĩÐµ
ÑĤÐ¸ÑĤÐµ Ð»
ĠÐĺÐ· Ð»Ð¸Ð·Ð°ÑĤ
ĠÑĥ Ð»Ðµ
ĠÐ¼Ð¾ Ð´ÐµÐ»Ð¸
ĠÑĢÐ° Ð±Ð¾ÑĤ
ĠÐ±Ð¸ Ð»Ð¸
ĠÐ±Ð¸ ÐµÐ½ÐµÑĤÐ¾
ĠÐ±Ð¸ ÑģÑĤÑĢÐ°
ÐĴ Ð¾Ð´
ĠÐ²ÑĢÑĬÐ· Ð²Ð°ÑĤ
ĠÐºÐ¾ÑĢÐ¸ ÑĩÐºÐ¸ÑĤÐµ
Ðļ ÑĢÑĥÑĪÐ¸ÑĤÐµ
ĠÐ±ÑĬÑĢÐºÐ° Ð»ÐºÐ¸ÑĤÐµ
ĠÐ³Ð° ÑĥÐ´Ð°
ĠÐ±ÐµÐ» ÐµÐ½
ĠÐ¼Ð¸ Ð³
ĠÐ¾Ð¼ÐµÐº Ð½Ð°Ð»
ĠÐŁÑĢÐµ Ñģ
ÑģÐ¾ Ð²Ð¾
ĠÐĲ Ð³Ð½Ðµ
ĠÐ½Ð°Ð¼Ð°Ð·Ð²Ð° Ð¼
ĠÑģÐ¼ÐµÑģÐ²Ð° Ð¼
ĠÑĥÐºÑĢÐ° ÑģÐµÐ½
ĠÑĥÐºÑĢÐ° ÑģÐµÐ½Ð°
ĠÐ¿Ð°ÑģÐ¸ ÑĢÐ°Ð½Ð°
ĠÑĪÐ° Ð¿ÐºÐ¸ÑĤÐµ
Ð¼Ð°Ñģ Ð»ÐµÐ½
ĠÑĤÐ¸Ñħ Ð¾
ĠÑĢÑĬ ÑĩÐµÐ½
ĠÐŁÐµ ÐºÐ°
ĠÑĢÐµÐ½Ð´ Ð¾ÑģÐ°Ð½Ð¸
Ð´ÑĬÐ» Ð³Ð¸
Ð²Ð°ÑĢ ÑģÐºÐ°
ÐĺÐ· Ð¿Ð»Ð°
ĠÑģÑĥÑħÐ° ÑĢÐ°
ÐłÐ°Ð· Ð´ÐµÐ»ÐµÑĤÐµ
ĠÐ¸Ð½Ð´Ð¸ Ð¹ÑģÐºÐ¸
ĠÐ¸Ð·ÑĩÐ¸ÑģÑĤ Ð²Ð°Ð¼Ðµ
ĠÐ²Ð¾Ð´ ÐµÐ½
Ð¿ÐµÑĩ ÑĥÑĢÐºÐ¸
ĠÐ¿ÑĬ Ñħ
ĠÐ¿ÑĬ Ð¿ÐºÐ¸
ÐŁÐ¾ ÑģÑĤÐ°Ð²Ñı
ĠÐºÐ¸Ð¿ Ð½Ð°Ð»Ð°
ĠÐ¤ Ð°ÑģÑĥÐ»ÑĬÑĤ
ĠÑĢÐ°Ð·Ð¼Ð¸ Ð²Ð°ÑĤ
ĠÐ¾Ð±Ðµ Ð¼ÑĬÑĤ
ĠÐ´Ð¾Ð±Ð° Ð²ÐµÐ½Ð°
ÐĺÐ·Ð¼Ð¸ Ð²Ð°
ĠÐ±Ð°Ð½Ð¸ ÑĩÐºÐ¸ÑĤÐµ
ĠÐ¼Ð°ÑĢÐ¸Ð½Ð¾Ð²Ð° Ð½Ð¾ÑĤÐ¾
ÐºÐ¾ÑģÑĤ ÐµÐ½
ĠÐ£ Ð²Ð¸Ð¹ÑĤÐµ
ĠÐ±Ðµ Ð·Ð°Ð»ÐºÐ¾ÑħÐ¾Ð»
ĠÐ¸Ð·ÑĨÐµÐ´ ÐµÐ½Ð°
ĠÐ¿Ð¾ÑĢÑĤÐ¾ÐºÐ°Ð»Ð¾ Ð²Ð¸ÑıÑĤ
Ð»ÑĬÐ½ ÑĩÐ¾Ð³Ð»ÐµÐ´
ĠÐ¿Ð¾ÑĩÐ¸ ÑģÑĤÐ¸
ĠÐ»Ð¾ ÐºÑĥÐ¼Ð°
ĠÐ»Ð¾ Ð²Ð´Ð¶Ð¸
ĠÐºÐ¾Ð¼Ð¿Ð¾ ÑĤÐµÐ½
ĠÑģÑĤÐµÑĢÐ¸Ð»Ð¸Ð·Ð¸ ÑĢÐ°Ð½Ð°
ÑģÐµÐ¼ ÐµÐ½Ð°
ĠÐĿÐµ Ð¾Ð±ÑħÐ¾Ð´Ð¸
ĠÐ·Ð°Ðµ ÑĪÐºÐ¸
ĠÐ·Ð°Ð¿Ðµ ÐºÐ°Ð½
ĠÐ¡ÑĬ ÑīÐ¾
ÑĢÐ¾Ð·Ð¾ Ð²Ð¾
ÑģÐ¸ÑĢÐµÐ½Ðµ ÑĤÐ¾
ÑĢÑĥÑĪ Ð¸
Ð²Ð°Ð½Ð¸ Ð»ÐµÐ½Ð°
ĠÐ¸Ð·Ð¿Ð¸ÑĩÐ° Ð¼Ðµ
ĠÐ¸Ð·ÑģÑĤÐ¸Ð½Ð° Ð»Ð¾ÑĤÐ¾
ĠÑĥÐ´Ð²Ð¾ ÑıÑĤ
ĠÐŁÐ¾Ð»ÑĥÑĩ ÐµÐ½Ð¸Ñı
ĠÐ¿Ð¾Ð»ÑĥÐ³Ð¾ÑĤÐ¾ Ð²Ð¸
ÑģÑĤÐµÐ½ ÑĨÐ°
ÑĨÐµÐ¿ Ð²Ð°ÑĤ
ÑĤÐ²ÑĬÑĢ Ð´Ð¸
ĠÐ¥ Ð»ÐµÐ±
ĠÐĴÐ½Ð¸Ð¼Ð° Ð²Ð°Ð¹ÑĤÐµ
ĠÐºÐµÑĢÐµ Ð¼Ð¸
ĠÐ¾Ð±ÑĢÐ°Ð·ÑĥÐ²Ð° Ð»Ð°ÑĤÐ°
ĠÐ¿ÐµÑĢ ÑĨÐ°
ĠÐ¿ÐµÑĢ ÐºÐ¸ÑĤÐµ
ĠÑĩÐµÑĢÑĥÐ¿ ÐºÐ°
Ð¼Ð¾ÐºÐ¸ Ð½Ð¸ÑĤÐµ
ĠÐ°Ð½ Ð³Ð¸Ð½Ð°
ĠÐºÐ¾ÑĪÐ½Ð¸ ÑĩÐºÐ°ÑĤÐ°
ĠÐ·Ð°Ð± ÑĢÐ°Ð²Ñı
ĠÐ¾ÑĤÐ²Ð¾ÑĢ ÐµÐ½Ð°
ÐĺÐ·ÑĩÐ¸ÑģÑĤ ÐµÐ½Ð°ÑĤÐ°
ĠÐ±ÐµÐ»Ð¸ ÑıÑĤ
ĠÐĹÐµÐ» ÐºÐ°ÑĤÐ°
ĠÑĢÐ°Ð·Ð¼ÑĢÐ°Ð· ÑıÐ²Ð°ÑĤ
Ð¾ÑĤÐ½Ð¾ ÑĪÐµÐ½Ð¸ÐµÑĤÐ¾
ĠÐ¾ÑħÐ»ÑİÐ² ÑĩÐµ
ĠÐ¢Ð¾Ð¿ ÐºÐ¸ÑĤÐµ
ĠÐ¿Ð¾Ð¶ÑĬÐ» ÑĤÐµ
ĠÐ½Ð°Ð¼Ð¾Ðº ÑĢÑı
ÑĢÐ¾ÐºÐ¾Ð» Ð¸ÑĤÐ¾
ĠÑģÐ¿Ð¸ÑĢÐ° Ð»Ð°
ĠÐ¸Ð·Ð¿Ð»Ñĥ Ð²Ð°
ĠÐĵÐ° Ð»ÐµÑĤÐ°ÑĤÐ°
ĠÑī ÐµÐ´ÑĢÐ¾
ĠÐŁÐ¾Ð´ÑħÐ¾Ð´Ñı Ñī
ĠÐ¼Ð°Ð· Ð½Ð¾
ĠÐ·Ð°ÐºÑĢÐµ Ð¿Ð²Ð°
ĠÐ¿Ð¾Ð´ÑĢÐµÐ´ ÐµÐ½Ð¸ÑĤÐµ
Ð±Ð¾Ð´ ÐµÑĤÐµ
ĠÐĹÐ°Ð³ ÑĢÐµÐ±Ð²Ð°
ĠÑĢÐ°Ð·Ð¼Ð° ÑĩÐºÐ²Ð°
ĠÐ½ÑĥÐ¶ Ð½Ð¸
ĠÑĪÑĥÑĪÑĥÐ» ÐºÐ¸
ĠÐĵÐ¾ÑĢÐµ ÑīÐ¸
ĠÐºÑĥÑĤÐ¸ Ð¹ÐºÐ°
ĠÐĴÐ¸ Ð½Ð¾ÑĤÐ¾
ĠÑĪÐ¿Ð¸ ÐºÐ¾
ĠÐºÐ¾Ð¼Ð±Ð¸ Ð½Ð°
ĠÐĽÐ¸Ð¼Ð¾ Ð½ÑĬÑĤ
ĠÑģÑĥÑĦÐ»Ðµ ÑĤÐ¾
Ð³ÑĢÐµ Ðµ
ĠM aggi
ĠÑĢÑĥÐ»Ð°Ð´Ð¸ Ð½Ð¸ÑĤÐµ
ĠÐ´Ð¶Ð¸Ð½Ð´Ð¶Ð¸ÑĦÐ¸ Ð»Ð¾
is h
ĠÐ½Ð¾ÑĢÐ¼Ð° Ð»Ð½Ð¾
Ð§Ð° ÑıÑĤ
ĠÐŀÑĤÑĨÐµÐ´ ÐµÐ½Ð¸ÑĤÐµ
ĠÐ¿ÑĢÐ¾ÑĨÐµÑģ Ð°
Ð¡Ñĥ ÑĢÐ¾
Ð°ÑĢÐ¾ Ð¼Ð°ÑĤ
Ð½Ð°ÑĤÑĥÑĢÐ° Ð»Ð½Ð¾
ĠÑħÐ»ÐµÐ±Ð¾Ð¿ÐµÐºÐ°ÑĢ Ð½Ð°ÑĤÐ°
ĠÐłÑĬÑģ Ð¸
ĠÑĢÐ°Ð·Ð¿Ð¾Ð»Ð°Ð³Ð° ÑĤÐµ
ĠÑħÐ°Ð¼Ð± ÑĥÑĢÐ³
Ð½Ð¸ÑĪ ÐµÑģÑĤÐµ
ÐºÑĬÑģÐ° Ð¹ÑĤÐµ
ĠÐ²ÐµÑģÑĤ Ð½Ð¸Ðº
ĠÑģÐ¿Ð¸ÑĢÐ°Ð»Ð¾Ð²Ð¸Ð´ Ð½Ð¾
ĠÑĢÐ°Ð·Ð½Ð¾ ÑĨÐ²ÐµÑĤÐ½Ð¸
ÐĿÐ°Ð´ ÐµÐ½Ð¸ÑĨÐ°ÑĤÐ°
ĠÑĦÐ°Ð½ ÑĤÐ°
ĠÐŁÐµÐºÐ¾ ÑĢÐ¸Ð½Ð¾
ĠÐ²ÑģÑıÐºÐ°Ðº Ð²Ð¸
ĠÑħÑĢÐ¸ Ð»ÐµÑĤÐµ
ĠÐ¿ÑĢÐ¾Ð±Ð»Ðµ Ð¼
ĠÐ¿Ð¾Ð·Ð»Ð°ÑĤ ÑıÐ²Ð°Ð½Ðµ
ĠÐ¿ÐµÑĢÐ¸ÑĦÐµÑĢÐ¸ ÑıÑĤÐ°
ĠÐ½Ð°Ð¿ÑĢÑı ÐºÐ¾
r e
u t
x tra
ĠÐ ĹÐµÐ»ÐµÐ½ÑĩÑĥ
Ð° Ð³Ð°ÑĤ
Ð° Ð»ÑĥÐ¼Ð¸Ð½Ð¸Ðµ
Ð¾ ÑģÑĤÐ°Ð²Ñı
ĠÑģ Ð½Ð¾Ð¿
Ð» ÐµÑĢÐ¸
Ðº ÑĢÑĬÐ³
Ñĩ Ð½Ð¾ÑĤÐ¾
ÑĬ Ð¾Ð½
ĠÐ¸ Ð³Ð»Ð¸
ÑĤÐ° Ð²Ð°ÑĤÐ°
Ð¼ ÑĩÐ¸Ñı
ÑĤÐ¾ ÑĩÐ²Ð°
ĠÐ½Ð° Ð½Ð¾Ð²Ð¾
ÑĤÐµ Ð»Ð¸ÑĤÐµ
Ð½Ð° Ñħ
Ð»Ð¸ Ð¾
Ð»Ð¸ ÑģÑĤÐµÐ½ÑĨÐ°
ÑĢÐ¸ ÑıÑĤ
Ð»Ð° Ð½Ð¾ÑĤÐ¾
ÐºÐ¾ Ð³Ð°ÑĤÐ¾
ÐºÐ¾ ÐºÑĤÐµÐ¹
ÐºÐ¾ Ð½ÑıÐº
ĠÐ¿Ð¾ ÑĩÐµÑĢÐ²ÐµÐ½
Ð½Ð¸ ÐºÑĬÑĤ
Ð½Ð¸ ÑģÐºÐ°ÑĤÐ°
ĠÐ¼Ð° ÑĤÐ¾
ÑĢÑı Ð¼Ð¾
ÑĦ ÑĢÐ¸
ĠÐºÐ° ÑĢÐµ
Ð¹ ÑģÐºÐ°ÑĤÐ°
ĠÐ¾ÑĤ Ð»ÐµÐ¿Ð²Ð°
ÑģÑĤÐ° ÑĤÑĬ
ÑģÑĤÐ° Ð½Ð½Ð¾
Ð½Ðµ Ð³ÑĢÐµ
ÑģÑĤ Ð²Ð°ÑĤ
ĠÑĢÐ°Ð· Ð½Ð°ÑģÑı
ĠÑĢÐ°Ð· ÑĩÑĥÐ¿
ĠÐ¸Ð· Ð³Ð°
ĠÐ¡ Ðµ
ĠÑĩÐµÑĢ Ð½Ð°
ĠÐ¼Ð°Ñģ Ð»ÐµÐ½
ĠÐ»Ð¸ ÑĤÑĬÑĢ
ĠÐ½Ðµ Ð²ÐµÑĢ
ĠÑħ ÑĢÐ°Ð½Ð¸ÑĤÐµ
Ð·Ð° ÑĤÐ°
ĠÑģÐ° Ð¼
ĠÐ·Ð°Ð¿ÑĬÑĢÐ¶ ÐµÐ½Ð°
ĠÐ¿Ð° Ñı
ĠÐ¿ÑĢÐ¾ Ð±Ð¸Ð²Ð°
ĠÐ·Ð°Ð³ ÑĢÐµÐ±
ÐĹÐ° Ð¼ÐµÑģÐµÑĤÐµ
ÐĹÐ° ÐºÑĥÑģÐºÐ°
Ð¡ Ð³Ð¾ÑĢÐµÑī
ĠÐ¶ÐµÐ»Ð° ÑĤÐµÐ»Ð½Ð¾
ÑģÑı ÑĤÐ¾ÑĤÐ¾
ĠÐłÐ°Ð· Ð»Ð¸Ð²Ð°
ĠÐºÑĢÐ° ÑĩÐµÑĤÐ°ÑĤÐ°
ÑĢÐµÑħ Ð°
ĠÐ¿ÑĢÐµÐ´ Ð»Ð°Ð³Ð°
ĠÐľ Ð¸
ÑĤÐ¾Ð¿ Ð»ÐµÑĤÐµ
ĠÐ¿Ð¾ÐºÑĢÐ¸ ÐµÑĤÐµ
ĠÐ¢ ÑĢÐ¸
ÑĢÐµÐ± ÑıÐ²Ð°
ĠÑĤÐ¸Ðº Ð²ÐµÐ½Ð¾
ĠÐ¶ÑĬÐ»ÑĤÑĬ ÑĩÐµÐ½Ð°ÑĤÐ°
ĠÐļÐ¾ Ð¹ÑĤÐ¾
ĠÐļÐ¾ Ð¶Ð°ÑĤÐ°
ÐĴ Ð·ÐµÐ¼Ð°
ÑĪÐ° ÑĦÑĢÐ°Ð½
ĠÐĳ ÑĢÐ¸
ĠÑĢÐ°Ð·Ð±ÑĬÑĢ ÐºÐ°Ð½
ĠÑĢÐ¾ Ð¼Ð¾Ð²Ð°
ÑĦÐ¾ÑĢÐ¼ Ñı
ĠÐ¼Ð¸ ÑĢÐ¸Ð·
ĠÐ¼Ð¸ Ð½ÐµÑĢÐ°
ĠÐºÐ¾Ð½ÑģÐµÑĢ Ð²Ð¸ÑĤÐµ
ĠÐĵ ÑĬÑĢÐ½ÐµÑĤÐ¾
ĠÐ½Ð°ÑĤ ÑĬÑĢ
Ð±Ðµ ÑĪÐºÐ¸
ĠÐ¿ÑĢÐ°Ð· Ð½Ð¸
ĠÑħÐ°ÑĢ Ð¼Ð¾
ĠÑĩÐµ ÐºÐ°Ð½Ðµ
ĠÐ¿Ð¾ÑģÐ¾Ð»ÑıÐ²Ð° ÑĤÐµ
ĠÐ¾ÑĦÐ¾ÑĢÐ¼ ÐµÐ½Ð°ÑĤÐ°
ĠÐļÐ° Ð¼Ð±Ð¸ÑĤÐµ
ĠÐ¡ÐµÑĢÐ²Ð¸ÑĢÐ° ÑĤÐµ
Ðĳ ÑĢÐ¾ÐºÐ¾Ð»Ð¸ÑĤÐ¾
ÑģÑĤÐ¸Ð»Ð° Ð¼Ðµ
ĠÐºÐ°ÐºÐ°Ð¾ Ð²Ð¾
ĠÑħÐ° Ð»Ð¾Ð³
ĠÐ½ÐµÐ¿ÑĢÐµ ÑģÑĤÐ°Ð½Ð½Ð¾
ĠÐ»ÐµÐ½ÑĤÐ¸ ÑĩÐºÐ¸ÑĤÐµ
ĠÐ½Ð°ÐºÐ¸Ñģ Ð½ÐµÑĤÐµ
ÑĩÑĥÐº Ð²Ð°ÑĤÐµ
ĠÐĿÐ°Ð¼Ð° ÑĩÐºÐ²Ð°Ð¼Ðµ
Ð¹Ð±Ð¸ ÑĤÐµ
ĠÐ¿ÑĬ ÑħÐ°
ĠÐ½Ð°ÑĢÑĬÑģ ÐµÐ½Ð¸
ĠÐ¿Ð»Ð° Ð¼
ĠÐ¿Ð°ÑģÐ¸ÑĢÐ° ÑĤÐµ
ĠÐĽ ÑĥÐº
ĠÐ¾ÑĦÐ¾ÑĢÐ¼Ñı Ð½Ðµ
Ð¿Ð°ÑĢ Ð²Ð°ÑĤ
Ð²ÐºÑĥÑģ Ð½Ð¸
ĠÐŁÐ¾Ð´Ð¿ÑĢÐ°Ð²Ñı ÑĤÐµ
ĠÐ¸Ð¼Ð° Ð¼Ðµ
ĠÐ¼Ð°ÑħÐ° Ð¼
ÑģÑĥ ÑĢÐ¾Ð²Ð¸
ĠÑĤÐ¾Ð¿Ð»Ð¸ Ð½
ĠÑģÑĤÑĬÑĢÐ³Ð¾ ÑĤÐ¸
ĠÐ¿Ð°Ð½Ð¸ ÑĢÐ°Ð½Ð¸
ĠÐ¿ÑĥÑģÐºÐ° Ð¼
ĠÐºÐ»Ðµ ÑĩÐºÐ¸ÑĤÐµ
ĠÐ¿ÑĢÐ¾Ð´ÑĬÐ»Ð¶Ð° Ð²Ð°ÑĤÐµ
ĠÐ±ÑĥÑĤÐµÑĢ ÑĤÐµÑģÑĤÐ¾
ĠÐ½Ð°Ð¼Ð°Ð»ÑıÐ²Ð° ÑĤÐµ
ĠÑģÑĬÑĢ ÑĩÐ¸ÑĨÐ°
ÑĬÐ± ÐµÐ½
ĠÐ¾Ð±ÐµÐ·ÐºÐ¾ÑģÑĤ ÐµÐ½Ð°
ĠÐ¾Ð±ÐµÐ·ÐºÐ¾ÑģÑĤ ÐµÐ½Ð¸ÑĤÐµ
ĠÑģÑĥÑģÐ°Ð¼ ÑĬÑĤ
ĠÑĢÐ°Ð·ÑĢÐµÐ¶Ð´Ð° Ð½Ðµ
ĠÐ¾Ð¿Ð° ÑĪÐºÐ¸ÑĤÐµ
ĠÑģÑĤÑĢÐ¸ ÑĤÐ¸ÑıÑĤ
Ð¿Ð°Ð´ Ð½Ð°ÑĤ
ĠÐ²ÑĬÐ· ÐµÐ»
ĠÐĿÐµ ÐºÐ°
ĠÐĺÐ·Ð¼Ð¸ Ð²Ð°ÑĤÐµ
ĠÑĩÐµÑĤÐ²ÑĬÑĢ ÑĤÐ°ÑĤÐ°
ĠÑħÐ»ÐµÐ± ÑĩÐµÑĤÐ¾
ĠÑģÑĤÐµÐ³ Ð½Ð°ÑĤÐ°
ĠÐ¡Ð° Ð»Ð°ÑĤÐ°
ĠÑģÐ²Ð°ÑĢÐ¸ Ð»Ð¸
ĠÑĤÐµÐ»ÐµÑĪÐºÐ° ÑĤÐ°
ĠÐ¸Ð·ÐºÐ»Ñİ ÑĩÐµÐ½
ĠÑģÐ¼Ð¸Ð»Ð° Ð¼Ðµ
ĠÐ¿ÑĢÐ°Ð²Ð¾ÑĬÐ³ÑĬÐ»Ð½Ð¸ ÑĩÐµÑĤÐ°
ĠÐ´ÑĥÐ¿ ÑĩÐ¸ÑĨÐ°
ĠÐ¾ÑħÐ»Ð°Ð¶Ð´Ð° Ð½Ðµ
ĠÑģÑĤÐ¾Ð¿ ÑıÐ²Ð°Ð½Ðµ
ĠÐ½Ð°Ð² ÑĢÐµÐ¼Ðµ
ĠÐ·Ð°Ð²ÑĬÑĢ ÑĪÐ¸
ĠÐ±Ð°Ð¼ Ð±Ñĥ
ĠÐ³Ð¾ÑĢÐµÑīÐ¸ ÑıÑĤ
Ð¶ÑĬÐ» ÑĤ
ĠÐ¾ÑĤÐ²Ð¾ ÑĢÐ¸ÑĤÐµ
ĠÐ²ÑĢÑĬÑħ ÑĩÐµÑĤÐ°ÑĤÐ°
ĠÑĢÐ¾Ð» Ðµ
Ð½Ð°ÑĤÐ¸ ÑıÑĤ
Ð¨ ÐºÐµÐ¼Ð±ÐµÑĤÐ¾
ĠÐ³ÑĢÐ¾Ð· Ð´ÐµÑĤÐ¾
ĠÐºÐ¸Ð¿Ñı ÑīÐ°ÑĤÐ°
ĠÑģÑĤÐµÐ¿ÐµÐ½ ÑĤÐ°
ĠÐĿÐ°ÑĢÐµÐ¶Ð´Ð° ÑĤÐµ
ĠÐ¦ Ð°ÑĢÐµ
ÑĥÐ½Ð¸ Ð²ÐµÑĢÑģÐ°Ð»Ð½Ð°
ĠÑĪÐ°Ð¼ ÑĦÑĬÑģÑĤÑĬÐº
ĠÐ¾Ð¼ÐµÐºÐ½Ð° Ð»Ð¸
ĠÐºÐ¾ÑĪÐ½Ð¸ ÑĨÐ°ÑĤÐ°
ĠÐ¸Ð·ÑģÑĤÐ¸ÑģÐºÐ° Ð½Ð¸Ñı
ÑģÐ¿ÐµÑĢÐ¶Ð¸ ÑĤÐµ
ĠÐ¼Ð¾Ñī Ð½Ð¾ÑģÑĤÑĤÐ°
ĠÑĢÐ°ÑģÑĤÐ¸ÑĤÐµ Ð»Ð½Ð°ÑĤÐ°
ĠÐ¿Ð°ÑģÑĤÐµ ÑĤÐ°
ĠÑĢÐ¾Ð·Ð¾ Ð²Ð°ÑĤÐ°
ĠÑģÐ°Ð»ÑĦ ÐµÑĤÐºÐ¸
ĠÐ½ÐµÐ·Ð°Ð»ÐµÐ¿Ð²Ð° Ñī
ĠÐłÐ°Ð·ÑĤÐ¾Ð¿ ÑıÐ²Ð°Ð¼Ðµ
ĠÑģÐ»ÑĬÐ½ÑĩÐ¾Ð³Ð»ÐµÐ´Ð¾Ð²Ð¸ ÑĤÐµ
ĠÐ¾ÑģÑĤÐ°Ð²Ð¸ Ñħ
ĠÐ¿Ð¾ÐµÐ¼Ð° Ð½ÐµÑĤÐ¾
ĠÑĨÐ¸ ÑĤÑĢÑĥ
Ð¡Ð¼Ðµ Ð»ÐµÑĤÐµ
ĠÐĿÐ°Ð¼Ð°Ð»ÑıÐ²Ð° Ð¼Ðµ
ĠÐ²ÑĤÐ°Ñģ Ð²Ð°Ð½ÐµÑĤÐ¾
ĠÐĿÐ°ÑĤÑĢÐ¾ ÑĪÐµÑĤÐµ
ĠÑģÐ¿ ÑĢÑıÐ¼Ð¾
ĠÐŁÐ°Ð½Ð¸ ÑĢÐ°
ĠÐŁÐ°Ð½Ð¸ ÑĢÐ°ÑĤ
ĠÐŁÐ°Ð½Ð¸ ÑĢÐ°Ð½Ð¸ÑĤÐµ
ĠÑĢÐ°Ð·Ð²Ð°ÑĢÑı Ð²Ð°Ð½Ðµ
ĠÐŁÐ¾Ð² ÑĤÐ¾ÑĢÐµÑĤÐµ
ĠÐºÐ°ÑĩÐ° Ð¼Ð°ÐºÐ°
ĠÑħÐ°ÑĢÐµÑģ Ð²Ð°ÑĤÐµ
Ð·ÐµÐ»Ðµ Ð²Ð¸
Ð¼Ð»Ñı Ð½
ĠÐ¼Ð»Ð°Ð´ Ð¾
ĠÑģÐ¸Ð»Ð¸ÐºÐ¾ Ð½Ð¾Ð²Ð¸
ĠÐºÑĢÐ¸ÑĤÐ°ÑĢÐ°ÐºÐ¸ ÑĤÐ¾
ÐĲÐ³Ð½Ðµ ÑĪÐºÐ¸ÑĤÐµ
ÐĲÐ³Ð½Ðµ ÑĪÐºÐ¾ÑĤÐ¾
ÐļÑĢÐµ Ð¼
ĠÐ·Ð°Ð¿ÐµÑĩ ÐµÐ½Ð¾
Ð¡Ð¾ ÐºÑĬÑĤ
ÐĿÐ°ÑģÑĤÑĬÑĢÐ³Ð° Ð½Ð¸ÑĤÐµ
ĠÐ½ÐµÐºÑĤÐ° ÑĢÐ¸Ð½Ð¸
ĠÑĥÐ¿Ð»ÑĬÑĤ Ð½Ð¸
ÐļÐ°ÑĢÑĤÐ¾ÑĦ ÑĬÑĤ
el fi
et ker
ĠÐ¿Ð¾Ñı Ð²ÑıÑĤ
ĠÐ¸Ð·ÑĤ ÑĢÑĬÑģÐºÐ²Ð°
ĠÐĵÐ¾Ð» Ñı
ĠÑĪÐ°Ð¿ ÑĩÐ¸ÑĨÐ¸ÑĤÐµ
ĠÑıÑĢÐµ Ð±Ð¸
Ð±Ð°Ð»ÑģÐ° Ð¼Ð¾Ð²
ĠÐĿÐ°Ð¼Ð°ÑģÐ»ÑıÐ²Ð° Ð¼Ðµ
ĠÐ¿ÑĢÐ¸ÑĤÐµÑģÐ½ÑıÐ²Ð° Ð¹ÑĤÐµ
ÐļÐ¾ÐºÐ¾ ÑĪÐºÐ°ÑĤÐ°
ĠÐ½ÐµÐ±ÐµÐ» ÐµÐ½Ð¸
ÐŀÐ²ÐºÑĥÑģ ÑıÐ²Ð°Ð¼Ðµ
Ð¿Ð¾ÑĢÑĬÑĩÐ²Ð° Ð¼
ÑĢÐ°Ð± ÑģÐºÐ¸
ĠÐ·Ð°ÑĤÐ¸ÑģÐºÐ° ÑĤ
ĠÐŁÑĢÐ¾Ð´ÑĬÐ»Ð¶Ð° Ð²Ð°Ð¼Ðµ
ĠÐ¸Ð·ÑĩÐµ Ð·
ĠÑĪÐµÑĢ Ð¸ÑĤÐ¾
ĠÑģÐ°ÑĤ ÑĬÑĢ
ĠÐ¿ÐµÐºÐ¾ÑĢÐ¸ Ð½Ð¾
Ð¿Ñİ ÑĢÐµ
ĠÐ¡Ð½ÐµÐ¶ Ð°Ð½ÐºÐ°
ÑĥÐ»Ñĥ Ð¼Ð±Ð¸
ÐĴÐ¾Ð´ ÐµÐ½Ð¸ÑĩÐºÐ¸ÑĤÐµ
" ,
1 7
3 70
u ce
Ġ b
Ġ m
Ġ sa
Ðµ Ð¹
Ðµ ÑĪÐºÐ¾ÑĤÐ¾
Ðµ ÑģÑĤÐ°ÑĤÐ°
Ñģ Ð»Ð¾Ð¶Ð¸Ñħ
Ð½ Ð¶
ĠÑģ ÑĢÑĬ
ĠÑģ Ð²Ð¸Ð²Ð°
Ð² Ð½Ð¸
Ðº Ð½ÐµÑĤÐµ
Ðº ÐµÑĢÐ¸
Ðº ÑĥÐºÑĬÑĢ
Ñĩ ÑĤÐ¸
ÑĬ Ð¹
Ð· ÐµÐ½
ÐµÐ½ ÑĨÐ°
Ð¿ ÑĩÐµ
Ð¿ Ð°Ð½Ð¸
Ð¿ ÑĩÐµÑĤÐ°
Ð¿ Ð½Ð°ÑĤ
ĠÐ¾ ÑĢÐµÐ±
ĠÐ¾ ÑĩÐµÑĢÑĤÐ°
ÑĤÐµ ÑĩÐ½Ð°
ĠÐ² ÑĤÐµ
Ð³ ÑİÐ²Ðµ
ÐºÐ° Ð¹ÑģÐ¸
ÐºÐ° ÑĢÐ°Ð¼Ðµ
ĠÐ± ÑĬÐ»
ĠÐ± ÑĬÑĤ
ĠÐ·Ð° ÑĢ
ÑĪ ÐµÐ½Ð¾ÑĤÐ¾
Ð»Ð¸ ÑĤ
Ð»Ð¸ ÑģÑĤÐ°ÑĤÐ°
ĠÐ¿Ð¾ ÑģÐµ
ÑĦ Ð¸Ð½
ĠÐºÐ° Ð¿Ð¸Ð¸
Ð»Ðµ ÑĨÐ°
ĠÐ¾ÑĤ Ð¼Ð¸
ĠÐ¾ÑĤ Ð¼ÐµÑģÑĤÐ²Ð°Ð¼Ðµ
ÑģÑĤÐ° Ð¹Ð½Ð°
ĠÐ±ÑĢ ÑĥÑģÐº
Ð³Ð° Ð·Ð¸ÑĢÐ°Ð½Ð°
Ð°ÑĢ ÑĤÐ°
Ð½Ðµ Ð¶Ðµ
ĠÑĢÐ°Ð· ÑĤÐµÑĩÐµ
ĠÐŁ ÑĬÐ½
ĠÐ¡ ÑĥÑĪÐµÐ½Ð¸ÑĤÐµ
ĠÐ¡ Ð°Ð½Ð´
Ð¾ÑĢ ÐµÐ½Ð¸ÑĤÐµ
Ð±Ð¸ Ñı
Ð°Ð½Ð¸ Ðµ
ĠÐ¿ÑĢÐ¸ Ð»ÑıÐ³Ð°
Ð¼Ð¸ Ð¹ÑĤÐµ
ĠÐ¿ÑĢÐµ ÑģÑĤÐ°Ð½Ðµ
ĠÑĤ Ñĥ
ĠÑģÐ¾ Ð¼
Ð¿Ð° Ð½Ð°
ÐºÐ²Ð° Ð¼Ðµ
ĠÐĴ ÑĬÐ·
ÑĥÑĢ Ð¼Ð¸ÑĤÐµ
ĠÐŀ ÑģÐ½Ð¾
ÑģÐ¸ ÑĢÐ°
ÑģÐ° Ð»
ÑģÐ° Ð½Ð¾
ÑĩÐ¸ Ð²Ð°
Ð²Ð¾ ÑıÑĢ
ĠÑģÑĤ ÐµÐ½Ð°ÑĤÐ°
ĠÑģÑĤ ÑĢÐ°Ð½Ð°ÑĤÐ°
ĠÐ° Ð³Ð°ÑĢ
ĠÑģÐ»ÐµÐ´ Ð½Ð¸ÑıÑĤ
ĠÑĤÐ¾Ð¿ ÐµÐ½Ð¸
ĠÐ¿Ð¾Ð´Ð¿ÑĢÐ° Ð²Ð¸
ĠÐ²Ð¸ Ð¶
ĠÑģÐ° Ð¼Ð¾ÑĤÐ¾
ĠÐĹÐ° Ð²ÑĬÑĢ
Ð¿Ð¾ ÑģÐ»ÐµÐ´
ĠÐ¼Ð°Ð·Ð½Ð¸ Ð½Ð¸
ĠÐ¿Ð° Ð»Ð°Ð¼
ĠÐ±ÑĥÐ» ÑĬÐ¾Ð½
Ð¼ÐµÑģ Ð²Ð°Ð½ÐµÑĤÐ¾
ĠÐłÐ°Ð· ÑģÑĤÐ¸Ð»Ð°ÑĤ
ĠÐŀÑĤ ÑĢÐµÐ¶ÐµÑĤÐµ
ĠÐ·Ð°Ð´ÑĥÑĪÐ° Ð²Ð°Ð½Ðµ
ĠÐ½Ð°Ð¼Ð°Ð· Ð½ÐµÐ½Ð¾
ĠÐĺÐ· ÑĨÐµÐ´ÐµÑĤÐµ
ĠÑĥ ÑħÐ°
Ð²Ð°ÑĢÐ¸ ÑĤÐµ
ĠÐ¾Ð±ÐµÐ» ÑıÑĤ
ĠÐ½Ð°ÑĢÐµ Ð·Ð¸
ĠÐ²ÐºÑĥÑģ ÐµÐ½
ĠÐ²ÐºÑĥÑģ Ð¾Ð²ÐµÑĤÐµ
ĠÐ¢ Ð²ÑĬÑĢÐ´Ð¾
Ð±Ð¾ Ð²Ðµ
ÑĢÐµÐ± Ð½Ð¾
ÐĴ ÑģÐµÐºÐ¸
ĠÐ´ÑĢÐµÐ± ÐµÐ½
Ðļ Ð°ÑĢÑĦÐ¸Ð¾Ð»Ð°
ĠÐºÑĢÐµ ÐºÐµÑĢÐ¸
ĠÑĩÐ¸ Ð°
ĠÐĳ Ñĥ
Ðľ ÐµÐ´ÑĬÑĤ
ĠÐ±Ñĥ ÑĩÐ¸ÑĨÐ°
ĠÑĤÑıÑħ Ð½Ð¾
ĠÑĢÐ°Ð·Ð±ÑĬÑĢ ÐºÐ°ÑĤ
ÑĢÐ°Ð½Ð¸ ÑıÑĤ
ĠÐ¯ Ð³Ð¾Ð´Ð¸ÑĤÐµ
ĠÐ¼Ð°ÑģÐ»Ð¸ Ð½ÐºÐ¸
ĠÐ¡Ð¼Ðµ Ð»ÐµÑĤÐµ
ĠÐŁÑĢÐµ ÑĤÑĢÐ¸Ð²Ð°
ĠÐ²ÑģÐ¸ÑĩÐºÐ¸ Ñı
ĠÐĲ Ð¼Ð°
ĠÐļÐ° Ð¹ÑģÐ¸Ð¸ÑĤÐµ
ĠÐļÐ° ÑĢÐ°Ð¼ÐµÐ»Ð¸Ð·Ð¸
ĠÑĪÐ° Ð±
ĠÐºÑĢÐ¾Ð¼Ð¸Ð´ ÑĬÑĤ
ĠÐ¿ÑĢÐµÐ´Ð¸ ÑĪ
ĠÐ²ÑĢÑı Ñī
ĠÑģÑĢÐµ Ð´Ð°
ĠÐºÐ°ÑĢÑĤÐ¾ÑĦ ÐµÐ½Ð¸
Ð¼Ð°Ñģ Ð»Ð¸Ð½Ð°
ĠÐ¿Ð¾ÐºÑĢÐ¸Ð²Ð° ÑĤÐµ
ĠÑģÐ¼Ð» ÐµÐ½Ð¸ÑıÑĤ
Ð¢ ÑĢÐ¸ÑĤÐµ
ĠÐĿÐ°Ð¼Ð° ÑĩÐºÐ²Ð°
ĠÐł ÐµÐ·
ĠÐł Ð¾Ðº
ĠÐ½ÐµÐ¾Ð± ÐµÐ»
ÑģÐµÐ½ ÑģÐºÐ¾
ÐŀÑĤ ÑĢÑıÐ·Ð²Ð°ÑĤ
ĠÐ»Ð° Ð´Ð¸
Ð¸Ð· Ð¿Ð¾Ð»Ð·Ð²Ð°Ñħ
ĠÑĢÐ°Ð·Ð¼Ð¸ Ð²Ð°Ð¼Ðµ
ĠÐ·Ð°ÑĤÐ¾Ð¿ Ð»ÐµÑĤÐµ
ĠÑģÐ²Ð°Ð»Ñı Ð½Ðµ
ÑĮÐ¾ ÐºÐ¸ÑĤÐµ
ĠÐ¾Ð²ÐºÑĥÑģÑıÐ²Ð° ÑĤÐµ
ĠÐ¸Ð¼Ð° Ð¼
ĠÐ¾Ð±ÐµÐ· Ð¼Ð°ÑģÐ»ÐµÐ½Ð°
ĠÐ¿Ð¾Ð»ÑĥÐ¼ÐµÑģÐµ ÑĨ
Ð¿Ð¾Ð» Ð¾
ĠÐ³Ð°ÑĢÐ½Ð¸ÑĢÐ° Ð¹ÑĤÐµ
ĠÑģÑĬÑĢ ÑĩÐ¸ÑĨÐ°ÑĤÐ°
ĠÐºÑĥÑħ Ð½Ñı
ĠÐ¿Ð»Ð¸ ÑĤÑĬÐº
ĠÑĥÐ´ ÑĬÐ»
ĠÐ¢Ð¾ Ð¹
ĠÐ£ÐºÑĢÐ° ÑģÐ°ÑĤÐ°
ĠÐ´Ð¾Ð» Ð½Ð¸ÑĤÐµ
ĠÐºÐ°Ð¹ÑģÐ¸ Ðµ
ĠÐ·Ð°Ð¿Ð° Ð·Ð²Ð°Ð¼Ðµ
ĠÐºÐ²Ð°Ð´ÑĢÐ°ÑĤ ÑĩÐµ
ĠÐ´ÑĥÐ¿ ÑĩÐ¸ÑĨÐ¸
ĠÑĢÐµÐ´Ñĥ Ð²Ð°Ð¼Ðµ
ÐĲ Ð·
ĠÐ¾Ð±ÐµÐ·ÐºÐ¾ÑģÑĤÑıÐ²Ð° Ð¼Ðµ
ÑģÑĥÑĪ ÐµÐ½Ð°
ĠÐ¼Ð°ÑģÐ° Ð»Ð°ÑĤÐ°
ĠÑĢÐ°Ð·ÑĤÐ²Ð¾ÑĢÐ¸ Ð»Ð¸
ĠÐºÐ°ÑĢÐ°Ð¼ÐµÐ»Ð¸Ð·Ð¸ÑĢÐ° Ð½Ðµ
ĠÐºÐ°ÑĢÐ°Ð¼ÐµÐ»Ð¸Ð·Ð¸ÑĢÐ° Ð½Ð°ÑĤÐ°
ĠÐ³Ð¾ÑĢÐµÑī Ð¸ÑĤÐµ
ĠÑģÐ»ÐµÐ¿ Ð²Ð°Ð½Ðµ
ĠÐ¿Ð¾Ð¿Ð¸ Ð²Ð°
ĠÐ½Ð°Ð´Ñĥ ÑıÑĤ
ÑģÑĬ ÑīÐ¾
ĠÐ´Ð¾Ð¾ Ð²ÐºÑĥÑģ
ĠÐŁÐ¸ ÑĤÐºÐ°ÑĤÐ°
ĠÑģÐ»Ñĥ Ð¶Ð¸
Ð³Ð¾ÑĢ Ð½Ð°ÑĤÐ°
ĠÐ¿ÐµÑĢ Ð»Ð¸
ĠÐ¿Ð¾ÑģÑĤÐ° Ð²Ð¸ÑĤÐµ
ĠÐ¿Ð¾ÑħÐ»ÑĥÐ¿ ÐµÐ½Ð¾
ĠÐĺÐ·Ð´ÑĬÐ»Ð±Ð° Ð½Ð¸ÑĤÐµ
ĠÐ±ÑĢÐ°ÑĪ Ð½Ð°
ĠÐ¿Ð¾ÑĤÐ¾Ð¿ ÑıÑĤ
ĠÐ¶Ð¸ Ð»Ð°
ĠÐ¶Ð¸ Ð»Ð¸ÑĤÐµ
ĠÐ½Ð°Ð¿Ð¾ ÐµÐ½Ð¸
ĠÐ½Ð°Ð¿Ð¾ ÑıÑĤ
ÑĨÑı Ð»
ĠÐ¿ÑĢÑĬÑģ ÐºÐ°
ĠÐ¾ÑģÑĤÐ°ÑĤÑĬ ÑĨÐ¸
ĠÑĨÐ²ÐµÑĤ Ñı
ĠÐºÐ°ÑĢÐ°Ð¼ÐµÐ» ÑĬÑĤ
Ð¡Ð²Ð°ÑĢ ÐµÐ½Ð¾ÑĤÐ¾
ĠÐĹÐµÐ» ÐµÐ½Ð°ÑĤÐ°
ĠÐ¿ÑĥÐ´Ð¸Ð½Ð³ ÑĬÑĤ
ĠÑģÐ¼Ð°ÑĩÐºÐ° Ð½
ĠÑģÐ¸Ð½Ð°Ð¿ ÐµÐ½Ð¾ÑĤÐ¾
ĠÑģÐ¸ÑĢÐ¾Ð¿Ð¸ÑĢÐ° Ð½Ðµ
ĠÐ±ÑĥÑĤÐ¸ Ð»ÐºÐ°ÑĤÐ°
ĠÑĤÐ¾ÑĢÑĤÐ¸ Ð»ÑıÑĤÐ°
ĠÐ²Ð»Ð°Ð¶ Ð½Ð¸
ĠÐ¼ÐµÑĢ Ð¸ÑĤÐµ
ĠÐĺÐ·ÑĩÐ¸ÑģÑĤ Ð²Ð°ÑĤ
ĠÑĦÑĢÐ°Ð½Ð·ÐµÐ»Ð° ÑĤÐ°
ĠÐ¿ÑĢÐµÐ´Ñı ÑģÑĤÐ¸ÐµÑĤÐ¾
ĠÑģÑĬÐ´ÑĬÑĢÐ¶ Ð°
ĠÑģÐ¿ Ð»Ð¸
ĠÐ´Ð¸Ð°Ð³Ð¾ Ð½Ð°
ĠÐľÐ°Ð¶Ðµ Ð¼
Ð¿Ñĥ ÑģÐºÐ°
ĠÐ½ÑıÐºÐ¾ Ñı
ĠÐºÐ¾Ð¶Ð¸ ÑĩÐºÐ°ÑĤÐ°
ĠÐ¿ÑĢÐµÐ¿ÑĬÑĢÐ¶ ÐµÐ½Ð¾
ĠÑĦÐ° Ð·Ð°Ð½Ð°
Ð¡Ð° Ð»Ð°
ĠÐĿÐ°ÑĤÑĢÐ¾ÑĪÐ° Ð²Ð°Ð¼Ðµ
ĠÐĺÐ·Ð¿Ð»Ð° ÐºÐ²Ð°ÑĤ
ĠÐ°Ð¿ÐµÑĤÐ¸ ÑĤÐ½Ð°
ĠÐ·Ð°Ð±Ð¾Ð´ ÐµÐ½Ð°
ĠÐĵÐ¾ÑĢ ÑĩÐ¸ÑĨÐ°ÑĤÐ°
ĠÐ¼ÐµÐ» ÐµÐ½Ðµ
ĠÐ¸Ð·ÑĤÑĬÐ½ ÑıÐ²Ð°
ĠÑĢÐµÐ½Ð´Ð¾Ñģ Ð²Ð°ÑĤ
ĠÐ·Ð°ÑģÐ¸ Ð»Ð²Ð°
ÐºÑĢÐµÐ½Ð²Ð¸ÑĢ ÑĪÐ¸
ĠÐĹÐ°Ð³ÑĢÑı Ð²Ð°ÑĤÐµ
ĠÐĵÐ¾Ð» ÐµÐ¼Ð¸
ĠÑĤÑĢÑİÑĦ ÐµÐ»
ĠÐ¢ÐµÐ»Ðµ ÑĪÐºÐ¾ÑĤÐ¾
ĠÐ¥Ð° Ð¿ÐºÐ¸ÑĤÐµ
ĠÐ±Ð°Ð¼Ð± ÑĥÐº
ĠÐ¡ÑĤÐµÑĢÐ¸Ð»Ð¸Ð·Ð¸ ÑĢÐ°ÑĤ
ĠÐ¾ÑĤÐ¿ÐµÐ½ Ð²Ð°
ĠÑĢÐ°Ð·ÐºÐ° ÑĪÐºÐ°
ĠD r
Ð½Ð°ÑĤÑĢÐ¾ÑĪ ÐµÐ½Ð¾
ĠÐ¿Ð¾Ð´Ð²Ð¸Ð¶ ÐµÐ½
ĠÐµÐºÐ»ÐµÑĢ Ð¸ÑĤÐµ
ĠÐ¿ÑĪ ÐµÐ½Ð¸ÑĨÐ°
ĠÑģÑĤÑĬ Ð¿ÐºÐ°
ĠÐ·Ð²ÐµÐ·Ð´Ð¸ ÑĩÐºÐ¸
ĠÐ¼Ð°Ð½Ð´ Ð¶Ð°ÑĤÐ°
ĠÑĢÐµÐ·Ð°Ð½ ÐºÐ¸
ĠÐ¿Ð¾Ð»ÑĥÐºÑĢÑĬ Ð³Ð¾Ð²Ðµ
ĠÐ³Ð»ÑĥÑħÐ°ÑĢ ÑĩÐµ
Ð½Ð¸ÑĪÐ¾ Ð½Ð¸
ĠÑĢÐ°Ð·ÑĨÐµ Ð¿Ð²Ð°
ĠÐĿÐ°Ð¿Ð¸ ÑĤÐºÐ°ÑĤÐ°
ĠÐļÑĬ ÐºÑĢÐ¸
ĠÐºÐ¾Ð¼Ð±Ð¸Ð½Ð° ÑĨÐ¸Ñı
ĠÐ¼Ð¸Ð½ÐµÑĢÐ° Ð»Ð½Ð°
ĠÐ¸Ð·ÑĩÐµÐ· Ð½Ðµ
ĠÐ¾ÑĢÐµÐ± ÑĢÐµÐ½
ĠÐŁÑĬÐ½ ÑĩÐµÑĤÐ°ÑĤÐ°
ĠÐ¡Ð°Ð½Ð´ Ð²Ð¸Ñĩ
ĠÐ¿ÑĢÐ¸Ð»ÑıÐ³Ð° Ñī
Ð²Ð¾ÑıÑĢ Ð´Ð¸
ĠÐłÐ¾Ðº ÑĦÐ¾ÑĢ
2 1
2 7
3 6
9 5
i r
Ġ c
Ð° ÑģÐ°
Ð¾ ÑģÑĤ
Ð¾ Ð²Ð°Ð¼Ðµ
ÑĤ Ñı
ÑĤ ÐµÐ½Ð¸
Ð½ ÑĩÐµÑĤÐ°ÑĤÐ°
Ð» Ð²Ð°ÑĤÐ°
Ð» ÑıÐ²Ð°Ð½Ðµ
Ð´ Ð¾Ð½
ĠÐ¸ Ð´Ð²Ð°
ĠÐ½Ð° ÑĢÑı
ĠÐº ÐµÑĢ
ĠÐ¾ Ð¿
ĠÐ¾ Ð±Ð°
ĠÐ¾ ÑģÑĤÑĢÐ¸
ĠÐ¾ Ð¿ÐµÑĩÐµÐ½Ð°ÑĤÐ°
ÑĢÐ° ÑĤÐ¾ÑĢ
ĠÐ² ÑĢ
ĠÐ´ ÑĬÑģ
Ð³ ÑĬÑĢ
Ð³ Ð¾Ð»Ð¸
ÑĤÐ¸ Ð¿
ÑĤÐ¸ ÑĢÐ¸
Ð»Ð¸ Ðº
Ð»Ð¸ Ð´ÐºÐ¸
Ð»Ð° Ð½Ð´
Ñħ ÑĢÑıÐ½
ÐºÐ¾ Ð³Ð°
ĠÐ¿Ð¾ ÑĤÐ¾Ð¿Ð¸
Ð½Ð¸ ÐµÑĤÐ¾
ÑĬÑĢ Ð¼Ð¸
Ð¶ ÐµÐ½
ĠÐ´Ð¾ ÑģÐ¾Ð»ÑıÐ²Ð°
Ð¼Ð° ÐºÐ°ÑĢÐ¾
ĠÐºÐ° Ð¿Ðµ
ÑģÑĤÐ° Ð»Ð½Ð°
ÑĢÐ°Ð· Ð±Ð¸
ÑĢÐ°Ð· ÑĤÐ²Ð¾ÑĢ
ÑģÑĤ ÑĢÐ°Ð½ÑıÐ²Ð°
ĠÑĢÐ°Ð· Ð³Ð»Ð¾
ĠÐ¸Ð· ÑĤÑĬ
ĠÐ¸Ð· ÐºÐ°ÑĢ
ĠÐ¸Ð· Ð¿ÑĬÐ»Ð½Ð¸
ĠÐºÐ¾ Ð½Ð¾Ð¿
ĠÐŁ ÑĥÑĪÐµÐ½Ð¸ÑĤÐµ
ĠÑı Ñħ
ĠÐ¡ ÑĤÐ¾Ð¿
ĠÐ¡ ÑĮÐ¾Ð¼Ð³Ð°ÑĤÐ°
Ġ1 1
Ġ1 3
ÑĦÐ¸ ÑĢ
ÑĢÐ¾ Ð±Ð¸
Ð¾ÑĢ ÐºÐ°
ÑģÐ¾Ð» Ñİ
ĠÐ¿ÑĢÐµ Ð³Ð°ÑĢÑı
ĠÑĤ ÑĥÐ»ÑĥÐ¼Ð±Ð¸
Ð¼Ð¾ Ð²Ð¾
ĠÐŀ ÑĢÐµÑħÐ¾Ð²Ð¸ÑĤÐµ
ÑģÑĤÐ¾ Ð¹
ĠÑĩÐµÑģ Ð½Ð¾Ð²Ð°
ĠÐ½Ðµ Ð¿Ð¾ÐºÑĢÐ¸
ÑĩÐ¸ Ð½Ð¸
ÑĥÐ» Ñı
ĠÐ¿Ð¾Ð» Ð¾
Ð²Ð¾ Ð´Ð½Ð¸
ĠÑħ ÑĢÐ°Ð½Ð°
ĠÐ¿Ðµ ÑĤÐ½Ð°
ĠÐ¿Ðµ ÐºÐ°ÑĢÑģÐºÐ°
ĠÐ½Ð°Ð¼Ð° Ð»Ñı
ĠÐŁÐ¾ ÑģÐ¸Ð¿Ð²Ð°ÑĤ
ĠÐĶ ÑĢÑĬÐ¶
ĠÐ¡Ð»ÐµÐ´ Ð²Ð°ÑĤ
Ð¿Ð¸ Ð¼
ÑĤÑĬ ÑĨÐ¸ÑĤÐµ
ĠÐ¼Ð°Ð·Ð½Ð¸ Ð½Ð¸ÑĤÐµ
ÐĹÐ° Ð¼ÑĢÐ°Ð·
Ð¡ ÑĤ
Ð¡ Ð¸Ð¿
Ð¡ ÑĮÐ¾Ð¼Ð³Ð°ÑĤÐ°
Ð¼ÐµÑģ Ð¾ÑĤÐ¾
ĠÐ¾ÑĢÐ¸Ð· Ð¾Ð²Ð¸ÑĤÐµ
ÐºÑĢÐ¸ ÑģÑĤÐ°Ð»Ð½Ð°
ĠÐ¿Ð¾Ð»Ñĥ ÑĩÐµÐ½
ĠÐĺÐ· ÑħÐ²ÑĬÑĢ
ĠÑĥ Ð²Ð¸ÑĤÐ¾
ĠÐ¸Ð·Ð¼Ð¸ Ðµ
ĠÐľ ÐĴ
Ð´Ð¾ Ð²ÐµÑĤÐµ
Ð´Ð¾ Ð¾Ð±ÑĢÐ°Ð·Ð½Ð¾
Ð²Ð¸ÑĢÐ° ÑĤ
ĠÑĢÐ¸ ÑģÑĥ
ĠÑĢÐ¸ ÐºÐ¾ÑĤÐ°ÑĤÐ°
ĠÐ¢ ÑĬÐ¹
Ð³Ð¾ÑĤ Ð²Ð°ÑĢÑģÐºÐ°
Ð¿Ðµ ÑĪÑĬÑĤ
ĠÐļÐ¾ ÐºÐ¾
ĠÐ±Ð¾ ÑıÑĤÐ°
Ð´Ñĥ ÑĢÐ°
ĠÐ»Ñİ Ð±Ð¸
Ð²ÐµÑĢ ÑĬÑĤ
ĠÐºÐ°Ð¿Ð° ÑĨÐ¸ÑĤÐµ
ĠÐ¼Ð°ÑģÐ»Ð¸ Ð½ÐºÐ°
ĠÑĪÑĥÐ½ ÐºÐ¾Ð²
ĠÐ¿ÑĢÐ°Ð· Ð½Ð°
ĠÐ¾Ð²Ð°Ð» Ð½Ð¸
ĠÐłÐ°Ð·Ð±ÑĬÑĢÐºÐ²Ð° Ð¼
ĠÐĲ Ð½Ð°
ĠÐ³Ð¾ÑĢÑĩÐ¸ Ð²Ð¸ÑıÑĤ
Ð¾Ð± ÐµÐ»
Ð¾Ð± ÑīÐ¾
ĠÑĢÐ°Ð·ÑĤ ÑıÐ³Ð°
ĠÑģÐ³ ÑĬÑģ
ĠÑĥÐºÑĢÐ° ÑģÐ¸ÑĤÐµ
Ð³Ð½Ðµ ÑĥÐ¿Ð¾ÑĢ
ĠÑĪÐ° Ñħ
ĠÐ»Ðµ Ð±Ð»Ðµ
ĠÑģÐ¸ÑĢÐ¾ Ð¿Ð¸
ĠÐ·Ð°ÑĩÐµÑĢ Ð²ÑıÐ²Ð°ÑĤ
Ð¼Ð°Ñģ Ð»ÑıÐ²Ð°
ĠÑģÐ²Ð°ÑĢÑıÐ²Ð° ÑĤÐµ
ĠÐ½Ð°Ð¼Ð°Ñģ Ð»ÐµÐ½Ð°ÑĤÐ°
ĠÐ¿ÑĥÑĪ ÐµÐ½Ð¸Ñı
ĠÐ¿Ð¸ ÑĤÐ¸Ðµ
ĠÑħÐ° Ð²
Ð²Ð°ÑĢ ÑĨ
ĠÐºÐ¸ÑģÐµÐ»Ð¸ Ð½Ð°ÑĤÐ°
ÐłÐ°Ð· ÑĢÑıÐ·Ð²Ð°ÑĤ
ĠÐ¿Ð»Ð¾Ð´Ð¾ Ð²Ð°
ĠÐ¿Ð»Ð¾Ð´Ð¾ Ð²Ð¾
ĠÐ½Ð°Ð± Ð¾Ð´
ĠÐ²Ð¸Ð»Ð¸ ÑĨÐ¸
ÐŀÑĤ ÑģÑĤÑĢÐ°Ð½ÑıÐ²Ð°
ĠÐ·Ð°Ð²Ð¸ ÑĤÐ¾
ĠÐ·Ð°ÑĩÐµÑĢÐ²ÑıÐ²Ð°Ð½Ðµ ÑĤÐ¾
ÐŁÐ¾ ÑģÑĤÐ°Ð²ÐµÑĤÐµ
ĠÐ¿Ð°ÑģÐ¸ÑĢÐ° Ð½ÐµÑĤÐ¾
ĠÐºÐ¾Ð½ ÑĨÐµÐ½ÑĤ
ĠÐĿ Ñĥ
ĠÑĢÐ°Ð·Ð´ÐµÐ»Ñı ÑĤÐµ
ĠÐ¾ÑĤÑĨÐµÐ¶Ð´Ð° ÑĤÐµ
Ð¤ ÑĢÐ°Ð½Ð·ÐµÐ»Ð°ÑĤÐ°
ÑģÐ¾Ð²Ð¸ ÑĤÐµ
ÑģÑĥ ÑĢÐ¾
ĠÑģÑĤÑĬÑĢ ÑĩÐ¸
Ð§ ÐµÑĢÐµÑĪÐ¸ÑĤÐµ
ĠÑģÐ°ÑĢ ÑĦÐ°
ĠÐŁÐ¾ÑģÐ¾Ð»ÑıÐ²Ð° ÑĤÐµ
ĠÐ±Ð°Ð½Ð¸ ÑĩÐºÐ¸
ĠÑıÐ³Ð¾ ÑĢÐ¸
ĠÐ½Ð°ÐºÑĬÑģ Ð°Ð½
Ð¾Ñģ Ð°Ð½Ð¸ÑĤÐµ
ĠÐĿÐ°Ð»Ð¸Ð²Ð° ÑĤÐµ
ĠÐ¸Ð·ÑĨÐµÐ´ ÐµÐ½Ð°ÑĤÐ°
ĠÐ¾Ð±ÑĬÑĢ Ð½Ð°ÑĤÐ°
Ð·Ð°ÑħÐ°ÑĢ Ð½Ð¸
ĠÑĪÐ°ÑĢ ÐµÐ½Ð¸
ĠÐ°Ð½Ð° ÑģÐ¾
ĠÑħÐ»ÐµÐ± Ð½Ð°ÑĤÐ°
ĠÐºÐ°Ð¹ÑģÐ¸ ÐµÐ²
ĠÐ¡ÑĬ ÑģÑĤÐ°Ð²ÐºÐ¸ÑĤÐµ
ĠÑĩÑĥÐº Ð²Ð°Ð¼Ðµ
Ð±Ñı Ð»Ð¾ÑĤÐ¾
ĠÐ°Ð»ÑĥÐ¼Ð¸Ð½Ð¸Ðµ Ð²Ð°
ĠÐ²Ð¸ÑģÐ¾ ÐºÐ¾
ĠÑĪÐ¸ÑĢÐ¾ ÐºÐ¾
ĠÐ°ÑĢÐ¾Ð¼Ð°ÑĤ ÐµÐ½
ĠÐ½Ð°Ð¼Ð°ÑĩÐºÐ° Ð½Ð¾
ĠÐ½Ð°Ð¼Ð°ÑĩÐºÐ° Ð½Ð¸Ñı
ĠÐºÑĢÑĥÑĪ Ð°ÑĤÐ°
ĠÐ¿Ð¾Ð»Ðµ Ð¿Ð½Ðµ
ĠÐ¡Ð²Ð°ÑĢ ÐµÐ½Ð¸Ñı
ĠÐ²Ð¸Ð½ ÑĤ
ĠÑĨÐ¸Ð¿ ÑĥÑĢÐ°
ÑĢÐ¾Ð· Ð´ÐµÑĤÐ¾
Ð¼Ð°ÑĢ ÑĥÐ»Ñı
ĠÑĢÐ¾Ð» ÑĨÐµ
ĠÐ¿Ð¾ÑģÐ¸Ð¿ ÐµÑĤÐµ
ĠÐ¿Ð¸ÐºÐ°Ð½ ÑĤÐ¸Ð½Ð°ÑĤÐ°
ĠÐ¿Ð¾ÑĢÑĬÑģÐ¸ Ñħ
ĠÐ¿Ð»Ð¾Ð´ ÑĩÐµÑĤÐ°
Ð³Ð¾Ð½ Ð·Ð¾Ð»Ð°
ĠÐ±Ð°Ð´ÐµÐ¼Ð¾ Ð²
ĠÐ±Ð°Ð´ÐµÐ¼Ð¾ Ð²Ð°ÑĤÐ°
ĠÐ·Ð°Ð³ÑĢÐµ ÑıÑĤ
ĠÐĺÐ·Ð´ÑĬÐ»Ð±Ð° Ð¹ÑĤÐµ
ĠÐ¼Ð°Ð¹Ð¾ ÑĢÐ°Ð½Ð°ÑĤÐ°
ĠÐ¿ÑĢÐµÑĨÐµÐ´ ÐµÐ½Ð°ÑĤÐ°
ĠÐµÐº Ð»ÐµÑĢÐ¸
ĠÐ¾Ð±ÑĢÐ°ÑĤÐ½Ð¾ ÑĤÐ¾
ĠÐ·Ð°ÑĤ Ð²Ð¾ÑĢÐ¸
ĠÑıÐ´ ÐµÐ½Ðµ
ĠÐ¾ÑĤÐ²Ð°ÑĢÑı ÑĤÐµ
ĠÐºÑĬÐ» ÑĨÐ°
ĠÐĴÐ·ÐµÐ¼Ð° Ð¼Ðµ
ĠÑģÐºÑĬÐ» ÑĨÐ²Ð°
ĠÐ¿Ð»Ð°ÑģÑĤÐ¾ Ð²ÐµÑĤÐµ
ĠÐŁÑĢÐ¸Ð³Ð¾ÑĤ Ð²ÐµÐ½Ð¸ÑĤÐµ
ÑĢÐ¾ÐºÐ¾Ð» Ð¸
ÐµÐ½Ð´Ð¶Ðµ ÑĢÐ°
ĠÐ¿ÑĬÐ»Ð½ÐµÐ¶ ÑĬÑĤ
ĠÐ¾ÑģÑĤÐ°Ð²Ð¸ Ð»Ð¸
ĠÑĨÐ¸ Ð»Ð¸
ĠÑĨÐµÐ»Ñĥ Ð²
Ð·ÑĬÐº ÑĬÑĤ
ĠÐ¸Ð·ÑģÑĥÑĪ ÐµÐ½Ð¸
ĠÑħÐ°Ð¹Ð²ÐµÑĢ ÑĬÑĤ
ÐĿ Ðķ
ĠÐ¿ÑĢÐ¾ÑĨÐµ Ð´ÑĥÑĢÐ°
ĠÑģÑĥÐ´Ð¶ ÑĥÐºÐ°
Ð¶ÐµÐ»Ð° ÑĤÐµÐ»Ð½Ð¾
ĠÑģÐ°Ð»Ð°ÑĤ ÐµÐ½Ð¸
ĠÐ½Ð°Ð²Ð»Ð°Ð¶ Ð½ÐµÐ½Ð¸
ĠÐŁÑĥÑģÐºÐ° Ð¼Ðµ
ĠÐŀÑĤÐ´ÐµÐ»Ñı Ð¼Ðµ
ĠÑħÐ²Ð° ÑīÐ°ÑĤ
ĠÐ¿Ð°ÑīÑĬÑĢ Ð½Ð°ÐºÐ°
Ð»Ð¸Ð½ Ð´ÑĬÑĢ
ĠÑģÑĬÐ´ÑĬÑĢÐ¶ Ð°Ð½Ð¸Ðµ
ĠÐ¸Ð·Ð¿ÐµÑĩ ÐµÐ½Ð°
ĠÐ¸Ð·Ð¿ÐµÑĩ ÐµÐ½Ð¸Ñı
ĠÐŀÐ³ÑĬÐ½ Ñı
ĠÐ¼Ð°Ð· Ð½Ð°
ĠÐ¿Ð¾ÐºÐ° Ð·Ð°Ð½Ð¾
ĠÐºÐµÑĢÐ°Ð¼Ð¸ ÑĩÐ½Ð¸
ĠÐŀÐ±ÑĢÑĬÑīÐ° Ð¼Ðµ
ĠÐ¿ÑĬÐ´Ð¿ÑĬÐ´ÑĬ ÑĨÐ¸ÑĤÐµ
Ð±Ñĥ ÑĩÐºÐ°
ĠÐ·Ð°Ñħ Ð²Ð°Ð½Ðµ
ĠÐ¾ÑĤÑģÑĤÑĢÐ°Ð½ ÑıÐ²Ð°Ð½Ðµ
ĠÑĢÐ°Ð·Ð¼Ðµ ÑģÐ¸
ĠÐ½ÑĥÐ¶ Ð½Ð°
ĠÐ¾ÑģÐ½Ð¾Ð² Ð½Ð°ÑĤÐ°
ĠÐ¨Ð° Ð¹Ð±Ð¸ÑĤÐµ
ĠÑĥÐ¸ÑģÐºÐ¸ ÑĤÐ¾
ĠÐ¿Ð¾ÑĢÑĨÐµÐ»Ð° Ð½Ð¾Ð²
ÐłÐ°Ð·ÑĤÐ¾Ð¿ ÐµÑĤÐµ
ĠÑĢÐ°Ð·ÐºÑĬÑģ Ð°
ĠÑĢÐ°Ð·Ð¼ÐµÑģ ÐµÐ½
ĠÐ¡Ð³Ð¾ÑĢÐµÑī ÐµÑĤÐµ
ĠÐ¾Ð±ÑĬÑĢÐºÐ° Ð½Ð¸
ĠÑĪÐ¸Ð¿ ÐºÐ°
ÐºÐ¾ÑĢ Ð½ÑĦÐ»ÐµÐ¹ÐºÑģ
ĠÐĺÐ·Ð¿ÐµÑĩ ÐµÐ½Ð¾ÑĤÐ¾
ĠÐ¡Ð¸ÑĢÐ¾ Ð¿ÑĬÑĤ
ĠÑĨÑĥÐºÐ¸ Ð½Ð¸ÑĤÐµ
ĠÑģÐ³Ð¾ÑĤ Ð²ÐµÐ½Ð¾
ÐłÐ¸ Ð±Ð¸ÑĤÐµ
ĠÑģÐ¿ÐµÑĨÐ¸Ð° Ð»Ð½Ð°
ĠÐ°ÑĢÐ°Ð½Ð¶Ð¸ ÑĢÐ°
ĠÐ°ÑĢÐ°Ð½Ð¶Ð¸ ÑĢÐ°ÑĤ
ĠÐĽÐ° Ð¿Ð°Ð´ÑĬÑĤ
ĠÐłÐ°Ð·ÑĤÐ²Ð°ÑĢÑı Ð¼Ðµ
ÐĳÐ»Ð° ÑĤÐ¾Ð²ÐµÑĤÐµ
ĠÐ½Ð°ÐºÑĬÑģÐ°Ð½Ð¸ ÑıÑĤ
ĠÐ°ÑĢÑĤÐ¸ÑĪÐ¾ ÐºÐ°
ÐºÑĢÐµÐ½Ð²Ð¸ÑĢ ÑĪ
ĠÐºÑĢÑĬÐ² ÑĤÐ°
ĠÐ°Ð± ÑģÐ¾Ð»Ñİ
ĠÑħÑĢÑĥÐ¿ÐºÐ°Ð²Ð¾ ÑģÑĤ
ĠÑĥÑģÐµ ÑīÐ°
ÑĦÐµÐº ÑĤÐ½Ð¾
ĠÐ¸Ð·ÑĢÐµÐ· ÐºÐ¸
ĠG elfi
ĠÐ¸Ð·Ð±Ðµ Ð³Ð½Ðµ
ÐĴÐ¸ Ð½Ð¾ÑĤÐ¾
ĠÑĦÐ»Ðµ Ð¹ÐºÐ°
Ð¾Ð½Ð´Ð° Ð½
ĠÐŁÐ¾ÑĤÐ¾Ð¿ ÐµÑĤÐµ
ĠÐ³Ð°Ð½Ð° ÑĪ
ĠÐ¼ÑĥÑģÐºÑĥÐ» Ð½Ð¸ÑĤÐµ
ĠÑģÑĥÑĢÐ¾Ð²Ð°ÑĤ ÐºÐ°
ĠÐ±Ð°Ð»Ð¾Ð½ ÑĩÐµÑĤÐ°
ĠÐ¿Ð°Ð¼ Ñĥ
Ð¾Ð±ÐµÐ· ÐºÐ¾ÑģÑĤ
ĠÑĤÑĢÐ°Ð´Ð¸ ÑĨÐ¸Ð¾Ð½
ĠÑĩÑĢÐµÐ² ÑĨÐ°
ĠÐĶÐ¾Ð±Ð° Ð²Ð¸
ĠÑģÐ°Ð·Ð´ÑĬÑĢ Ð¼Ð°
ĠÐ¾ÑĢÐ¸ÐµÐ½ÑĤÐ¸ÑĢÐ¾Ð² ÑĬÑĩÐ½Ð¾
ĠÐ·Ð°Ð¿ÐµÐºÐ°Ð½ ÐºÐ°ÑĤÐ°
ĠÐ¿Ð¾Ð¶ÑĬÐ»ÑĤÐµ Ðµ
ĠÐ¼Ð°ÑĤÐ¾ ÑĩÐ¸Ð½Ð°
ĠÑħÐ°Ð»Ð¾Ð³ ÐµÐ½Ð½Ð°ÑĤÐ°
Ġsa uce
ĠÐ¾Ð±Ð° ÑĩÐµ
3 80
a l
f ish
p p
Ð° ÐºÐ°
Ðµ ÑĪÐ½Ð¸
Ñģ Ð°Ð½Ð¸
Ñģ ÑĢÐµÐ´Ð°ÑĤÐ°
Ñģ Ð»ÑĬÐ½ÑĩÐ¾Ð³Ð»ÐµÐ´
Ð¸ ÑģÑĤÐ¸
ĠÑģ Ð²Ð¸ÑıÑĤ
ĠÑģ Ð³Ð¾ÑĤÐ²Ñı
Ð» ÐµÐ½ÑĤÐ¸
Ðº Ð»Ð°ÑĤÐ°
Ðº ÑĢÐµÑħ
ĠÐ¿ ÐµÑĤÐµ
Ð´ ÐµÑģ
ĠÐ¸ ÑģÑĤÐ¸
ĠÐ¸ Ð²Ð¸ÑĩÐºÐ¸ÑĤÐµ
Ð¼ Ð¾Ð»
ĠÐ½Ð° ÑĨÑıÐ»Ð¾
ÐµÐ½ ÐºÐ¸ÑĤÐµ
ĠÐº Ð»Ð¾
Ð¿ Ð¾Ð»Ñĥ
ĠÐ¾ Ð¿ÑĬÑĢÐ¶
Ð± ÑĩÐµÑĤÐ°ÑĤÐ°
ÑĤÐµ ÑĪÐºÐ¾
ĠÐ´ Ñĥ
Ð³ Ð»Ðµ
Ð³ ÑĥÐ»ÐºÐ°
ÐºÐ° Ð²Ð°
ÐºÐ° ÑĢÐ°
Ð¾Ð» ÑĨÐ°ÑĤÐ°
ĠÐ·Ð° ÐºÑĢÐ¸
ÑĪ ÐµÑĤÐ¾
Ð»Ð¸ ÑĪÐ½Ð°ÑĤÐ°
Ñħ ÑĥÐ±Ð°
ÐºÐ¾ Ñħ
ĠÐ´Ð¾ Ð·Ð¸
ÑĢÑıÐ· Ð²Ð°Ð½Ðµ
ÑĩÐµ ÑĢÐµ
Ð½Ðµ Ñģ
ĠÑĢÐ°Ð· Ð²Ð¸Ð²Ð°ÑĤ
ĠÑĢÐ°Ð· Ð³ÑĬÐ²Ð°
ĠÐ¿Ð¸Ð¿ Ð°
ĠÐ¡ Ð³ÑĬÑģÑĤ
ÑĢÐ¾ Ð½ÐµÐ½Ð°
Ð±Ð¸ ÑĪÐºÐ¾
ĠÐ¿ÑĢÐµ ÑĨÐµ
ĠÑĦ Ð°ÑĢÑĦÐ°
ĠÑģÐ¾ ÐºÐ¾Ð²ÐµÑĤÐµ
ĠÐĴ ÑĢÑıÑĤ
ĠÐĴ Ð·Ð¸Ð¼Ð°ÑĤ
ĠÑĤÐµ ÐºÐ¸
ĠÑĤÐµ ÑģÑĤÐ°
ĠÐŀ Ð¼ÐµÑģÐ²Ð°ÑĤ
ĠÐŀ Ð¼ÐµÐºÐ½Ð°
ĠÑĤÐ° ÐºÐ¾Ð²Ð°
ÑıÐ²Ð° ÑĤÐ°
ĠÑĩÐ° Ñı
Ð·Ð° ÐµÐ´Ð½Ð¾
ĠÐºÐ¸ Ð»Ð¾Ð³ÑĢÐ°
ĠÐ½Ð°Ð¼Ð° Ð»ÐµÐµ
ĠÐŁÐ¾ Ð½ÐµÐ¶Ðµ
ĠÐ·ÐµÐ» ÐµÐ½Ð¾
ĠÐļ Ð²Ð°
ĠÑģÑĬ Ð±ÐµÑĢÐµ
ĠÐ³Ð¾ Ð²ÐµÐ¶Ð´Ð°
ĠÐºÐ°ÑĪÐºÐ° Ð²Ð°
ÐµÐ´ Ð½Ð°
ÐµÐ»Ð° ÑĩÐºÐ°ÑĤÐ°
ÑĥÐ´ Ð¾Ð±
ĠÐºÐ°ÑĪÐºÐ°Ð²Ð°Ð» ÐµÐ½Ð°
ĠÐĹÐ° Ð¿Ð°
ĠÐĹÐ° Ð¼ÑĢÐ°Ð·
ÑĢÑĥ Ð¿ÐºÐ°
ĠÐ·Ð°Ð³ Ð»Ð°Ð´ÐµÑĤÐµ
ĠÑģÐ¾Ñģ ÑĩÐµ
ĠÐ¿ÑĢÐ¸Ð±Ð°Ð²Ñı Ð¹ÑĤÐµ
ĠÐĺÐ· Ð¼ÐµÑģÐ²Ð°
ĠÐĺÐ· ÑĢÑıÐ·Ð²Ð°
ĠÑĥ ÑĤÐ°
ĠÐ¸Ð·Ð¼Ð¸ Ð»Ð¸
ĠÐ¾ÑĢÐµÑħ Ð¾
ĠÐ²Ð° ÑĪÐ¸ÑĤÐµ
ÐŁ ÑĢÐµÑģ
ÑĪÐºÐ¸ Ñı
Ð¿Ðµ ÑĢÐ°
ĠÐļÐ¾ Ð¿ÑĢÐ¸Ð²Ð°ÑĤÐ°
ĠÐŁÐ¾Ð´ Ñģ
ĠÐ¿Ð» ÑĥÐ²Ð°
Ðļ Ð¸Ð¿Ð²Ð°
ĠÐ´ÑĬÐ» Ð³Ð°ÑĤÐ°
ÐºÑĢÐ° ÑĤÐ½Ð¾
ĠÐ¼Ð¸ Ð½Ð°ÑĤ
ĠÐ¯ Ð´ÐµÐ½ÐµÑĤÐ¾
ĠÐ³Ð¾ÑĢ Ð½Ð¸ÑıÑĤ
Ðŀ Ð¼ÐµÑģÐ²Ð°Ð¼Ðµ
ÐĿÐ° Ð´ÐµÐ½Ð¸
ÐĿÐ° ÑĩÑĥÐºÐ°Ð½Ð¸ÑĤÐµ
ĠÐŁÑĢÐµ Ð¼ÐµÑģÑĤÐµÑĤÐµ
Ð´Ðµ Ñı
ÑģÐ¾ Ðµ
ĠÐ³ÑĢÐ°Ñħ ÑĤÐ°
ĠÑģÑĤÐµ Ðº
ĠÑĢÐµÐ· ÑĥÐ»
ĠÐ²ÑĢÑı Ð»Ð°ÑĤÐ°
ĠÑģÑĢÐµ Ð¶ÐµÑĤÐµ
ĠÐºÐ°ÑĢÑĤÐ¾ÑĦ ÐµÐ½Ð¸Ñı
Ðĳ Ð»Ð°ÑĤÐ°
Ð¼Ð¿ÐµÑĢÐ°ÑĤ ÑĥÑĢÐ°ÑĤÐ°
ĠÐŁÐµ ÑĩÐµÐ½Ð¸ÑĤÐµ
ĠÐ¿Ð¸ ÑĢÐ°Ð¼Ð¸
ĠÐ¿ÑĢÑĬ Ð¶ÐºÐ¸ÑĤÐµ
ÑģÑĤÐµ ÑĢÐ¸Ð»Ð¸Ð·Ð¸
ĠÑĨÐµÐ»Ð¸ ÑıÑĤ
ĠÐł ÑĬ
ĠÐ²Ð°ÑĢ ÐµÐ½Ð¾ÑĤÐ¾
Ð¯ Ð´ÐºÐ¸ÑĤÐµ
ĠÐ¿ÑĬÑĢ Ð²Ð¸
ĠÐĿ Ð¾
ĠÐ¿Ð°Ð»Ð°ÑĩÐ¸Ð½ ÐºÐ¾Ð²Ð°ÑĤÐ°
ĠÑĢÐ°Ð·ÑĤÐ¾ÑĩÐ²Ð° ÑĤÐµ
ĠÐºÐ°Ðº ÑĬÐ²
ĠÐ¾Ð±ÐµÐ· ÐºÐ¾ÑģÑĤÐµÑĤÐµ
ĠÐ¼Ð°ÑĢÐ¸Ð½Ð¾Ð²Ð° Ð½Ð¾
ĠÐ½Ð°Ð¿ÑĢÐ° Ð²ÐµÐ½Ð°ÑĤÐ°
Ðĵ Ð°
Ðĵ ÑĬÑĢÐ´Ð¸ÑĤÐµ
ÐŁÐ¾ÑĩÐ¸ÑģÑĤ Ð²Ð°
ÐŁÐ¾ÑĩÐ¸ÑģÑĤ Ð²Ð°ÑĤ
ĠÐ²ÑĬÑĤÑĢÐµÑĪ Ð½Ð¸ÑĤÐµ
ĠÑĪÐ¸ ÑĪÐ°
ĠÐ¿Ð¾Ð¿Ð°ÑĢ ÐµÐ½Ð¸Ñı
Ð°ÑĤÐ° ÑĢ
ÐĽ Ð¾
ĠÐ´ÑĬÑĢÐ¶ Ð¸ÑĤÐµ
ĠÑĢÐ¸Ð± Ð½Ð¸Ñı
ĠÐ½Ð°ÐºÑĬÐ»ÑĨÐ° Ð¹ÑĤÐµ
ĠÐ¼Ð°Ñħ Ð½Ð°ÑĤ
ĠÐ³ÑĬÐ± ÐµÐ½Ð¸ÑıÑĤ
Ð³ÑĬ Ð²Ð°Ð¼Ðµ
Ð±Ñı ÐµÐ¼Ð°
ĠÑģÐ»Ð°Ð´Ð¾Ð»ÐµÐ´ ÑĬÑĤ
ÑĢÐ¾Ð²Ð¸Ð½ ÐºÐ¸ÑĤÐµ
ĠÑģÑĤÐ¾ Ð»ÑĩÐµ
ĠÐ¿Ð¾Ð´ÑĢÐµÐ¶Ð´Ð° ÑĤÐµ
ĠÐ²Ð°Ð½Ð¸Ð»Ð¾ Ð²Ð¸Ñı
ĠÐ¾ÑĤÑģÑĤÑĢÐ° Ð½Ð¸ÑĤÐµ
ĠÐ¼Ð¾ÑĢ ÑģÐºÐ¸ÑĤÐµ
ĠÐ²Ð¸Ð½ ÐµÐ½Ð°ÑĤÐ°
ÑģÐ»Ð°Ð´ ÐºÐ°ÑĢÑģÐºÐ°
Ð½Ð¸Ð¼ ÐºÐ°
ĠÑĢÐ°Ð·ÑĤÐ²Ð¾ÑĢÐ¸ Ð¼Ð¾
Ð³ÑĢÐ° Ð´Ð¸Ð½ÑģÐºÐ¸
ĠÑģÑĬÑħ Ð½Ðµ
ĠÐ¿Ð¾ÑģÐ¸Ð¿ Ð²Ð°Ð¼Ðµ
ĠÐ¾Ð¼ Ð»ÐµÑĤÐ¸ÑĤÐµ
ĠÐ½Ð°Ð´Ñĥ Ð²Ð°
Ð¾Ð±ÑĢÐ°Ð· Ð½Ð°
Ð·Ð¾Ð²Ð¸ ÑĤÐµ
ĠÐ¢Ðµ Ð¼Ð¿ÐµÑĢÐ°ÑĤÑĥÑĢÐ°ÑĤÐ°
ĠÐ´Ð¶Ð¾Ð» Ð°Ð½Ð¸
ĠÐ¿ÑĪÐµÐ½Ð¸ ÑĩÐµÐ½Ð¾
ĠÐµÐ» ÑħÐ¸
ĠÐ¿Ð¾ÑĤÐ¾Ð¿ ÑıÐ²Ð°
ĠÐ¶Ð¸ Ð»ÐºÐ¸ÑĤÐµ
ĠÐ¿ÑĬÐ»Ð½Ð¾Ð·ÑĬÑĢÐ½Ðµ ÑģÑĤÐ¸
ĠÐ½Ð°Ð¿ÑĢÐµ ÑĩÐ½Ð¸
ÐĿÐ°ÑĢÑıÐ·Ð²Ð° Ð¼
ĠÐ´ÐµÐºÐ¾ÑĢÐ°ÑĨÐ¸Ñı ÑĤÐ°
ĠÐ½Ð°Ð¿Ð¾ ÑıÐ²Ð°
ĠÐ¾Ð¼ÐµÐºÐ½Ð° Ð»Ð¸ÑĤÐµ
ĠÐ·Ð°Ð± ÑĥÐ»Ð¸
ĠÐ¾ÑģÑĤÐ°ÑĤÑĬ ÑĨÐ¸ÑĤÐµ
ĠÐ»Ð¸ÑģÑĤÐ¾ ÑĤÐ¾
Ð´ÑĢÐµÐ± Ð½Ð¾
ĠÐ¸Ð·ÑģÑĤÐ¸ÑģÐºÐ° Ð½Ð¸
ĠÐĺÐ·ÑģÑĤÐ¸ Ð½Ð°Ð»Ð°ÑĤÐ°
Ð¡Ð²Ð°ÑĢ ÐµÐ½Ð¸ÑıÑĤ
ĠÐ½Ð°Ð¹Ð»Ð¾ Ð½Ð°
ĠÐ´ÐµÑģÐµÑĢ ÑĤÑĬÑĤ
ĠÑĪÐ°ÑĦÑĢÐ°Ð½ ÑĬÑĤ
ÑģÑĥÑħ Ð¾
ĠÐĳÐ° Ð²Ð½Ð¾
ĠÐ¸Ð·ÑħÐ²ÑĬÑĢ Ð»ÑıÑĤ
ĠÐ½Ð°ÐºÑĬÑģÐ° Ð½Ð°ÑĤÐ°
ĠÐ¾Ð¼Ð»ÐµÑĤ ÑĬÑĤ
ĠÐ¾ÑĤÐ´ÐµÐ»Ð¸ Ð»Ð¸Ñı
ĠÐ¸Ð·ÑģÑĥÑĪ Ð°Ð²Ð°ÑĤ
Ð¾Ð² ÐµÑģ
ĠÐºÐ¾ÐºÑĤÐµÐ¹ Ð»Ð½Ð°
ĠÐ±Ð¸ÑģÐºÐ²Ð¸ÑĤ ÐµÐ½Ð¸Ñı
ĠÐŀÑģÐ¾Ð» ÑıÐ²Ð°Ð¼Ðµ
ÐµÑĤÐ¸ ÑĢÐ¸
ĠÑģÐ¾ÑĢ ÑĤÐ°
ĠÐ²ÐµÑĢ ÑĤÐ¸ÐºÐ°
ĠÐ¿ÑĤÐ¸ ÑĩÐµ
ĠÐ¿ÑĤÐ¸ ÑĨÐ¸
ĠÐ´ÐµÐ½Ð¾Ð½Ð¾ ÑīÐ¸Ñı
ĠÐ¿Ð¾Ð´ÐºÐ¸ÑģÐµÐ» ÑıÐ²Ð°
ĠÐĵÐ»Ð° Ð²Ð¸ÑĤÐµ
ĠÐ¸Ð·Ð¿Ð°ÑĢÑı Ð²Ð°Ð½ÐµÑĤÐ¾
ÐĿÐ°Ñħ ÑĥÑĤÐ°
ĠÐ¨Ð° ÑĢÐ°Ð½ÑĬÑĤ
ĠÑģÐ¿ÑĢÐµ Ð¹
ĠÑĥÐ¿Ð¾ÑĤ ÑĢÐµÐ±ÑıÐ²Ð°
ĠÐ½ÑĥÐ´ ÑĬ
ĠÐ³Ñĥ Ð±Ð¸
ĠÐ³Ñĥ Ð°ÐºÐ°
ĠÐľÐµÑģ ÐµÑĤÐµ
ĠÑĤÐ¾ÑģÑĤÐµÑĢ Ð½Ð¾
ĠÐ¿Ð»Ð°ÑĤ ÐºÐ¸
ĠÑĪÐ¸Ð¿ ÐºÐ¸
ĠÐĿÐ°Ð¼Ð°Ð· Ð½ÐµÑĤÐµ
Ð¶ÑĬÐ»ÑĤÑĬ ÐºÐ°
ÐĹÐµ ÑħÑĤÐ¸Ð½ÑĬÑĤ
ĠÐ²Ð¸ÑĪÐ½Ð¾Ð² ÐºÐ°ÑĤÐ°
ĠÐ¿Ð¾ÑĤÑĬÐ¼Ð½Ðµ ÑıÑĤ
ĠÑģÐ¿ÐµÑĨÐ¸Ð° Ð»ÐµÐ½
ĠÐ½ÐµÐºÑĤÐ° ÑĢ
ÐĿÐ°ÑĤÑĢÐ¾ ÑĪÐµÑĤÐµ
ĠÑĤÐ»ÑĬÑģÑĤÐ¸ Ð½Ð¸
ĠÑĥÐ¿Ð¾ÑĤÑĢÐµ Ð±Ð°ÑĤÐ°
ĠÐ³Ð¾ÑĦÑĢÐµ ÑĤÐ½Ð¸
ĠÐ½Ð°ÐºÐ»Ð¾ Ð½ÐµÐ½Ð°
ĠÐ¿ÑĢÐµÑģÑĤÐ¾Ñı Ð»
ĠÐ¼ÐµÐ»Ð° Ð½Ð¶
ĠÐĹÐ°Ð³ÑĢÑı Ð²Ð°ÑĤ
ĠÐ°Ð± ÑģÐ¾ÑĢ
ĠÐļÐµÐºÑģ ÑĬÑĤ
ĠÐºÐ°Ð¹ÐµÐ½ ÑģÐºÐ¸
ĠÐ»Ð¸Ð¿ Ð°
ĠÑģÑĥÑħÐ¾Ð¶Ð¸ Ð»Ð¸Ñı
Ð¿ÑĥÐº Ð²Ð°ÑĤ
ĠÑĤÐµÑĢ Ð¼Ð¸
ÐĴÐ°ÑĢÐ¸ Ð°Ð½
ĠÐ¿ÑĬÑĢÐ»ÐµÐ½ ÐºÐ°
ĠÐŀÐ±ÐµÐ·ÐºÐ¾ÑģÑĤ ÑıÐ²Ð°
ĠÑĤÐ°ÑĢÐ°Ð»Ðµ Ð¶
ĠÑĪÐ°Ð»Ð¾ ÑĤ
ĠÐľÐ°ÑĢÐ¸Ð½Ð¾ Ð²Ð°ÑĤ
ĠÐºÑĢÑĬÐ³Ð»Ð¾ Ð·ÑĬÑĢÐ½ÐµÑģÑĤ
ĠÐºÐ¾Ð¼Ð±Ð° Ð¹Ð½
ĠÐ·Ð°ÑħÐ°ÑĢÐ¾ÑģÐ° Ð½
ĠÐŀÐ¿ÐµÑĩ ÐµÐ½Ð¸ÑıÑĤ
Ð·Ð»Ð°ÑĤÐ¸ ÑģÑĤÐ¾
ÐĽÐ° Ð¿Ð°Ð´ÑĬÑĤ
ĠÐ¿Ð¾ÑĩÐµÑĢÐ²ÐµÐ½Ðµ Ðµ
ĠÐ¿ÐµÐº ÑĤÐ¸Ð½
ĠÐļÑĢÑĬ Ð³Ð»Ð°
ĠÑĢÐ°Ð¼ÑģÑĤÐµ ÑĨÐ¸ÑĤÐµ
ĠÑĦÐ»Ð° Ð¼Ð±Ð¸
ĠÐºÐµÑĢÐµÐ¼Ð¸ Ð´Ð¾Ð¾Ð±ÑĢÐ°Ð·Ð½Ð¾
ĠÐ¡Ðµ Ð³Ð°
ĠÐ½ÐµÐ²ÐµÑĢ Ð¾ÑıÑĤ
ĠÑħÐ°ÑĢÐ¼Ð¾ Ð½Ð¸ÐºÐ°
ĠÑģÑĤÑĬÑĢÐ³Ð¾ÑĤÐ¸ Ð½Ð¸ÑĤÐµ
Ð³ÑİÐ²Ðµ Ñĩ
ĠÐ±ÑĬÑĤ ÑĬÑĢÐ¼Ð¸
Ð¼Ð°ÐºÐ°ÑĢÐ¾ Ð½Ð¸
ĠÐ¸Ð·ÑĤÑĬ Ð½Ð¸
Ð±Ð¸ÑĪÐºÐ¾ ÑĤÐ¸
ĠÐºÐ¸Ð»Ð¾Ð³ÑĢÐ° Ð¼
ĠÐ³ÑĥÐ°ÐºÐ° Ð¼Ð¾Ð»
ĠÐ°Ð±ÑģÐ¾ÑĢ Ð±Ð¸ÑĢÐ°
% )[
2 75
4 80
i c
s t
Ġ E
Ġ o
Ġ ÑĥÑĪ
Ġ ch
Ð¾ ÑģÑĤÐ°
Ð» Ðº
Ð» ÑĩÐµÑĤÐ°
Ð» ÐµÐ½Ð¸ÑıÑĤ
Ð² ÑĬÐ½
Ð² ÑĬÑĢÐ¶ÐµÑĤÐµ
Ðº Ð»Ð°Ð´ÐµÐ½
Ñĩ ÐµÐ½ÐµÑĤÐ¾
Ð´ Ð½Ð¾
Ñĥ Ð·
Ñĥ Ð´Ð°ÑĤÐ°
ĠÐ½Ð° Ð·
ÐµÐ½ ÑĤÐ°
ÐµÐ½ ÑĤÐ¸ÑĤÐµ
ÐµÐ½ ÑģÐºÐ¸
ĠÐº ÑĢÑĬÑģ
Ð¿ Ð»Ñĥ
ĠÐ¾ Ð¼Ð°ÑĢ
ĠÐ¾ Ð´ÐµÑı
Ð± ÑĢÐ¾
Ð± Ð»Ð°ÑĤÐ°
Ð± ÑĢÐ¾ÐºÐ¾Ð»Ð¸
ĠÐ² ÑĬÐ»
ĠÐ´ Ð²Ð¸
ĠÐ´ Ð¸Ð¿
ĠÐ· Ð¸Ð¼
ÐºÐ° Ð¹ÐµÐ½
ĠÐ± ÑĥÑĢ
ĠÐ± ÑĬÐ·
ĠÐ·Ð° Ð´ÐµÐ»Ñı
ĠÐ·Ð° Ð¿Ð°ÑĢÐ²Ð°
Ð»Ð¸ Ð½ÑĬÑĤ
ÐµÑĢ Ð½Ð°
ÑĢÐ¸ ÑĤÐ¾
Ð»Ð° Ð½Ð¾
Ñħ ÑĢÑĥÐ¿ÐºÐ°
ĠÐ¿Ð¾ ÑģÑĤÐ¸
ĠÐ¿Ð¾ Ð¿Ð°ÑĢÐ¸
Ð¶ Ð½Ð¸
Ð¼Ð° Ð»Ð¸Ð½Ð¸
ÑĦ ÐµÑĢ
ĠÐºÐ° Ð·Ð²Ð°
Ð¹ ÐºÑĬÑĤ
ĠÐ¾ÑĤ Ð´ÐµÐ»Ð¸ÑĤÐµ
Ð»Ð¾ ÐºÑĥÐ¼
Ð±Ð° Ð²Ð½Ð¾
ÑĢÐ°Ð· Ð¼ÐµÑĢ
Ð½Ðµ ÑıÑĤ
ĠÑĢÐ°Ð· Ñı
ĠÐ¸Ð· ÑĢÐµ
ĠÐ¸Ð· Ð±ÑĬÑĢ
ĠÐ¸Ð· Ð¼ÐµÑĢ
ĠÐ¸Ð· Ð¿Ð°Ð´Ð½Ðµ
ĠÑģÐ¸ ÑĤ
ÐµÐ» ÑĬÑĤ
Ð¸Ð½ Ð³Ð¸
ĠÑĩÐµÑĢ Ð²Ð¾
ÑĥÑĪ ÐµÐ½Ð°ÑĤÐ°
ĠÑĤÐ¾ ÑģÑĤ
ĠÐ¿ÑĢÐ¸ ÑģÑĤÐ°
ĠÐ¿ÑĢÐ¸ Ð±Ð¾ÑĢ
ĠÐ¿Ð¾Ð´ Ð´ÑĬÑĢÐ¶Ð°
Ð¼Ð¸ ÐºÐ¾Ð²
ĠÐ¿ÑĢÐµ ÐºÑĢÐ°
ĠÐ¿ÑĢÐµ Ð²Ð°ÑĢÐµÐ½Ð°
ĠÑĤ ÑĬÑĢ
Ð¿Ð° ÑģÑĤÐ°
ĠÐĴ Ð°Ð½Ð¸
Ġ2 25
ĠÑĤÐµ Ð¶
ĠÐŀ ÑĨÐµÑĤÑĬÑĤ
ĠÐŀ ÑĢÐµÐ¾
ĠÑĤÐ° ÐºÐ¾
Ñİ ÑĢ
ÑģÐ¸ ÐºÐ°
ĠÐ½Ðµ ÑĢÐ°
ÑģÐ° Ð»Ð°ÑĤÐ°
ÑıÐ²Ð° Ð½ÐµÑĤÐ¾
Ð¿ÑĬÑĢÐ¶ ÐµÐ½Ð¸
ĠÑĩÐ° ÐµÐ½Ð°ÑĤÐ°
ĠÐ¿Ðµ Ð»Ð¸Ð½
ĠÑģÑĤ ÑĬÐºÐ°
ĠÐ¼ÐµÑģ ÑĤÐ¾ÑĤÐ¾
Ð·Ð° Ð´
ĠÐºÐ¸ Ð±ÑĢÐ¸
Ð¶Ðµ ÑĢÐ°
ĠÐļ ÑĢÐ¸Ð»ÑĨÐ°ÑĤÐ°
ĠÐĶ Ðµ
ĠÐĿÐ° ÑĢÐµÐ´
ĠÐĿÐ° ÑĩÑĥÐ¿
ĠÐ¾Ð± Ð²Ð¸Ð²Ð°ÑĤ
ĠÑĢÐ°Ð·Ð±Ð¸ ÑıÑĤ
ĠÐ²Ð¸ Ð´Ð¸ÑĤÐµ
Ð¿Ð¸ ÐºÐ°Ð½
Ġ3 3
ĠÐ·Ð°Ð¿ÑĬÑĢÐ¶ ÐµÐ½Ð¸ÑıÑĤ
ĠÐŁÑĢÐ¸ Ð±ÐµÑĢÐµÑĤÐµ
ĠÐ¾Ð³ ÑĬÐ½Ð°
ĠÐ¿ÑĢÐ¾ ÑģÐ¾
ĠÐ¿ÑĢÐ¾ Ð±Ð¸Ð²Ð°ÑĤ
ĠÑģÑĥ Ð¼Ð°Ðº
Ð¼ÐµÑģ ÐµÐ½Ð¾ÑĤÐ¾
ĠÐłÐ°Ð· ÐºÐ»Ð°ÑīÐ°
ĠÐ¾ÑĢÐ¸Ð· Ð¾Ð²Ð¾ÑĤÐ¾
ĠÐºÑĢÐ° Ð²Ð°
ĠÐºÑĢÐ° ÑĩÐµ
ĠÐºÑĢÐ° Ð»ÑģÐºÐ¸
ĠÐĺÐ· ÐºÐ»ÑİÑĩÐµÑĤÐµ
ĠÑģÑĤÐ° Ð½Ð°
ĠÑģÑĤÐ° ÑĢÐ¸Ñı
ĠÑĥ ÑģÑĤÐ°ÑĤÐ°
ĠÐ¾Ð±ÐµÐ» ÐµÐ½Ð¾
ĠÑĢÐµ ÑĩÐ½Ð°
Ð·Ð¸ Ñı
ÑĩÐµÐ½ ÑĨÐ°ÑĤÐ°
ĠÐ¢ ÑĢÐ°
ĠÐ¢ Ð¸Ðº
ĠÐ¢ Ð°ÑĢÑĤÐ°
Ð²ÑĬÑĢ ÑĩÐ¸
Ð²ÑĬÑĢ Ð¼Ð°ÑĤÐ°
ĠÑĦÐ¸Ð»Ð¸ ÑĢÐ°Ð½
ĠÑĢÐ° ÑĨÐ¸ÑĤÐµ
ĠÐļÐ¾ ÑĪÐ½Ð¸
ĠÐ±Ð¸ ÑģÑĤÑĬÑĢ
ĠÐ±Ð¸ Ð²Ð¾Ð»
ÐĴ ÐºÐ»ÑİÑĩÐµÑĤÐµ
ĠÐ¿Ð» ÑĥÐ²Ð°ÑĤ
ĠÐ´ÑĢÐµÐ± Ð½Ð¸ÑĤÐµ
Ðļ Ð¾Ð»Ð°ÑĤÐ°
ĠÐºÑĢÑĬ Ð³Ð¾
Ðľ Ð°Ñģ
Ðľ Ð¾ÑĢÐºÐ¾Ð²Ð°
ĠÐ»Ñİ ÑĤÐ¾ÑĤÐ¾
ĠÐ¾ÑĤÑĨÐµ Ð´Ð¸ÑĤÐµ
Ð±Ðµ ÑĢÐ°ÑĤ
ĠÐ³Ð¾ÑĤÐ¾Ð²Ð½Ð¾ÑģÑĤ ÑĤÐ°
ĠÑģÐ»Ð¾ Ñı
Ð°Ñģ ÑĥÐ»Ð°
ÐĿÐ° ÑĩÐ¸Ð½
ÐĿÐ° ÑĢÐµÐ´ÐµÑĤÐµ
ĠÐŁÑĢÐµ ÑĨÐµÐ´
ĠÐ¾Ð²Ð°Ð» Ð²Ð°ÑĤÐµ
ĠÐ¿Ð»Ð¾ Ð´ÑĬÑĤ
ĠÐ¿Ð»Ð¾ ÑģÐºÐ°ÑĤÐ°
ĠÐĲ Ð½
ĠÑĨÐ°ÑĢÐµ Ð²Ð¸ÑĩÐºÐ¸
ĠÑĢÐ°Ð·ÑĤÐ¾ ÑĩÐ²Ð°Ð½Ðµ
ĠÑĢÐ°Ð·ÑĤÐ¾ ÑĩÐ²Ð°Ð½ÐµÑĤÐ¾
ĠÑģÑĤÐµ Ð¿
ĠÑģÑĩÑĥÐºÐ° Ð½Ð¾
ĠÑĢÐ°Ð·ÑĤ ÑĢÐ¾
ĠÐļÐ° Ð¼ÑĩÐ¸Ñı
ĠÑĢÐµÐ· ÐµÐ½Ðµ
Ð¾ÑĤ Ð»Ðµ
Ð¼Ð°Ñģ Ð¾Ð²Ð¸
Ðĳ ÑĥÑĤÑĩÐµÑĤÐ¾
Ðĳ ÑĥÐ»Ð³ÑĥÑĢÐ°
ĠÐ¾Ð²ÐºÑĥÑģ ÐµÐ½Ð¾ÑĤÐ¾
ĠÐľÐ° Ð»Ð¸Ð½Ð¸ÑĤÐµ
Ð»ÐµÐ½ ÑĨÐ°
Ð´ÑĬÐ» Ð¶Ð¸ÑĤÐµÐ»Ð½Ð¾
ĠÐ¿ÑĢÑĬ Ð¶ÐºÐ¸
ĠÐ·ÐµÐ»ÐµÐ½Ð¸ ÑĪÐ¸ÑĤÐµ
ĠÐ§ ÐµÑĢÐµÑĪÐ¸ÑĤÐµ
ĠÐ¿Ð»Ð¾Ð´Ð¾ Ð²Ð°ÑĤÐ°
ĠÐ½Ð°Ð± Ð»Ñİ
ĠÐ³ÑĬ Ð±Ð°ÑĤÐ°
ĠÐ¼Ñĥ ÑģÑĤÐ°
ĠÑĢÐ°Ð·Ð¿ÑĢÐµÐ´ÐµÐ»Ñı ÑĤÐµ
Ð»Ð¸Ð·Ð¸ ÑĢÐ°Ð½Ð¸
ĠÐ½Ð°ÑĢÑĬÑģ ÐµÑĤÐµ
ĠÐ¿Ð»Ð° ÑĤÐ¾ÑĤÐ¾
ĠÑĤÑĢÐ¸ Ðµ
ĠÐ»Ð° Ð²
ĠÐºÐ¸Ð¿ Ð¸
Ð¸Ð· ÑģÑĤÐ¸
ĠÐ¿Ð¾Ð´ÑģÑĥÑĪ ÐµÐ½
ĠÐ¿Ð¾Ð´ÑģÑĥÑĪ ÐµÐ½Ð¾
ĠÑĢÐ°Ð·Ð´ÐµÐ»Ñı Ð¼
ĠÐ¿Ð¾Ð²ÐµÑĩÐµ ÑĤÐ¾
Ð²ÐºÑĥÑģ Ð½Ð°
ÐĴÑģÐ¸Ñĩ ÐºÐ¸ÑĤÐµ
ĠÐ¸Ð·Ð´ÑĬÐ»Ð±Ð° Ð½Ð¸Ñı
ĠÐ£ Ð²Ð¸Ð²Ð°ÑĤ
ĠÑĨÐ°ÑĢÐµÐ²Ð¸Ñĩ Ð½Ð¸
ĠÐ¾ÑħÐ»Ð°Ð´ ÐµÐ½Ð¸ÑıÑĤ
ĠÐĳÑĬÑĢÐºÐ° ÑĤÐµ
ĠÐºÐ²Ð°Ð´ ÑĢÐ°
Ðĵ Ð¾
Ðĵ Ð¾ÑĢ
ÐľÐ° Ð³Ð´Ð°Ð½Ð¾Ð·
ĠÐ¿Ð»Ð°ÑģÑĤ Ð¼Ð°ÑģÐ¾Ð²Ð¸
ĠÐ¿Ð¸ÑĤ ÑĩÐ¸ÑĨÐ¸
ĠÐ²ÑĤÐ¾ ÑĢÐ¾
ĠÐ¿ÑĢÐ¾Ð´ÑĬÐ»Ð¶Ð°Ð²Ð° Ð¹ÑĤÐµ
Ð»ÐºÐ° Ð½ÑģÐºÐ°
ĠÐ·Ð°ÑĤÐ²Ð°ÑĢÑı ÑĤÐµ
ĠÐºÐ°ÑĢÐ°Ð¼ÑĦÐ¸Ð» ÑĩÐµ
Ðł Ð°
Ð³ÑĥÑĢ Ð½Ð¾
ĠÑĪÐ°ÑĢ Ð»Ð°Ð½
Ð²Ð½Ð¾ Ð¼ÐµÑĢÐ½Ð¾
ĠÐ¼ÐµÐ´Ð° Ð»ÑĮÐ¾Ð½Ð¸ÑĤÐµ
ĠÐ¡Ð° Ð¼Ð¾
ĠÐ¡Ð° ÑĩÐ°
ÑĢÐµÐ»Ð¸ ÑıÑĤ
ĠÐ¿ÑĢÐµÑħÐ²ÑĬÑĢÐ»Ñı Ð¼
ĠÑĢÐ°Ð·Ð±ÑĬÑĢÐºÐ° Ð½Ð¾ÑĤÐ¾
ĠÐ¸Ð·ÐºÐ»Ñİ ÑĩÐµÐ½Ð°
ÑĢÐ¾Ð´ÑĥÐº ÑĤÐ¸
ĠÐ¿ÑĢÐµÑĤÑĢÐ¸ Ð²Ð°Ð¼Ðµ
ĠÐºÐ²Ð°Ð´ÑĢÐ°ÑĤ ÑĩÐµÑĤÐ°ÑĤÐ°
ĠÐ¶ÑĬÐ» ÑĤÐ°ÑĤÐ°
ĠÐ¿Ð¾ÑĢÑĨÐ¸Ñı ÑĤÐ°
ĠÐ¿Ð¾Ð»Ðµ Ðµ
ĠÐ¿Ð¾Ð»Ðµ Ð¿Ð²Ð°
ĠÑĥÐºÐ° Ð·Ð°Ð½Ð¾ÑĤÐ¾
ĠÐµÐ´Ð½Ð°Ðº ÑĬÐ²
ĠÐ¾ÑĤÐ»Ðµ Ð¿Ð¸
ĠÐ²Ð¸Ð½ ÐµÐ½Ð¸Ñı
ĠÐ¼Ð»Ñı Ð½Ð¾ÑĤÐ¾
ĠÐ½Ð°ÑĩÑĥÐ¿ ÐµÐ½Ð¸ÑıÑĤ
ĠÐ»ÐµÐ½ ÐµÐ½Ð¾ÑĤÐ¾
ĠÐ»Ð¸ÑģÑĤÐµÐ½ ÑĨÐµ
ÐºÐ¸ÑģÐµ Ð»Ð°
ÑĥÑģ ÑĬÑĤ
ĠÐ¿Ð¾Ð¿Ð¸ ÑıÑĤ
ĠÐ±ÑĬÑĢ Ð·Ð°
ĠÑĥÐºÐ°Ð·Ð°Ð½Ð¸ Ðµ
ĠÐŁÑĢÐ¾ Ð±Ð²Ð°
ÑģÑĤÑĥÐ´ ÐµÐ½Ð¾
Ðķ Ð·Ð¸ÐºÑĬÑĤ
ĠÐ¸ÑģÐºÐ° Ð¼Ðµ
Ð³Ð¾ÑĢ Ð½Ð¸ÑıÑĤ
ĠÐ¦ Ð²ÐµÐºÐ»Ð¾ÑĤÐ¾
ĠÑĢÐ°Ð·Ð¿Ð¾Ð»Ð¾ Ð²ÐµÐ½Ð¸ÑĤÐµ
ĠÐ¼Ð°Ð½ Ð³Ð¾ÑĤÐ¾
ÑĢÐ°ÑĨÐ¸Ñı ÑĤÐ°
ĠÐ¿Ð¾Ð´Ð½Ð¾ ÑģÐ°
ĠÐ¿Ð¾ÑĤÐ¾Ð¿ ÐµÐ½Ð°
ĠÐ¿ÑĢÐµÐ³ÑĬ Ð½ÐµÑĤÐµ
ĠÐ½Ð°Ð¿Ð¾ ÑıÐ²Ð°Ð½Ðµ
ĠÐ¾Ð¼ÐµÐºÐ½Ð° Ð»Ð¸Ñı
ÑģÐ¼Ð»Ñı Ð½Ð¾
ĠÐ¿ÑĢÐ¸Ð±Ð°Ð²Ð¸ Ð»Ð¸
ĠÐ¸Ð·ÑģÑĤÑĥÐ´ ÐµÐ½
ĠÐ¸Ð·ÑģÑĤÑĥÐ´ ÐµÐ½Ð¾
ĠÐ¸Ð·ÑģÑĤÑĥÐ´ ÑıÐ²Ð°ÑĤ
ĠÐ¸Ð·ÑģÑĤÐ¸ÑģÐºÐ° Ð½Ð°
ĠÐºÐµÐ±Ð°Ð¿ ÑĩÐµ
ÑĢÐµÐ· ÐµÐ½Ð¸
ÑĤÐµÐ»Ðµ ÑĪÐºÐ°
ÑĦÐ¸Ð»Ðµ ÑĤÐ¾
ĠÐŁÑĢÐµÑĨÐµÐ¶Ð´Ð° Ð¼Ðµ
ĠÑĨÐ¸ Ð»Ð¸Ð½Ð´ÑĬÑĢ
ĠÑģÑĤÐ¾Ð¿ÑıÐ²Ð° Ð½ÐµÑĤÐ¾
Ð¿ÑĢÐ¾ Ð·ÑĢÐ°
ĠÑģÐ¿Ð°Ð½Ð° ÑĩÐµÐ½Ð¾ÑĤÐ¾
ĠÐ·Ð°ÑĤÐ²Ð¾ÑĢ ÐµÐ½Ð°
ĠÐºÑĢÐµÐ¼Ð¾Ð¾Ð±ÑĢÐ°Ð· Ð½Ð¾
ÑĨÐµÐ½ ÑĤÑĢÐ¸
ÐĿ ÑĥÐ¶
ĠÑħÐ°ÑĢÑĤÐ¸ ÐµÐ½Ð°
ĠÐ¸Ð·ÑģÑĬÑħ Ð²Ð°
ĠÐ¿ÑĢÐµÐ¼Ð°Ñħ Ð²Ð°ÑĤ
ĠÐ²ÑĬÑĤÑĢÐµÑĪÐ½Ð¾ ÑģÑĤÐ¸
ĠÐ¿Ð°Ð½ ÑĩÐµÑĤÐ°
ĠÑĢÐ°Ð·Ð´ ÑĢÐ¾Ð±Ð¸
ĠÐ»Ñĥ ÑĩÐ½Ð¸
ĠÐ¸Ð·Ð¿ÐµÑĩ ÐµÐ½Ð¾ÑĤÐ¾
ĠÐĴÐ·Ð¸Ð¼Ð° ÑĤÐµ
ĠÐ¡ÑĤÐ° ÑĦÐ¸Ð´Ð¸ÑĤÐµ
ĠÐĳÐ¸ Ðµ
Ð¢ÐµÐ»Ðµ ÑĪÐºÐ¸ÑĤÐµ
ĠÐ°Ð½Ð°Ð½Ð° ÑģÐ¾Ð²
Ð¨Ð¾ÐºÐ¾Ð»Ð° Ð´Ð°
ĠÐľÐ°ÑĢ ÑĥÐ»ÑıÑĤÐ°
ĠÐºÐ°Ð» Ð¿Ð°
ĠÐºÐ°Ð¼ ÑĬÐº
ĠÐ¿ÑĢÐµÐ¿ÑĬÑĢÐ¶ ÐµÐ½Ð¾ÑĤÐ¾
Ð¼Ð¾ÑĢ ÑĨÐ°
ĠÐ·Ð°Ð³ÑĬ Ð²Ð°ÑĤ
ĠÐļÐ°ÑĢÑĤÐ¾ÑĦ ÑĬÑĤ
ÑĦÑĬÑģÑĤ ÑĬ
ĠÑģÑĬÐ¾ÑĤ Ð²ÐµÑĤ
ÑģÑĥÐ¿Ð° ÑĤÐ°
ĠÐ¡Ð¸ÑĢÐ¾ Ð¿Ð°
ĠÑĦÐ¸Ð» ÑĤÑĬÑĢ
ÐĿÐ°ÑĤÑĢÐ¾ ÑĪÐ°
ĠÐļÐ°Ð¿Ð° ÐºÑĬÑĤ
ĠÐ³Ð»ÑİÐºÐ¾Ð·Ð° ÑĤÐ°
Ð¿Ð»Ð¸ ÑĤÐ°ÑĤ
ĠÐºÐ¸ÑģÐ½Ð° ÑĤÐ¸
ĠÐ¼Ð¾Ðº ÑĢÐ°ÑĤÐ°
ĠÐ±Ð¸ÑĦÑĤÐµ ÑĨÐ¸ÑĤÐµ
ĠÑĢÐµÐ´ÑĥÐ²Ð° Ð¹ÐºÐ¸
ĠÐŁÑĬ Ð´Ð¿ÑĬÐ´ÑĬÑĨÐ¸ÑĤÐµ
ĠÐĿÐ°Ð´ÑĥÐ¿ ÑĩÐ²Ð°
Ð¡Ð¼ÐµÑģÐ²Ð° ÑĤÐµ
Ð±Ð°Ð»ÑģÐ° Ð¼Ð¸ÐºÐ¾Ð²
ĠÐ¸Ð·Ð±Ð¸ ÑģÑĤÑĢÐ¸
ĠÐ·Ð°ÑģÑĤÑĬÐ¿ ÐµÐ½Ð¸
ĠÐ¿Ð°Ð½Ð´ÐµÐ» ÐºÐ¸
ĠÑģÑĥÑħÐ¾Ð¶Ð¸ Ð»Ð¸ÑıÑĤÐ°
ĠÐĿÐ°Ð¼Ð°Ð·Ð½ÑıÐ²Ð° Ð¼Ðµ
ĠÐ¨Ð¸ÑĪ ÑĩÐµÑĤÐ°ÑĤÐ°
Ð°Ð³Ð½Ðµ ÑĪÐºÐ¾
ĠÐ·Ð°Ð¿ÑĥÑĪ Ð²Ð°Ð¼Ðµ
ĠÐ¤Ð¾ÑĢÐ¼Ð¸ ÑĩÐºÐ¸ÑĤÐµ
ĠÐ¿ÑĢÐ¸Ð½ ÑĨÐ¸Ð¿
ĠÐŁÐ°ÑģÑĤÐµ ÑĤÑĬÑĤ
ĠÑĦÐµÑĢ Ð¼ÐµÐ½ÑĤÐ¸
ĠÐ¿ÑĢÐ¾Ð¸Ð· Ð²Ð¾
ĠÐ¿Ð¸ÑĢÐ¾ Ð¶ÐºÐ¸
ĠÐ¸Ð½ÑģÑĤÐ°Ð½ ÑĤÐ½Ð¾
ÑĬÐ±ÑĢÐµ ÑĨÐ¸ÑĤÐµ
ÑıÐ±ÑĬÐ» ÐºÐ¸
ÐĳÐ¸ ÑĪÐºÐ¾ÑĤÐ¸ÑĤÐµ
ĠÑĢÐ°Ð²Ð¸ Ð¾Ð»Ð¸
ĠÐ¿Ð¾Ð¿Ð° ÑĢÐµÑĤÐµ
ÑĢÑıÐ´ ÐºÐ¾
ĠÑĥÑĢÐµ Ð´Ð°
ĠÑģÐ»Ð°Ð¹ÑģÐ¾ Ð²Ðµ
ĠO etker
Ð²Ð¸ÑģÐ¾ ÐºÐ°ÑĤÐ°
ĠÐŀÐ±ÑĬÑĢ Ð½ÐµÑĤÐµ
ĠÐ·Ð°Ð±ÑĢÐ°Ð²Ñı Ð¹ÑĤÐµ
ĠÐ¿Ð¾ÑĩÐµÑĢÐ²ÐµÐ½ ÑıÐ²Ð°Ð½Ðµ
ĠÐ¼Ð¸ÑĢÐ¸Ð· Ð¼Ð¸ÑĤÐµ
ĠÐ±ÑĢÑĥÑģÐº ÐµÑĤÐ¸
ĠÐºÐµÑĢ Ð²Ð¸Ð·Ð°
ĠÑĢÐ°Ð·Ð³Ð»Ð¾ Ð±ÑıÐµÐ¼Ð°
ĠÐ°Ð±ÑģÐ¾Ð»Ñİ ÑĤÐ½Ð¾
ĠGelfi x
ĠÐŁÐ¾Ð´Ñģ Ð»Ð°Ð¶Ð´Ð°
3 7
o n
Ð ®ÑĦÐºÐ°ÑĤÐ°
Ġ ÑĬÐ³
Ñģ Ð¸Ð½
Ñģ Ð½Ð¸Ð¼ÐºÐ°
ÑĤ Ð»ÑĬÑģÑĤÐ°
Ð¸ ÑıÑĤ
Ð» ÑĮ
Ðº a
ĠÐ¿ ÐµÐ½Ðµ
ĠÐ¸ Ð¼Ð¸
Ð¼ Ð»ÑıÐºÐ¾
Ñĥ Ð¸
Ñĥ ÑģÐºÐ°
Ñĥ ÑģÑĤÐ¾Ð¹
ĠÐ½Ð° Ð¿
ĠÐ½Ð° ÑĤÐ¸
ĠÐ½Ð° Ð³Ð»Ð°
ĠÐ½Ð° ÑģÐ¸Ð¿Ð²Ð°ÑĤ
ĠÐ½Ð° ÐºÑĢÐ°Ð¹
ÐµÐ½ ÑĩÑĥÐºÑĬÑĤ
Ð¿ ÐµÐ»
Ð¿ ÑĢÐ¾Ð´ÑĥÐºÑĤÐ¸ÑĤÐµ
Ð± ÑĢÐ°ÑĪ
Ð± ÑĥÐ»ÑĮÐ¾Ð½Ð°
ÑĢÐ° Ð½Ð¸Ñı
ĠÐ² Ð·Ðµ
ĠÐ² Ð·ÐµÐ¼Ð°ÑĤ
Ð³ ÑĬÑĤ
Ð³ Ð½Ð°Ð»
ÐºÐ° ÑĪ
ÑĢÐµ Ð´Ð¸
ÑĪ Ð°ÑĤ
ÑĢÐ¸ Ð±
ÑĢÐ¸ Ð±Ð°
Ñħ ÐµÑĢ
ÐºÐ¾ ÑĤ
ÐºÐ¾ Ð¼
ĠÐ¿Ð¾ Ð³
Ð½Ð¸ ÑģÐºÐ¾
ÑĬÑĢ Ð½Ð°ÑĤÐ°
ÐºÐ¸ Ð¿Ð¸
Ð¶ Ð½Ð°
Ð¼Ðµ ÑĤÐ¾
Ð¼Ðµ ÑģÐ¸
ĠÐ¼Ð° ÑĢÐ°
ĠÐ¼Ð° Ð³Ð¸
ĠÐ´Ð¾ ÑĢÐ°Ð·
Ð¼Ð° Ð¶ÐµÑĤÐµ
Ð¹ Ð½Ð¾ÑģÑĤ
ĠÐ¾ÑĤ ÐºÐ¾Ð»ÐºÐ¾ÑĤÐ¾
Ð±Ð° Ð½Ð°
ÑĨÐ° Ð¹ÑĤÐµ
ĠÐ¸Ð· Ð±Ð¸ÑĢÐ°ÑĤ
ĠÐ¿Ð¸Ð¿ÐµÑĢ ÐºÐ¸
ĠÐ¡ Ð¼Ð»ÑıÐ½Ð¾ÑĤÐ¾
ĠÐ¡ ÑĩÑĥÐºÐ°Ð¹ÑĤÐµ
ĠÐ¼Ð°Ñģ Ð»ÐµÐ½Ð¾ÑĤÐ¾
ĠÐ¿Ð¾Ð´ Ð³Ð¾ÑĤÐ²Ñı
ĠÐ¿Ð¾Ð´ Ð¼Ð°Ð·Ð²Ð°
Ð¼Ð¸ Ð²Ð°
ĠÐ¿ÑĢÐµ Ð¼ÐµÑģÑĤÐ²Ð°ÑĤ
ÑĥÑĢ ÑģÐºÐ¸
ĠÐŀ Ð±Ð¸Ð»Ð½Ð¾
ĠÐ»Ð¸ ÑģÑĤÐ¸
ÑģÐ° ÑĤÐ¾ÑĢÐ°
ĠÑģÑĤ ÑĬÑĢÐ¶
ĠÐ¼ÐµÑģ Ð½Ð¾
Ð·Ð° Ð¿ÑĬÑĢÐ¶
Ð·Ð° ÑīÐ¾ÑĤÐ¾
ÑĢÑĬÑģ ÐºÐ²Ð°ÑĤ
ĠÐºÐ¸ ÑĤÐºÐ°
Ð²Ðµ ÑĢÐµÑĤÐµ
ĠÐ½Ð°Ð¼Ð° Ð»Ð¸ÑĤÐµ
ĠÐ¶ Ð°
ĠÐĶ ÑĢÐµÐ±Ð¾Ð»Ð¸Ð¸ÑĤÐµ
ĠÐĿÐ° Ð±Ð¾Ð´ÐµÑĤÐµ
ĠÐ·Ðµ Ð±ÑĢÐ°
ĠÑģÑĬ ÑīÐ°
ĠÑģÑĬ ÑīÐ¸ÑĤÐµ
ĠÑĤÐ¾Ð¿ Ð²Ð°
ĠÐ±Ð° ÑĤÐ°
ĠÐ±Ð° Ð²Ð½Ð°
ÑģÐ½Ð¾ ÑģÑĤ
ĠÐŁÑĢÐ¸ Ð±Ð¸ÑĢÐ°Ð¼Ðµ
ĠÐ·Ð°Ð´ÑĥÑĪ ÐµÐ½Ð¾
ĠÐĹÐ° ÐºÐ²Ð°Ñģ
ĠÑģÑĥ Ð¿Ð¸
ÑĩÐ° Ð²Ð°Ð½Ðµ
Ð¡ ÐºÐ¸Ð»Ð¸Ð´ÐºÐ¸ÑĤÐµ
Ð¡ ÑĥÑĪÐµÐ½Ð¸ÑĤÐµ
ĠÐ¿Ð¾Ð»Ñĥ ÑģÐ²Ð°ÑĢÐµÐ½Ð¸
ĠÐĺÐ· ÐºÐ»ÑİÑĩÐ²Ð°Ð¼Ðµ
ĠÐĺÐ· Ð»Ð¸ÑĪÐ½Ð°ÑĤÐ°
ĠÑĥ ÑģÐ¸
ĠÑĥ Ð²Ð¸Ð²Ð°Ð¼Ðµ
ĠÐ¸Ð·Ð¼Ð¸ ÐµÑĤÐµ
ĠÐ¾ÑĢÐµÑħ Ð¾Ð²Ð¾
ĠÐľ ÐµÐºÐ¾ÑĤÐ¾
Ð´Ð¾ Ð²Ð°
ĠÐ±ÑĥÐ»ÑĮÐ¾Ð½ ÑĩÐµÑĤÐ°ÑĤÐ°
Ð·Ð¸ ÑĢÐ°Ð½
ĠÐ±Ñı ÑħÐ°
ĠÐ¢ ÑĥÐº
ĠÐ¸Ð·Ð²Ð° ÑĢÐµÐ½Ð°ÑĤÐ°
ĠÐŁÐ¾Ð´ Ð³Ð¾ÑĤÐ²Ñı
ĠÐ±Ð¸ Ð»
ĠÐ±Ð¸ ÑĤÐ°ÑĤÐ°
ĠÐ±Ð¸ Ð»ÐºÐ¸
ÐĴ Ð·Ð¸Ð¼Ð°
Ðļ Ð¾Ð»
Ðļ Ð¸ÑģÐµÐ»Ð¸ÑĤÐµ
ĠÑĤÑı Ð»Ð¾
ĠÐĳ ÐµÐ»
ĠÐĳ Ð¾Ð½
ĠÐ±ÑĬÑĢÐºÐ° Ð¼
ĠÐ¸Ð·Ð± ÑĢÐ°Ð½Ð¸ÑĤÐµ
ĠÐ¿ÑĬÐ» Ð½ÐµÐ½Ð¸
Ð±Ðµ Ð»Ð¸
ĠÐ³Ð¾ÑĢ Ð½Ð¾
Ðŀ ÑģÐ½Ð¾
ÐĿÐ° ÑĢÑıÐ·Ð°Ð½Ð°ÑĤÐ°
ĠÐµÐ´ÑĢÐ¾ Ð·ÑĬÑĢÐ½Ðµ
ĠÐ¾Ð² Ð»Ð°Ð¶
ĠÐ¿ÑĢÐ°Ð· Ð½Ð¸ÑĤÐµ
Ð´Ðµ Ð¼
ĠÐ¾ÑĦÐ¾ÑĢÐ¼ ÐµÐ½Ð°
ĠÑĢÐ°Ð·ÑĤÐ¾ ÑĩÐµÐ½Ð°
ĠÐºÑĢÐ¾ Ð¼Ð¸Ð´Ð°
ÑĥÐºÑĢÐ° ÑģÐ°
ĠÐºÐ°ÑĢÑĤÐ¾ÑĦ Ð¾Ð±
Ðĳ Ð°Ð½Ð°
Ðĳ ÑıÐ»Ð¾ÑĤÐ¾
ĠÑģÐ¼Ð»Ñı Ð½Ð°ÑĤÐ°
ĠÑħÐ° Ð»Ð²Ð°ÑĤÐ°
Ð²Ð°ÑĢ ÐµÐ½Ð¾
ÐĺÐ· ÑģÐ¸Ð¿Ð²Ð°
ÐĺÐ· ÑģÐ¸Ð¿Ð²Ð°Ð¼Ðµ
ĠÐ½Ð°ÐºÐ¸Ñģ Ð²Ð°Ð¼Ðµ
Ð¿ÑĢÐ¸ ÑıÑĤ
Ð¿ÑĢÐ¸ Ð³Ð¾ÑĤ
Ð¿ÑĢÐ¸ Ð±Ð»Ð¸Ð·Ð¸ÑĤÐµÐ»Ð½Ð¾
Ð¢ Ð¸
ĠÐ³ÑĬ ÑĪÐ°
ĠÑģÑĥÑĪ Ð°ÑĤ
ĠÐĵÐ¾ÑĤÐ¾ Ð²
Ð²Ð¾ÑĢ Ð½Ð°
ĠÐ²Ð°ÑĢ ÐµÐ½Ð¸ÑĤÐµ
ĠÐ½Ð°ÑĢÑĬÑģ Ð²Ð°Ð½Ðµ
ĠÐºÐ¾Ð»ÐµÐ» ÑĨÐµ
ĠÐ²Ð¸Ð»Ð¸ ÑĩÐºÐ°
ĠÑĢÐ°Ð·ÑģÑĤÐ¸Ð»Ð° ÑĤÐµ
ÐŀÑĤ Ð´ÐµÐ»Ñı
ÐŀÑĤ ÑģÑĤÑĢÐ°
ĠÐ¿Ð°ÐºÐµÑĤ ÑĩÐµÑĤÐ°ÑĤÐ°
Ð·Ð¾ Ð²
ÑĤÐ¸Ð½ ÐºÐ¸
ĠÐºÐ¾Ð½ Ñĥ
ĠÑĤÑĢÐ¸ ÑĨÐ¸ÑĤÐµ
ĠÐºÐ¸Ð¿ ÐµÐ½Ðµ
ĠÐ·Ð°Ð¼ÑĢÐ°Ð· ÐµÐ½Ð¸Ñı
ĠÐĽ ÐµÐ½ÑĤÐ¸ÑĤÐµ
ĠÑĤÐ²ÑĬÑĢÐ´Ð¾ ÑģÑĤ
ĠÑĢÐ°Ð·Ð¼Ð¸ ÑĤÐ¸
ĠÐ½Ð°ÑĢÐµÐ¶Ð´Ð° Ð¼
ÐºÐ°ÑĢ ÑĦÐ¸Ð¾Ð»
ĠÐ¾Ð±Ðµ Ð»Ð¸
ĠÐ³ÑĢ ÐµÐ½Ð°
ĠÑģÐ³ÑĬÑģÑĤ ÐµÐ½
ĠÐ´Ð¾Ð±Ð° Ð²ÐµÐ½Ð¾
ĠÑħÐ¾Ð¼Ð¾Ð³ÐµÐ½ ÐµÐ½
ĠÐĹÐ°Ð´ÑĥÑĪÐ° Ð²Ð°ÑĤÐµ
Ð²Ð¾ÑĬÐ³ÑĬÐ» Ð½Ð°
ĠÑĢÐ°Ð·ÑĤÐ²Ð¾ÑĢ ÐµÐ½Ð¸ÑıÑĤ
ĠÑģÐ°ÑĢ Ð´Ð¸Ð½Ð°
ĠÐ£ Ð²Ð¸Ð²Ð°Ð¼Ðµ
ĠÐ½Ð°Ð¿ÑĢÐ° Ð²ÐµÐ½Ð°
ĠÐ¿Ð¾Ð¸Ð· ÑģÑĬÑħÐ½Ð°ÑĤ
ĠÑģÑĥÑģÐ°Ð¼ ÐµÐ½Ð¾
ĠÐŀÑģÑĤÐ°Ð½Ð° Ð»Ð¸Ñı
ĠÑĪÐ¸ÑĪ ÑĩÐµÑĤÐ¾
ĠÐ²ÑĢÑĬÑīÐ° ÑĤÐµ
ĠÐ¾Ð¿Ð° ÑģÐ½Ð¾ÑģÑĤ
ĠÐ¿ÑĢÑĬÑģÑĤ ÐµÐ½Ð¾
ĠÐ¼ÐµÐ¶Ð´Ñĥ Ð²ÑĢÐµÐ¼ÐµÐ½Ð½Ð¾
Ðł Ñĥ
ĠÐ·Ð°Ðµ ÐºÑĬÑĤ
ĠÐ¿Ð¾Ð·Ð° Ð¿ÐµÐºÐ°ÑĤ
ÐºÐµ ÑĢÐµ
ĠÐŁÐ° ÑģÐ°ÑĤÐ¾ÑĢÐ°
ĠÐĺÐ·Ð¼Ð¸ ÑĤÐ°ÑĤÐ°
ĠÐ¿ÑĢÐ¾Ð·ÑĢÐ° ÑĩÐ½Ð°
ĠÐ´Ð¾Ð» Ð½Ð¾
Ð¸Ð½Ð³ ÑĥÐ¸
ĠÐºÐ»Ð¾Ð½ ÐºÐ¸ÑĤÐµ
ĠÐ½ÑıÐ¼Ð° Ñħ
ĠÐ¸Ð·ÑģÑĤÐ¸Ð½Ð° Ð»Ð¸ÑıÑĤ
ĠÐ¾Ð±ÑĢÐ°Ð·Ñĥ Ð²Ð°Ð½ÐµÑĤÐ¾
ĠÐ´ÑĥÐ¿ ÐºÐ¸ÑĤÐµ
ĠÑĤÑĬÐ¼ Ð½Ð¸
ĠÐ°Ð½Ð°Ð½Ð°Ñģ ÑĬÑĤ
ĠÐ¿ÑĢÐ¸Ð±Ð° Ð²ÐµÐ½Ð¸ÑĤÐµ
ĠÐ´Ð¾Ð¾ ÑĦÐ¾ÑĢÐ¼Ñı
ĠÐĵÐ°ÑĢÐ½Ð¸ ÑĢÐ°Ð¼Ðµ
ĠÐĳÐµ ÑĪÐ°Ð¼Ðµ
ÑĪÑĥ ÑĤÐ¾ÑĤÐ¾
ÑĤÑĢÐ¾ Ð²Ð°
ĠÑģÐ»ÐµÐ´Ð²Ð° ÑīÐ¸ÑĤÐµ
Ðķ Ð´
Ð³Ð¾ÑĢ Ð½Ð¸Ñı
ĠÐµÐ·Ð¸ ÑĨÐ¸ÑĤÐµ
ĠÑĢÐ°Ð·Ð¿Ð¾Ð»Ð¾ Ð²ÐµÐ½Ð¸
Ð½Ð¾Ð·ÑĬÑĢÐ½Ðµ ÑģÑĤÐ¾
ĠÑĢÐ¸Ð±Ð¸ ÑĨÐ°ÑĤÐ°
ÐºÐ°ÑĦÑı Ð²Ð¸
ĠÐ¶Ð¸ Ð²Ð¾ÑĤÐ¸Ð½ÑģÐºÐ°
ĠÐĺ Ð´Ðµ
ĠÑĢÐ°Ð·ÑĤÐ°Ð¿Ñı Ð¼Ðµ
ĠÑĢÐ°Ð·ÑĤÐ°Ð¿Ñı Ð½ÐµÑĤÐ¾
ĠÐ²ÑĬÑĢ ÑĤÐ¸
ĠÐ²ÑĬÑĢ Ð²Ð¸
ĠÐĺÐ·ÑģÑĤÐ¸ ÑģÐºÐ²Ð°
ĠÐ¾ÑĤÐ²Ð°ÑĢÑı ÑĤ
ÐĹÐµÐ» ÐµÐ½Ð¸
ĠÐ¢Ð¾Ð¿ Ð»Ð¸
Ð´Ð¾Ð²Ð¸ ÑĤÐµ
ÑĪÐ¾ÐºÐ¾Ð»Ð° Ð´Ð¾Ð²
ĠÐ¢Ð¾ÑĢ ÑĤÐ¸
ĠÑĤÐ¾ÑĢÑĤÐ¸ Ð»Ð°
ĠÐ¤Ð¾ÑĢ Ð¼Ð¸ÑĤÐµ
ĠÐ¾ÑģÑĤÐ°Ð²Ð¸ Ð¼
ĠÑģÐ¿Ð¸ÑĢÐ° Ð»Ð¸
ĠÐ²ÐºÐ»ÑİÑĩÐ²Ð° ÑĤÐµ
Ð¿ÑĥÑĪ ÐµÐ½Ð¸
ĠÐ¿ÑĬÑģÑĤÑĬÑĢ Ð²Ð¸ÑĤÐµ
ĠÐĺÐ·ÑĩÐ¸ÑģÑĤ ÐµÐ½Ð°ÑĤÐ°
ĠÐĺÐ·ÑĩÐ¸ÑģÑĤ ÐµÐ½Ð¸ÑıÑĤ
ĠÐ·Ð°ÑģÑĤÑĬ Ð¿Ð²Ð°
ĠÑĩÐ¸Ð¿ Ð¾ÑĤÐ»Ðµ
ĠÐºÐ¾ÐºÑĤÐµÐ¹ Ð»
ĠÐºÐ¾ÐºÑĤÐµÐ¹ Ð»Ð°
ĠÐłÐ°Ð·ÑĢÐµÐ¶Ð´Ð° Ð¼Ðµ
ĠÐ´Ð²Ð¾ Ð¹Ð½Ð°
ĠÑģÐ°Ð»Ð°ÑĤ ÐµÐ½
ĠÑĦÐ¸ÑĤÐ¸ Ð»Ð°
Ð¼Ð°Ð· Ð½ÐµÐ½Ð°
ĠÑģÐ¿ ÑĥÐºÐ°
ĠÑī ÑĥÐºÐ°
ÑĤÐµÑģÑĤÐ¾ ÑĤÐ¾
ĠÐŁÐ¾Ð´ÑħÐ¾Ð´Ñı ÑīÐ¸
ÐĺÐ·Ð²Ð° Ð¶Ð´Ð°
ĠÐ¾Ð¼ÐµÑģ ÐµÐ½Ð°ÑĤÐ°
ĠÐłÐ¸ Ð±
ĠÐ¿ÑĤÐ¸ ÑĨÐ¸ÑĤÐµ
ĠÐ´Ð¾Ð¸Ð· Ð¿Ð¸ÑĩÐ°
ĠÐ¾ÑģÐ²Ð¾Ð±Ð¾Ð¶Ð´Ð° Ð²Ð°ÑĤ
ĠÐ±Ð»ÐµÐ´Ð¾ ÑĢÐ¾Ð·Ð¾Ð²Ð¾
ĠÐ½Ð°ÑĩÑĥÐºÐ° Ð½Ð¸
ÑĦÐ¸Ð»Ð¸ ÑĢÐ°Ð½Ð¸
ÑĩÑĥÑĪ ÐºÐ°
ĠÐ°Ð¼Ð° ÑĢÐµÑĤÐ¸
ĠÐĹÐ°Ð³ Ð»Ð°Ð¶Ð´Ð°
ÐĳÐ»Ð°ÑĤ ÑĬÑĤ
ĠÐ²ÑĬ Ð¾Ð±
ĠÑĢÐ°Ð·Ð¼ÐµÑģ ÐµÐ½Ð¾
ĠÐ¡ÑĤ ÑĢÑĬ
ĠÐĺÐ·Ð¿Ð»Ð° ÐºÐ½ÐµÑĤÐµ
ĠÐ°Ð¿ÐµÑĤÐ¸ ÑĤ
ĠÑĤÐ°ÑĢÐ° ÑĤÐ¾ÑĢ
ĠÐ·Ð°Ð³Ð° ÑĢÑıÑĤ
ĠÐ³ÑĢÑĥ Ð±Ð¾
ĠÑĪÐ¸Ð¿ ÐºÐ¾Ð²
ĠÐ·Ð°Ð±ÑĥÐ» Ð²Ð°Ð½Ðµ
ĠÐĶÐµÐºÐ¾ÑĢÐ¸ÑĢÐ° Ð¹ÑĤÐµ
ĠÐ½Ð°Ð²Ð¸ ÑĤÐ¸
ĠÐ²ÐµÑĢÐ¼ ÑĥÑĤÐ°
ĠÑĩÑĥÐºÐ° ÑĤ
ĠÐľÐ°ÑĢÐ¸Ð½Ð¾Ð²Ð° Ð½Ð¸ÑĤÐµ
ĠÐµÐ»Ð¸Ð¿ÑģÐ¾Ð²Ð¸ Ð´Ð½Ð°
ar e
ĠÐ¿Ð¾ÑĩÐµÑĢ Ð½ÐµÑıÑĤ
ĠÐ¼Ð°Ð¹Ð¾Ð½ÐµÐ· ÐµÐ½Ð°ÑĤÐ°
ĠÐ¿Ð°ÑģÑĤÑĬÑĢ Ð¼Ð°ÑĤÐ°
ĠÐ½Ð°ÑģÑĤÑĬÑĢÐ¶ Ð°ÑĤ
ĠÑģÐ²Ð¸ Ð½
ĠÐ¼ÐµÐ» ÑıÑĤ
ĠÐ¿ÑĢÐ¸ÑīÐ¸Ð¿ Ð²Ð°
ĠÐļÐ°Ð¿Ð° ÐºÐ°
Ð¿Ð¾ÑĢÑĤÐ¾ÐºÐ° Ð»Ð¾Ð²Ð°
ĠÑĢÐ°Ð·Ð¿Ð»Ðµ ÑģÐºÐ²Ð°ÑĤ
ĠÐºÐ°ÑĢÐ½Ð° ÑĩÐµÑĤÐ°ÑĤÐ°
ĠÑĦÐ¸ÑĤÐ¸Ð» ÑĩÐµÑĤÐ°
ĠÐ¡Ð²Ð¸Ð½Ñģ ÐºÐ¾ÑĤÐ¾
ĠÐ²Ð´Ð¸ Ð³Ð°
ĠÐĿÐ°Ð¿ÑĢÑĬÑģ ÐºÐ²Ð°
ÑĦÐµ ÐºÑĤ
ĠÐ¸Ð·Ð±Ð¸ ÑģÑĤ
ĠÐ²Ð¸ÑĪÐ½Ðµ Ð²
ĠÐ³ÑĢÐµÐ± ÐµÐ½
ÐŁÐ¾ÑĢÑĤÐ¾ÐºÐ° Ð»Ð¸ÑĤÐµ
ĠÐĲÑĢ Ð¿Ð°Ð´Ð¶Ð¸ÐºÑĬÑĤ
ĠÐ»ÐµÐ³ Ð½Ð°Ð»Ð¸
ĠÐ¸Ð½ÑĤÐµÐ½Ð·Ð¸ Ð²Ð½Ð¾
ĠÐ°Ð¼Ð°ÑĢÐ°Ð½ ÑĤ
ÐºÐ»Ð¾Ð½ ÑĩÐµ
ĠÑģÑĤÑı Ð³Ð°Ð½Ðµ
ĠÐ¡Ð°Ð»Ð° Ð¼Ð°
Ð¢Ð° Ð²Ð°ÑĤÐ°
ĠÐ·Ð¼Ð¸ Ð¾ÑĢÐºÐ°
ĠÐºÐ¾ÑĢÐ¾ Ð½Ð°
ĠÐŁÐ»Ð¸ ÐºÑĬÑĤ
ĠÐ¿ÐµÐ» Ð¼ÐµÐ½Ð¸
ĠÐ¼Ð½Ð¾ Ð³Ð¾Ð»Ð¸
ĠÐ¡ÑĬÐ±Ð¸ ÑĢÐ°ÑĤ
ĠÐ¼ÐµÐ´ÐµÐ½ ÐºÐ¸
ĠÐ¿ÑĢÐµÐ²ÑĬÑĢ Ð½Ðµ
ĠÐĺÐ·ÑģÑĤÑĥÐ´ ÑıÐ²Ð°
ĠÐ·Ð°Ð²ÑĢÑı Ð»Ð°ÑĤÐ°
ÐĸÐ¸ ÑĤÐ¾ÑĤÐ¾
ĠÐĳÐ°ÐºÐ¿ÑĥÐ» Ð²ÐµÑĢÐ°
ĠÐ²Ð¾Ð´Ð¾ÑĢÐ°Ñģ Ð»Ð¸
ĠÑħÐ²ÑĬÑĢ Ð»Ñı
ĠÑĤÐ¾Ð¿Ð»Ð¸Ð½ Ð½Ð°
ĠÐ¿Ð°Ð»Ð°Ð¼ ÑĥÐ´
ĠÑģÐ¿Ð»Ð¸ ÑĤÐ°ÑĤ
ĠÐĵÐ¾Ð»ÐµÐ¼Ð¸ Ð½Ð°ÑĤÐ°
ĠÐ¡Ð°Ð½Ð´Ð²Ð¸Ñĩ Ð¸ÑĤÐµ
ĠÐ¿Ð¾Ð»Ð¾ Ð¶ÐµÐ½Ð¸Ðµ
ĠÐ»ÐµÐ±Ð»Ðµ Ð±Ð¸Ñı
ĠÑħÐ°Ð² Ð»Ð¸Ñı
ÐµÑĪÐ½Ð¸ ÑĨÐ¸ÑĤÐµ
ĠÐ¿ÐµÑĤÐµ Ð»
ÑĥÐ´Ð¾Ð± Ð½Ð¾
ĠÐ¾ÑĢÐµÑħÐ¾ Ð²ÐºÐ¸
ĠÐ²ÐµÑĢÑĤÐ¸ÐºÐ° Ð»Ð½Ð¾
ÐĴÐ°ÑĢÐ¸Ð°Ð½ ÑĤ
ĠÑĥÑĪ Ð¸ÑĤÐµ
ÐºÐ»Ð°Ð´ÐµÐ½ ÑĩÐµ
ĠÐ¾Ð´ÐµÑı Ð»Ð¾
ĠÐ±Ð¸Ð²Ð¾Ð» ÑģÐºÐ¾
ĠÐµÐ´ÑĢÐ¾Ð·ÑĬÑĢÐ½Ðµ ÑģÑĤÐ°
/ .
a t
o s
u s
Â °
Ð° Ð»Ð¸
Ðµ Ð²ÐµÐ½ÑĤÑĥÐ°Ð»Ð½Ð¾
Ð¾ Ð²Ð½Ð¾
Ñģ ÐµÐ½Ð°ÑĤÐ°
Ñģ Ð²ÐµÑĤÑĬÐ»
ÑĤ ÐµÐ½Ð´Ð¶ÐµÑĢÐ°
Ð¸ Ñħ
ĠÑģ ÐºÑĬÑģ
Ð» Ð²Ð°ÑĤ
Ðº ÑĥÐºÑĬÑĢÐ°
Ñı ÐºÐ¸
ĠÑģÐµ Ð³Ð°
ÑĬ ÐºÐ²Ð°
Ð´ ÑĢÐ¾Ð±
ĠÐ½Ð° Ð¼
ĠÐ½Ð° ÑĢÐ¸
ĠÐ½Ð° ÑģÐ¸Ð¿Ð²Ð°Ð¼Ðµ
ÐµÐ½ ÑĤÐ°ÑĤÐ°
Ð¿ ÐµÐ½Ð¾
Ð¿ ÑĢÐ¾Ð²Ð¸
ĠÐ¾ Ð¿ÐµÑĩÐµÑĤÐµ
Ð± ÑĥÐ»Ð³ÑĥÑĢ
ÑĤÐµ ÑĢÐ¸
ĠÐ² ÑĤÑĢÐ¸Ð²Ð°
ĠÐ· Ð¸
Ð³ Ð»Ð°Ð´
Ð³ ÑĢÐ¸Ð»
ÐºÐ° ÑĤÐµ
ÐºÐ° Ð½Ð°
ÐºÐ° ÑģÐµ
ĠÐ± Ð»Ð¸
ĠÐ·Ð° Ð»ÑıÑĤ
ĠÐ·Ð° Ð¼ÐµÑģÐ²Ð°Ð½Ðµ
ĠÐ·Ð° Ð´Ð½Ð°ÑĤÐ°
ÑĢÐµ ÑĤÐµÐ½
ÑĤÐ¸ Ð²Ð¸ÑĢÐ°
ÐºÐ¾ Ð¸ÑĤÐ¾
Ð¶ Ð½Ð¾ÑĤÐ¾
Ð¼Ðµ ÐºÐ¸
ĠÐ¼Ð° ÐºÐ°
ÑĢÑı Ð½Ðµ
ÑĢÑı Ð´ÐºÐ°
ĠÐ´Ð¾ Ð¿Ð¸ÑĢÐ°ÑĤ
ĠÐ´Ð¾ Ð¿ÑĬÑĢÐ¶Ð²Ð°ÑĤ
Ð´Ð° Ð¼
Ð´Ð° Ð»ÑĮÐ¾Ð½Ð¸ÑĤÐµ
Ð¼Ð° Ð½Ð¾
ĠÐºÐ° Ð»ÐºÐ°
ĠÐºÐ° Ð²ÑĬÑĢÐ¼Ð°ÑĤÐ°
Ð¹ ÑģÑĤ
ĠÐ¾ÑĤ Ñģ
ĠÐ¾ÑĤ ÑħÐ»ÑĥÐ¿
ĠÐ¾ÑĤ ÑĤÐµÐ³
ÑĢÐ°Ð· Ð±Ð¸ÑĤÐ°
ĠÐ´Ð° Ð¶Ðµ
ĠÑĢÐ°Ð· Ð½Ðµ
ĠÑĢÐ°Ð· ÑģÐ¸Ð¿Ð²Ð°
ĠÑĢÐ°Ð· Ð¿Ð°Ð´Ð°
ĠÑĢÐ°Ð· Ð²Ð¸Ðµ
ĠÐ¸Ð· ÑĤÐµ
ĠÐ¡ Ð²ÐµÑĤÑĬÐ»
Ġ1 30
Ð°Ð½Ð¸ Ñı
ĠÑıÐ¹ ÑĩÐµÐ½Ð¾
ĠÑıÐ¹ ÑĩÐµÐ½Ð°
ÑĬÐ» Ð³Ð¾
ĠÐ¿ÑĢÐ¸ Ð»ÐµÐ¿
ĠÐ¿Ð¾Ð´ Ð³ÑĬÐ²Ð°ÑĤ
ĠÐ¿Ð¾Ð´ Ð¼Ð°Ð·Ð°Ð½Ð°
Ð¼Ð¸ Ñı
ĠÐ·Ð°ÑħÐ°ÑĢ Ð½Ð°
ĠÐ·Ð°ÑħÐ°ÑĢ Ð¾ÑģÐ°Ð½Ð¸ÑĤÐµ
ĠÑĤ ÑĢÑĥÑĪÐ¸
Ð¿Ð° Ð´Ð°ÑĤ
ĠÐĴ ÑĢÑĬ
Ġ2 7
ĠÐŀ Ð¿ÐµÑĩÐµÐ½Ð°ÑĤÐ°
ÑģÐ¸ Ð»Ð½Ð¾
ÑģÐ¸ Ð³ÑĥÑĢÐ½Ð¾
ĠÐ½Ðµ Ð¾
ĠÐ½Ðµ ÑĥÑĤÑĢÐ°
ĠÐ¿Ð¾Ð» ÑıÑĤÐ°
Ð·Ð° ÐµÑĪÐºÐ¾
Ð¶Ðµ Ð¼
Ð¿ÑĢÐ° ÑģÐºÐ¾
ĠÑĪ Ð²Ðµ
ĠÑĤÐ¸ Ð¿Ð°
ĠÐ·ÐµÐ» ÐºÐ¸ÑĤÐµ
ĠÐĶ ÐµÐ»Ð¸
ĠÐĿÐ° ÑĩÑĥÐºÐ²Ð°
ĠÐĿÐ° Ð±Ð¾Ð¶Ð´Ð°
ĠÐĿÐ° Ð²Ð¸Ð²Ð°Ð¼Ðµ
ĠÐĿÐ° ÑĤÑĢÐ¸Ð²Ð°ÑĤ
ĠÐ¾Ð± Ð»ÐµÐ¿
ĠÐ¾Ð± Ð»Ð¸Ð²Ð°Ð¼Ðµ
ĠÑģÑĬ ÑīÐµ
ĠÑģÑĬ ÐµÐ´Ð¸Ð½
ĠÐ²Ð¸ ÑĤÐ°
ÑĬÑĢÑħ Ð½Ð¾ÑģÑĤÑĤÐ°
Ð¿Ð¸ Ð¸ÑĤÐµ
Ð¿Ð¸ ÐºÐ¾Ð²Ð°
ĠÐ±Ð° Ð±ÐµÐº
ĠÑĦÐ¸ Ð»Ð°Ð´ÐµÐ»ÑĦÐ¸Ñı
ĠÐ´Ð¾Ð±Ð°Ð²Ñı Ð½ÐµÑĤÐ¾
ĠÑģÐ° ÑĦÑĢÐ¸
ĠÐ·Ð°Ð¿ÑĬÑĢÐ¶ Ð¸ÑĤÐµ
ĠÐŁÑĢÐ¸ Ð±Ð¸ÑĢÐ°ÑĤ
ĠÐ·Ð°Ð´ÑĥÑĪ ÐµÐ½Ð°
Ð¶Ð¸ Ð½Ð°
ĠÐĹÐ° Ð³ÑĬÐ²Ð°
Ð¿Ð¾ ÑĩÑĤÐ¸
ĠÐ¿Ð° ÑģÑĤÐ¸
ĠÐ¿Ð° Ð¿ÑĢÐ¸
ĠÐ¿Ð° ÐµÐ¹
ĠÐ¿ÑĢÐ¾ Ð¼ÐµÐ½Ñı
ÐĹÐ° Ð¼ÐµÑģÐ²Ð°Ð¼Ðµ
ĠÑģÑĥ Ð¿ÐµÑĢ
Ð¡ ÐºÑĥÐ¼ÑĢÐ¸
ÑģÐ¸Ñĩ Ð°ÑĤ
ÑģÑı ÑĤÐ¾
ÑģÑı ÑīÐ¸ÑĤÐµ
Ð¼ÐµÑģ Ð¾
ĠÐłÐ°Ð· Ð¼Ð¸Ð¹ÑĤÐµ
ĠÐ·Ð°Ð³ÑĢÑı Ð»Ð°
ĠÐ¿Ð¾Ð»Ñĥ ÑģÐ²Ð°ÑĢ
ĠÐ¿ÑĢÐµÐ´ ÑģÑĤÐ°
ĠÐŀÑĤ Ð²Ð°ÑĢÑı
ĠÑĥ Ð¿ÑĬÑĤ
ĠÐ¾ÑĢÐµÑħ Ð¾Ð²Ð°ÑĤÐ°
ĠÐ¾Ð±ÐµÐ» ÐºÐ¸ÑĤÐµ
ĠÐľ ÑĥÑģÑĬÑĤ
ĠÑĢÐµ ÑĪÐ¸
Ð´Ð¾ Ð±Ð¾
Ð¾Ð´ ÐµÐ½
ÑĤÐ¾Ð¿ Ð¸Ð½Ð³
ĠÐ¢ ÑĢÐ¾
ĠÐ¢ ÐµÑĢÐ¸
ĠÑĢÐ° Ð´Ð¸
ĠÐļÐ¾ Ð·Ñĥ
ĠÐ±Ð¸ Ð´Ð¾Ð½
Ðļ Ð¸ÑģÐµ
ĠÐĳ Ð¾Ð±Ð°
ĠÐ·Ð°Ð»Ð¸Ð²Ð° Ð¼
ĠÐ½ÐµÐ³Ð¾ Ð²Ð¾
ĠÐ½ÐµÐ³Ð¾ Ð²Ð¾ÑĤÐ¾
ÑĪÐ¸ ÑıÑĤ
ĠÑĢÐ¾ Ð³
ĠÑĢÐ¾ Ð·Ðµ
ĠÑĢÐ¾ Ð·Ð¾Ð²Ð¸
ĠÐ±ÐµÐ» ÐµÐ½Ð¾
ĠÐ¸Ð·Ð± ÑĥÑĤ
ĠÐ½Ð¾ ÑĢÐ¸
Ð²Ð°ÑĢÑı Ð²Ð°Ð½Ðµ
ĠÐĵ ÑĢÐ¸
ĠÐĵ ÑĬÑĢÐ´Ð¸ÑĤÐµ
ĠÐĵ ÑĢÐ°ÑħÐ°
ĠÑħÐ»ÑıÐ± Ð½Ð°
Ðŀ ÑģÑĤÐ°Ð²ÐµÑĤÐµ
Ðŀ Ð¿ÐµÑĩÐµÐ½Ð¸ÑĤÐµ
ÐĿÐ° Ð¿ÑĢÐ°Ð²ÐµÑĤÐµ
Ð¿ÑĢÐµ ÑģÑıÑĤÐ¾
ĠÐ¿ÑĢÐ°Ð· Ð½Ð¾
ĠÐŁÑĢÐµ Ð³ÑĬÐ²Ð°
ĠÐŁÑĢÐµ Ð³ÑĬÐ²Ð°ÑĤ
ĠÐ½Ð°ÑģÑĤÑĬÑĢÐ³ Ð²Ð°Ð½Ðµ
ĠÑĢÐµÐ´ Ð¾Ð²Ð½Ð¾
ĠÐ½Ð°Ð¼Ð°Ð·Ð° Ñħ
ĠÑıÐ±ÑĬÐ» ÐºÐ¾Ð²Ð¾
ĠÐ²ÑģÐ¸ÑĩÐºÐ¸ ÑıÑĤ
ĠÐĲ Ð¹ÑģÐ±ÐµÑĢÐ³
ĠÑģÑĤÐµ Ð²Ð¸Ñı
ĠÑĢÐ°Ð·Ð±Ð¸Ð²Ð° Ð¹ÑĤÐµ
Ð¼Ð¸Ð¾Ð½ ÑĬÑĤ
ĠÑħÑĥÐ±Ð° Ð²Ð¸
ĠÐ´ÑĬÐ»Ð±Ð¾ ÑĩÐ¸Ð½Ð°
ĠÐ¿Ð¾Ð»ÑĥÑĩÐ¸ Ð»Ð°ÑĤÐ°
ĠÑĪÐ° Ð¿ÐºÐ°
ĠÐ»Ðµ Ð±ÐµÑĢ
ĠÐ¿ÑĢÐµÑģÑĤÐ¾ Ð¹
ĠÐ²ÑĢÑı ÑīÐ¾
ĠÐ½Ð°ÑĤÑĢÐ¾ÑĪ ÐµÐ½Ð°
ĠÐ½Ð°Ð´ ÑĬÐ»Ð³Ð¾
Ðĳ Ð¾
ĠÐ·Ð°Ð¿Ð¸ÑĩÐ° ÑĤÐµ
ĠÐľÐ° Ð»ÐºÐ°
ĠÐºÐ°ÐºÐ°Ð¾ Ð²
ĠÐ½Ð°ÐºÐ¸Ñģ Ð½Ð°ÑĤÐ°ÑĤÐ°
ĠÐ½Ð°Ð¿ÑĬÐ» Ð½ÐµÐ½Ð¾ÑĤÐ¾
ÐłÐ°Ð· ÑģÑĤÐµÐ»ÐµÑĤÐµ
ĠÐŁÐ¾Ð´Ð½Ð°ÑģÑı ÑĤÐµ
ĠÑĤÐ¾ÑĢ ÑĤÐµÐ½Ð°ÑĤÐ°
ĠÐ´Ð¸ ÑģÐº
ĠÐ²Ð¾Ð´ Ð½Ð°ÑĤÐ°
Ð¿ÐµÑĩ ÐµÐ½Ð¾
ÑĢÐµÐ½Ð²Ð¸ÑĢ ÑĪÐ°
ĠÐ¸Ð·Ð¿Ð¾Ð» Ð·Ñĥ
ĠÐ¿Ð°ÑģÐ¸ÑĢÐ° Ð¼
ĠÐºÐ¸Ð¿ Ð²Ð°Ð¼Ðµ
ĠÐºÐ¸Ð¿ Ð½ÐµÑĤÐµ
ĠÐĿ ÑĮÐ¾ÐºÐ¸ÑĤÐµ
ĠÐ¾ÑĦÐ¾ÑĢÐ¼Ñı Ð½ÐµÑĤÐ¾
ĠÐ¿Ð¾ÑģÐ»ÐµÐ´ Ð½Ð¸ÑıÑĤ
ĠÐ»ÑİÑĤÐ¸ ÑıÑĤ
ĠÑģÑĥÑĢÐ¾ Ð²Ð°ÑĤÐ°
ĠÐºÐµÐºÑģ Ð¾Ð²Ð¾ÑĤÐ¾
ĠÐ¾Ð±ÑĢÑĬÑīÐ° Ð½Ðµ
ĠÐŁÐ¾ÐºÑĢÐ¸ Ð²Ð°ÑĤÐµ
Ð§ ÑĥÑĪÐ»ÐµÑĤÐ°ÑĤÐ°
ĠÐ¼Ð°ÑĢÐ¸Ð½Ð¾Ð²Ð° Ð½
ĠÐ¿Ð°Ð½Ð¸ ÑĢ
ĠÐ¿Ð°ÑĤÐ»Ð°Ð´Ð¶Ð°Ð½ ÐµÐ½Ð¸ÑĤÐµ
ĠÐ³Ð°ÑĢÐ½Ð¸ÑĢÐ° Ð¼Ðµ
ĠÐ½Ð°Ð¿ÑĢÐ° Ð²ÐµÐ½Ð¸
ĠÐ½Ð°Ð¿ÑĢÐ° Ð²ÐµÐ½Ð¸Ñı
ĠÐŁÑĢÐ° Ð²Ð¸ÑĤÐµ
ÐļÐ° ÑĢÐ°Ð¼ÐµÐ»Ð¸Ð·Ð¸
ÐļÐ° ÐºÐ°Ð¾ÑĤÐ¾
ÐľÐ° Ð³Ð¸
ĠÑĪÐ¸ ÑıÑĤÐ°
ĠÐ¾Ð¿Ð° ÐºÐ¾
ĠÐ¾ÑĤÐ´ÐµÐ»Ñı ÑĤÐµ
ĠÑģÑĤÑĢÐ¸ ÑĤÐ¾ÑĤÐ¾
ĠÐ¾ÑĤÑģÑĤÑĢÐ°Ð½ÑıÐ²Ð° Ð½ÐµÑĤÐ¾
ĠÐ¨ Ð¿ÑĢÐ¸ÑĨ
ĠÐºÑĬÑģ ÑĩÐµÑĤÐ°ÑĤÐ°
ĠÑĢÐ¸Ð± ÐµÐ½Ð¸ÑĤÐµ
ĠÐ½Ð¸ ÐºÐ°ÐºÑĬÐ²
ĠÑģÐ²ÐµÑĤ Ð»Ð¸
ĠÐŁÐ° Ð¿Ð°ÑĢ
ĠÐ´Ð¾Ð» Ð½Ð¾ÑĤÐ¾
ĠÐķ Ðº
ĠÐķ Ð»Ð´Ð°ÑĤÐ°
ĠÐ¡Ð° ÑĩÑĬÑĤ
ĠÐ¾ÑĨÐ²ÐµÑĤ ÐµÐ½Ð°
ĠÐºÐ»Ð¾Ð½ ÐºÐ°ÑĤÐ°
ĠÐ¸Ð·ÐºÐ»Ñİ ÑĩÐ¸ÑĤÐµÐ»Ð½Ð¾
ĠÑĢÑĬÐºÐ° Ð²Ð¸ÑĨÐ¸
ĠÐĺÐ·Ð¿ÑĬÑĢÐ¶ Ð²Ð°Ð¼Ðµ
Ð²Ð¾ÐºÐ° Ð´Ð¾
ĠÐºÐ¾ÐºÐ¾ÑģÐ¾ Ð²Ð°ÑĤÐ°
ĠÐºÐ¾Ð½ÑģÑĥ Ð¼Ð¸ÑĢÐ°ÑĤ
ĠÐ»Ð°Ð¿Ð°Ð´ ÑĬÑĤ
ĠÑĤÑĢÐ¸ÑĬÐ³ÑĬÐ»Ð½Ð¸ ÑĩÐµ
ĠÐºÐ¾Ð½ÐµÑĨ ÑĬÑĤ
ĠÐ²ÐºÐ»Ñİ ÑĩÐ¸ÑĤÐµÐ»Ð½Ð¾
ĠÐ¾ÑĤÐ»Ðµ Ð¶Ð°
ĠÐ¿Ð¾Ð·Ð°Ð¿ÑĬÑĢÐ¶ Ð²Ð°ÑĤ
ÑĤÐ²ÑĬÑĢ Ð´
ÐµÐ»Ð¸ ÑıÑĤ
ĠÐ±Ð¾Ð½ ÑĦÐ¸
ĠÐ½Ð°ÑĤÑĢÐ¸ Ð¹ÑĤÐµ
ĠÑģÐ»Ð°Ð´ÐºÐ°ÑĢ ÑģÐºÐ°ÑĤÐ°
ĠÑģÐ³ÑĬÑģÑĤÑıÐ²Ð° Ð½ÐµÑĤÐ¾
Ð¿Ð»Ðµ ÑģÐºÐ²Ð°ÑĤ
ĠÐ¾ÑĤÐ²Ð¾ ÑĢÐµÑĤÐµ
ĠÐ½Ð°Ð´Ñĥ Ð²Ð°ÑĤ
ĠÐ°ÑĢ Ð¿Ð°Ð´Ð¶Ð¸
ĠÐ½Ð°Ð´ÐµÐ½Ð¸ ÑĨÐ¸ÑĤÐµ
ÑĤÐ°Ð¿Ñı Ð¼Ðµ
ĠÐ¿Ð»Ð¸Ðº ÑĩÐµ
Ðķ Ð´Ð¸Ð½
Ðķ Ð´Ð½Ð°
ĠÐ¢Ðµ ÑģÑĤÐµÐ½Ð¸ÑĤÐµ
ĠÐµÐ·Ð¸ ÐºÑĬÑĤ
ĠÐ¿Ð¾ÑħÐ»ÑĥÐ¿ ÐµÐ½
ĠÐ¿ÑĪÐµÐ½Ð¸ ÑĩÐ½Ð¸
ĠÐ¿ÑĪÐµÐ½Ð¸ ÑĩÐµÐ½Ð¸
ĠÐ¿ÑĢÐµÑģÐµ ÐºÐ°ÑĤ
ĠÐĿÐ°ÑģÑĤÑĬÑĢÐ³ Ð²Ð°ÑĤÐµ
ĠÐ½Ð°Ð¿Ð¾ ÑıÐ²Ð°ÑĤ
ĠÐ²ÑĬÑĢ Ð·Ð¾
ĠÐĽÐ¸ ÑģÑĤ
ĠÐ¿ÑĢÐ¸Ð±Ð°Ð²Ð¸ Ñħ
ĠÑĨÐ²ÐµÑĤ ÑĩÐµÑĤÐ°ÑĤÐ°
Ð´ÑĢÐ° Ð²Ð¾
ĠÐ¡Ð²Ð°ÑĢÑı Ð²Ð°ÑĤÐµ
ÐĺÐ·ÑĩÐ¸ÑģÑĤ ÐµÐ½Ð¾ÑĤÐ¾
ÐĺÐ·ÑĩÐ¸ÑģÑĤ ÐµÐ½Ð¸Ñı
ĠÐ´Ñİ Ð»ÑıÑĤÐ°
Ð³Ð»Ð° Ñģ
Ð³Ð»Ð° Ð²Ð°
ĠÐ¾Ð²Ð°Ð»Ñı Ð½Ð¸ÑĤÐµ
ĠÑģÐµÐ· Ð¾Ð½
ĠÑģÐ²ÐµÑĤÐ»Ð¾ ÐºÐ°ÑĦÑıÐ²
ĠÑĢÐ°Ð·Ð¼ÑĢÐ°Ð· ÐµÐ½Ð¸ÑĤÐµ
ĠÐºÑĥÐ¿ ÑĩÐµÑĤÐ°
ĠÐĴÐ·ÐµÐ¼Ð° ÑĤÐµ
ĠÑģÐ¼Ð°ÑĩÐºÐ° Ð¹ÑĤÐµ
ĠÐĳÐ° Ð¼ÑıÑĤÐ°
ĠÐ¼Ð°ÑĢÐ¸Ð½Ð¾ Ð²Ð°Ð½Ðµ
ĠÐºÑĢÐµÐ¼Ð¾ Ð²ÐµÑĤÐµ
ĠÐľÐµÑģÐ¸ Ð¼
ĠÐŁÐ¾ÑģÐ»ÐµÐ´ Ð½Ð¸ÑĤÐµ
ĠÐŁÐ¾ÑģÐ»ÐµÐ´ Ð½Ð¸ÑıÑĤ
ÑģÑĤÐ¸ÑĤÐµÐ»Ð½Ð¾ ÑĤÐ¾
ĠÐ¼Ð°Ð½Ð°ÑĤÐ°ÑĢ ÐºÐ°
Ð´ÐµÐ±Ðµ Ð»Ð¾
Ð¹Ð½Ð¾ Ð²Ð¸
ĠÐ²Ð´Ð»ÑĬÐ± Ð½Ð°ÑĤÐ¸
ĠÐ¿ÑĢÐ¸ÑıÑĤ Ð½Ð°
ĠÐ¿Ð¾ÑģÐ³ ÑĬÑģÑĤ
ĠÐĴÑĤÐ° ÑģÐ²Ð°ÑĤ
ÐĿ Ñı
ĠÐ½Ð°Ð¿Ð¸ ÑĤÐºÐ°ÑĤÐ°
ĠÑĤÑĢÐ° Ðµ
ĠÐ¿ÑĢÐ¾ÑĨÐµ Ð´Ð¸
ĠÐ´ÑĬÑĢÐ¿Ð° Ð¼Ðµ
Ð¿Ð»Ð¾Ð´Ð¾ Ð²
ĠÐ¿Ð¾Ð´Ð¾Ð± Ð½Ð¸
ĠÐ±ÐµÑĪÐ°Ð¼Ðµ Ð»Ð¾Ð²Ð¸Ñı
ĠÐ±ÑĥÑħ Ð½Ð°ÑĤ
ĠÐĺÐ·ÑģÑĤÐ¸Ð½Ð° Ð»Ð¸Ñı
ĠÑĢÐ°Ð·Ð´ ÑĢÑĥ
ĠÑĥÐ²ÐµÐ»Ð¸ÑĩÐ¸ ÑĤÐµ
ĠÐ»Ñĥ ÑĩÐµÐ½Ð¸ÑĤÐµ
ĠÐ¸Ð·Ð³ ÑĢÐµÐ±Ð²Ð°
ĠÐ´Ð¾Ð·Ð° Ð¿Ð¸ÑĩÐ°
ĠÐ¡Ð»Ð°Ð´ Ð¾Ð»
ĠÐ¿Ð¾ÑĤÑĬÐ¼ Ð½ÑıÐ²Ð°
ĠÐŁÐ¾Ð² ÑĬÑĢÑħÐ½Ð¾ÑģÑĤÑĤÐ°
ĠÑĢÑĬÐ¶ ÐµÐ½
ĠÐ¸Ð·ÑĤÐ¸ ÑģÐºÐ²Ð°
ĠÐºÐ¾Ð¶Ð¸ ÑĩÐºÐ¸
ĠÐŁÑİ ÑĢÐ¸ÑĢÐ°
ĠÑĪÐ¿ÐµÐºÐ¾ Ð²Ð¸Ñı
ĠÐ·Ð°Ð²ÑĬÑĢÑĪ Ð¸ÑĤÐµ
ÑĦÐ¸Ð»Ð¸ Ð¹ÐºÐ¸
ÐĳÐ° ÐºÐ»Ð°ÑĤÐ°
18 5
ÐłÐ°Ð·ÑĤÐ¾Ð¿ ÑıÐ²Ð°
ĠÐ»Ð¾Ð´ ÑĩÐ¸ÑĨÐ¸
ĠÐ¡Ñĥ ÑħÐ°ÑĤÐ°
ĠÐĴÑĤÐ¾ ÑĢÐ¸ÑıÑĤ
ĠÐ§ÐµÑĢ Ð²ÐµÐ½Ð¸ÑıÑĤ
ĠÐ±ÑĥÐ»ÑĮÐ¾ Ð½Ð¸
ĠÐľÐµÑģ Ð°ÑĤÐ°
ra n
ÐºÐ¾ÑĢ ÐµÐ½Ð¸
ĠÐ¡Ð¸ÑĢÐ¾ Ð¿Ð¸ÑĢÐ°
ĠÐ¿Ð¾Ð· Ð²Ð¾Ð»
ĠÑĦÑĥÐ½Ð¸ Ð¹ÐºÐ°
ĠÑģÐ°Ð¼Ð¸ Ñı
ÐŁÐ¾ÑĢ ÑĬÑģ
ÑĩÐµÑģÐ½Ð¾ Ð²Ð¾
ĠÑĢÐ¸Ð½ Ð³Ð°
ÐļÐ¸ Ð¼Ð¸Ð¾Ð½ÑĬÑĤ
ĠÐ¾ÑĤÐ¿ÑĥÑģ Ð½Ð°ÑĤ
ĠÐļÑĥ Ð¿Ð¸ÑĩÐºÐ¸ÑĤÐµ
ĠÐļÑĥ Ð±ÑĩÐµÑĤÐ°ÑĤÐ°
ĠÐ¿ÑĢÐ¸ÐºÑĢÐµ Ð¿Ð²Ð°
ĠÑħÐ²Ð¾ Ð¹Ð½Ð¾Ð²Ð¸
ĠÑĢÑĥÐ»Ð°Ð´Ð¸ Ð½Ð¸
ÐĳÐ»Ð° ÑĤÐ¾Ð²Ðµ
Ð±ÑĥÑĤ ÑĩÐµÑĤÐ°
ĠÐ³Ð¾ÑĦÑĢÐµ ÑĤÐ¸
ĠÐ¼Ð¾Ðº ÑĬÑĢ
ĠÑĩÐ°ÐºÐ° Ð¼Ðµ
ĠÑĢÐµÐ½Ð´Ð¾Ñģ Ð²Ð°
ĠÐĹÐ°Ð¿Ð¾ÑĩÐ²Ð° ÑĤÐµ
ĠÐĶÐµÑģÐµÑĢ ÑĤÐ°
ĠÐ½Ð°ÐºÐ° Ð¿Ð²Ð°ÑĤ
ĠÐ¾Ð¿ÐµÑĩ ÐµÐ½Ð°
ĠÐĿÐ°Ð´ÑĥÐ¿ ÑĩÐµÑĤÐµ
ÐŁÐ¸ ÐºÐ°Ð½ÑĤÐ¸Ð½Ð°
ĠÐºÑĢÐ¾Ð°Ñģ Ð°Ð½Ð¸ÑĤÐµ
ÑħÐ»Ð°Ð´ Ð½Ð¾
ĠÐ±Ð°Ð¼Ð± ÑĥÐºÐ°
ĠÑĢÐ°Ð·Ð´ÐµÐ» ÐµÐ½Ð¸
ĠÑħÐ»ÐµÐ±Ð¾Ð¿ÐµÐºÐ°ÑĢ Ð½Ð°
ĠÐ¸Ð·ÑĢÐµÐ· ÐºÐ¸ÑĤÐµ
ÑĢÐ¾Ð½ Ð²Ð°
ĠÐ½Ð°ÑĤÑĬÐ¿ ÐºÐ²Ð°
ĠÐ¿ÑĢÐ¸ÐºÐ»Ñİ ÑĩÐ¸
ĠÐĳÐµÐ»ÑĤÑĬ ÐºÑĬÑĤ
Ð°Ð³Ð½Ðµ ÑĪÐºÐ¸
Ð¦Ð°ÑĢÐµ Ð²Ð¸ÑĨÐ°ÑĤÐ°
Ð¦Ð°ÑĢÐµ Ð²Ð¸ÑĩÐ½Ð¾ÑĤÐ¾
ĠÐĶÐ¾Ð¿ÑĬÐ» Ð½ÐµÑĤÐµ
ÐĶÐ¶Ð¾Ð» Ð°Ð½ÑĬÑĤ
ĠÑĦÑĥ ÑģÐ¸Ð»Ð¸
ĠÐļÐ¾Ð»Ð±Ð° ÑģÑĬÑĤ
ĠÑģÑĤÑĬÐ± Ð»Ð°ÑĤÐ°
ĠÑģÑĤÐ°Ð½Ð´Ð° ÑĢ
Ð»ÑĥÐºÐ° Ð½ÐºÐ°
ĠÐ¸Ð·ÑĤÑĬÑĢ Ð±ÑĥÑĪ
ÐŀÐ±ÐµÐ·ÐºÐ¾ÑģÑĤ ÐµÐ½Ð¾ÑĤÐ¾
ĠÐ¿ÑĢÐµÐ´Ð¿Ð° Ð·Ð¸
ĠÐ¼Ð¸Ð»Ð¸ Ð»Ð¸ÑĤÑĢÐ°
ÐºÐ°ÑĦÐµÐ½Ð¸ÐºÐ° Ð²
ĠÑĩÐ¸Ð¹Ð·ÐºÐµ Ð¹ÐºÐ°
ĠÐ¿Ð¾Ð¾ÑħÐ»Ð°Ð´ ÑıÑĤ
ĠT u
ÑĬÑĢÑĨÐµ Ð²Ð¸Ð½Ð°ÑĤÐ°
ĠÐ´ÐµÐ±ÑĬÑĢÑĨÐ¸ Ð½Ð¸
ÐĿÐµ Ð¾Ð±ÑħÐ¾Ð´Ð¸
ĠÐ¿ÑĢÐ¾Ð¼ ÑĥÑĪ
ĠÐ¿ÑĢÐ¾ÑĤÐ¸ Ð²ÐµÐ½
ÐĺÐ·Ð¿Ð»Ð° Ðº
Ð¡ÑĥÑĢÐ¾ Ð²Ð¸ÑĤÐµ
ĠÑħÐ°Ð¼Ð±ÑĥÑĢÐ³ ÑģÐºÐ¸
ĠÐ¸Ð³Ð»Ð¸ ÑĩÐºÐ¸
ÐºÐ°Ð¹ÑģÐ¸ Ð¸
ÑģÐ°Ð» Ð²Ð¸Ñı
ĠÑĥÑħÐ° ÑıÑĤ
Ð²Ð°ÑĢÐ¸ÑĤÐµ Ð»Ð½Ð°
ĠÑģÐ°ÑĢÑĦÐ° Ð»Ð°Ð´Ð¸
ĠÑĨÐ¸Ð»Ð¸ Ð½Ð´ÑĢÐ¸
ĠÐ¡Ð³ÑĬÑģÑĤ ÑıÐ²Ð°
ĠÑĤÐµÐºÐ¸ Ð»Ð°
ĠÑĢÐµÐ·ÑĥÐ» ÑĤÐ°ÑĤ
ĠÑĤÐµÑĢÐ¼Ð¸ ÑĩÐ½Ð°ÑĤÐ°
ĠÐ½ÐµÑĢÐ° ÑĦÐ¸Ð½Ð¸
ĠÐºÑĢÐ°Ð²Ð° Ð¹
ĠÐ»Ð°Ð² ÑĢÐ°Ðº
ĠÐ½Ð°ÐºÑĢÐ°Ð¹ Ð½Ð¸Ðº
ĠÐ±Ð°ÑĤÐ° ÑĤÐ¸
ÐļÐ¾Ð» Ð±Ð°
ĠÐĳÐµÑĪÐ°Ð¼Ðµ Ð»Ð°
ÑĤÐ¸Ð²Ð¸ÑĢÐ° Ð½Ð¸
ĠÐºÐ°Ð»ÐºÐ° Ð½
ĠÑĥÐ¿ÑĬÑĤ Ð²Ð°Ð½ÐµÑĤÐ¾
ĠÐ¢ÐµÑĢÐ¸ ÑıÐºÐ¸
ĠÐ°ÑĢÐ¿Ð°Ð´Ð¶Ð¸ ÐºÐ°
Â ½
Ñ Ŀ
Ġ =
Ġ d
Ġ ÑĿ
Ðµ ÑģÑĤ
Ðµ ÑĢÐ°ÑĤÐ°
Ñģ Ð»
Ñģ Ð°ÑĢ
Ñģ Ð²ÐµÐ½
Ñģ Ð½ÐµÐ½Ð¸Ðµ
ÑĤ a
ÑĤ ÑĥÑĢÐ°
ÑĤ ÐµÐ½Ð¸ÑĨÐ°ÑĤÐ°
ÑĢ ÑĬÑĤ
Ð½ ÐºÐ°ÑĤÐ°
ĠÑģ Ð²Ð¸Ðµ
Ð» ÑģÑĤÐ¾
Ð» Ð²Ð°Ð¼Ðµ
Ð² Ð½Ðµ
Ð² ÑĢÐ°ÑĤ
Ð² ÑĢÑĬÑģÑĤ
Ðº o
Ðº ÑĢÑĬÑģÑĤ
Ñı Ð½Ð°ÑĤÐ°
Ñĩ ÑĥÑĪÐºÐ¸ÑĤÐµ
ĠÐ¸ ÑģÐ¿Ð°
ÑĤÐ° ÑĤÐµ
Ð· Ð°Ð½Ð¸ÑĤÐµ
Ð· ÑĬÐºÐ°
ĠÐ½Ð° Ð¿ÑĢÐµÐ´
ĠÐ½Ð° Ð³ÑĢÐµÐµ
ĠÐ½Ð° Ð¸ÑģÑĤÐ¸
ĠÐ¼ ÐµÐ»Ð°ÑĩÐºÐ°
ÐµÐ½ ÑĩÐµÑĤÐ°
ĠÐ¾ ÑĤÐ¸
ĠÐ¾ Ð´Ð¸ÑĢÐ°
ÑĢÐ° Ð»Ð¸
ĠÐ² ÑĢÐµ
ĠÐ·Ð° ÑĢÐ°Ð²
ĠÐ·Ð° Ð¼ÐµÑģÐ²Ð°Ð½ÐµÑĤÐ¾
Ð½Ð° Ð»Ð¸ÑĤÐµ
Ð½Ð° Ð¼Ð°ÑĩÐºÐ°
ÑĪ Ð¸Ð¿
Ð»Ð¸ ÑģÑĤ
Ð»Ð¸ ÑĩÐ½Ð¸
Ð»Ð° Ð¼Ðµ
Ð»Ð° Ð¼Ð°ÑĤÐ°
ÑĨ ÐµÑģÐ¸
Ñħ Ð»Ð¸
ÐºÐ¾ ÑıÑĤÐ¾
Ð¶ ÐµÐ½Ð¸ÐµÑĤÐ¾
ĠÐ¼Ð° Ð³Ð°
ĠÐ´Ð¾ Ð¼
Ð¼Ð° Ð¹Ð¾Ð½ÐµÐ·
ĠÐ» Ð°Ð½
Ð¹ ÑĤ
Ð»Ðµ ÑĪÐ½Ð¸
Ð±Ð° ÑĢ
ÑĩÐµ Ð»Ð¾
Ð½Ðµ Ð¿ÑĬÐ»Ð½Ð°
ÑģÑĤ ÑĢÐ°Ð½
ĠÑĢÐ°Ð· Ð²Ð¸ÑıÑĤ
ĠÑĢÐ°Ð· Ð¼ÐµÑģÐµÑĤÐµ
ĠÑĢÐ°Ð· Ð´ÐµÐ»Ð¸ÑĤÐµ
ĠÑĢÐ°Ð· ÐºÐ¾Ð¿ÑĩÐ°Ð²Ð°
ĠÑĢÐ°Ð· ÑĨÐµÐ¿Ð²Ð°ÑĤ
ĠÐ¸Ð· Ð²Ð¸
ĠÐŁ Ð»Ð¾
ĠÑģÐ¸ Ð³ÑĥÑĢ
ĠÐ¡ ÐºÐ°
ĠÐ¡ ÑĥÑĪ
ĠÐ¡ ÑĩÑĥÐ¿
ĠÐ¡ Ð»Ð¸Ð²Ð¸ÑĤÐµ
ĠÐ¡ Ð¼Ð»ÐµÐ½Ð¸ÑĤÐµ
Ð¸Ð½ ÑıÑĤÐ°
ÑĢÐ¾ Ð²ÐºÐ°ÑĤÐ°
ĠÐ¼Ð°Ñģ ÑĤÐ¸
Ð³Ð¾ Ð²ÐµÐ¶
ÑĬÐ» ÑĨÐ°
ĠÐµ ÑĤÐ°
ĠÑĤÐ¾ Ð»ÑģÑĤÐ¾
ĠÐ¿ÑĢÐ¸ Ð»Ð¸ÑĩÐ°
ĠÐ¿Ð¾Ð´ ÑģÐ¸
ĠÐ¿Ð¾Ð´ Ð²Ð¸Ð²Ð°ÑĤ
ĠÐ¿ÑĢÐµ ÑĤÐ°ÐºÐ°
ĠÐ¿ÑĢÐµ Ð¼ÐµÑģÑĤÐµÑĤÐµ
ĠÑĦ Ð¾Ð½Ð´Ð°Ð½
Ð¿Ð° Ñı
Ð¿Ð° ÑģÑĤÐµ
Ð´Ð¸ Ð²
ĠÐ´Ð¾Ð¼Ð° ÑĪÐ½Ð¸
Ð¼Ð¾ Ð³Ð°ÑĤ
ĠÑĤÐµ Ð¼
ĠÑĤÐµ Ð¿
ĠÐŀ Ð»Ð¸Ð¾
ĠÑģÐ»Ð°Ð³Ð° Ð½ÐµÑĤÐ¾
ĠÑĤÐ° Ð¿Ð¸
ĠÑĤÐ° Ð±Ð»Ð°
ĠÐ»Ð¸ Ð»Ð°
ÑģÑĤÐ¾ Ð²ÐµÑĤÐµ
ÑģÐ¸ Ð»Ð½Ð°
ĠÐ½Ðµ ÑīÐ°
ĠÐ½Ðµ Ð¿Ð¾Ð´ÑģÐ»Ð°Ð´ÐµÐ½Ð¾
ĠÐ½Ðµ ÑĤÐ»ÑĬÑģÑĤÐ°
ÑĩÐ¸ ÑĨÐµ
ĠÐ¼ÐµÑģ Ð½Ð°
Ð¿ÑĢÐ° Ð²Ð¸
Ð¿ÑĢÐ° Ð²Ñı
ĠÑĪ Ð¾
ĠÑĪ Ð²Ð°ÑĢÑĨ
ĠÐ° Ð·Ð¸
ĠÑĤÐ¸ Ð¿Ð¸
Ð°ÑĤ ÑģÐºÐ¸
ĠÐĿÐ° Ð±Ð¾Ð¶Ð´Ð°ÑĤ
ĠÐ¾Ð± ÑīÐ°ÑĤÐ°
ĠÐ¾Ð± ÑīÐ¾ÑĤÐ¾
ĠÐ¾Ð± Ð´ÑĥÑħ
ĠÑģÑĬ Ð±
ĠÑĤÐ¾Ð¿ ÑĩÐ¸ÑĨÐ°
ĠÑĢÐ°Ð·Ð±Ð¸ Ð»Ð¸
ĠÐ²Ð¸ Ð¶Ð´Ð°
ĠÐ²Ð¸ ÑģÑıÑīÐ¸ÑĤÐµ
ĠÑĦÐ¸ Ðº
ĠÐĶÐ¾ Ð¼Ð°ÑĪ
Ġ- [
Ġ3 6
ĠÐ·Ð°Ð¿ÑĬÑĢÐ¶ Ð²Ð°Ð½ÐµÑĤÐ¾
ĠÐ¾Ð³ ÑĬ
ĠÐĹÐ° ÑģÑĤÐµÐ»ÐµÑĤÐµ
ĠÐ¿Ð° Ð¿Ð°Ñı
ĠÐ´Ð¾Ð¼Ð°ÑĤ ÐµÐ½Ð¸
ĠÐłÐ°Ð· ÑĤÐ²Ð¾ÑĢÐµÑĤÐµ
ĠÐ¿ÑĬÑĢÐ¶ ÐµÐ½Ð¾ÑĤÐ¾
ĠÐ¿ÑĢÐµÐ´ Ð¼ÐµÑĤ
ĠÐŀÑĤ Ð²Ð¾
ĠÐĺÐ· ÑĢÐµÐ¶ÐµÑĤÐµ
ĠÑĥ ÑħÐ¾
ĠÐ¾ÑĢÐµÑħ ÑĩÐµÑĤÐ°
ĠÐľ ÐµÐ´
ĠÐ²Ð° ÑĪÐ°
ÐŁ ÑĢÐ¾Ð´ÑĥÐºÑĤÐ¸
Ð·Ð¸ ÑĩÐºÐ¸ÑĤÐµ
ĠÑĢÐ° Ð³Ñĥ
ĠÑĤÐ¸Ðº Ð²ÐµÐ½Ð°ÑĤÐ°
Ð¿Ðµ ÑĢÐ°ÑĤÐ°
ĠÐ±Ð¾ Ð¸
ĠÐ±Ð¸ ÑģÐµÑĢ
Ðļ ÑĢÐ°
Ðļ Ð¾Ð½
Ðļ Ð¾ÑĢÐµÐ½Ð¸ÑĤÐµ
ĠÐºÐ¾Ð» Ðµ
ĠÑĤÑı ÑģÐ½Ð°ÑĤÐ°
ÑĦÐ¾ÑĢ Ð¼Ð°ÑĤÐ°
ĠÐĶÐ¾Ð±Ð°Ð²Ñı Ð¹ÑĤÐµ
ÑĪÐ¸ ÑıÑĤÐ°
ĠÑģÑĤÑĥÐ´ ÐµÐ½Ð¸ÑĤÐµ
ĠÑģÑĤÑĥÐ´ ÐµÐ½Ð¸ÑıÑĤ
ĠÑĢÐ¾ Ð´Ð¾
ĠÐ¸Ð·Ð± ÑĢÐ°Ð½Ð°ÑĤÐ°
ĠÐ¸Ð·Ð¿ÑĬÑĢÐ¶ Ð²Ð°Ð½Ðµ
ÑĥÐ¿ Ð¾Ð»Ð¾
ĠÐ¼Ð¸ ÑĪ
ĠÑĢÐ°Ð·ÑĤÐ¾Ð¿ ÐµÐ½Ð¸ÑĤÐµ
Ðŀ ÑħÐ»ÑİÐ²Ð¸ÑĤÐµ
ÐĿÐ° ÐºÑĬÑģÐ°Ð¹ÑĤÐµ
ÐºÑĬÑģ Ð¸
Ð°ÑĢÑĤÐ¾ ÑĦÐ°
ĠÐĲ ÑĢÐ°Ð½Ð¶Ð¸
ĠÐĲ ÑĢÐ°Ð±Ð¸
ĠÑĤÑĢÑıÐ±Ð²Ð° Ð»Ð¾
ĠÑĢÐ°Ð·ÑĤ ÑĬÑĢ
ĠÑĤÐµÑĩ Ð½Ð¸
ĠÑģÐ³Ð¾ÑĢÐµÑī ÐµÑĤÐµ
ĠÑģÐ³Ð¾ÑĢÐµÑī ÑıÐ²Ð°ÑĤ
ĠÐ·Ð»Ð°ÑĤÐ¸ÑģÑĤÐ¾ ÐºÐ°ÑĦÑıÐ²
ĠÐºÑĢÐ¾ ÐºÐ°Ð½Ð°
ĠÐ¸Ð·Ð¿ ÑĬÐº
ĠÐļÐ° ÐºÐ°Ð¾ÑĤÐ¾
ÑģÐ¸Ð»ÐµÐº ÑĬÑĤ
ĠÐ²ÑĢÑı Ð»Ð¸
ĠÐºÐµ ÑĦÐ°
ĠÐºÐµ ÑĦÐ¸ÑĢ
Ðĳ ÑĬÐ±ÑĢÐµÑĨÐ¸ÑĤÐµ
ĠÐ±Ð¸ÑģÐºÐ²Ð¸ ÑĤÐºÐ°
ĠÐ¿Ð¾ÐºÑĢÐ¸Ð²Ð° Ð¼
ĠÐ½Ð°Ð¼Ð°Ñģ Ð»ÑıÐ²Ð°ÑĤ
ĠÐŁÐµ ÑĩÑĥÑĢÐºÐ¸ÑĤÐµ
ĠÐŁÐµ ÑĩÐµÐ½ÐµÑĤÐ¾
ĠÐ½Ð°Ð»Ð¸Ð²Ð° Ð¼
ĠÐ¿Ð¸ Ðµ
ĠÐ¸Ð¼ Ð¿ÑĢÐ¾Ð²Ð¸
Ð½Ð°Ñģ ÑĬÑĤ
ĠÐ½Ð°ÐºÐ¸Ñģ Ð²Ð°Ð½Ðµ
ÐłÐ°Ð· Ð±ÑĬÑĢÐºÐ²Ð°
ĠÐ³ÑĬ ÑĪÐ¸
ĠÑģÑĥÑĪ ÐµÐ½Ð°ÑĤÐ°
ĠÐ½Ð°ÑĢÑĬÑģ ÐµÐ½
Ð¿Ð¾Ð´ ÑģÐ¾Ð»ÐµÐ½Ð°
ĠÐ¿Ð»Ð° ÑģÑĤÐ¸
ĠÐºÐ¾Ð½ ÑĨÐµÐ½ÑĤÑĢÐ¸
ĠÐ·Ð°Ð¼ÑĢÐ°Ð· ÐµÐ½Ð¸ÑıÑĤ
Ð¸Ð· Ð¿Ð¾Ð»Ð·Ð²Ð°
ĠÐ·Ð°ÑĤÐ¾Ð¿ Ð»ÐµÐ½Ð¸Ñı
Ð¿Ð°ÑĢ ÑĩÐµÐ½ÑĨÐ°
ĠÑģÐ²Ð¸Ð½ÑģÐºÐ¸ Ñı
ÑĥÑĤ Ð¼Ð°
ĠÐ°ÑĢÐ¾ Ð½Ð¸Ñı
ĠÐ´Ð¾Ð±Ð° Ð²ÐµÐ½
ĠÐ¸Ð·Ð´ÑĬÐ»Ð±Ð° Ð½Ð¾ÑĤÐ¾
ĠÑģÐ°ÑĢ Ð´Ð¸Ð½
ĠÐ¿ÑĢÐµÑģÑı ÑĤÐ°
ĠÐ¼Ð°ÑĢÐ¸Ð½Ð¾Ð²Ð° Ð½Ð¸Ñı
ĠÑĨÐ°ÑĢÐµÐ²Ð¸Ñĩ Ð½Ð°ÑĤÐ°
ĠÐ½Ð°ÐºÑĬÑģ Ð°Ð½Ð°
ÐļÐ° ÑĪÐºÐ°Ð²Ð°Ð»Ð°
ĠÑģÑĬÑĢ ÑĩÐ¸ÑĨÐµ
Ðĵ Ð¾Ð»
ÐľÐ° ÑĢÐ¸
ÐľÐ° ÑģÑĤÐ°
ÐºÐ°ÑĦ ÐµÑĤÐ¾
ĠÐ¸Ð·Ð¿Ð°ÑĢÐ¸ Ð»Ð°
ĠÐ»Ð¾ Ð·Ð¾Ð²
ĠÐºÐ¾ÑĢ Ð½Ð¸ÑĪÐ¾Ð½Ð¸
ĠÐ³ÑİÐ²ÐµÑĩ ÑĬÑĤ
ĠÑĢÐµÑĪ Ð¸ÑĤÐµ
ĠÑģÑĤÐµÑĢÐ¸Ð»Ð¸Ð·Ð¸ ÑĢÐ°Ð½Ð¸ÑĤÐµ
Ð´Ð¶ Ð¾
Ð°ÑĤÐ° ÑĤÐ¸ÑĤÐµ
ĠÐ¡Ð¸ Ð²ÑĢÐ¸Ñı
ĠÐ¿Ð¾Ð»ÑĥÑĩ ÐµÐ½Ð°
ĠÐ¾ÑĤÐ´ÐµÐ»Ñı ÑīÐ¾
ĠÐ·Ð°ÑĤÐ²Ð°ÑĢÑı Ñī
Ð²ÐµÐ¶ Ð´Ð¾ÑĤÐ¾
Ðł Ð¾Ð»ÑĨÐ°ÑĤÐ°
ĠÐĹÐ°Ð¿Ð¸ÑĩÐ° ÑĤÐµ
ĠÑĢÐ¸Ð± Ð½Ð°ÑĤÐ°
ĠÑĤÑĢÐ¾ÑħÐ¸ ÑĩÐºÐ¸
ĠÐ½Ð¸ ÑģÐºÐ¸
ĠÐ½Ð°Ð²Ð¸Ð²Ð° ÑĤÐµ
ĠÐ´Ð¾Ð±Ð°Ð²Ð¸ Ð»Ð¸
ĠÐ¡Ð° Ð²Ð¾ÑıÑĢÐ´Ð¸
ĠÑĩÐµÑĢÐµ ÑĪÐºÐ°
ĠÑĩÐµÑĢÐµ ÑĪÐºÐ¸
ĠÐ¸Ð·ÐºÐ»Ñİ ÑĩÐ²Ð°Ð½Ðµ
ĠÐ»ÐµÐ´ ÑĬÑĤ
ĠÐŀÐ±ÐµÐ» ÐµÐ½Ð°ÑĤÐ°
Ð³Ð¾Ð»ÐµÐ¼Ð¸ Ð½Ð°ÑĤÐ°
ĠÐ¾ÑħÐ»Ð°Ð¶Ð´Ð° Ð¼Ðµ
ĠÑģÑĤÐ¾Ð¿ ÐµÐ½Ð°
Ð·Ð°Ð½Ð¸ Ñı
ĠÐ¡Ð¸Ð¿Ð²Ð° ÑĤÐµ
ĠÐ·Ð°ÑģÑĤÑĢÐ¾Ð¹ Ð²Ð°Ð¼Ðµ
ĠÐ¿Ð¾Ð»Ðµ ÑıÑĤ
ĠÐłÐµ ÑĨÐµÐ¿ÑĤÐ°ÑĤÐ°
ĠÑĩÐµÑĤÐ²ÑĬÑĢÑĤÐ¸Ð½ ÐºÐ°
Ð¶ÑĬÐ» ÑĤÐ°
ĠÐŁÑĬÐ» Ð½ÐµÐ¶
ĠÑĢÐ°Ð·Ð¿Ð¾Ð» Ð°Ð³Ð°ÑĤ
ĠÐĹ ÑĬÑĢÐ½Ð°ÑĤÐ°
ĠÑģÐ»ÑĬÐ½ÑĩÐ¾Ð³Ð»ÐµÐ´ Ð¾Ð²Ð¾ÑĤÐ¾
ĠÐ¿Ð¾ÑģÐ¾ ÑĩÐµÐ½Ð¸
ĠÐ´Ð¾Ð¾ Ð¿Ð¸ÑĩÐ°Ð¼Ðµ
ĠÐ¿Ð¾ÑĢÑĬÑģÐ¸ Ð¼
ĠÐ¿Ð»Ð¾Ð´ Ð¾Ð²Ð¸Ñı
ĠÐ¿ÑĢÐ¸Ð´Ð¾ Ð±Ð¸Ð²Ð°Ð½Ðµ
ĠÐ±Ð°Ð´ÐµÐ¼Ð¾ Ð²Ð¾ÑĤÐ¾
ĠÑĤÐµÐ» ÑĤÐ°
Ð³Ð¾ÑĢ Ð½Ð°
ĠÐµÐ·Ð¸ ÑĨÐ¸
ĠÐ¿ÑĢÐµÐ¿ÐµÑĩ ÐµÐ½Ð¸ÑĤÐµ
ĠÐĿÐ°ÑĢÑĬÑģ Ð²Ð°Ð¼Ðµ
ĠÐ²ÑĬÑĢÑħ Ð¾Ð²ÐµÑĤÐµ
ĠÐŁÐ¾ÑĩÐ¸ÑģÑĤ ÐµÐ½Ð¸ÑıÑĤ
ĠÑĥÑģ Ð¿
ĠÑĥÑģ Ð¿Ðµ
ĠÑĥÑģ Ð¿Ð¾ÑĢÐµÐ´
ĠÐ°Ð¹ ÑĢÑıÐ½Ð°
ĠÐ¿ÑĢÐµÑĨÐµÐ´ ÐµÐ½Ð¾
ĠÐ¶Ð¸ Ð»ÐºÐ°
ĠÐĺ Ð¼Ð°Ð¹ÑĤÐµ
ĠÐĿÐ°Ð¿ÑĬÐ» Ð²Ð°Ð¼Ðµ
ĠÐ»Ð¸ÑģÑĤÐ¾ Ð²Ðµ
ĠÑıÐ´ ÐºÐ¾Ð²Ð¾
Ð¡Ð²Ð°ÑĢ ÐµÐ½Ð¸Ñı
ĠÑĢÐ°ÑģÑĤÐ¸ÑĤÐµ Ð»
ĠÐ¡Ð¾ ÐºÐ°
ĠÐ»ÐµÐ¿ÐºÐ° Ð²
ÐŁÑĢÐ° Ð²ÑıÑĤ
ĠÐºÑĥÐ¿ ÑĩÐ¸Ð½Ð°
ĠÐłÐµÐ´ Ñĥ
ĠÐ¾Ð¿Ð¸ ÑģÐ°Ð½Ð¾
ĠÐ½Ð°Ð½Ð¸ Ð¶ÐµÑĤÐµ
ĠÑĤÐ¾ÑĢÑĤÐ¸ Ð¸
ÐºÐ¾ÐºÐ¾ Ñģ
ÐºÐ¾ÐºÐ¾ ÑģÐ¾Ð²Ð¾
ĠÐ¼Ð°ÑĪÐ¸Ð½ ÐºÐ°ÑĤÐ°
ĠÐŀÑĤÑģÑĤÑĢÐ°Ð½ÑıÐ²Ð° Ð¼Ðµ
ĠÐ¿ÑĢÐ¸Ð³Ð¾ÑĤÐ²Ð¸ Ð¼
ĠÑĩÐ¾ ÑĢÐ¸Ð·Ð¾
ĠÐºÑĬÐ»Ð½Ð¾ Ð²ÐµÑĤÐµ
ĠÐ¿Ð¾ÑĤÑĬ Ð½Ðµ
ÐĹÐ°Ð´ÑĥÑĪÐ° Ð²Ð°ÑĤÐµ
ĠÐ¸Ð·ÑĩÐµÑĢÐ¿ Ð²Ð°Ð½ÐµÑĤÐ¾
ĠÑģÐ»Ð¾Ð¶ ÐµÐ½
ĠÐ·Ð°ÑĤÐ²Ð¾ÑĢ ÐµÐ½Ð¸
ĠÐ¿ÑĢÐµÑģÐ° ÑĤÐ°
ĠÐ¾Ð²ÐºÑĥ ÑģÐ¸ÑĤÐµ
ĠÐ¼ÐµÐº ÑģÐ¸ÐºÐ°
ĠÐ´Ð¾Ð¿ÑĬÐ» Ð²Ð°ÑĤ
ĠÐ´Ð¾Ð¿ÑĬÐ» Ð½Ð¸ÑĤÐµ
ĠÐºÐ¾ÑĩÐ° Ð½ÑĬÑĤ
ĠÐĵÐ¾ Ð·Ð±Ð°ÑĤÐ°
ĠÐŀÑģÐ¾Ð» ÐµÑĤÐµ
ĠÐ¿ÑĢÐ¾Ð´ÑĬÐ»Ð³Ð¾Ð²Ð° ÑĤÐ¾
ĠÐ¸Ð·Ð³ Ð»Ð°Ð´Ð¸
ĠÐļÐµ Ð±Ð°Ð¿
ĠÐļÐµ Ð¹ÐºÑĬÑĤ
ĠÑĤÐµÐ½Ð·ÑĥÑħ ÐµÐ½Ð°
ĠÐ¾Ð¼ÐµÑģ ÐµÐ½Ð¾
ĠÐ¾Ð¼ÐµÑģ Ð²Ð°Ð½ÐµÑĤÐ¾
ĠÐĶÑĬÑĢÐ¶ Ð°ÑĤ
ĠÐŁÑĢÐ¾Ð´ÑĬÐ» Ð¶ÐµÑĤÐµ
ĠÐľÐ°ÑĢ ÑģÐ°Ð»Ð°
ĠÐ´Ð¾Ð¸Ð· Ð¼ÐµÑģÐ²Ð°Ð½Ðµ
ĠÐ¿Ð¾Ð´ÑĢÐµÐ´ ÐµÐ½Ð°ÑĤÐ°
ĠÑģÐ¿ÐµÑĨÐ¸ Ð°Ð»Ð½Ð¾
ĠÐ½ÑıÐºÐ¾ Ðµ
ĠÐĿÐ°Ð´ ÐµÐ½Ð¸ÑĩÐºÐ¸ÑĤÐµ
ĠÐºÐ°Ð¼ ÑĩÐ¸Ñı
ĠÐĹÐ°ÑħÐ»ÑĥÐ¿ ÐµÑĤÐµ
ĠÐĳÑĥÑĢÐºÐ° Ð½ÑĬÑĤ
ĠÐŀÑħÐ»Ð°Ð´ ÐµÐ½Ð¾ÑĤÐ¾
ĠÐ¸Ð·Ð¿Ð°ÑĢÑı Ð²Ð°
ĠÑĢÐ°Ð·Ð¼Ð° ÑĩÐºÐ²Ð°ÑĤ
ĠÐ¸Ð·Ð²Ð¸ÑĢÐ° Ð½ÐµÑĤÐ¾
ĠÐ¸Ð·ÑĢÐ°Ð² Ð½Ð¸
ĠÐ¿Ð¾ÑĢÑĨÐµÐ»Ð° Ð½Ð¾Ð²Ð¸
ĠÐ¾ÑĢÐ¸Ð³Ð¸ Ð½Ð°Ð»Ð°
ĠÐ´Ð¸Ð½ ÑıÑĤÐ°
ĠÐłÐ° ÑģÑĤÐ¸ÑĤÐµÐ»Ð½Ð¾ÑĤÐ¾
ĠÐ¿Ð»Ð°ÑĤ ÐºÐ°
ĠÐ½Ð°Ð²Ð¸ ÑĤÐ¸ÑĤÐµ
ĠÐĿÑı Ð¼Ð°
Ð§ÐµÑĢ Ð²ÐµÐ½Ð¾ÑĤÐ¾
ĠÐ·Ð°Ð±Ð¾Ð´ ÐµÑĤÐµ
ĠÐļÑĬÑģ Ð°
ĠÐŁÑĢÐ¾Ð²ÐµÑĢÑıÐ²Ð° Ð¹ÑĤÐµ
ĠÐ¼ÑĥÑģ ÐºÑĥÐ»Ð°
ĠÑĥÐ´Ð¾Ð± ÐµÐ½
ĠÐ¾Ð±ÐµÐ·ÑģÐ¾Ð» Ð¸
Ð¿Ð»Ð¸ Ðº
ĠÐ±Ð¸ÑĦÑĤÐµ ÑĨÐ¸
ĠÐ¼ÐµÐ»Ð° ÑģÐ°
ĠÐ´Ð¶Ð°Ð½ ÐºÐ¸ÑĤÐµ
ĠÐĿÐ°Ð¿ÑĢÑĬÑģ ÐºÐ²Ð°ÑĤ
ĠÐŁÐ¾ÑĢÑĤÐ¾ÐºÐ° Ð»Ð¸ÑĤÐµ
ĠÐ¾ÐºÐ° ÑĩÐ²Ð°ÑĤ
ĠÐ£Ð½Ð¸ ÑģÐ¾Ñģ
ÑģÐ»Ð¾ Ð²Ð½Ð¾
ĠÐ³Ð»ÐµÐ´Ð° Ð¼Ðµ
ĠÐŁÑĥÐ´ Ð¸Ð½Ð³ÑĬÑĤ
ÐŁÐµ ÑĩÑĥÑĢÐºÐ¸ÑĤÐµ
ĠÐ»ÑĬÑģÐºÐ° Ð²Ð°
ĠÐ½Ð°ÑĤÑĬÐ¿ ÐºÐ²Ð°ÑĤ
ÑĤÐ¸Ð»Ð° ÑĤÐ¾ÑĢ
ĠÐ·ÑĢÐµ Ð»Ð¸Ñı
ĠÐ±ÑĥÐº ÐµÑĤ
ĠÐ·Ð°Ð´Ð° Ð´ÐµÐ½Ð¸ÑĤÐµ
ĠÑĢÐ°Ð·ÑģÑĤ Ð»Ð°Ð½Ð¾ÑĤÐ¾
Ð¿Ð°ÑģÐ¸ ÑĢÐ°Ð½
ÐŁÑĥÐ´ ÑĢÐ°ÑĤÐ°
ĠÐ¿ÑĢÐµÐºÐ°Ð»ÑıÐ²Ð° Ð¹ÑĤÐµ
ĠÑģÑĤÐ°Ð½Ð´Ð° ÑĢÑĤ
ĠÐ¿ÑĢÐ°ÑģÐµÐ½ ÑĨÐµ
Ð´ÑĢÐ¸ Ð½ÑģÐºÐ¸
ĠÐ´Ð¾Ñģ Ð²Ð°ÑĢÑıÐ²Ð°
ĠÐ¢ÑĥÑĢ ÑĪÐ¸ÑıÑĤÐ°
ĠÐ·Ð°Ð»Ñı ÑĤÐ¾
ĠÑģÑĬÑĨÐ²Ðµ ÑĤÐ¸Ñı
ĠÐ¼ÑĬÑĤ ÐµÐ½Ð¸ÑĨÐ°
ĠÐ·Ð°Ð´ÑĬÑĢÐ¶ Ð¸
Ð¡Ð¼Ð¸ Ð»Ð°Ð¼Ðµ
ĠÑģÑĢÐµÑī ÑĥÐ¿Ð¾Ð»Ð¾
ĠÐµÑģÑĤÑĢÐ°Ð³Ð¾ Ð½Ð°
Ð½Ð°Ð´ ÐµÐ½Ð¸ÑĨÐ°
ÐĹÐ°Ð¿Ð¾ ÑĩÐ²Ð°Ð¼Ðµ
Ð»ÐµÐ½Ð´Ð¸ ÑĢÐ°Ð¹ÑĤÐµ
ĠÑĢÐ°Ð±Ð¾ÑĤ Ð½Ð¸Ñı
ut t
ĠÐĹÐµÐ»ÐµÐ½ÑĩÑĥ ÐºÐ¾Ð²Ð°ÑĤÐ°
Ð°Ð»ÑĥÐ¼Ð¸Ð½Ð¸Ðµ Ð²Ð°
ÐºÐ¾ÐºÑĤÐµÐ¹ Ð»Ð½Ð°
Ð½ÐµÐ³ÑĢÐµ ÑĤ
Ð¡Ð³Ð¾ÑĢÐµÑī ÑıÐ²Ð°
ĠÐ±ÑĬÐ» Ð³Ð°ÑĢ
ĠÑĪÐ°Ð± Ð»Ð¾Ð½
ĠÐºÐ¾Ð½Ð¾Ð¿ ÐµÐ½Ð¾
Ð¡Ð¸Ð¿ ÐµÑĤÐµ
ĠÐ¿Ð°Ð¼Ñĥ ÑĩÐ½Ð°
ĠÐ¿Ð¸ÑĢÐ°Ð¼Ð¸ Ð´Ð°
ĠÐ±ÑĬÑĤÑĬÑĢÐ¼Ð¸ Ð»Ðº
ĠÐ³ÑĥÐ°ÐºÐ°Ð¼Ð¾Ð» Ðµ
ĠÐºÑĢÑĬÑģ ÑĤÐ¾
ĠÑĢÐ°Ð·Ñı Ð´ÐºÐ°
ĠÐ¸Ð·Ð±ÑĬÑĢ ÑģÐ²Ð°ÑĤ
ĠÐ¢Ð°ÑĢÑĤÐ° ÑĢ
ÐºÐ¾Ð¼ Ð¿Ð¾ÑĤ
ÐŀÑĤÑģÑĤÑĢÐ° Ð½ÑıÐ²Ð°ÑĤ
ĠÑģÐ°ÑĦÑĢÐ¸ Ð´
ĠÐ½Ð°Ð¸ÑģÑĤÐ¸ Ð½Ð°
ĠÐ»Ð°Ð½ Ð³Ñĥ
Ð¿Ð°ÑģÑĤÐµ ÑĤ
ĠÐ¾Ð±Ð´ÑĥÑħ Ð²Ð°Ð½Ðµ
ĠÐ±Ð¸ÑģÐµÑĢ ÐµÐ½
ĠÐĲÑĢÐ°Ð±Ð¸ Ð°ÑĤÐ°
ĠÐŁÑĬÐ»Ð½ÐµÐ¶ ÑĬÑĤ
a d
i g
s s
Ġ A
Ġ V
Ġ ÑĢÑıÐ·
Ġ ).
Ġ ÑĢÐµÑħÐ°
Ð° Ð½Ð¾
Ð° Ð¹
Ðµ ÐºÐ°
Ðµ Ð´Ð¸
Ðµ Ð²Ð¸Ñı
Ðµ ÐºÑĬÑĤ
Ð¾ Ð½Ð¸
Ñģ Ð¿Ð¾
ÑĤ ÑıÑĤ
Ð¸ Ð½Ð¾Ð²Ð¾
ĠÑģ Ð¿ÑĢÐ°
Ð» ÑĤÐ¸Ð²Ð¸ÑĢÐ°Ð½Ð¸
Ð² ÑĤÐ°
Ð² ÑĥÑĢ
Ð² ÑĢÐµÐ´
Ð² ÑģÐ¸Ñĩ
Ð² ÐºÐ»ÑİÑĩÐ²Ð°
Ðº ÐµÐ·
Ñı Ð½Ð°
Ñı Ð¿Ð°ÑĤÐ°
ĠÑģÐµ Ð»Ð¸ÑĤÑĢÐ°
Ñĩ ÑĬ
ÑĬ ÑĦÐ¸
ÑĬ ÑĨÐ¸ÑĤÐµ
Ð²Ð° ÑĢÐ°ÑĤÐ°
ĠÐ¿ ÑĥÐº
Ð´ ÐµÐ½Ð°ÑĤÐ°
Ð´ ÐµÐ½Ð¸Ñı
ÑĤÐ° Ð½Ð°
Ð· Ð²Ð°Ð½ÐµÑĤÐ¾
ÑĤÐ¾ ÑĢÐ¸
ĠÐ½Ð° Ð»ÐµÐµ
ĠÐ½Ð° Ð¿ÑĬ
ĠÐ¼ ÑĥÐ½
Ð¿ ÑĤÐ¸
Ð¿ Ð¸Ð¿ÐµÑĢ
ĠÐ¾ Ð¿ÐµÑĩÐµÐ½
ĠÐ¾ Ð¿ÑĥÐºÐ²Ð°ÑĤ
Ð± Ð»Ð¸
ĠÐ² ÑĤÑĢÐ¸
ĠÐ· ÑĢÑıÐ»Ð¾
ÐºÐ° Ð²Ð¾
ĠÐ± ÐµÑĢÐ¸
ĠÐ± ÑĥÑĢÐ³
ĠÐ± ÐµÐ»Ð°ÑĩÐºÐ°ÑĤÐ°
ĠÐ·Ð° ÑĢÐµÐ¶Ð´Ð°ÑĤ
ĠÐ·Ð° Ð¾Ð±
ĠÐ·Ð° ÑĢÐ°Ð²Ð½ÑıÐ²Ð°
ÑĢÐµ Ðµ
ÑĢÐµ ÑĤÐ¸ÑĤÐµ
ÑĤÐ¸ ÑĢÐ°Ð¹ÑĤÐµ
ÑĨ ÐºÐ¸
ÑĨ Ð²Ð°ÑĤ
ÐºÐ¾ ÑĦÐµ
Ð½Ð¸ ÑĨÐ¸ÑĤÐµ
Ð¼Ðµ Ð·
ĠÐ¼Ð° Ð³
ÑĢÑı Ð²Ð°
Ð´Ð° Ð½Ð¾Ð·
ÑĦ ÑĤ
Ð¹ Ð´Ð¾
ĠÐ¾ÑĤ Ð½Ð¾
ĠÐ¾ÑĤ ÐºÑĬÑģ
ĠÐ¾ÑĤ ÑĢÑıÐ·Ð°Ð½Ð¸ÑĤÐµ
ĠÐ¾ÑĤ ÑĢÑıÐ·Ð°Ð½Ð¾ÑĤÐ¾
Ð»Ð¾ Ñĥ
Ð±Ð° Ð¿Ð°
Ð³Ð° ÑģÑı
Ð³Ð° Ð½ÐµÑĤÐ¾
ÑĢÐ°Ð· Ð¼Ð¸
ÑģÑĤ Ñı
ÑģÑĤ ÑĢÐ°ÑĤ
ĠÑĢÐ°Ð· Ð»Ð°ÑĤÐ°
ĠÑĢÐ°Ð· ÑĢÐµÐ´ÐµÑĤÐµ
ĠÑĢÐ°Ð· Ð¼ÐµÑģÐ²Ð°Ð¼Ðµ
ĠÑĢÐ°Ð· ÑĤÐ°Ð¿ÑıÑĤ
ĠÑĢÐ°Ð· Ð²Ð°Ð»Ð¸
ĠÑĢÐ°Ð· Ð¿Ð°Ð´Ð½Ð°ÑĤ
ĠÐ¸Ð· Ð»Ñı
ĠÐ¸Ð· Ð´ÑĬÑĢÐ¶
ĠÐ¸Ð· Ð²Ð¾ÑĢÐ½Ð°
ĠÐŁ ÑıÐ½Ð°ÑĤÐ°
ÐµÐ½Ð¸ Ñģ
ĠÑģÐ¸ Ð½Ñı
ĠÐ¡ Ð²Ð¸Ð²Ð°ÑĤ
ĠÐ¡ ÑĢÐµÐ´Ð°ÑĤÐ°
ĠÐ¡ ÑĬÑĢÑĨÐµÐ²Ð¸Ð½Ð°ÑĤÐ°
Ġ1 10
Ġ1 40
ĠÑĩÐµÑĢ Ð½Ð¸ÑĤÐµ
Ð¾ÑĢ ÑĩÑĬ
ĠÑģÐ¼Ðµ Ð»Ð¸ÑĤÐµ
ÑģÐ¾Ð» ÐµÐ½Ð¾
ĠÐµ ÑģÑĤÐµ
ĠÐµ ÑĦÐµÐºÑĤ
ĠÑģÐ»Ð° Ð´Ð¾
ĠÐ¿ÑĢÐ¸ Ð´ÑĢÑĥ
ĠÐ¿ÑĢÐ¸ Ð´Ð°Ð´Ðµ
ĠÐ¿ÑĢÐµ ÑģÐ½Ð¾
ĠÑĦ ÑĢÐ°Ð½
ĠÐ·Ð°ÑħÐ°ÑĢ Ð½Ð¾
ĠÐ·Ð°ÑħÐ°ÑĢ Ð½Ð¸ÑıÑĤ
ĠÑĤ ÐµÐ½Ð¸Ñģ
ĠÑģÐ¾ ÐºÐ¾
Ð¼Ð¾ Ð¶ÐµÑĤÐµ
Ð¼Ð¾ Ð½Ð¾Ð²
Ð¼Ð¾ ÑĨÐ°ÑĢÐµÐ»Ð°
Ð±ÑĬÑĢ ÐºÐ°
ĠÑĤÐµ Ð³Ð»Ð¾
ĠÐŀ ÑħÐ»ÑİÐ²Ð¸ÑĤÐµ
ĠÐŀ Ð³Ð½ÐµÑĥÐ¿Ð¾ÑĢ
ĠÑĤÐ° ÑĢÑĤ
ÑĤÐ½Ð¾ ÑĤÐ¾
Ñİ Ð»Ð¸ÑĤÐµ
ĠÐ½Ðµ Ð¿Ð¾
ĠÐ½Ðµ ÐºÐ¾Ð»ÐºÐ¾
ĠÐ½Ðµ Ð³Ð¾Ð»ÑıÐ¼Ð°
ĠÐºÑĥ Ð»ÑĤÐ¸Ð²Ð¸ÑĢÐ°Ð½Ð¸
ÐµÐ½Ð¾ Ð¿Ð»Ð¾
ĠÐ¿Ð¾Ð» Ñı
Ð¿ÑĬÑĢÐ¶ Ð°ÑĤ
ĠÑħ Ð»Ð°Ð±Ð°
ĠÑħ ÑĢÑıÐ½Ð°
ĠÐ¿Ðµ Ñī
Ð·Ð° Ð½Ð°ÑĤÐ°
Ð·Ð° ÑĤÐ¾ÑĢ
Ð²Ðµ ÑĩÐµ
ĠÑĪ Ð¸Ð»Ðµ
ĠÐ·ÐµÐ» ÐµÐ½Ð¾ÑĤÐ¾
ĠÐ·ÐµÐ» ÑĩÐ¸ÑĨÐ¸
ĠÐµÐ´ ÑĢÐ°ÑĤÐ°
ĠÐļ Ð¾ÑĢ
ĠÐĶ Ð¸
ĠÐ¼Ð°Ð³Ð´Ð°Ð½Ð¾Ð· ÐµÐ½Ð¸
ĠÐ´Ð¾Ð¼Ð°ÑĤÐ¸ ÑĤÐ¾
ĠÐ¾Ð± Ð»ÐµÐ¿Ð²Ð°ÑĤ
ĠÑģÑĬ Ð´Ð¾Ð²ÐµÑĤÐµ
ĠÑĤÐ¾Ð¿ Ð¸Ð¼
ĠÐ³Ð¾ ÑģÑĤÐ¸ÑĤÐµ
ĠÐ¿Ð¾Ð´Ð¿ÑĢÐ° Ð²Ð¸ÑĤÐµ
ÑĤÑĬ ÐºÑĬÑĤ
ĠÐĶÐ¾ Ð²Ð°ÑĢÑıÐ²Ð°
ĠÑģÐ° Ð¼Ð¸ÑĤÐµ
Ð½Ñģ ÐºÐ¸Ñı
ĠÐ·Ð°Ð´ÑĥÑĪ Ð²Ð°ÑĤ
Ð¶Ð¸ Ð¼
ĠÐĹÐ° ÑħÐ°ÑĢ
ĠÐĹÐ° ÑĤÐ¸ÑģÐºÐ°
ĠÐ¿Ð° ÑĢÐ¸
ĠÐ¿ÑĢÐ¾ Ð±Ð¸
ĠÐ¿ÑĢÐ¾ Ð±Ð¾Ð¶Ð´Ð°
ĠÐ¿ÑĢÐ¾ ÑĪÑĥÑĤÐ¾ÑĤÐ¾
ĠÐ·Ð°Ð³ Ð»Ð°Ð¶Ð´Ð°ÑĤ
ĠÐ¶ÐµÐ»Ð° Ðµ
ÐºÐ¸Ð»Ð¸ Ð´ÐºÐ°ÑĤÐ°
ĠÐ´Ð¾Ð¼Ð°ÑĤ ÐµÐ½Ð¸ÑĤÐµ
ĠÐĺÐ· Ð±Ð¸ÑĢÐ°
ĠÐĺÐ· Ð¿ÐµÑĩÐµÐ½Ð°ÑĤÐ°
ĠÑĥ Ð²Ð¸Ð¹ÑĤÐµ
ĠÐľ Ð¸Ðº
ĠÑĢÐµ Ð¶Ð¸Ð¼
ĠÐ²Ð° ÑĪÐ¸Ñı
Ð´Ð¾ Ð²Ð°ÑĤÐ°
ĠÐ±ÑĥÐ»ÑĮÐ¾Ð½ ÑĩÐµÑĤÐ¾
ÑĤÐ¾Ð¿ Ð»Ð°
ÐµÐ¼Ð¸ ÑĤÐµ
ĠÐ¸Ð·Ð²Ð° ÑĢ
ĠÑĢÐ° Ðº
ĠÐ±Ð¾ Ñħ
ÐĴ ÑģÑıÐºÐ¾
ĠÐĳ Ð¸ÑģÐºÐ²Ð¸
ĠÐ¿Ð¾ÑĩÐ¸ÑģÑĤ ÑıÑĤ
ĠÐ·Ð°Ð»Ð¸ Ð²Ð°Ð½Ðµ
ĠÑģÐ¿Ð° Ð·Ð²Ð°
ĠÐ±Ñĥ ÑĩÐºÐ°ÑĤÐ°
ĠÑĤÐ¸Ð³Ð°Ð½ ÑĩÐµ
ĠÐºÐ¾Ð¿ÑĬÑĢ ÐºÐ°
ĠÑĩÐ°Ñģ Ð¾Ð²
ĠÐ²Ð°ÑĢÐ¸ ÑĢÐ°
ĠÐºÑĢÑĬÐ³ ÑĩÐµÑĤÐ¾
ĠÐ¼Ð¸ Ð½Ð¸Ð¼Ð°
ĠÐ±ÐµÐ· ÐºÐ¾ÑĦÐµ
ĠÐ´Ð¶ Ð¾Ð±Ð°
ĠÐ¯ Ð¹
ÐĿÐ° ÐºÑĬÐ»
ĠÐŁÑĢÐµ ÑģÐ¸Ð¿Ð²Ð°
ĠÐŁÑĢÐµ Ð²ÐºÐ»ÑİÑĩÐ²Ð°
ĠÐ¾Ð²Ð°Ð» Ð½Ð°
Ð¿ÑĬÐ» Ð½Ð¾Ð·ÑĬÑĢÐ½ÐµÑģÑĤÐ¾
Ð·Ðµ ÑħÑĤÐ¸Ð½Ð°
Ð²ÐµÐ½ ÑĤÐ¸Ð»Ð°ÑĤÐ¾ÑĢ
ĠÐ½Ð°Ð¼Ð°Ð·Ð° Ð»Ð¸
ÑĤÐ°ÑĤÐ° ÑĤÐ°
ĠÐ¼Ð°ÑĢÐ¸ Ð½Ð°
ĠÐ¼Ð°ÑĢ ÐºÐ¸
ĠÐ³ÑĢÐ°Ð´Ñĥ ÑģÐ¸
ĠÑģÐ³Ð¾ÑĢÐµÑī ÑıÐ²Ð°Ð¼Ðµ
Ð¸ÑĪ Ð½Ð¸ÑĤÐµ
ĠÐ¸Ð·Ð¿ ÑĥÑģÐºÐ°
ĠÑĥÐºÑĢÐ° ÑģÑıÑĤ
ĠÐºÑĬ ÑīÐ¸
ĠÐ¼Ðµ ÑģÑĤÐ°ÑĤÐ°
ĠÐºÐ°ÑĢÑĤÐ¾ÑĦ ÑĩÐµÑĤÐ°
Ð¿ÐµÐ½ Ð²Ð°
ĠÐºÐµ ÑħÐ»Ð¸
ĠÐ³Ð°ÑĢÐ½Ð¸ ÑĢÐ°Ð½
Ð»Ñİ ÑĤÐ¾
ĠÑĢÐµÐ½Ð´ ÐµÑĤÐ¾
ĠÑĢÐµÐ½Ð´ Ð¾ÑģÐ°
Ð»ÐµÐ½ ÑĩÑĥ
ÐĺÐ· Ð´ÑĬÐ»Ð±Ð°
ĠÐ½Ð°ÐºÐ¸Ñģ Ð½Ðµ
ĠÐĴÐ° Ð´Ð¸Ð¼
ĠÐ§ Ð¸
ĠÐ¿Ð»Ð¾Ð´Ð¾ Ð²Ð¾ÑĤÐ¾
Ð¢ Ð¾ÑĢ
ĠÑģÐºÐ° Ð¼Ð¾ÑĢÑĨÐ°
ĠÐłÐ°Ð·Ð±Ð¸ ÑĤÐ¸ÑĤÐµ
ĠÐ½Ð°ÑģÑĤÑĬÑĢÐ³Ð²Ð° Ð¼
ÑģÐµÐ½ ÑĨÐµÑĤÐ¾
ĠÐ²Ð°ÑĢ ÐµÐ½Ð¸Ñı
ĠÐ½Ð°ÑĢÑĬÑģ Ð¸
ĠÐ½Ð°ÑĢÑĬÑģ ÐµÐ½Ð¾
Ð¿Ð¾Ð´ Ñģ
Ð¯ ÑģÑĤÐ¸ÐµÑĤÐ¾
ĠÐºÑİÑĦÑĤÐµ ÑĤÐ¾
ĠÐ½ÐµÐ¾Ð±ÑħÐ¾Ð´Ð¸ Ð¼Ð¸ÑĤÐµ
ĠÐ·Ð°Ð¼ÑĢÐ°Ð· Ð¸
Ð¸Ð· ÑĩÐ¸ÑģÑĤ
ĠÑĢÐ°Ð·Ð¼Ð¸ Ð¹ÑĤÐµ
ÐºÐ»Ñİ ÑĩÐ¸ÑĤÐµÐ»Ð½Ð¾
ĠÐ¿Ð°Ð»Ð°ÑĩÐ¸Ð½ ÐºÐ¾Ð²Ð¾ÑĤÐ¾
Ð´ÑĥÑĪÐ° Ð²Ð°
ÐºÐ°ÑĢ ÑģÐºÐ¸
Ð´ÑĬÑĢ ÑĩÐµÑĤÐ°ÑĤÐ°
ĠÐ´Ð¾Ð»Ð¸Ð²Ð° ÑĤÐµ
ĠÐºÐ°Ðº Ð²Ð¾
ĠÐ¸Ð·Ð´ÑĬÐ»Ð±Ð° Ð½
ĠÐ¸Ð·Ð´ÑĬÐ»Ð±Ð° Ð½Ð¸
ĠÐ¾Ð±ÐµÐ· ÑģÐ¾Ð»ÐµÐ½Ð°
ĠÑĤÐ¾Ð¿Ð»Ð¸ ÑĩÐºÐ°
ÑĤÑĢÐ¸ Ð¹ÑĤÐµ
ĠÐºÐ»Ðµ ÑĩÐ¸ÑĨÐ°
ĠÑĢÐ°Ð·ÑĤÐ¾Ð¿ÑıÐ²Ð° ÑĤÐµ
ĠÑģÐ»Ð¾Ð¶Ð¸ Ð¼
ĠÑĪÐµ Ð²Ð¾
ÐļÐ° Ð»
ĠÐĳÑĬÑĢÐºÐ° Ð½ÐµÑĤÐ¾
ĠÑģÑĬÑĢ Ð½Ð°
ÐŁÐ¾ÑĩÐ¸ÑģÑĤ Ð²Ð°ÑĤÐµ
ĠÐ¾Ð±ÑĬÑĢ Ð½Ð°ÑĤ
ĠÐºÑĢÐ¸ Ð»Ð°
ĠÐ¿Ð°ÑĢÐ¼ÐµÐ·Ð°Ð½ ÑĬÑĤ
ĠÐ¿ÑĬÑĢÐ²Ð¾ Ð½Ð°ÑĩÐ°
Ð·Ð°ÑħÐ°ÑĢ ÐµÐ½
ĠÐ¾ÑĤÐ´ÐµÐ»Ñı ÑīÐ¸Ñı
ĠÐ·ÐµÐ»ÐµÐ½ÑĩÑĥÐºÐ¾ Ð²Ð¾
ĠÐ¨ ÐºÐµÐ¼Ð±ÐµÑĤÐ¾
ĠÐ¨ Ð¿Ð¸ÐºÐ¾Ð²Ð°
ĠÐ·Ð°Ðµ Ð¼Ðµ
ĠÐ½Ð¸ ÑĪÐºÐ¸
ĠÐĸ ÐµÐ»ÐµÑĤÐ¾
ĠÐŁÐ° ÐºÐµÑĤ
ĠÑĪÐ°ÑĢ ÐºÐ¸
ĠÐĺÐ·Ð¼Ð¸ ÑĤÐ¸ÑıÑĤ
ĠÑĤÐµÐ½Ð´Ð¶ ÐµÑĢÐ¸
ĠÑħÐ»ÐµÐ± Ð½Ð¾
ÐºÑĥÐ¼ ÑĬÑĤ
ĠÐ³ÑĬÐ± ÐºÐ¸
ĠÐºÐ¾Ð½ÑģÐµÑĢÐ²Ð¸ÑĢÐ° Ð½Ð¸ÑĤÐµ
ĠÐ¾ÑĨÐ²ÐµÑĤ ÑıÐ²Ð°ÑĤ
ĠÐ°ÑĢÐ¾Ð¼Ð°ÑĤ Ð½Ð°
ĠÐ¿ÑĥÑħÐºÐ° Ð²Ð¸
ĠÐ±Ð»Ð°Ð½ÑĪÐ¸ ÑĢÐ°Ð½Ð¸ÑĤÐµ
ĠÐĹÐ°Ð¿ÑĬÑĢÐ¶Ð²Ð° Ð¼
ĠÐ½ÑĥÐ¶Ð´Ð° Ðµ
ĠÐ´ÑĢÐµÐ±Ð¾Ð»Ð¸ Ð¹ÐºÐ¸ÑĤÐµ
ĠÐ°Ð½Ð°Ð½Ð°Ñģ Ð¾Ð²Ð¸Ñı
ĠÐ½Ð°Ð¼Ð°ÑĩÐºÐ° ÑĤ
ÐŀÐ±ÐµÐ» Ð²Ð°
ĠÐ´Ð¾ÑģÑĤÐ°ÑĤÑĬ ÑĩÐ½Ð°
ĠÐ¿ÑĢÐ¸Ð±Ð° Ð²ÐµÐ½
ĠÐ²ÐºÐ»Ñİ ÑĩÐµÐ½Ð¸Ñı
ĠÐ¿ÑĢÐµÐ´Ð¿Ð¾ÑĩÐ¸ÑĤÐ° Ð½Ð¸Ñı
ÑĤÐ²ÑĬÑĢ Ð´Ð°
ĠÐ¼Ð»Ñı Ð½Ð°
ĠÑĢÐ°Ð·Ð»Ð¸ ÑĩÐ½Ð°
ĠÐ¿Ð¾ÑĤÐ°Ð¿Ñı Ð½Ðµ
ÑģÐºÐ²Ð° ÑĩÐºÐ°
ĠÐ½Ð°Ð»Ñı Ð³Ð°Ð½ÐµÑĤÐ¾
ĠÑĦÑĬÑģÑĤÑĬ ÐºÐ°
ĠÐľÐµ Ð´Ð°Ð»ÑĮÐ¾Ð½Ð¸ÑĤÐµ
ĠÐ¿Ð¾ÑģÐ¾ ÑĩÐµÐ½Ð°ÑĤÐ°
ĠÐ¸Ð·ÑĩÐ°ÐºÐ²Ð° ÑĤÐµ
ÐļÐ¾ Ð¶Ð°ÑĤÐ°
ĠÐºÐ¸Ð¿Ñı ÑīÐ¸Ñı
ĠÑģÐ»ÐµÐ´Ð²Ð° ÑīÐ¸ÑıÑĤ
Ðķ Ð´Ð½Ð°ÑĤÐ°
ĠÐ¸ÑģÐºÐ° Ð¼
ĠÐ¿Ð¾ÑħÐ»ÑĥÐ¿ Ð²Ð°Ð¼Ðµ
ĠÐ¿Ð¾ÑħÐ»ÑĥÐ¿ Ð²Ð°ÑĤÐµ
ÑĦÑĢÐ°Ð½ Ð·ÐµÐ»Ð°
Ð¿ÑĢÐ¸Ð¼ÐµÑĢ Ð½Ð¾
ĠÐŁÐ¾ÑĩÐ¸ÑģÑĤ Ð²Ð°
ĠÐŁÐ¾ÑĩÐ¸ÑģÑĤ ÐµÐ½Ð°ÑĤÐ°
ĠÐŁÐ¾ÑĩÐ¸ÑģÑĤ ÐµÐ½Ð¸Ñı
ĠÐ±ÑĢÐ°ÑĪ Ð½ÐµÐ½Ð¸Ñı
ĠÐ´ÐµÐ±ÐµÐ»Ð° ÑĤÐ°
ĠÑĨÐ²ÐµÑĤ ÐµÐ½
ĠÐ½ÐµÑģ Ð¾Ð»
ĠÐĺÐ·ÑģÑĤÐ¸ ÑģÐºÐ²Ð°ÑĤ
Ð¡Ð²Ð¸Ð½Ñģ ÐºÐ¸Ñı
ÐĹÐµÐ» ÐµÐ½Ð¸ÑĤÐµ
ĠÑģÐ²ÐµÑĤÐ»Ð¾ Ð·Ð»Ð°ÑĤÐ¸ÑģÑĤÐ¾
ĠÑĢÐ°Ð·Ð¼ÑĢÐ°Ð· Ð¸
ĠÐ·ÑĢÑĬÐ½ ÑĨÐµ
16 5
ĠÐ¿Ð°Ð½Ð¸ÑĢÐ° Ð½ÐµÑĤÐ¾
ĠÐ»ÑĥÐºÐ°Ð½ ÐºÐ¸ÑĤÐµ
ÐºÐ°ÑĢÑĤÐ¾ ÑĦÐ¸ÑĤÐµ
ĠÐ¼Ð°ÑĢÐ¸Ð½Ð¾ Ð²Ð°Ð¼Ðµ
ĠÐ¾Ð¿Ð¸ ÑĤ
ĠÑĤÑĬ Ð½Ð¸ÑĩÐºÐ¸
ÐĿÐ°Ð¼Ð° ÑĩÐºÐ²Ð°Ð¼Ðµ
ĠÐŁÐ¾ÑģÐ»ÐµÐ´ Ð½Ð°ÑĤÐ°
ĠÐ¸Ð·ÐºÐ»ÑİÑĩÐ²Ð° ÑĤÐµ
ĠÐ¢Ð¾ÑĢ Ð±Ð¸
ĠÐ·Ð°Ð¿ÐµÑĩÐ°ÑĤ Ð²Ð°Ð¼Ðµ
ĠÐ¼Ð°Ð½Ð°ÑĤÐ°ÑĢ ÐºÐ¸ÑĤÐµ
ĠÑģÑĩÑĥÐ¿ ÐµÑĤÐµ
ĠÑħÐ¾Ð¼Ð¾Ð³ÐµÐ½Ð¸ Ð·Ð¸ÑĢÐ°ÑĤ
ÑıÐ¹ ÑĩÐµÐ½Ð°ÑĤÐ°
ĠÑģÐ¾Ð»ÐµÐ½Ð¾ ÑģÑĤÑĤÐ°
ĠÑģÐ¿Ð¸ÑĢÐ° ÑĤÐµ
ĠÐºÐ°Ð¿ Ð²Ð°Ð¼Ðµ
ĠÑĨÐ¸ Ð³ÑĥÐ»ÐºÐ°
ĠÑĤÐµÑģÑĤ ÐµÐ½Ð°
ĠÑĨÐµÐ»Ñĥ Ð²ÐºÐ¸ÑĤÐµ
ĠÐ¿Ð¾ÑĤÑĬ Ð½Ð°ÑĤ
ĠÑĤÐ¾ÑĢÐ±Ð¸ ÑĩÐºÐ°ÑĤÐ°
ĠÐ»ÐµÑģ Ð½Ð¸
ĠÐ¤Ð¸ Ð»Ð¸ÑıÑĤÐ°
ĠÐ¤Ð¸ Ð»ÐµÐ½ÑĨÐ°ÑĤÐ°
Ġ16 5
ĠÑħÐµÑĢ Ð¸Ð½Ð³Ð¸
ĠÐ¸Ð·Ð¿Ð»Ð°Ðº Ð½Ð°ÑĤÐ°
ÑĤÐ¸Ðº Ð²ÐµÐ½Ð¸
ÐĿ Ð¸ÑĪÐµÑģÑĤÐµÑĤÐ¾
ĠÐ·Ð°Ð»Ðµ ÐµÑĤÐµ
ĠÐ·Ð°Ð»Ðµ ÑıÑĤ
ĠÐ²Ð°ÑĢÐ¸Ð°Ð½ ÑĤÐ°
ĠÐ½Ð°Ð²Ð»Ð°Ð¶ Ð½ÐµÐ½Ð¸Ñı
ĠÐ¶ÐµÐ»Ð¸ ÑĢÐ°Ð½Ð¸
ĠÐ¼Ð°ÑĢÐ»Ñı ÑĤÐ°
ĠÑģÐ¿ ÑĥÐºÐ°ÑĤ
ĠÐ´ÐµÐºÐ¾ÑĢÐ¸ÑĢÐ° Ð¹ÑĤÐµ
ÑģÐ»Ð° Ð±Ð°
ĠÐĶÐµÐºÐ¾ ÑĢÐ¸
ĠÐĶÐµÐºÐ¾ ÑĢÐ°ÑĨÐ¸ÑıÑĤÐ°
Ð¡Ð²Ð°ÑĢÑıÐ²Ð° Ð¼
ÑģÑĤÑĢÑĬÐº ÑĩÐµÑĤÐ°
Ð¿Ñĥ ÑģÐ½Ð°
ĠÐŁÑĬÑĢÐ²Ð¾ Ð½Ð°ÑĩÐ°Ð»Ð½Ð¾
ĠÐŁÐ°Ð»Ð°ÑĩÐ¸Ð½ ÐºÐ°ÑĤÐ°
ĠÑģÐ¿ÐµÑĨÐ¸ ÑĦÐ¸
ĠÐºÐ¾Ð¶Ð¸ ÑĤÐµ
ĠÐ¼Ð°ÑħÐ½Ðµ Ð¼
ĠÑħÐ°ÑĢÐµÑģ Ð²Ð°ÑĤ
ĠÐŁÐ¾ÑħÐ»ÑĥÐ¿ ÐµÑĤÐµ
ĠÑģÐ²Ð¾ Ð¹
ĠÐ°Ð¼Ð° ÑĢÐµÑĤÐ¾
ÐľÐ°ÑĢ Ð³Ð°ÑĢÐ¸Ð½ÑĬÑĤ
ÐľÐ°ÑĢ Ð³Ð°ÑĢÐ¸Ð½Ð°
ĠÐ·Ð°Ð¿ÐµÑĩÐ°ÑĤÐ° Ð¹ÑĤÐµ
ĠÑĢÐ°Ð·Ð¼Ð° Ð¶ÐµÑĤÐµ
ĠÐ¼Ð°Ð»Ð¸ Ð½Ð¾Ð²Ð¸Ñı
ĠÐ»Ð¾Ð´ ÐºÐ¸ÑĤÐµ
ĠÑĢÑĥÐº Ð¾Ð»Ð°ÑĤÐ°
ĠÐĵÐ¾ÑĢÐµ ÑīÐ°ÑĤÐ°
ĠÐ¼Ð¸Ð½Ð° Ð²Ð°ÑĤ
ĠÐ°Ð»ÐºÐ¾ÑħÐ¾Ð» ÑĬÑĤ
ĠÐ½Ð°ÑģÐ¸ÑĤ Ð½ÑıÐ²Ð°
ĠÐ¿ÑĢ Ð¾Ð´Ð°
ĠÐ¾Ð±ÑĢÐ°Ð±Ð¾ÑĤ Ð²Ð°
ĠÑĥÑĪÐ¸ ÑĩÐºÐ¸
ĠÐĵÐ¾ÑĢ Ð½Ð°ÑĤÐ°
ÐĹÐ°Ðµ ÐºÐ°
ĠÐ½Ð°ÑĤÐ¾Ð¿ ÐµÐ½Ð°
gi n
ĠÐ¿ÑĢÐµÑĨ ÐµÐ½Ð¸
ĠÐĶÑĢÑĬ Ð¿Ð²Ð°
ÐĳÐ»Ð° Ð½ÑĪÐ¸
ĠÐ´Ð¶Ð¸Ð½Ð´Ð¶Ð¸ÑĦÐ¸ Ð»Ð¾Ð²Ð°
ĠÐµÐ¼Ð°Ð¹Ð»Ð¸ ÑĢÐ°Ð½Ð°
ĠÐ½Ð¾Ñģ Ð»Ðµ
ĠÐ¾ÑĤÐ»ÐµÐ¿ ÑıÑĤ
ĠÐ¸Ð·ÑĤÑĬÐ½ ÑıÑĤ
ĠÐºÐ¸ÑģÐ½Ð° Ð»
Ð£ Ð¾ÑĢÑĩÑĬ
ĠÑĦÐ¸ÐºÑģÐ° ÑĤÐ¾ÑĢ
ĠÐ¡Ð²Ð¸Ð½Ñģ ÐºÐ¸ÑĤÐµ
ĠÐ¾Ð¿ÑĢÐµÐ´ÐµÐ» Ñı
ÐŁÑĬ Ð¿ÐµÑĪÑĬÑĤ
ĠÐŁÐ¾ÑĤÐ°Ð¿Ñı Ð¼Ðµ
ĠÐ»ÐµÐºÐ¸ ÑĩÐºÐ¾
ĠÑģÐ¿Ð¸ ÑĢÑĤ
Ð¿Ð¾ÑĩÐ¸ÑģÑĤ ÐµÐ½Ð¸
ĠÐĺÐ·ÑĨÐµÐ´ ÐµÐ½Ð¸ÑıÑĤ
ĠÐ¿Ð°Ð½Ð´ÐµÐ» ÐºÐ°
ĠÐ²Ð¼ÐµÑģÑĤÐ¸Ð¼Ð¾ÑģÑĤ ÑĤÐ°
ĠÐºÑĥÑĢÐ°Ð±Ð¸ Ð¹ÐºÐ¸
ÐĴÐ°ÑĢÐ¸ Ð¼
ĠÐ¿Ð°ÑĤÐµ ÑĪÐºÐ¸
Ð¤Ð¸ Ð»Ð¸ÑıÑĤÐ°
ÐĵÐ»Ð° Ð²Ð°ÑĤÐ°
ÐĵÐ»Ð° Ð²Ð¸ÑĤÐµ
ĠÐºÑĮÐ¾Ð¿Ð¾Ð¾Ð»Ñĥ ÑĤÐ¾
ĠÐºÐ°ÑĤ Ð¼Ð¸
ĠÐŁÐ°ÑģÑĤÐµ ÑĤÐ°
ÐŁÐ°ÑģÐ¸ ÑĢÐ°Ð¹ÑĤÐµ
ĠÐļÐ¾Ð»Ð±Ð° ÑģÐ°
ĠÐ¡ÑĥÑĢÐ¾ Ð²Ð¸ÑĤÐµ
ĠÑĢÐ°Ð·Ð´ÐµÐ»Ð¸ Ñħ
ĠÐĹÐ°ÑĤÐ¾Ð¿Ð»Ñı Ð¼Ðµ
ÐľÐ¾ Ð·ÑĬÐºÑĬÑĤ
ĠÐ²ÑĤÐ²ÑĬÑĢÐ´ ÑıÐ²Ð°Ð½Ðµ
ĠÐ³ÑĬÐ» ÑĬÐ±Ð¸
ÐĹÐ°ÑĤÐ¾Ð¿Ð»Ñı Ð¼Ðµ
ĠÐ¢ÑĥÑĢ Ð±Ð¾
ĠÐĸÑĬÐ»ÑĤÑĬ ÐºÐ°
ÑīÑı Ð½
ĠÑĥÑĤÑĢÐ¾ Ð¸
Ð´Ð¾Ð» Ð½Ð°ÑĤÐ°
ĠÐ»ÑİÑģÐ¿Ð° ÑĤÐ°
ĠÐ»Ð°Ð²Ð°Ð½Ð´Ñĥ Ð»Ð°
ĠÐ²ÑĬÐ·Ð´ÑĥÑĪ Ð½Ð°
ÐĽÐ¸Ð¼Ð¾ Ð½Ð¸ÑĤÐµ
ÐŁÐ¾Ð´Ð¿ÑĢÐ° Ð²ÐºÐ¸ÑĤÐµ
ĠÐºÐ¾Ð½ÐºÐ¸ Ð»ÑĮÐ¾Ð½Ð¸
ĠÑĩÐµÑĢÐµÑĪÐ¾ Ð²
ĠÑģÐµÐº ÑĤÐ¾ÑĢ
ĠÐ»Ð¾Ð²Ð´Ð¶Ð¸ Ð¹ÑģÐºÐ°
ĠÑĪÐ¿Ð¸ÐºÐ¾ Ð²Ð°ÑĤ
ÑģÑĤÐ°ÑĤÑĬ ÑĩÐ½Ð¾
ĠÑħÑĢÐ°Ð½Ð¸ÑĤÐµ Ð»Ð½Ð°
ĠÐ½Ð°ÑĤÑĬÑĢ ÐºÐ²Ð°ÑĤ
ĠÐ²ÑĤÐµ ÑĩÐ½Ð¸
ĠÐ¿Ð¾ÑģÐµ Ð´Ð¸
ĠÐ¾ÑĤÐ¼Ð¸ Ðµ
Ð³ÑĬÑĢ Ð´Ð¸
ĠÐ¸Ð·ÐºÐ°ÑĢ Ð²Ð°Ð¼Ðµ
ĠÑıÑħ Ð½Ð¸Ñı
ĠÑĤÑĥÐ»ÑĥÐ¼Ð±Ð¸ ÑĩÐºÐ¸
ĠÐĿÑĥ ÑĤÐµÐ»Ð°
pp er
ĠÑģÐ³Ð¾ÑĤÐ²Ñı Ð½Ðµ
ÑĩÐµÑĢÐµ ÑĪÐ¸
ĠÐ¿ÑĢÐµÑĨÐµ Ð´Ð¸
ĠÐŀÐ¼ÐµÐºÐ½Ð° Ð»Ð¸ÑĤÐµ
ĠÐ³Ð¾ÑĦÑĢÐµÑĤÐ½Ð¸ Ðº
ĠÑĦÐ»Ð°Ð¼Ð±Ð¸ ÑĢÐ°
ĠÐ½ÐµÐ²ÐµÑĢÐ¾ÑıÑĤ ÐµÐ½
ĠÐĴÐ°Ð½Ð¸ Ð»Ð¸Ñı
ÑĦÑĬÑģÑĤÑĬ ÑĩÐµÐ½Ð¾
ĠÑĦÐµÑĢÐ¼ÐµÐ½ÑĤÐ¸ ÑĢÐ°
ÑĥÑģÑĤÐ¾Ð¹ ÑĩÐ¸
ĠÐ´Ð¾ÑĢÐ°Ð· Ð±Ð¸Ð²Ð°
ĠÐ³ÑĢÐµÐ½Ð° Ð´Ð¸Ð½
Ð¸Ð½Ð³ÑĥÐ¸ Ð½Ð¸
ÐķÐ´ ÑĢÐ¾
Ð¿ÑĢÐ°ÑģÐºÐ¾ Ð²Ð¸
ĠÐ¢ÑĢÐ¾ ÑħÐ¸ÑĤÐµ
ĠÐĽÐ¸ÑģÑĤ ÑĬÑĤ
ĠÐ¿Ð¾Ð·Ð²Ð¾Ð» ÑıÐ²Ð°
ĠÐ½ÐµÑĢÐ°ÑĦÐ¸Ð½Ð¸ ÑĢÐ°Ð½Ð°
ĠÐ¼Ð°Ð³Ð° Ð·Ð¸
Ð»ÐµÑĪÐ½Ð¸ ÑĨÐ¸
ĠÑĤÐ¾Ð»ÑģÑĤÐ¾ Ð»Ð¾Ð±
ĠÐ°Ð·Ð¸ Ð°ÑĤÑģÐºÐ¸
ĠÑĥÑģÐ¿ ÑıÐ²Ð°ÑĤ
Ð²ÑĢÐµÐ´ Ð½Ð°
ÑĬÑĦÐ¸ Ð½Ð¸ÑĤÐµ
ĠÐ¿ÑĢÐ¸Ð´ÑĢÑĥ Ð¶
ĠÐ½ÐµÐºÐ¾Ð»ÐºÐ¾ ÐºÑĢÐ°ÑĤÐ½Ð¾
ĠÑħÐ»Ð°Ð±Ð° Ð²Ð¾
ĠÐ±ÐµÐ·ÐºÐ¾ÑĦÐµ Ð¸Ð½Ð¾Ð²Ð¾
Ð£Ð¾ÑĢÑĩÑĬ ÑģÑĤÑĬÑĢ
1 35
b o
l e
o l
w are
Ġ N
Ġ 00
Ġ .[
Ġ Ñİ
Ġ ÑīÐ°
Ð° Ð²Ð¾ÐºÐ°Ð´Ð¾
Ðµ ÑĢÐµÑģ
Ð¾ ÑĤÐ½Ð¾Ð²Ð¾
Ñģ ÐµÐ»
Ñģ Ð»Ð°Ð³Ð°
Ñģ Ð²ÐµÑĤ
Ð¸ ÑģÐºÐ²Ð°
Ð¸ Ð¼Ð°Ð¹ÑĤÐµ
ÑĢ Ð¾Ð»
Ð½ ÑĥÑĢ
Ð½ Ð½Ð¾ÑģÑĤÑĤÐ°
ĠÑģ ÑĤÐ¸ÑģÐºÐ°
ĠÑģ ÑĢÑıÐ·Ð°Ñħ
Ð² a
Ð² Ñĥ
Ðº Ð³
Ðº ÑĢÐ°ÑĤ
Ñı Ð²Ñı
ÑĬ Ð±Ð²Ð°
ĠÐ¿ ÐµÐ½Ð¸
ĠÐ¸ Ð³ÑĢÐ°
ÑĤÐ° Ð¹ÑģÐºÐ¸
Ð¼ ÐºÐ°
Ñĥ Ð±Ð¸
ĠÐ½Ð° ÑĢÐ°
ĠÐ½Ð° Ð¼ÐµÑĢ
Ð¿ Ð²Ð°ÑĤÐµ
Ð¿ ÑĪÐµÐ½Ð¸
ĠÐ¾ Ð¿ÑĬ
ĠÐ¾ Ð·Ð½Ð°
Ð± ÑĬÐ±ÑĢÐµ
ĠÐ² ÑĬÐ³
ĠÐ· Ð»Ð°
Ð½Ð¾ Ð¼Ð°ÑģÐ»ÐµÐ½Ð¾
Ð³ ÑĬÑģÑĤÐ¸
Ð³ Ð»Ñĥ
ĠÐ± ÐµÐ½
ĠÐ± ÐµÑĢ
ĠÐ·Ð° ÐºÐ°
ĠÐ·Ð° ÑĨ
ĠÐ·Ð° Ð´ÐµÐ»
ĠÐ·Ð° ÑģÑĤÐµÐ»ÐµÑĤÐµ
Ð½Ð° ÑĢÑıÐ·Ð°Ð½Ð°
ÑĪ Ð¼Ðµ
ÑĪ Ð¿ÐµÐºÐ¾
Ð»Ð¸ ÑĩÐ°ÑĤ
ÑĨ Ð¾
Ñħ Ð½Ðµ
Ñħ Ð¾Ð²Ð¸
ÐºÐ¾ ÑĢÐ¸ÑĤÐµ
ĠÐ¿Ð¾ ÑĩÐ²Ð°
Ð½Ð¸ Ð¸
ÐºÐ¸ Ð²Ð¸
Ð¶ ÑĥÐ»Ð¸
ĠÐ´Ð¾ Ð¿Ð¸ÑĢÐ°
Ð²Ð¸ ÑĤÐ¸ÑĤÐµ
Ð²Ð¸ Ð¾Ð»Ð¸ÑĤÐµ
Ð¼Ð° ÐºÐ¾Ð²Ð¾
ÑĦ Ð»Ð¸ÑĤÐµ
ĠÐºÐ° ÑĤÐ°
ĠÐºÐ° Ð¿Ð½Ðµ
ĠÐºÐ° Ð¿Ð²Ð°ÑĤ
ĠÐ¾ÑĤ Ð·Ð°Ð´
Ð±Ð° Ð´Ðµ
Ð±Ð° Ð´Ð¶Ð¸
Ð±Ð° ÐºÐ¿ÑĥÐ»
Ð³Ð° ÑĢÐ¸Ñı
ÑĩÐµ Ð¼Ð¸
ÑĢÐ°Ð· ÑĤÐ¾Ð¿
Ð½Ðµ Ð¼
ÑģÑĤ ÑĬÐº
ĠÑĢÐ°Ð· Ð²Ð¸
ĠÑĢÐ°Ð· ÑģÑĤÐ¾
ĠÑĢÐ°Ð· ÐºÐ»Ð°
ĠÑĢÐ°Ð· Ð¿Ð°Ð´Ð°ÑĤ
ĠÐ¸Ð· ÑĩÐ¸
ĠÐ¸Ð· Ð³Ð¾ÑĢÑıÑĤ
ĠÐ¸Ð· Ð¿ÐµÑĩÐµÐ½Ð°ÑĤÐ°
ĠÐ¸Ð· ÑĩÐ°ÐºÐ²Ð°ÑĤ
ĠÐ¸Ð· ÐºÐ°ÑĢÐ°
ĠÐºÐ¾ Ñĩ
ĠÐŁ ÐµÑĢ
ĠÐŁ ÑĢÑĬ
ĠÐŁ Ð°Ð½
Ġ1 7
ÐµÐ» ÑıÑĤ
ĠÑĩÐµÑĢ Ð½ÐµÐ½
ĠÑģÐ¼Ðµ Ð»ÑıÑĤ
ĠÑģÐ¾Ð» ÐµÐ½Ð¸ÑĤÐµ
ĠÑģÐ¾Ð» ÐµÐ½Ð°ÑĤÐ°
ĠÑģÐ¾Ð» ÐµÐ½Ð¸Ñı
ÑģÐ¾Ð» ÐµÐ½Ð¸
ÑĬÐ» Ð³Ð°ÑĢÐ¸Ñı
ĠÐµ Ð²ÐµÐ½ÑĤÑĥ
ĠÐµ Ð´Ð°Ð¼
ĠÐ¿Ð¾Ð´ Ð³Ð¾ÑĤÐ¾
[...]
