{"<|endoftext|>":0,"!":1,"\"":2,"#":3,"$":4,"%":5,"&":6,"'":7,"(":8,")":9,"*":10,"+":11,",":12,"-":13,".":14,"/":15,"0":16,"1":17,"2":18,"3":19,"4":20,"5":21,"6":22,"7":23,"8":24,"9":25,":":26,";":27,"<":28,"=":29,">":30,"?":31,"@":32,"A":33,"B":34,"C":35,"D":36,"E":37,"F":38,"G":39,"H":40,"I":41,"J":42,"K":43,"L":44,"M":45,"N":46,"O":47,"P":48,"Q":49,"R":50,"S":51,"T":52,"U":53,"V":54,"W":55,"X":56,"Y":57,"Z":58,"[":59,"\\":60,"]":61,"^":62,"_":63,"`":64,"a":65,"b":66,"c":67,"d":68,"e":69,"f":70,"g":71,"h":72,"i":73,"j":74,"k":75,"l":76,"m":77,"n":78,"o":79,"p":80,"q":81,"r":82,"s":83,"t":84,"u":85,"v":86,"w":87,"x":88,"y":89,"z":90,"{":91,"|":92,"}":93,"~":94,"¡":95,"¢":96,"£":97,"¤":98,"¥":99,"¦":100,"§":101,"¨":102,"©":103,"ª":104,"«":105,"¬":106,"®":107,"¯":108,"°":109,"±":110,"²":111,"³":112,"´":113,"µ":114,"¶":115,"·":116,"¸":117,"¹":118,"º":119,"»":120,"¼":121,"½":122,"¾":123,"¿":124,"À":125,"Á":126,"Â":127,"Ã":128,"Ä":129,"Å":130,"Æ":131,"Ç":132,"È":133,"É":134,"Ê":135,"Ë":136,"Ì":137,"Í":138,"Î":139,"Ï":140,"Ð":141,"Ñ":142,"Ò":143,"Ó":144,"Ô":145,"Õ":146,"Ö":147,"×":148,"Ø":149,"Ù":150,"Ú":151,"Û":152,"Ü":153,"Ý":154,"Þ":155,"ß":156,"à":157,"á":158,"â":159,"ã":160,"ä":161,"å":162,"æ":163,"ç":164,"è":165,"é":166,"ê":167,"ë":168,"ì":169,"í":170,"î":171,"ï":172,"ð":173,"ñ":174,"ò":175,"ó":176,"ô":177,"õ":178,"ö":179,"÷":180,"ø":181,"ù":182,"ú":183,"û":184,"ü":185,"ý":186,"þ":187,"ÿ":188,"Ā":189,"ā":190,"Ă":191,"ă":192,"Ą":193,"ą":194,"Ć":195,"ć":196,"Ĉ":197,"ĉ":198,"Ċ":199,"ċ":200,"Č":201,"č":202,"Ď":203,"ď":204,"Đ":205,"đ":206,"Ē":207,"ē":208,"Ĕ":209,"ĕ":210,"Ė":211,"ė":212,"Ę":213,"ę":214,"Ě":215,"ě":216,"Ĝ":217,"ĝ":218,"Ğ":219,"ğ":220,"Ġ":221,"ġ":222,"Ģ":223,"ģ":224,"Ĥ":225,"ĥ":226,"Ħ":227,"ħ":228,"Ĩ":229,"ĩ":230,"Ī":231,"ī":232,"Ĭ":233,"ĭ":234,"Į":235,"į":236,"İ":237,"ı":238,"Ĳ":239,"ĳ":240,"Ĵ":241,"ĵ":242,"Ķ":243,"ķ":244,"ĸ":245,"Ĺ":246,"ĺ":247,"Ļ":248,"ļ":249,"Ľ":250,"ľ":251,"Ŀ":252,"ŀ":253,"Ł":254,"ł":255,"Ń":256,"ĠÐ":257,"Ð°":258,"Ðµ":259,"Ð¾":260,"Ñģ":261,"ÑĤ":262,"Ð¸":263,"ÑĢ":264,"Ð½":265,"ĠÑģ":266,"Ð»":267,"Ð²":268,"Ðº":269,"Ñı":270,"ĠÑģÐµ":271,"Ñĩ":272,"ÑĬ":273,"Ð²Ð°":274,"ĠÐ¿":275,"EO":276,"EOL":277,"Ð´":278,"ĠÐ¸":279,"ÑĤÐ°":280,"Ð¼":281,"Ñĥ":282,"Ð·":283,"ÑĤÐ¾":284,"ĠÐ½":285,"ĠÐ½Ð°":286,"ĠÐ¼":287,"ÐµÐ½":288,"ĠÐº":289,"Ð¿":290,"ĠÐ¾":291,"Ð±":292,"ÑĤÐµ":293,"ÑĢÐ°":294,"ĠÐ²":295,"ĠÐ³":296,"ĠÐ´":297,"ĠÐ·":298,"Ð½Ð¾":299,"Ð³":300,"ÐºÐ°":301,"ĠÑĩ":302,"ĠÐ±":303,"Ð¾Ð»":304,"ĠÐ·Ð°":305,"Ð½Ð°":306,"ÑĢÐµ":307,"ÑĪ":308,"ÑĤÐ¸":309,"Ð»Ð¸":310,"ÐµÑĢ":311,"ÑĢÐ¸":312,"Ð»Ð°":313,"ÑĨ":314,"Ñħ":315,"ÐºÐ¾":316,"ĠÐ¿Ð¾":317,"Ð½Ð¸":318,"ÑĬÑĢ":319,"ÐºÐ¸":320,"Ð¶":321,"Ð¼Ðµ":322,"ĠÐ¼Ð°":323,"ÑĢÑı":324,"ĠÐ´Ð¾":325,"Ð²Ð¸":326,"Ð´Ð°":327,"Ð²Ñı":328,"Ð¼Ð°":329,"ĠÐ»":330,"ÑĦ":331,"Ð²Ð°ÑĤ":332,"ĠÐºÐ°":333,"Ð¹":334,"00":335,"Ð»Ðµ":336,"ĠÐ¾ÑĤ":337,"Ð»Ð¾":338,"Ð±Ð°":339,"Ð¸Ð¿":340,"ÑģÑĤÐ°":341,"ĠÐ±ÑĢ":342,"ÑĢÑıÐ·":343,"Ð³Ð°":344,"ÑĩÐµ":345,"ÑĢÐ°Ð·":346,"ÑĨÐ°":347,"Ð°ÑĢ":348,"ĠÐ´Ð°":349,"Ð½Ðµ":350,"ÑģÑĤ":351,"ĠÐ½Ð°ÑĢÑıÐ·":352,"RE":353,"EP":354,"IN":355,"SEP":356,"REC":357,"ING":358,"ĠÑĢÐ°Ð·":359,".[":360,"ĠÐ¸Ð·":361,"ÑĬÑģ":362,"Ð±Ð°Ð²Ñı":363,"ĠÐºÐ¾":364,"ĠÐŁ":365,"ĠÐ¼Ð»":366,"ÐµÑģ":367,"ÑĥÐº":368,"ÐµÐ½Ð¸":369,"ĠÐ¿Ð¸Ð¿":370,"ĠÐ¿Ð¸Ð¿ÐµÑĢ":371,"ĠÑģÐ¸":372,"Ñī":373,"Ġ(":374,"ĠÑı":375,"ĠÐ¡":376,"Ġ1":377,"Ð¾ÑĤÐ¾":378,"ÐµÐ»":379,"Ð¸Ð½":380,"ÑĦÐ¸":381,"Ð¾Ð´Ð°":382,"ĠÑĩÐµÑĢ":383,"ÑĢÐ¾":384,"Ð¾ÑĢ":385,"ÑĬÐ½":386,"ÐµÐ½Ð°":387,"Ð±Ð¸":388,"ĠÑģÐ¼Ðµ":389,"ÑĥÑĪ":390,"ĠÐ²Ð¾Ð´Ð°":391,"Ð°Ð½Ð¸":392,"ĠÐ¼Ð°Ñģ":393,"ĠÑģÐ¾Ð»":394,"ÑĢÐ°ÑĪ":395,"ÑħÐ°ÑĢ":396,"50":397,"ĠÐ¼Ð¸Ð½":398,"Ð³Ð¾":399,"ĠÐ¼Ð¸Ð½Ñĥ":400,"ÑĨÐµ":401,"ÐµÑĤÐµ":402,"ÑĢÐ°ÑĪÐ½Ð¾":403,"ĠÐ»ÑĥÐº":404,"ÑģÐ¾Ð»":405,"ĠÑıÐ¹":406,"ĠÐ¼Ð¸Ð½ÑĥÑĤÐ¸":407,"ÑĬÐ»":408,"ĠÐµ":409,"ÑĬÑĢÐ¶":410,"ĠÑģÐ»Ð°":411,"ĠÑĤÐ¾":412,"ÐºÐ¾Ð»":413,"ÑĬÑĤ":414,"ĠÐ¼Ð°ÑģÐ»Ð¾":415,"ĠÐ¿ÑĢÐ¸":416,"ĠÐ¿Ð¾Ð´":417,"Ð»ÐµÐ´":418,"Ð¼Ð¸":419,"ĠÐ±ÑĢÐ°ÑĪÐ½Ð¾":420,"ĠÐ¿ÑĢÐµ":421,"ĠÐ¸Ð»Ð¸":422,"ÑĩÐµÑĤÐ°":423,"ĠÑĦ":424,"ĠÐ·Ð°ÑħÐ°ÑĢ":425,"ÑıÐºÐ¾":426,"ĠÐ¾Ð»Ð¸":427,"Ð½Ð°ÑĤÐ°":428,"ÑıÑĤ":429,"ÐµÐ½Ðµ":430,"ÑģÑĤÐ°Ð²Ñı":431,"ĠÑĤ":432,"ÑĢÑĬ":433,"ĠÑģÐ¾":434,"ĠÐ¼Ð»ÑıÐºÐ¾":435,"Ð¿Ð°":436,"ÐºÐ²Ð°":437,"Ð´Ð¸":438,"ĠÐ´Ð¾Ð¼Ð°":439,"Ð¼Ð¾":440,"ĠÐĴ":441,"ÑĨÐ¸":442,"ĠÐ¼Ð°Ð»":443,"ĠÑģÑĬÑģ":444,"ÑĥÑĢ":445,"Ð±Ð°Ð²ÑıÑĤ":446,"ĠÐºÐ°ÑĤÐ¾":447,"Ð±ÑĬÑĢ":448,"Ġ2":449,"ĠÑĤÐµ":450,"ĠÑıÐ¹ÑĨÐ°":451,"ÐºÐ¸ÑĤÐµ":452,"ĠÐŀ":453,"Ð¶Ð´Ð°":454,"ĠÑģÐ»Ð°Ð³Ð°":455,"ĠÐ½Ð°ÑĢÑıÐ·Ð°Ð½Ð¸":456,"ĠÑĤÐ°":457,"ÑĤÐ½Ð¾":458,"ĠÐ»Ð¸":459,"ĠÐ¾Ð»Ð¸Ð¾":460,"ĠÐ³Ð»Ð°":461,"Ñİ":462,"ÑģÑĤÐ¸":463,"ÑģÑĤÐ¾":464,"ÑģÐ¸":465,"ĹÐ°":466,"ÑĢÑĤÐ¾":467,"ĠÑĩÐµÑģ":468,"ĠÐ½Ðµ":469,"Ð²Ð¸Ñĩ":470,"Ð½Ð¾Ð·":471,"ĠÑģÐ¸ÑĤÐ½Ð¾":472,"ĠÐºÑĥ":473,"Ð³Ð´Ð°":474,"ÑģÐ°":475,"Ð³Ð´Ð°Ð½Ð¾Ð·":476,"ĠÑĩÐµÑĢÐµÐ½":477,"ÑıÐ²Ð°":478,"ÐµÐ½Ð¾":479,"ÑĩÐ¸":480,"ÑĥÐ»":481,"ÐºÐ¾Ð»Ð¾":482,"ÑģÐµ":483,"ĠÐ¿Ð¾Ð»":484,"Ð¿ÑĬÑĢÐ¶":485,"Ð²Ð¾":486,"ĠÑģÐ¼ÐµÑģ":487,"ĠÑĩÐ°":488,"ĠÑħ":489,"ĠÐºÐ°ÑĢÑĤÐ¾":490,"Ð»Ð½Ð¾":491,"ĠÐ¿Ðµ":492,"ĠÑģÑĤ":493,"100":494,"ĿÐ°":495,"ĠÑĩÐµÑĢÐ²":496,"ĠÐ¼ÐµÑģ":497,"Ð·Ð°":498,"ÑĢÑĬÑģ":499,"ÑĢÐµÐ½Ðµ":500,"ĠÐºÐ¸":501,"Ð²Ð°Ð»":502,"200":503,"Ð²Ðµ":504,"ĠÑĩÑĥÑĪ":505,"ĠÑĩÐµÑģÑĬÐ½":506,"ĠÐ½Ð°Ð¼Ð°":507,"Ð¶Ðµ":508,"ĠÐ¶":509,"Ð¿ÑĢÐ°":510,"ÑĩÐµÑĢ":511,"ĠÑģÐ¸ÑĢÐµÐ½Ðµ":512,"Ð²Ð°Ð¼Ðµ":513,"ĠÑĦÑĥÑĢ":514,"ĠÑĪ":515,"ĠÐ¼Ð°Ð»ÐºÐ¾":516,"Ð¾Ð»Ð¸":517,"Ð±ÑĬÑĢÐºÐ²Ð°":518,"ĠÐ¾ÐºÐ¾Ð»Ð¾":519,"ĠÐºÐ°ÑĢÑĤÐ¾ÑĦÐ¸":520,"ÑĪÐºÐ°":521,"ÑĬÐ±Ð¸":522,"ÐºÐ°ÑĤÐ¾":523,"ĠÐ°":524,"ĠÑĤÐ¸":525,"ÑģÑĤÑĬÑĢ":526,"ÑĤÐµÐ»Ð½Ð¾":527,"ĠÐ¿Ð¾ÑĢÑĬÑģ":528,"Ð±ÑĢÐµ":529,"Ð°ÑĤ":530,"ÐµÐºÐ¾":531,"ĠÐŁÐ¾":532,"ĠÐ´Ð¾ÐºÐ°ÑĤÐ¾":533,"Ð¾ÑĢÐºÐ¾":534,"ĠÐ·ÐµÐ»":535,"ĠÐµÐ´":536,"ĠÐļ":537,"ĠÐĶ":538,"ĠÐ¼Ð°Ð³Ð´Ð°Ð½Ð¾Ð·":539,")[":540,"ĠÐĿÐ°":541,"ÐºÐ°ÑĤÐ°":542,"500":543,"ĠÐ¡Ð»ÐµÐ´":544,"Ð²ÐµÑĤÐµ":545,"ÐµÑĤÐ¾":546,"ĠÐ·Ðµ":547,"ĠÐ´Ð¾Ð¼Ð°ÑĤÐ¸":548,"Ð¸Ð»Ðµ":549,"ĠÐ¼Ð¾ÑĢÐºÐ¾":550,"ĠÐ´Ð¾Ð±ÑĢÐµ":551,"ĠÐºÐ¸ÑģÐµ":552,"ĠÑģÐ»ÐµÐ´":553,"ĠÐ³ÑĬÐ±Ð¸":554,"ÑĩÑĥ":555,"ÐºÑĥ":556,"ĠÐ¾ÑģÑĤÐ°Ð²Ñı":557,"ĠÐ¾Ð±":558,"ĠÑģÑĬ":559,"ĠÑĤÐ¾Ð¿":560,"ĠÑĢÐ°Ð·Ð±Ð¸":561,"ĠÐ¿Ð°ÑĢ":562,"ĠÑģÐ²Ð°":563,"ĠÐ³Ð¾":564,"ĠÐ½Ð°ÑģÑĤÑĬÑĢ":565,"ĠÐ¿Ð¾Ð´Ð¿ÑĢÐ°":566,"ĠÐ²Ð¸":567,"ĠÐ¾ÑĢÐ¸":568,"ĠÑĤÐ¾Ð²Ð°":569,"ÑĬÑĢÑħ":570,"Ð°Ð·":571,"ĠÐºÐ°ÑĪÐºÐ°":572,"Ð¿Ð¸":573,"Ð³Ð¾ÑĢÐµ":574,"ĠÐ¾ÑģÑĤÐ°":575,"ĠÐ±Ð°":576,"Ð´ÑĥÑĪ":577,"ÑĤÑĬ":578,"ĠÑĤÐµÑģÑĤÐ¾":579,"ĠÑĦÐ¸":580,"ĠÐĶÐ¾":581,"ÑĬÐ¼":582,"ÐµÐ´":583,"ĠÐ´Ð¾Ð±Ð°Ð²Ñı":584,"ÑīÐ°":585,"ĠÑģÐ°":586,"ĠÐ»Ð¸Ð¼Ð¾":587,"ÑģÐ½Ð¾":588,"ÑĢÐµÐ´":589,"ĠÑĦÑĥÑĢÐ½Ð°":590,"ÑĩÐµÑĢÐµÐ½":591,"Ġ-":592,"Ð´ÐºÐ¸":593,"ÑĬÑĢÑħÑĥ":594,"ĠÐ³Ð»Ð°Ð²Ð°":595,"Ð·Ð½Ð¸":596,"Ð¾Ð½":597,"ÑħÑĤÐ¸":598,"Ġ3":599,"ÑĮ":600,"Ð¾Ð²Ð¸":601,"ĠÑĢÐ°Ð·Ð±ÑĬÑĢÐºÐ²Ð°":602,"ĠÐ½Ð°ÑĢÑıÐ·Ð²Ð°":603,"ĠÐ¿ÑĢÑı":604,"Ð²Ð°Ð½Ðµ":605,"ĠÑģÐ¼ÐµÑĤÐ°":606,"ĠÐ·Ð°Ð¿ÑĬÑĢÐ¶":607,"łÐ°Ð·":608,"ĠÐŁÑĢÐ¸":609,"Ð¶Ð´Ð°ÑĤ":610,"ÑģÐ¸Ð¿":611,"ĠÐ¿Ð¸Ð»Ðµ":612,"ÐµÐ½Ð¸ÑĤÐµ":613,"ĠÐºÑĥÐ±":614,"Ð½Ñģ":615,"ÐµÐ»Ð°":616,"ĠÐ½Ð°ÑĢÑıÐ·Ð°":617,"ĠÐ¾Ð³":618,"ÑĥÐ´":619,"ĠÐ·Ð°Ð´ÑĥÑĪ":620,"ĠÐºÐ°ÑĪÐºÐ°Ð²Ð°Ð»":621,"Ð¶Ð¸":622,"Ð¹ÑĤÐµ":623,"ĠÐĹÐ°":624,"ÑĢÑĥ":625,"Ð¿Ð¾":626,"ĠÐºÐ³":627,"ÐºÑĥÑģ":628,"ĠÐ½Ð°ÑĢÑıÐ·Ð²Ð°ÑĤ":629,"ĠÐ¿Ð¾Ð´Ð¿ÑĢÐ°Ð²":630,"ĠÐ¼Ð°Ð·Ð½Ð¸":631,"ĠÐ¿Ð°":632,"ĠÐ¿ÑĢÐ¾":633,"ĠÐ·Ð°Ð³":634,"Ð½Ð¸Ñı":635,"ĠÐ¾Ð³ÑĬÐ½":636,"ĺÐ·":637,"ÐĹÐ°":638,"ĠÐ¿ÑĢÑıÑģÐ½Ð¾":639,"ĠÑģÑĥ":640,"ĠÐ³Ð¾ÑĤÐ¾":641,"Ð»Ð¸Ð²Ð°":642,"ĠÐºÐ¸ÑģÐµÐ»Ð¾":643,"ĠÐ¼ÐµÑģÐ¾":644,"ĠÐ±ÑĥÐ»":645,"ÑĩÐ°":646,"Ð»Ñı":647,"Ð¡":648,"ĠÐ¶ÐµÐ»Ð°":649,"Ð³Ð°Ð½":650,"ÐºÐ¸Ð»Ð¸":651,"Ð»Ð°Ð´":652,"ÑĬÐ²":653,"ÑģÐ¸Ñĩ":654,"ÑģÑı":655,"Ð»Ð°ÑĤÐ°":656,"ÑħÑĤÐ¸Ð½":657,"ĠÑĤÐ°Ð²Ð°":658,"ĠÐ´Ð¾Ð¼Ð°ÑĤ":659,"ĠÑģÐºÐ¸Ð»Ð¸":660,"Ð¼ÐµÑģ":661,"ĠÐłÐ°Ð·":662,"ĠÐ±ÑĥÐ»ÑĮ":663,"150":664,"ĠÐ³Ð¸":665,"ĠÐ¾ÑĢÐ¸Ð·":666,"ĠÐ·Ð°Ð³ÑĢÑı":667,"ĠÐ¿ÑĬÑĢÐ¶":668,"ĠÐ²ÑĬÑĢÑħÑĥ":669,"ĠÑģÐ¼":670,"ĠÑģÐ¾Ðº":671,"ÐºÑĢÐ¸":672,"ÐµÐ½Ð´":673,"ĠÐºÑĥÐ±ÑĩÐµÑĤÐ°":674,"ÐµÐ½Ð¾ÑĤÐ¾":675,"Ð½Ð¸Ðµ":676,"ĠÑıÐ¹ÑĨÐµ":677,"ĠÐºÑĢÐ°":678,"Ð½Ð¾ÑĤÐ¾":679,"ĠÐ·ÐµÐ»ÐµÐ½":680,"ÑĤÐ¸ÑĤÐµ":681,"ÑīÐµ":682,"ÐµÑĩÐµ":683,"ĠÑĩÐµÑĢÐ²ÐµÐ½":684,"ĠÐ±ÑĢÐ°ÑĪÐ½Ð¾ÑĤÐ¾":685,"300":686,"250":687,"ĠÑģÐ¾Ñģ":688,"Ð¾Ð»Ð¸Ð¾":689,"ÑĢÐµÑħ":690,"ĠÐ¿Ð¾Ð»Ñĥ":691,"ĠÐ¿ÑĢÐ¸Ð±Ð°Ð²Ñı":692,"ĠÐ·Ð°ÑħÐ°ÑĢÑĤÐ°":693,":[":694,"ĠÐ²ÑĬÐ²":695,"ĠÐ¿ÑĢÐµÐ´":696,"ĠÐºÑĬÐ¼":697,"ĠÐ¾ÑģÑĤÐ°Ð½Ð°":698,"ĠÐŀÑĤ":699,"ĠÐ·Ð°Ð´ÑĥÑĪÐ°":700,"ĠÐ¿ÑĢÐ¸Ð±Ð°Ð²ÑıÑĤ":701,"ĠÐ½Ð°Ð¼Ð°Ð·":702,"ĠÐĺÐ·":703,"Ð¹Ð¼Ð°":704,"ÑĨÐ¸ÑĤÐµ":705,"ĠÑģÑĤÐ°":706,"ĠÐ³Ð¾Ð»":707,"ĠÑĥ":708,"Ð²Ð°ÑĢÐ¸":709,"ĠÐ½Ð°ÑĢÑıÐ·Ð°Ð½Ð¸ÑĤÐµ":710,"ÑĩÐ¸ÑģÑĤ":711,"ĠÑĩÑĥÑĪÐºÐ¸":712,"ĠÐ»ÐµÐºÐ¾":713,"ĠÐ¸Ð·Ð¼Ð¸":714,"ÑĪÐºÐ¾":715,"ĠÐ¶ÐµÐ»Ð°Ð½Ð¸Ðµ":716,"Ð²Ð°ÑĢÐ¸ÑĤÐµÐ»Ð½Ð¾":717,"20":718,"ĠÐ¼Ð¾ÑĢÐºÐ¾Ð²Ð¸":719,"ĠÐ¿ÑĢÐ¾Ð´":720,"ĠÐ¾ÑĢÐµÑħ":721,"ÐµÐ½Ð°ÑĤÐ°":722,"ĠÐ¼Ð¾":723,"Ð½Ð¾ÑģÑĤ":724,"ÑĨÐ°ÑĤÐ°":725,"ĠÐ¾Ð±ÐµÐ»":726,"ĠÐ¿ÐµÑĩ":727,"ĠÐ¸Ð·ÑģÐ¸Ð¿":728,"ĠÐ¿ÑĢÐµÑģ":729,"ĠÐľ":730,"Ð½Ð¸ÑĤÐµ":731,"ĠÐ¿Ñİ":732,"Ð¶ÐµÑĤÐµ":733,"Ð½Ð¾Ð²":734,"ĠÑĢÐµ":735,"400":736,"Ð²Ð¸ÑĩÐºÐ°":737,"ĠÐ¿ÑĢÐµÐ´Ð²Ð°ÑĢÐ¸ÑĤÐµÐ»Ð½Ð¾":738,"ĠÑģÐ¼ÐµÑĤÐ°Ð½Ð°":739,"Ð»Ð¸Ñı":740,"ĠÐ²Ð°":741,"Ð´Ð¾":742,"ĠÑģÐ¼ÐµÑģÑĤÐ°":743,"Ð²Ð¸ÑĢÐ°":744,"ĠÐ·ÐµÑħÑĤÐ¸Ð½":745,"ĠÐºÐ¾ÐµÑĤÐ¾":746,"ĠÐ¾ÑīÐµ":747,"10":748,"ĠÑģÐºÐ¸Ð»Ð¸Ð´ÐºÐ¸":749,"ĠÐ¿ÑİÑĢÐµ":750,"ĠÐ¼Ð°Ð·Ð½Ð¸Ð½Ð°":751,"ĠÐ¿ÐµÑĩÐµ":752,"Ð¾Ð´":753,"ĠÑģÐ»Ð°Ð³Ð°ÑĤ":754,"ĠÐºÐ°Ð¹Ð¼Ð°":755,"ĠÐ±ÑĥÐ»ÑĮÐ¾Ð½":756,"ÑĢÐ°ÑĤÐ°":757,"ÐŁ":758,"ÑīÐ¸Ð¿":759,"ĠÐ³Ð»Ð°Ð²Ð¸":760,"Ð´ÐµÐ»":761,"Ð½Ð°ÑĤ":762,"ĠÐ¿ÑĢÐ°":763,"Ð²Ð¸ÑĩÐºÐ¸":764,"ĠÐ¿Ð¾ÑģÑĤÐ°Ð²Ñı":765,"ĠÐ½Ð°ÑĢÐµ":766,"ÑĤÐ¾Ð¿":767,"ĠÐ½Ð°ÑģÑĤÑĬÑĢÐ³Ð°":768,"Ð·Ð¸":769,"ĠÐ´Ð¾Ð±Ð°Ð²ÑıÑĤ":770,"ĠÐ³ÑĢÐ°":771,"ÐµÐ½Ð¸Ñı":772,"ĠÐ²ÑĢÑĬ":773,"ĠÐ±Ñı":774,"ĠÐ¿Ð¾ÑĢÑĬÑģÐ²Ð°":775,"Ð»ÐµÑĤÐ°":776,"Ð¼ÐµÑĢ":777,"ÑģÐºÐ°":778,"ĠÐ²ÐºÑĥÑģ":779,"ĠÑĢÐ¸":780,"ĠÐ¿Ð¾Ð»Ð¾Ð²Ð¸":781,"ÑĩÐµÐ½":782,"ĠÐ²Ð°Ð½Ð¸":783,"ĠÐ¾Ð»Ð¸Ð¾ÑĤÐ¾":784,"ÑĬÐ»ÑĤÑĬ":785,"ĠÐ¾Ð¼Ðµ":786,"ĠÑģÐ²Ð°ÑĢÑı":787,"ĠÐ¿Ð¾ÐºÑĢÐ¸":788,"ĠÐ¢":789,"ÑĥÐºÐ°":790,"ĠÑģÐ¾Ð»ÑĤÐ°":791,"ĠÐ·ÐµÐ»ÐµÐ½ÑĩÑĥ":792,"Ġ10":793,"ÐµÐ¼Ð¸":794,"ĠÐŁÐµÑĩÐµ":795,"ĠÐ¿ÑĢÐ¾Ð´ÑĥÐº":796,"ÐµÐ·":797,"Ð²ÑĬÑĢ":798,"ĠÑıÐ¹ÑĨÐ°ÑĤÐ°":799,").":800,"ĠÑĤÐµÐ½Ð´":801,"ĠÐ¸Ð·Ð²Ð°":802,"Ð±ÑĢÐ¸":803,"Ð³Ð°ÑĤÐ¾":804,"80":805,"ĠÐ¼Ð°ÑģÐ»Ð¾ÑĤÐ¾":806,"Ð±Ð¾":807,"Ð±Ð°Ð²ÐµÑĤÐµ":808,"ĠÐ´ÑĢÑĥ":809,"ĠÑĤÐ°Ð²Ð¸ÑĩÐºÐ°":810,"ĠÐ½Ð°ÑĢÑıÐ·Ð°Ð½":811,"Ð¾ÐºÐ¾Ð»":812,"Ġ5":813,"ĠÐ¿Ð°ÑĢÑĩÐµÑĤÐ°":814,"Ð¸ÑĤÐµ":815,"ĠÑĦÐ¸Ð»Ð¸":816,"ÑĢÐµÐ±":817,"ĠÑĢÐ°":818,"ÑīÐ¸Ð¿ÐºÐ°":819,"ĠÐ¼ÐµÑģÐ¾ÑĤÐ¾":820,"Ð¿ÑĬÑĢ":821,"ĠÑĤÐ¸Ðº":822,"ÑĬÑĢÐºÐ°":823,"ĠÐ²Ð¾Ð´Ð°ÑĤÐ°":824,"ĠÐ¶ÑĬÐ»ÑĤÑĬ":825,"ÑĪÐºÐ¸":826,"ĠÑģÑĤÑĢÑĬ":827,"ÑĢÐ°ÑĤ":828,"ĠÐ·Ð°Ð³ÑĢÑıÑĤÐ°":829,"Ð»Ð°Ð³Ð°":830,"Ð³Ð¾ÑĤ":831,"Ð¿Ðµ":832,"Ð»Ð¾ÑĤÐ¾":833,"ĠÐ¿Ð¾Ð´Ð¿ÑĢÐ°Ð²ÐºÐ¸ÑĤÐµ":834,"ĠÐļÐ¾":835,"ĠÐ±Ð¾":836,"Ð»Ð°Ð´Ð¸":837,"ĠÐ²ÑģÐ¸Ñĩ":838,"ĠÐ¿Ð¾ÑģÐ¾Ð»":839,"ÐµÐ´Ð½Ð¾":840,"ĠÐ¼Ð¾Ð¶Ðµ":841,"ĠÑĤÐµÐ½Ð´Ð¶Ðµ":842,"Ġ4":843,"ĠÐŁÐ¾Ð´":844,"ĠÐ±Ð¸":845,"ĠÐ²Ð¸Ð½Ð¾":846,"ĠÐ·Ð°ÐµÐ´Ð½Ð¾":847,"ÐĴ":848,"ĠÐ¿Ð»":849,"ĠÑģÑĥÑħ":850,"Ð½Ñı":851,"ĠÑĦÐ¾ÑĢ":852,"Ð²Ð°ÑĤÐ°":853,"Ð²Ð¸Ð½Ñģ":854,"ÐºÐ¾Ð»ÐºÐ¾":855,"ĠÐ¸Ð·ÑģÐ¸Ð¿Ð²Ð°":856,"ĠÑģÐ²Ð°ÑĢ":857,"ĠÐ²ÑĢÑĬÐ·":858,"Ð½Ð¾Ð³Ð¾":859,"Ð±ÑĢÐ¸ÑĨÐ°":860,"ĠÐºÑĥÐ¿Ð°":861,"ĠÐ»ÑĥÐºÐ°":862,"ĠÐ¡Ð»Ð°Ð³Ð°":863,"Ð¼ÐµÑģÐ²Ð°":864,"ÐºÐ²Ð°ÑĤ":865,"ĠÐ±Ð°Ðº":866,"ĠÑĨÐµ":867,"ÑĩÐºÐ°":868,"ĠÐºÐ¾ÑĢÐ¸":869,"ĠÐ´ÑĢÐµÐ±":870,"Ðļ":871,"Ð¾ÐºÐ¾Ð»Ð°":872,"ĠÑĤÑĬÐ½":873,"ĠÑģÑĬÐ´":874,"ĠÐ¼Ð½Ð¾Ð³Ð¾":875,"ĠÐ½Ð°ÑĢÑıÐ·Ð°Ð½Ð¸Ñı":876,"Ð¿ÑĥÐ»":877,"ĠÐºÐ¾ÑĤ":878,"ĠÐ·Ð°Ð¿ÑĬÑĢÐ¶Ð²Ð°":879,"ĠÐ¸Ð·ÑģÑĤÐ¸":880,"ĠÐºÑĢÐµ":881,"ĠÐºÐ¾Ð»":882,"ĠÐºÐ°ÑĢÑĤÐ¾ÑĦÐ¸ÑĤÐµ":883,"Ð»Ð¸ÑĤÐµ":884,"ĠÐ´ÑĬÐ»":885,"ĠÐ±Ð°ÐºÐ¿ÑĥÐ»":886,"ĠÐ¾ÑĨÐµ":887,"ÑĪÐ°":888,"ĠÐ³Ð¾ÑĤÐ¾Ð²":889,"ÑĩÐºÐ¸":890,"ĠÐ»Ð¸Ð¼Ð¾Ð½":891,"ĠÑĤÑı":892,"ÐºÐ°ÑĤ":893,"ĠÐ½Ñı":894,"Ð¼Ð°Ð³Ð´Ð°Ð½Ð¾Ð·":895,"ĠÑĩÐ¸":896,"Ð´Ñĥ":897,"ĠÐºÑĢÐ°ÑģÑĤÐ°":898,"ĠÐĳ":899,"ĠÐ±ÑĬÑĢÐºÐ°":900,"ÑĦÐ¾ÑĢ":901,"ĠÐ·Ð°Ð»Ð¸Ð²Ð°":902,"ĠÐ½ÐµÐ³Ð¾":903,"ĠÐĶÐ¾Ð±Ð°Ð²Ñı":904,"ĠÐºÑĢÑĬ":905,"ĠÑĩÑĥÑĪÐºÐ°":906,"ĠÐ²Ð°Ð½Ð¸Ð»Ð¸Ñı":907,"ĠÑģÐ²Ð¸Ð½Ñģ":908,"ĠÑĤÐµÑģÑĤÐ¾ÑĤÐ¾":909,"ĠÐ¿Ð¾ÑĩÐ¸ÑģÑĤ":910,"ĠÐ·Ð°Ð´ÑĥÑĪÐ°Ð²Ð°":911,"ĠÐļÐ¾Ð³Ð°ÑĤÐ¾":912,"ĠÐ¾ÑĤÐ³Ð¾ÑĢÐµ":913,"ĠÐ¿Ð¾Ñģ":914,"ĠÐ·Ð°Ð»Ð¸":915,"ĠÐŀÑģÑĤÐ°Ð²Ñı":916,"30":917,"ĠÐ¼Ð°Ð»ÐºÐ¸":918,"ÐºÑĢÐ°":919,"ÑģÑĤÐ¸ÐµÑĤÐ¾":920,"Ð½Ð°ÑģÑı":921,"Ġ30":922,"ĠÐ³Ð¾ÑĢÐµ":923,"Ðľ":924,"ĠÑģÐ¿Ð°":925,"Ð¹Ð¾":926,"ĠÑĩÑĥ":927,"ĠÐºÐ¾Ð½Ñģ":928,"ĠÐ»ÑĬ":929,"ĠÑĨ":930,"Ð»Ð½Ð¸":931,"Ð»Ð¸Ð½Ð°":932,"ĠÐºÐ¾ÑĤÐ»Ð¾":933,"ÑĢÐµÐ¼Ðµ":934,"ĠÐ»ÑĬÐ¶Ð¸":935,"ĠÑĪÐ¾ÐºÐ¾Ð»Ð°":936,"Ð»Ð°Ð´Ð¶":937,"ĠÐ¿ÑĢÐ¾Ð´ÑĥÐºÑĤÐ¸":938,"ĠÐ±Ñĥ":939,"ĠÑĤÐ¸Ð³Ð°Ð½":940,"ĠÐŁÑĢÐ¸Ð±Ð°Ð²ÑıÑĤ":941,"ĠÐ·ÐµÐ»Ðµ":942,"ĠÑĤÑıÑħ":943,"Ð°ÑĤÐ»Ð°Ð´Ð¶":944,"ÑĤÐ¸Ñı":945,"ĠÐ²ÑĢÑĬÐ·ÐºÐ°":946,"ĠÐ²ÑĢÐµÐ¼Ðµ":947,"ĠÑĢÐ°Ð·Ð±ÑĬÑĢ":948,"ĠÑĥÐ¼ÐµÑĢ":949,"ĠÐ»Ñİ":950,"ĠÐ»Ð¸ÑģÑĤÐ°":951,"ĠÐ¼Ð¾ÑĢÐºÐ¾Ð²":952,"ĠÑĦÑĥÑĢÐ½Ð°ÑĤÐ°":953,"ĠÐ¿Ð»ÑĬÐ½":954,"ĠÐ¿Ð°ÑĢÑĩÐµÐ½":955,"ÑĢÐ°Ð½Ð¸":956,"Ð²ÑĢÐ¸":957,"ÑĪÐ¸":958,"ĠÑĩÐ°ÑģÑĤ":959,"Ð¹Ð¾Ð½Ðµ":960,"ĠÐ³Ð°":961,"ĠÑģÑĤÑĥÐ´":962,"ĠÐºÐ¾Ð¿ÑĬÑĢ":963,"ĠÑĤÐµÐ½Ð´Ð¶ÐµÑĢÐ°":964,"ĠÑĩÐ°Ñģ":965,"ĠÐ³ÑĬÐ±Ð¸ÑĤÐµ":966,"ĠÐ²Ð°ÑĢÐ¸":967,"ĠÑħÐ»Ð°Ð´Ð¸":968,"ĠÑħÐ»Ð°Ð´Ð¸Ð»Ð½Ð¸":969,"ĠÑĢÐ¾":970,"ĠÐ½ÑıÐºÐ¾Ð»ÐºÐ¾":971,"ĠÐºÑĢÑĬÐ³":972,"ĠÐ±ÐµÐ»":973,"ĠÐ¸Ð·Ð±":974,"ÐµÑĤ":975,"ĠÐ½Ð¾":976,"ĠÑĩÐ°ÑģÐ°":977,"Ð¹Ð¾Ð½ÐµÐ·Ð°":978,"ĠÐ¸Ð·Ð¿ÑĬÑĢÐ¶":979,"ÑĦÐ¾ÑĢÐ¼":980,"ÑĥÐ¿":981,"ĠÐ¼Ð¸":982,"Ġ200":983,"ĠÐ±ÐµÐ·":984,"ĠÑĢÐ°Ð·Ð±Ð¸Ð²Ð°ÑĤ":985,"Ð²Ð°ÑĢÑı":986,"ĠÐ¿ÑĢÐ¸Ð³Ð¾ÑĤ":987,"ĠÐºÐ¾Ð½ÑģÐµÑĢ":988,"ĠÐ¾ÑĤÑĨÐµ":989,"ĠÐ¿ÑĢÐµÑģÐµÐ½":990,"ĠÐ¿ÑĬÐ»":991,"Ġ20":992,"Ð¿Ð¸ÑĩÐ°":993,"ĠÐ¿ÑĥÐ´":994,"ĠÐĵ":995,"Ð»Ð°ÑĤÐ¸":996,"ĠÐ³Ð¾Ð»Ñı":997,"ĠÐ»Ð¸ÑģÑĤ":998,"ĠÐ¼Ð°Ñı":999,"ĠÐ³Ð¾Ð»ÐµÐ¼Ð¸":1000,"ĠÑħÐ»Ñı":1001,"ĠÐ½Ð°ÑĤ":1002,"ĠÐ³Ð°Ð»ÐµÑĤÐ°":1003,"ÑıÐ²Ð°ÑĤ":1004,"ĠÑĦÐ¾ÑĢÐ¼Ð°":1005,"Ð²ÐµÑĢ":1006,"ÑĥÐ½":1007,"ÑīÐ¾":1008,"ĠÐ´Ð¶":1009,"ĠÐ¾Ð±ÐµÐ»Ð²Ð°ÑĤ":1010,"ĠÐºÐ¾ÑĤÐ»Ð¾Ð½Ð°":1011,"ÑĨÐ°ÑĢÐµ":1012,"ĠÐ¾Ð³ÑĬÐ½Ñı":1013,"ÑĤÐ¾ÑĤÐ¾":1014,"ĠÐĶÐ¾Ð±Ð°Ð²ÑıÑĤ":1015,"Ð´ÐºÐ°":1016,"ĠÐ¿Ð¸Ð»ÐµÑĪÐºÐ¸":1017,"ĠÐºÐ¾ÑĢÐ°":1018,"ÑĥÑĢÐ°":1019,"ĠÐ¼Ð°Ð¹Ð¾Ð½ÐµÐ·Ð°":1020,"ĠÐ¾ÑĨÐµÑĤ":1021,"Ð±Ðµ":1022,"ĠÐ¯":1023,"ÐºÑģ":1024,"ĠÐºÐ°Ð¿Ð°":1025,"ĠÐ³Ð¾ÑĤÐ¾Ð²Ð½Ð¾ÑģÑĤ":1026,"ÑģÐ¾Ð»ÐµÐ½Ð°":1027,"ĠÐ¸Ð·Ð±Ð¾ÑĢ":1028,"Ð¹ÐºÐ¸":1029,"ÐºÑĢÐ°Ñı":1030,"ĠÐ¾Ð¼ÐµÐº":1031,"Ð²Ð¸Ñı":1032,"ĠÑĩÑĥÐ±ÑĢÐ¸ÑĨÐ°":1033,"Ġ15":1034,"Ð²Ð¸ÑĤÐµ":1035,"ĠÐ³Ð¾ÑĢ":1036,"ĠÐ¼Ð°ÑģÐ»Ð¸":1037,"ĠÐ¡Ð¼Ðµ":1038,"ĠÐ·Ð»Ð°ÑĤÐ¸":1039,"ĠÑĢÐ°Ð·ÑĤÐ¾Ð¿":1040,"Ġ180":1041,"ĠÐ¿Ð°ÑĢÑĩÐµÐ½ÑĨÐ°":1042,"60":1043,"Ð²ÑıÑĤ":1044,"ÑģÐºÐ¾":1045,"ĠÐ¼Ð»ÑıÐºÐ¾ÑĤÐ¾":1046,"ĠÑģÐ»Ð¾":1047,"ĠÐ¿Ð¾Ð´ÑģÐ¾Ð»ÐµÐ½Ð°":1048,"ĠÐ¿ÐµÑĩÐµÐ½Ðµ":1049,"ĠÑģÑĤÑĢÑĬÐºÐ°":1050,"ĠÑĪÐ¾ÐºÐ¾Ð»Ð°Ð´":1051,"Ð½Ð°Ðº":1052,"Ð°Ñģ":1053,"ĠÐ½Ð°ÑĢÐµÐ¶Ð´Ð°ÑĤ":1054,"ĠÐŁÑĢÐ¸Ð±Ð°Ð²Ñı":1055,"ĠÑģÐ¾Ð´Ð°":1056,"25":1057,"ĠÑģÐµÑĢ":1058,"ĠÑħÐ»ÑıÐ±":1059,"ĠÑģÐµÑĢÐ²Ð¸ÑĢÐ°":1060,"Ð±Ð²Ð°":1061,"Ð¸ÑĤÐ¾":1062,"Ð±ÑĬÐ»":1063,"ĠÐ¿Ð°ÑĤÐ»Ð°Ð´Ð¶":1064,"ĠÐŁÐ¾ÑĢ":1065,"Ð°Ð½":1066,"40":1067,"Ð½Ð¾Ð²Ð¾":1068,"Ðŀ":1069,"ĠÑģÐ¾ÑģÐ°":1070,"ĠÑĤÐ°ÐºÐ°":1071,"ÐĿÐ°":1072,"ĠÐµÐ´ÑĢÐ¾":1073,"ĠÑģÐ¼ÐµÑģÐ²Ð°ÑĤ":1074,"ÐºÑĬÑģ":1075,"ĠÑĢÐ¸Ð±Ð°":1076,"ĠÑĥÐ¼ÐµÑĢÐµÐ½Ð°":1077,"ĠÐ±ÐµÐ»ÑĤÑĬ":1078,"Ð¿ÑĢÐµ":1079,"ÐµÐ½Ð¸ÑıÑĤ":1080,"ÑĢÑıÐ±Ð²Ð°":1081,"ĠÑĪÑĥÐ½":1082,"ĠÐ¾Ð²":1083,"ÑĩÐµÑĤÐ°ÑĤÐ°":1084,"ĠÐ¡Ð¼ÐµÑģÑĤÐ°":1085,"ĠÐ¿ÑĢÐ°Ð·":1086,"ĠÐŁÐ¾ÑĢÑĬÑģ":1087,"ĠÐ±ÑıÐ»Ð¾":1088,"ĠÑģÐ¼ÐµÑĤÐ°Ð½Ð°ÑĤÐ°":1089,"ĠÐ¿Ð¾Ð´Ð¿ÑĢÐ°Ð²ÐºÐ¸":1090,"Ð°ÑĢÑĤÐ¾":1091,"ĠÑħÐ°ÑĢ":1092,"ĠÐ´Ð¾Ð¼Ð°ÑĤÐ¸ÑĤÐµ":1093,"Ð·Ð²Ð°":1094,"ĠÐŁÑĢÐµ":1095,"ĠÐ¿Ð¸Ð»ÐµÑĪÐºÐ¾":1096,"Ð´Ðµ":1097,"Ð³Ð¾ÑĢÐµÑī":1098,"ĠÑĤÑĬÐ½ÐºÐ¸":1099,"ĠÐ¾Ð²Ð°Ð»":1100,"ÑģÐ¾":1101,"ĠÐ³ÑĢÐ°Ñħ":1102,"ĠÐ¾ÑĢÐ¸Ð·Ð°":1103,"ĠÐ½Ð°ÑģÑĤÑĬÑĢÐ³":1104,"Ð¿ÑĬÐ»":1105,"ĠÐºÐ¾Ð¸ÑĤÐ¾":1106,"ĠÐºÐ¾Ð½ÑģÐµÑĢÐ²Ð°":1107,"ĠÐºÐ°Ð½Ðµ":1108,"Ð¿ÑĢÐµÐ´":1109,"ÑĩÑĥÐºÐ°":1110,"ĠÐłÐ°Ð·Ð±ÑĬÑĢÐºÐ²Ð°":1111,"ÑĦÐ¸ÑĤÐµ":1112,"Ð·Ðµ":1113,"ĠÑĦÐ¸Ð»Ð¸Ð¹ÐºÐ¸":1114,"ĠÐ´ÑĢÐµÐ±Ð½Ð¾":1115,"ĠÐ¾ÑĤÐ½Ð¾Ð²Ð¾":1116,"ĠÑĩÐµ":1117,"ĠÐ¿Ð¾ÑģÐ¾Ð»ÑıÐ²Ð°":1118,"ĠÑģÐ²Ð°ÑĢÑıÐ²Ð°ÑĤ":1119,"Ð°ÑĢÑĤÐ¾ÑĦÐ¸ÑĤÐµ":1120,"ĠÐ´Ðµ":1121,"),":1122,"ĠÑħÐ°ÑĢÑĤÐ¸Ñı":1123,"ĠÐ½Ð°ÑĤÑĢÐ¾":1124,"ĠÑĢÐµÐ´":1125,"ÐµÑģÐ¾ÑĤÐ¾":1126,"ĠÐ¾ÑĦÐ¾ÑĢÐ¼":1127,"600":1128,"ÑĢÐµÐ¶Ð´Ð°ÑĤ":1129,"ĠÐºÐ°ÐºÐ°":1130,"Ð²ÐµÐ½":1131,"ÑĥÐºÑĬÑĤ":1132,"ÐºÐ¾ÑĤÐ¾":1133,"ĠÐ¿Ð°Ðº":1134,"ÑīÐ°ÑĤÐ°":1135,"ÑħÐ»":1136,"ĠÐ»ÑĬÐ¶Ð¸ÑĨÐ°":1137,"ĠÐ½Ð°Ð¼Ð°Ð·Ð°":1138,"ÑĢÑıÑĤ":1139,"ĠÐ±Ð°ÐºÐ¿ÑĥÐ»Ð²ÐµÑĢ":1140,"ĠÑĦÐ¸Ð»Ðµ":1141,"ĠÐ·Ð°Ð¿ÑĬÑĢÐ¶Ð²Ð°ÑĤ":1142,"ĠÐ¿Ð»Ð¾":1143,"ĠÑıÐ±ÑĬÐ»":1144,"ÑĢÐ°Ð½":1145,"ÑģÑıÐºÐ°":1146,"ĠÐ¿ÑĥÐ´ÑĢÐ°":1147,"ĽÑĥÐºÑĬÑĤ":1148,"ĠÐ²ÑģÐ¸ÑĩÐºÐ¸":1149,"ĠÐ·Ð°Ð»Ð¸Ð²Ð°ÑĤ":1150,"ĠÐ¿Ð»ÑĬÐ½ÐºÐ°ÑĤÐ°":1151,"ÑĤÐ°ÑĤÐ°":1152,"ĠÐ¼Ð°ÑĢÐ¸":1153,"ĠÐ¼Ð°Ð·Ð½Ð¸Ð½Ð°ÑĤÐ°":1154,"ĠÐĲ":1155,"ÑĢÐ¸Ð½":1156,"ĠÑĤÐµÐ»Ðµ":1157,"ĠÑģÑĤÐ°Ð½Ðµ":1158,"15":1159,"ĠÐ´Ð°ÑĦÐ¸":1160,"ĠÐºÐ°Ð¹Ð¼Ð°ÑĤÐ°":1161,"ĠÐŀÑĤÐ³Ð¾ÑĢÐµ":1162,"ĠÐ¼Ð°ÑĢ":1163,"ĠÐ´Ð²Ðµ":1164,"ĠÐµÐ´Ð½Ð¾":1165,"Ð½ÐµÐ½Ð°":1166,"ĠÑĨÐ°ÑĢÐµ":1167,"ĠÐ·Ð°Ð´ÑĥÑĪÐ°Ð²Ð°ÑĤ":1168,"ĠÑĢÐ°Ð·ÑĤÐ¾":1169,"ĠÑĢ":1170,"Ð²Ð¸ÑĩÐºÐ¸ÑĤÐµ":1171,"ĠÑģÑĤÑĥÐ´ÐµÐ½Ð°":1172,"ÑĢÐ°Ð½Ð°":1173,"ĠÐ³Ð¾ÑĢÑĩÐ¸":1174,"ĠÐ¾ÑĢÐµÑħÐ¸":1175,"ĠÑģÑĤÐµ":1176,"ĠÐ´ÑĢÑĥÐ³":1177,"ĠÑģÑĩÑĥÐºÐ°":1178,"ĠÑĤÑĢÑıÐ±Ð²Ð°":1179,"ÑıÑĤÐ¾":1180,"Ð¾Ð±":1181,"ĠÑĢÐ°Ð·ÑĤ":1182,"ĠÑĩÑĥÑĪÐºÐ¸ÑĤÐµ":1183,"ĠÐºÐ¸ÑģÐµÐ»Ð¾ÑĤÐ¾":1184,"ĠÐ½Ð°ÑĢÑıÐ·Ð°Ð½Ð¸ÑıÑĤ":1185,"Ð¸Ð¿Ð²Ð°":1186,"ĠÐ¾ÑģÑĤÐ°Ð²ÑıÑĤ":1187,"ĠÐĴÑģÐ¸Ñĩ":1188,"Ð½Ð¸Ð¼Ð°":1189,"ĠÐ¾ÑĤÐ´ÐµÐ»":1190,"ĠÐ½ÐµÑı":1191,"ÑĩÐ°ÑĤ":1192,"ĠÐ´ÑĬ":1193,"ÑĬÐ½Ð°":1194,"ĠÐ¿Ð¾ÑĢÑĬÑģÐ²Ð°ÑĤ":1195,"ĠÐ»Ð¸Ð¼Ð¾Ð½Ð¾Ð²":1196,"ĠÑĩÐ¸Ð½Ð¸Ñı":1197,"ĠÐ¾ÑģÑĤÐ°Ð½Ð°Ð»Ð¸ÑĤÐµ":1198,"ĠÐ¿Ñĥ":1199,"ÑģÐ¸Ð»Ðµ":1200,"ĠÐ½Ð°Ð¼Ð°Ð·Ð²Ð°":1201,"ÑĩÐ²Ð°":1202,"ĠÐ´Ð¾Ð¼Ð°ÑĤÐµÐ½Ð¾":1203,"ĠÑıÐ´ÐºÐ¸":1204,"ĠÑĤÐµÑĩ":1205,"ÑĥÐ±Ð°":1206,"ĠÐ³ÑĢÐ°Ð´Ñĥ":1207,"ĠÐ±ÐµÐºÐ¾":1208,"ĠÑģÐ³Ð¾ÑĢÐµÑī":1209,"ĠÐµÐ´Ð½Ð°":1210,"ĠÑĢÐ°Ð·Ð±Ð¸Ð²Ð°":1211,"ĠÐºÐ¾ÑıÑĤÐ¾":1212,"ĠÐ½Ð°ÑģÑĤÑĬÑĢÐ³Ð°Ð½":1213,"ÑĬÐº":1214,"ĠÑĦÐ¾Ð»Ð¸Ð¾":1215,"ÑģÐº":1216,"ĠÐ¸Ð·Ð¼Ð¸Ð²Ð°ÑĤ":1217,"ĠÑĢÐ°ÑģÑĤÐ¸":1218,"ĠÐ·Ð»Ð°ÑĤÐ¸ÑģÑĤÐ¾":1219,"ĠÐ³ÑĢÐ°Ð´ÑĥÑģÐ°":1220,"ÐµÐ²":1221,"ĠÐ¿Ð¾Ð»Ð¾Ð²Ð¸Ð½Ð°ÑĤÐ°":1222,"Ð¾Ð½Ð°":1223,"ĠÑģÐ³":1224,"ĠÐ»Ð¸Ð¼Ð¾Ð½Ð¾":1225,"ĠÐºÑĢÐ¾":1226,"ÑĢÑıÐ·Ð²Ð°ÑĤ":1227,"Ð¼Ð¸Ð¾Ð½":1228,"Ð¸ÑĪ":1229,"ĠÐ¼Ð°ÑģÐ»Ð¸Ð½Ð¸":1230,"ĠÐ¿ÑĬÑĢÐ¶ÐµÐ½Ðµ":1231,"ĠÐ¸Ð·ÑģÑĤÐ¸Ð½Ðµ":1232,"ĠÐºÑĢÐµÐ¼":1233,"ĠÐºÑĢÑĬÐ³ÑĩÐµÑĤÐ°":1234,"ĠÐºÐ°ÑĦ":1235,"ĠÑĪÑĥÐ½ÐºÐ°":1236,"ĠÐ¿Ð¾Ð´Ð½Ð°ÑģÑı":1237,"Ð»ÐµÐ½Ð°":1238,"ĠÑģÐ¼ÐµÑģÐ²Ð°":1239,"ĠÐ²Ð¸Ð½Ð¾ÑĤÐ¾":1240,"Ð»Ð°ÑĤ":1241,"Ð²Ð¸Ð²Ð°":1242,"Ð´Ð°ÑĤÐ°":1243,"ĠÑĤÐ¸ÐºÐ²Ð¸ÑĩÐºÐ¸":1244,"ĠÐ³Ð¾Ð»ÑıÐ¼Ð°":1245,"ĠÐ¸Ð·Ð¿":1246,"ĠÑħÑĥÐ±Ð°":1247,"ÑģÐºÐ²Ð¸":1248,"Ð¸Ð»Ð¸":1249,"Ð¿ÑĢÐµÐ´ÐµÐ»":1250,"ĠÑĩÐµÑģÑĬÐ½Ð°":1251,"Ð½ÐµÑĤÐ¾":1252,"ĠÑģÐ¸ÑĢÐµÐ½ÐµÑĤÐ¾":1253,"ÑĥÐºÑĢÐ°":1254,"ĠÐ½Ð°Ð¼Ð°Ð·Ð°Ð½Ð°":1255,"ĠÐ·Ð°Ð²ÑĢÐ¸":1256,"Ð½Ð¸ÑıÑĤ":1257,"ĠÑģÐ²Ð¸Ð½ÑģÐºÐ¾":1258,"ĠÐ´Ð¾Ð±Ð°Ð²ÑıÐ¼Ðµ":1259,"ĠÐļÑĬÐ¼":1260,"ĠÑĤÐ¾Ð¿Ð»Ð°":1261,"ĠÑĥÐºÑĢÐ°":1262,"ĠÐºÑĢÐ°ÑģÑĤÐ°Ð²Ð¸ÑĩÐºÐ¸":1263,"Ð¾Ð´Ð¶":1264,"ĠÐ»ÑĥÐºÑĬÑĤ":1265,"ĠÐ¿Ð°ÑģÐ¸":1266,"Ð³Ð½Ðµ":1267,"ĠÐ´Ð¾Ð±Ð°Ð²ÐµÑĤÐµ":1268,"ĠÐ´ÑĬÐ»Ð±Ð¾":1269,"ĠÐºÑĬ":1270,"Ð¾ÐºÐ¾Ð»Ð¾":1271,"ÐµÑĢÐºÐ°":1272,"ĠÐ¼Ðµ":1273,"ĠÐ¿Ð¾Ð»ÑĥÑĩÐ¸":1274,"Ð°ÑĢÐ½Ð¸":1275,"ÐµÑĢÐ²Ð¸ÑĢÐ°":1276,"ĠÐļÐ°":1277,"ĠÑĪÐ°":1278,"800":1279,"ĠÐ³Ð¾ÑĢÐµÑīÐ°":1280,"Ð³Ðµ":1281,"Ð¾Ð²Ð°":1282,"ĠÐ¼ÐµÐºÐ¾":1283,"ÐµÐ½ÑĤÐ¸":1284,"ĠÑĢÐ°ÑģÑĤÐ¸ÑĤÐµÐ»Ð½Ð¾":1285,"ĠÑīÐ¸Ð¿ÐºÐ°":1286,"Ð¶Ð°":1287,"ĠÑĢÐ°Ð·Ð±ÑĬÑĢÐºÐ²Ð°ÑĤ":1288,"ĠÐ¿Ð¾ÑģÑĤÐ°Ð²ÑıÑĤ":1289,"ÑİÑĦ":1290,"Ð¼Ð¸Ð´":1291,"ĠÐ¾Ñħ":1292,"ÑģÐ¸Ð»ÐµÐº":1293,"ĠÐ¸Ð·Ð¼Ð¸Ð²Ð°":1294,"ĠÐ¾Ð¼ÐµÐºÐ²Ð°":1295,"ĠÐ²Ð½Ð¸Ð¼Ð°":1296,"ĠÐ»Ðµ":1297,"ĠÐ·ÑĬÑĢ":1298,"ĠÐ¿ÑĢÐµÑģÑĤÐ¾":1299,"ĠÐ´ÑĬÐ½Ð¾ÑĤÐ¾":1300,"ĠÐ¡ÐµÑĢÐ²Ð¸ÑĢÐ°":1301,"ĠÑģÐ¸ÑĢÐ¾":1302,"ĠÐ²ÑģÑıÐºÐ°":1303,"ĠÑģÑĢÐµÐ´":1304,"ÑħÐ¾Ð´":1305,"ÐºÐ¸Ñģ":1306,"ĠÑħÑĥÐ±Ð°Ð²Ð¾":1307,"Ð²Ð¸ÑĨÐ°":1308,"ĠÑĢÐµÐ·":1309,"ÑħÐ¾Ð´Ñı":1310,"ĠÐºÑĢÐ¾Ð¼Ð¸Ð´":1311,"ĠÑģÐ¿Ð°Ð½Ð°Ðº":1312,"ÐºÐ°Ð¹ÑĤÐµ":1313,"ĠÐ¿ÑĢÐµÐ´Ð¸":1314,"ĠÐĴÑĬÑĢÑħÑĥ":1315,"ĠÑĢÑĥ":1316,"Ð²ÐºÐ¸":1317,"ÑĥÑĢÐºÐ°":1318,"Ð»ÐµÑĤÐµ":1319,"ĠÐ¿ÐµÐºÐ°ÑĤ":1320,"ĠÐ·Ð°ÑĩÐµÑĢ":1321,"ĠÐ²ÑĢÑı":1322,"ĠÐ½Ð°ÑĤÑĢÐ¾ÑĪ":1323,"ĠÐ²ÑĤÐ°":1324,"ĠÐĺÐ·Ð²Ð°":1325,"ĠÐ½Ð°Ð´":1326,"ĠÑıÐ¹ÑĨÐµÑĤÐ¾":1327,"ĠÐºÐ°Ð¿Ð°Ðº":1328,"ĠÑģÑĢÐµ":1329,"ĠÐ¼Ð¾ÑĢÐºÐ¾Ð²Ð¸ÑĤÐµ":1330,"ÐºÐ¾Ð²":1331,"ĠÐĿÐ°ÐºÑĢÐ°Ñı":1332,"ÑĩÐ¸Ð½":1333,"ĠÑĩÐµÑĢÐ²ÐµÐ½Ð¸":1334,"ÑĢÐµÐ½":1335,"ĠÑĤÐ°Ð²Ð°ÑĤÐ°":1336,"ĠÑħÐ»Ð°Ð´Ð¸Ð»Ð½Ð¸Ðº":1337,"ĠÑģÑĬÑīÐ¾":1338,"ĠÐ°ÐºÐ¾":1339,"Ð¾ÑĤ":1340,"ĠÐ¯ÑģÑĤÐ¸ÐµÑĤÐ¾":1341,"ĠÑıÑģÑĤÐ¸ÐµÑĤÐ¾":1342,"ĠÑģÐ»Ð°Ð´":1343,"ĠÐ¿Ð¾Ð»ÑĥÑĩÐ°":1344,"Ð¾Ð´Ð¶ÐµÐ½":1345,"ĠÐ±ÑĥÑĤ":1346,"ÑıÐ²Ð°Ð½Ðµ":1347,"ÑĢÐ¾Ð±":1348,"ĠÐºÐ°ÑĢÑĤÐ¾ÑĦ":1349,"ÑħÐ»ÑĥÐ¿":1350,"Ð¿ÐµÐ½":1351,"ĠÐ·ÐµÐ»ÐµÐ½ÑĩÑĥÑĨÐ¸ÑĤÐµ":1352,"Ð½Ð°ÑĤÐ¾":1353,"ĠÐºÐµ":1354,"ĠÐ¾Ð¼ÐµÐºÐ²Ð°Ð½Ðµ":1355,"ÑĩÐ½Ð¾":1356,"Ð¼Ð°Ñģ":1357,"Ðĳ":1358,"ĠÑģÐ²Ð°ÑĢÑıÐ²Ð°":1359,"ÐļÐ°ÑĢÑĤÐ¾ÑĦÐ¸ÑĤÐµ":1360,"ĠÐ±Ð¸ÑģÐºÐ²Ð¸":1361,"ĠÑĨÐµÐ»Ð¸Ð½Ð°":1362,"ĠÐ¿Ð¾Ð´ÑħÐ¾Ð´Ñı":1363,"ĠÑĢÐ°Ð·Ð¿ÑĢÐµÐ´ÐµÐ»":1364,"ĠÐ±ÐµÐºÐ¾Ð½":1365,"ĠÐ²ÑĢÐ¸":1366,"ĠÐ±ÑĥÑĢÐºÐ°":1367,"ÑĨÐ¸Ñı":1368,"ĠÑģÑĢÐµÐ´Ð°ÑĤÐ°":1369,"ĠÐ¿Ð¾ÐºÑĢÐ¸Ð²Ð°":1370,"Ð½Ð´Ð¸":1371,"ĠÐ´ÑĢÑĥÐ³Ð°":1372,"ÑĬÑģÑĤ":1373,"ĠÑĤÐ²ÑĬÑĢ":1374,"ĠÐºÐ¸Ð¼Ð¸Ð¾Ð½":1375,"ĠÐ¿Ð¾ÑĢÑĤÐ¾":1376,"ĠÐ²ÑģÐ¸ÑĩÐºÐ¾":1377,"ĠÐ¾Ð±Ð¸":1378,"ĠÑĩÐµÑĢÐ½Ð¸Ñı":1379,"ĠÐ¿Ð°ÑĤÐ»Ð°Ð´Ð¶Ð°Ð½Ð¸":1380,"ĠÐ¿Ð¾ÑĢÑĤÐ¾ÐºÐ°":1381,"ĠÑģÐ¼Ð»Ñı":1382,"ĠÐ½Ð°Ð¼Ð°Ñģ":1383,"ĠÐ³Ð°ÑĢÐ½Ð¸":1384,"Ð´Ð¸ÑĤÐµ":1385,"ÑħÐ°":1386,"ĠÐ¿Ð¾ÑĢ":1387,"ĠÑģÑĤÑĢÐ°Ð½Ð¸":1388,"Ð¾Ð»Ñĥ":1389,"ĠÑĤÐ¸Ñħ":1390,"ĠÑģÐ°Ð»Ð°ÑĤÐ°":1391,"ĠÐ´ÐµÐ±Ðµ":1392,"ĠÐĴÑģÐ¸ÑĩÐºÐ¾":1393,"ĠÑĢÐ°Ð·Ð±Ð¸ÑĤÐ¸ÑĤÐµ":1394,"Ð»Ñİ":1395,"ĠÐ²Ð°Ð½Ð¸Ð»Ð¸ÑıÑĤÐ°":1396,"ÑĢÑıÐ·Ð²Ð°":1397,"ĠÑģÐ»Ð°Ð±":1398,"ĠÐ³ÑĬÑĢ":1399,"ÐľÐµÑģÐ¾ÑĤÐ¾":1400,"ĠÑĢÑĬ":1401,"Ð¼Ð¿Ðµ":1402,"ĠÑģÐ»Ð°Ð³Ð°Ð¼Ðµ":1403,"ĠÐ·ÑĬÑĢÐ½Ð°":1404,"ĠÐ¿ÑĥÑĪ":1405,"ĠÐ±ÑĥÐ»ÑĮÐ¾Ð½Ð°":1406,"ĠÐ·Ð°Ð³ÑĢÑıÐ²Ð°":1407,"ĠÐºÐ°Ð½ÐµÐ»Ð°":1408,"Ð¼Ð¿ÐµÑĢÐ°ÑĤ":1409,"Ð½ÐµÑĤÐµ":1410,"Ð¿Ð¸ÑĩÐ°ÑĤ":1411,"ĠÐŁÐµ":1412,"ĠÑĤÐ¾Ð¿Ð»Ð¾":1413,"ĠÐ¿Ð¾Ð»Ð¾Ð²Ð¸Ð½":1414,"ĠÑĤÐµÐ¼Ð¿ÐµÑĢÐ°ÑĤ":1415,"Ð¹ÑģÐºÐ¾":1416,"ĠÐ¼ÐµÐ´":1417,"ĠÐ³Ð¾ÑĤ":1418,"ĠÐ·Ð°Ð¿Ð¸ÑĩÐ°":1419,"ĠÐ¾Ð²ÐºÑĥÑģ":1420,"125":1421,"ĠÐĺÐ·ÑģÐ¸Ð¿":1422,"ĠÐĲÐºÐ¾":1423,"ĠÐ¼Ð¸ÐºÑģ":1424,"Ð´ÐµÐ»Ñı":1425,"ĠÐ±ÑıÐ»":1426,"ĠÐºÑİÑĦ":1427,"ĠÐ½Ð°Ð»Ð¸Ð²Ð°":1428,"ĠÑĢÐµÐ½Ð´":1429,"ĠÐºÑĢÐµÐ¼Ð°":1430,"Ð¹ÑĨÐ°ÑĤÐ°":1431,"ĠÑģÐ²Ð°ÑĢÐµÐ½Ð¸":1432,"ĠÐ±Ð¾ÑģÐ¸Ð»ÐµÐº":1433,"ĠÐ¿Ð¾Ð»ÑĥÑĩÐ°Ð²Ð°Ð½Ðµ":1434,"ĠÐ¿Ð¸":1435,"ĠÐ´Ð²ÐµÑĤÐµ":1436,"ĠÐ²ÑĤÐ°ÑģÐ°":1437,"ÑģÑĤÐ¸Ð»Ð°":1438,"ĠÐľÐ°":1439,"ĠÐ·ÐµÐ»ÐµÐ½ÑĩÑĥÑĨÐ¸":1440,"Ð»ÐµÐ½":1441,"ĠÐ¼Ð°Ð»ÐºÐ°":1442,"ÂŃ":1443,"ĠÐ¾ÑĢÐµÑħÑĩÐµ":1444,"ĠÐ¸Ð·Ð²Ð°Ð¶Ð´Ð°":1445,"ĠÐµÐ´Ð¸Ð½":1446,"ĠÐºÐ°ÐºÐ°Ð¾":1447,"Ð´Ð¶Ð¸":1448,"ĠÑģÑĤÑĢÑĬÐº":1449,"ĠÐºÐ¾Ð»ÐºÐ¾ÑĤÐ¾":1450,"Ð²ÐµÑĢÐ°":1451,"Ð½Ð¾Ð²Ð°":1452,"ÑĩÐµÐ½Ð°ÑĤÐ°":1453,"Ð±ÑĢÐ°ÑĪÐ½Ð¾":1454,"ĠÑģÐ¼Ð»":1455,"ÑīÐµÑĢÐºÐ°":1456,"ÑħÑĤÐ¸Ð½Ð°":1457,"ĠÑħÐ°":1458,"ÐºÐ²Ð°Ñģ":1459,"ĠÐ½ÐµÐ¿ÑĢÐµ":1460,"ĠÐ»ÐµÐ½ÑĤÐ¸":1461,"ÑĦÐ¸Ð»":1462,"ĠÑĢÐ°Ð²":1463,"Ð²Ð°Ð»Ð°":1464,"ĠÐ¿ÑĢÐ°Ñħ":1465,"Ð´ÑĬÐ»":1466,"Ð²Ð°ÑĢ":1467,"ÑİÐ²Ðµ":1468,"ĠÐ²Ð½Ð¸Ð¼Ð°ÑĤÐµÐ»Ð½Ð¾":1469,"ĠÑħÐ»Ð°Ð´Ð¸Ð»Ð½Ð¸ÐºÐ°":1470,"ĠÐ¸Ð¼":1471,"Ð½Ð°Ñģ":1472,"ĠÐ¿ÑĢÐ¸Ð³Ð¾ÑĤÐ²Ñı":1473,"Ð»Ð½Ð°":1474,"ĠÐ½ÐµÐ¿ÑĢÐµÐºÑĬÑģ":1475,"70":1476,"ĠÑģÐµÐ¼":1477,"ĠÑĢÐµÐ½Ð´Ðµ":1478,"ĠÑĩÐµÑĢÐ²ÐµÐ½Ð¸Ñı":1479,"ÐĺÐ·":1480,"ÑīÐ¸":1481,"ĠÐ½ÐµÐ¿ÑĢÐµÐºÑĬÑģÐ½Ð°ÑĤÐ¾":1482,"ĠÐ¿ÑĢÑĬ":1483,"ÑĢÐµÐ¶Ð´Ð°":1484,"ĠÐ±Ð°ÐºÐ¿ÑĥÐ»Ð²ÐµÑĢÐ°":1485,"ÑĬÑĤÑĢÐµ":1486,"ĠÑģÑĥÑħÐ°":1487,"ĠÑĤÐµÐ¼Ð¿ÐµÑĢÐ°ÑĤÑĥÑĢÐ°":1488,"ÐµÑģÑĤÐµ":1489,"Ð½Ð¾ÑģÑĤÑĤÐ°":1490,"ĠÐŁÐµÐºÐ°ÑĤ":1491,"ĠÐ½Ð°Ð¹":1492,"ĠÐ½Ð°ÐºÐ¸Ñģ":1493,"Ð¿ÐºÐ¸":1494,"ĠÐ¿Ð¾Ð»Ð¸":1495,"ĠÐ·ÐµÑħÑĤÐ¸Ð½Ð°":1496,"ĠÐ¡Ð»Ð°Ð³Ð°ÑĤ":1497,"Ð·ÐµÑħÑĤÐ¸Ð½":1498,"ĠÐºÐ¸ÑģÐµÐ»Ð¸":1499,"Ð¾Ð´Ð¸":1500,"ĠÐŁÐ¾ÑĢÑĬÑģÐ²Ð°":1501,"ĠÐ¢Ð°":1502,"ĠÐ½Ð°Ð¿ÑĬÐ»":1503,"ĠÐ¿Ð¾Ð´Ñģ":1504,"ĠÑĦÐ°Ñģ":1505,"Ð¸ÑĪÐµÑģÑĤÐµ":1506,"ĠÐĴÐ°":1507,"ĠÐ¿ÑĬÑĢÐ¶Ð¾Ð»Ð¸":1508,"ĠÐŁÐ¾ÑģÐ¾Ð»":1509,"ĠÐ¿ÑĢÐ°Ð²Ð¸":1510,"Ð²ÑıÐ²Ð°Ð½Ðµ":1511,"ĠÐ¾ÑģÑĤÐ°Ð½Ð°Ð»Ð°ÑĤÐ°":1512,"ĠÐºÐ°ÑĪÐºÐ°Ð²Ð°Ð»Ð°":1513,"ÑĢÐµÐ¶ÐµÑĤÐµ":1514,"ĠÐ¾Ð¼ÐµÑģÐ²Ð°":1515,"Ð¼Ð¾Ð¶Ðµ":1516,"Ð¿ÑĢÐ¸":1517,"ĠÐºÐ°ÑĢÐ°":1518,"Ð¾Ð»Ð¸Ð²Ð°":1519,"ĠÑģÑĤÐ°ÑĦÐ¸":1520,"Ð¼ÑĢÐ°Ð·":1521,"ĠÐ¸Ð·ÑĨÐµ":1522,"ĠÐ·ÐµÐ»ÐµÐ½Ð¸":1523,"ĠÐ½Ð°Ð¼Ð°Ð·Ð½ÐµÐ½Ð°":1524,"ĠÑĦÐ¸Ð»Ð¸Ð¸":1525,"ÐłÐ°Ð·":1526,"ĠÐŁÐ¾Ð´Ð½Ð°ÑģÑı":1527,"ĠÐ§":1528,"ÑģÑĤÐµ":1529,"ĠÐ¿ÑĬÑĢÐ¶Ð°ÑĤ":1530,"Ð¶Ð°ÑĤ":1531,"ĠÐ¾ÑĢÐ¸Ð·ÑĬÑĤ":1532,"ĠÑģÐ»Ð¾Ð¶ÐµÑĤÐµ":1533,"ĠÐ³Ð¾ÑĤÐ¾Ð²Ð¸":1534,"ĠÐ³ÑİÐ²Ðµ":1535,"ĠÐ½Ð°ÑģÑĤÑĬÑĢÐ³Ð°Ð½Ð¸Ñı":1536,"ĠÐ±Ð¾Ð±":1537,"ĠÐ¿Ð»Ð¾Ð´Ð¾":1538,"ĠÐ¸Ð·Ð¿ÑĬÑĢÐ¶Ð²Ð°ÑĤ":1539,"Ð³Ð¸":1540,"ĠÐ¿ÑĢÑıÑģÐ½Ð¾ÑĤÐ¾":1541,"Ð²Ð°Ð»Ñı":1542,"ĠÑĨÐµÐ»Ð¸":1543,"Ð¢":1544,"ĠÐ½Ð°Ð±":1545,"ĠÐ¾Ð¼ÐµÐºÐ½Ð°ÑĤ":1546,"ĠÑģÐºÐ°":1547,"ĠÐ¿Ð¾Ð´Ð¿ÑĢÐ°Ð²Ñı":1548,"ĠÐŀÑģÑĤÐ°":1549,"ĠÐ·Ð°ÐºÐ²Ð°Ñģ":1550,"ĠÐ¶ÑĬÐ»ÑĤÑĬÐº":1551,"ĠÐ¶ÑĬÐ»ÑĤÑĬÑĨÐ¸ÑĤÐµ":1552,"ÑģÐºÐ¸":1553,"ĠÐ½Ð¸ÑĪÐµÑģÑĤÐµ":1554,"Ð²Ð¸ÑĨÐ¸":1555,"Ð»ÐºÐ¾":1556,"Ð±ÐµÐ»":1557,"Ð²ÐµÑĤ":1558,"ĠÐľÐ¾":1559,"ÑĩÑĥÐº":1560,"Ð³Ð°Ð½Ð°":1561,"ĠÐ¼Ð°ÑĢÐ³Ð°":1562,"ĠÐ½Ð°Ð¼Ð°ÑģÐ»ÐµÐ½Ð°":1563,"ĠÐ´ÑĢÐ¾Ð±":1564,"ĠÐºÐ¾ÐºÐ¾":1565,"ĠÐ³ÑĬ":1566,"ĠÑĩÐµÑĢÐ²ÐµÐ½Ð°":1567,"ĠÐ¿ÑĢÐµÑģÐ½Ð¸":1568,"ĠÐ¾Ð¼ÐµÐºÐ½Ðµ":1569,"ĠÐ¼Ð°ÑĢÐ¸Ð½Ð°ÑĤÐ°":1570,"ÑĬÐ³":1571,"ĠÐĿÐ°Ð¼Ð°":1572,"ĠÐºÑĥÐ±ÑĩÐµ":1573,"ĠÐ¾ÑĤÑģÑĤ":1574,"ĠÐ¾Ð±ÑĢÑĬ":1575,"Ð¿ÐµÐ½Ð½Ð¾":1576,"ĠÐ¾Ð²Ð°Ð»Ð²Ð°ÑĤ":1577,"ĠÐ¿Ð¾ÑĩÐ¸ÑģÑĤÐ²Ð°ÑĤ":1578,"ĠÑģÐ¾ÐµÐ²":1579,"ĠÐ¿Ð°ÑĢÑĩÐµ":1580,"ĠÐ²Ð°ÑĢÑıÑĤ":1581,"ĠÐ´Ð¶Ð¾Ð´Ð¶ÐµÐ½":1582,"ĠÑĤÐ¾ÑĢ":1583,"ÑģÑıÐºÐ¾":1584,"ĠÐ¸Ð½Ð´Ð¸":1585,"Ð¼ÐµÑģÐ²Ð°ÑĤ":1586,"ĠÐ¿ÑĬÑĢÐ¶Ð¸":1587,"ĠÑģÑĥÑĪ":1588,"ÑĤÐ°Ð¿":1589,"ĠÐºÐ¾ÑģÑĤÐ¸":1590,"ĠÐ¼Ñĥ":1591,"ĠÐ¿Ð¾ÑĢÑĬÑģÐ²Ð°Ð½Ðµ":1592,"ĠÑĢÐ°Ð·Ð¿ÑĢÐµÐ´ÐµÐ»Ñı":1593,"ĠÐ´Ð¸":1594,"ĠÐĽÑĥÐºÑĬÑĤ":1595,"ĠÐ¾ÑĦÐ¾ÑĢÐ¼ÑıÑĤ":1596,"ĠÐ´Ð¾Ð¼Ð°ÑĤÐµÐ½Ð¾ÑĤÐ¾":1597,"ĠÑģÐ¸Ð¿Ð²Ð°":1598,"ĠÐ¾ÑģÑĤÐ°Ð½Ð°Ð»Ð¾ÑĤÐ¾":1599,"ĠÐ¾ÑĤÑĨÐµÐ´":1600,"ĠÐ¼Ð¸ÐºÑģÐµÑĢ":1601,"Ð´ÐµÐ¼Ð¸":1602,"ĠÐ¿Ð¾Ðµ":1603,"ĠÑĢÐ¸Ð³Ð°Ð½":1604,"ĠÐ·Ð°Ð¿Ð¾":1605,"ĠÐ¿ÑĢÐ¾Ð´ÑĬÐ»":1606,"ĠÐ³ÑĬÑĢÐ´Ð¸":1607,"ĠÐ¿Ð¾ÑģÐ¾Ð»ÑıÐ²Ð°ÑĤ":1608,"ĠÐĵÐ¾ÑĤÐ¾":1609,"ĠÑĩÐ°ÑĪÐ°":1610,"ĠÑģÑĥÐ¿Ð°":1611,"Ð¼Ð°ÑĤ":1612,"ĠÐł":1613,"ĠÐ´Ð°ÑĦÐ¸Ð½Ð¾Ð²":1614,"ĠÐ¿Ð¾ÑĢÑĨÐ¸":1615,"ÑĬÐ³ÑĬÐ»":1616,"ÑıÑĤÐ°":1617,"Ð·Ð°Ð½":1618,"ÑĩÐµÑĢÐ²ÐµÐ½":1619,"ĠÐłÐ°Ð·Ð±Ð¸":1620,"ĠÐ¿Ð¾Ð´ÑĢÐµÐ¶Ð´Ð°ÑĤ":1621,"ĠÐ¸Ð·ÑĩÐ¸ÑģÑĤ":1622,"ÐµÑģÑĤÐ¾ÑĤÐ¾":1623,"ĠÐ³Ð¾ÑĤÐ¾Ð²Ð¾":1624,"ÑĬÑģÑĤÐ¸":1625,"ĠÐ¿ÑĢÐ¸Ð±Ð°Ð²ÑıÐ¼Ðµ":1626,"ĠÐĶÐ¾Ð±Ð°Ð²ÐµÑĤÐµ":1627,"ĠÐ·ÐµÐ»ÐµÐ½Ð°":1628,"ĠÐ½Ð°ÑģÑĤÑĬÑĢÐ³Ð²Ð°":1629,"ÑģÑıÐ²Ð°":1630,"ĠÐ¸Ð½Ð´Ð¸Ð¹ÑģÐºÐ¾":1631,"Ð¹Ð±Ð¸":1632,"ĠÐ´ÑĬÐ»Ð¶Ð¸":1633,"ĠÑĢÑĥÐ»Ð¾":1634,"ĠÐ²Ð¾Ð´":1635,"Ð¹ÑĤÐ¾":1636,"ĠÐ¿ÑĢÐ¾Ð´ÑĥÐºÑĤÐ¸ÑĤÐµ":1637,"Ð»Ð¸Ð·Ð¸":1638,"ÑĤÐ¸Ð½Ð°":1639,"Ġ[":1640,"ĠÐ¾ÑģÑĤÐ°Ð²ÐµÑĤÐµ":1641,"Ð²Ð¾ÑĢ":1642,"Ð²Ð¸ÑĢ":1643,"ĠÑģÐºÐ¸Ð»Ð¸Ð´ÐºÐ°":1644,"ĠÑĦÐ°ÑģÑĥÐ»":1645,"ĠÐ³Ð¾ÑĢÑĩÐ¸ÑĨÐ°":1646,"Ð¿ÐµÑĩ":1647,"ĠÐ»ÑİÑĤ":1648,"ĠÑĤÐµÐ»ÐµÑĪÐºÐ¾":1649,"ÑĢÐµÐ½Ð²Ð¸ÑĢ":1650,"ĠÐºÐ¾Ð¹ÑĤÐ¾":1651,"ĠÐ½ÐµÐ¾Ð±":1652,"ĠÐ¿ÑĬ":1653,"ĠÐ¼Ð°ÑīÐµÑĢÐºÐ°":1654,"ÑģÐµÐ½":1655,"ĠÐ¸Ð·Ð¿Ð¾Ð»":1656,"ĠÑģÑĤÑĢÐ°Ð½Ð°":1657,"ÑĢÐµÑĤÐµ":1658,"ĠÐ½Ð°ÑĢÐµÐ¶ÐµÑĤÐµ":1659,"ĠÐ¿Ð¾ÑģÐ»Ðµ":1660,"ĠÐŁÐ¾Ð´Ð¿ÑĢÐ°":1661,"Ġ40":1662,"ĠÐ²Ð°ÑĢ":1663,"Ð¸Ð½Ð´Ð¶Ð¸":1664,"ĠÐ½Ð°ÑĢÑĬÑģ":1665,"Ð¿Ð¾Ð´":1666,"ĠÐºÐ¾Ð»ÐµÐ»":1667,"ĠÐ³ÑĢÐ¸":1668,"ĠÑģÐ»Ð°Ð½Ð¸":1669,"ĠÑħÐ»Ð°Ð´":1670,"ĠÐ¿ÑĢÐµÐ·":1671,"ĠÐ±Ð°Ð´ÐµÐ¼Ð¸":1672,"ĠÐ²Ð¸Ð»Ð¸":1673,"ÐºÐ°ÑĢÐ¾":1674,"ĠÑĢÐ°Ð·ÑģÑĤÐ¸Ð»Ð°":1675,"Ð¯":1676,"Ð²Ð¾ÑĤÐ¾":1677,"ĠÐºÐ¾Ð»ÐµÐ»ÑĨÐ°":1678,"700":1679,"ÐŀÑĤ":1680,"ĠÐ¼Ð°ÑĢÐ³Ð°ÑĢÐ¸Ð½":1681,"ĠÐ¿Ð°ÐºÐµÑĤ":1682,"ĠÐ½Ð°Ð¼Ð°Ð·Ð²Ð°Ð½Ðµ":1683,"ĠÐ´ÑĬÐ»Ð¶Ð¸Ð½Ð°":1684,"Ð²Ð°ÑĤÐµ":1685,"Ð»Ñĥ":1686,"ĠÐºÐ°ÑĢ":1687,"ÐµÐ½Ð¸ÑĨÐ°":1688,"Ð²Ð¸ÑĩÐºÐ°ÑĤÐ°":1689,"ÑĩÑĥÐ±ÑĢÐ¸ÑĨÐ°":1690,"ĠÑĤÐ¾Ð¿ÐµÐ½Ð¾":1691,"ĠÑĩÐ°ÑģÑĤÐ¸":1692,"ĠÐ¶ÑĬÐ»ÑĤÑĬÑĨÐ¸":1693,"Ð²Ð¸ÑıÑĤ":1694,"ĠÐ²ÐµÐ´":1695,"ĠÐ¿Ð¾ÑĩÐ¸ÑģÑĤÐ²Ð°":1696,"Ð·Ð¾":1697,"ĠÐ·Ð°ÐºÐ²Ð°ÑģÐµÐ½Ð°":1698,"ĠÐ¼Ð°Ð³Ð´Ð°Ð½Ð¾Ð·Ð°":1699,"ÑħÐ¾Ð´Ð¸":1700,"Ð½ÑıÑĤ":1701,"ĠÐ¿Ð¾Ð»Ð¾Ð²Ð¸Ð½Ð°":1702,"ĠÐ±Ð¸ÑģÐºÐ²Ð¸ÑĤÐ¸":1703,"ĠÐ¿Ð»Ð°":1704,"Ð½ÐµÐ½":1705,"ĠÐ·Ð°Ð²Ð¸":1706,"ÑĢÐ°ÑĪÐ½Ð¾ÑĤÐ¾":1707,"ĠÐ´ÐµÐ±ÐµÐ»Ð¸Ð½Ð°":1708,"ĠÐµÐ´ÑĢÐ¸":1709,"ĠÑģÑĢÐµÐ´Ð½Ð¾":1710,"Ð»ÐµÐ¿":1711,"ĠÐ·Ð°ÑĩÐµÑĢÐ²ÑıÐ²Ð°Ð½Ðµ":1712,"ĠÑĩÐµÑĢÐ²ÐµÐ½Ð¾":1713,"ĠÐļÐ°ÑĤÐ¾":1714,"ÐŁÐ¾":1715,"Ð»Ð¸Ð¼Ð¾":1716,"Ð»Ð°ÑĩÐ¸Ð½":1717,"ĠÐ¸Ð²Ð¸ÑĨÐ¸":1718,"ĠÐ±ÑĥÑĢÐºÐ°Ð½":1719,"ĠÐ¿Ð°ÑģÐ¸ÑĢÐ°":1720,"ĠÐ´Ð¶Ð¸Ð½Ð´Ð¶Ð¸":1721,"ÑĤÐ¸Ð½":1722,"ĠÐ²Ð¸Ð»Ð¸ÑĨÐ°":1723,"ĠÑģÐ°Ð¼Ð¾":1724,"Ð¼ÐµÐ·Ð°Ð½":1725,"ĠÐŁÑĬÑĢÐ¶":1726,"12":1727,"ÑĢÑĬÐ¶":1728,"ĠÑĪÐ°Ð¹Ð±Ð¸":1729,"ĠÑĤÐ¸ÐºÐ²Ð¸ÑĩÐºÐ¸ÑĤÐµ":1730,"ĠÐ¿ÐµÑĩÐµÐ½Ð¸":1731,"ĠÐ½Ð°ÑģÑĤÑĬÑĢÐ³Ð²Ð°ÑĤ":1732,"ĠÐºÑİÑĦÑĤÐµ":1733,"Ð°Ð½Ð¸ÑĤÐµ":1734,"Ð¿ÐµÑĩÐµ":1735,"ĠÐĹÐ°Ð¿ÑĬÑĢÐ¶":1736,"ĠÑĢÐµÐ·ÐµÐ½":1737,"ÑĥÑĢÐºÐ¸":1738,"ĠÐŁÐ¾ÑģÑĤÐ°Ð²Ñı":1739,"ĠÐºÐ¾Ð½":1740,"Ð²ÐºÐ°ÑĤÐ°":1741,"ĠÐ¼Ð°ÑıÑĤÐ°":1742,"ĠÐ½ÐµÐ¾Ð±ÑħÐ¾Ð´Ð¸":1743,"ĠÐ¿ÑĬÑĢ":1744,"ÐºÐ¾Ð¿ÑĬÑĢ":1745,"ĠÑĤÑĢÐ¸":1746,"Ð´ÑĬÐ»Ð±Ð°":1747,"ĠÑģÐ³ÑĬÑģÑĤÐ¸":1748,"ĠÐ»Ð°":1749,"ÑģÐµÐºÐ¸":1750,"ĠÑħÐ¾":1751,"ĠÑĤÐ°Ð·Ð¸":1752,"ÑĨÐµÐ¶Ð´Ð°":1753,"ĠÐ¼Ð¾ÑĢÐºÐ¾Ð²Ð°":1754,"ÑħÐ»ÑĥÐ¿Ð²Ð°":1755,"ĠÐ¿ÑĢÐ¸Ð³Ð¾ÑĤÐ²":1756,"ĠÐ¼Ð°Ð¹Ð¾Ð½ÐµÐ·Ð°ÑĤÐ°":1757,"ÑĬÐ±Ð¸ÑĤÐµ":1758,"ĠÐ¿Ð¾ÑģÑĤÐµ":1759,"ÐĽÑĥÐºÑĬÑĤ":1760,"ĠÐ¸Ð²Ð¸ÑĩÐºÐ¸":1761,"ĠÐºÐ¸Ð¿":1762,"ĠÐ¾ÑģÑĤÐ°Ð²ÑıÐ¼Ðµ":1763,"ĠÐ¿Ð¾ÑĢÑĨÐ¸Ð¸":1764,"ĠÐ´Ð°ÑĦÐ¸Ð½Ð¾":1765,"ĠÐ·Ð°Ð¿Ð¾Ñĩ":1766,"ÑĩÑĥÐ¿":1767,"ĠÐ¿Ð¾ÐºÑĢÐ¸Ðµ":1768,"ĠÐºÑĢÐµÐ½Ð²Ð¸ÑĢ":1769,"ĠÐ·Ð°Ð¼ÑĢÐ°Ð·":1770,"ÐŁÐ¸Ð»Ðµ":1771,"ĠÐ¿Ð»ÑĬÐ½ÐºÐ°":1772,"ĠÐ¤":1773,"Ð½Ð°ÑģÑıÑĤ":1774,"ĠÐºÑĥÐ¿Ð¸":1775,"ĠÐĽ":1776,"Ð¸Ð·":1777,"ĠÐ¿Ð¾ÑģÑĤÐµÐ¿ÐµÐ½Ð½Ð¾":1778,"ĠÑĦÐ¾ÑĢÐ¼Ð¸":1779,"ĠÑĢÐ°Ð·Ð±ÑĬÑĢÐºÐ°Ð¹ÑĤÐµ":1780,"Ð¼Ð°ÑģÐ»Ð¾":1781,"ĠÑģÐ½Ñı":1782,"ÑĤÐ¸ÑģÐºÐ°":1783,"ĠÑĤÐ²ÑĬÑĢÐ´Ð¾":1784,"ĠÑģÐ½ÑıÐ³":1785,"Ð½Ð°Ð³Ð°":1786,"ĠÐ°Ð³Ð½Ðµ":1787,"ÑĤÑĬÑĢ":1788,"ĠÑĢÐ°Ð·Ð¼Ð¸":1789,"ĠÑĢÐ°Ð·Ð±ÑĬÑĢÐºÐ²Ð°Ð¼Ðµ":1790,"ÐºÐ»Ñİ":1791,"ĠÐ´ÑĢÐµÐ±Ð½Ð¸":1792,"120":1793,"ĠÐ¿Ð¾Ð²Ðµ":1794,"ĠÐĿ":1795,"ĠÐ½Ð°ÑĢÐµÐ¶Ð´Ð°":1796,"ÑĬÑĢÐ¿Ð°":1797,"ĠÑģÐ¼Ð¸":1798,"ĠÐ¿Ð°Ð»Ð°ÑĩÐ¸Ð½":1799,"ĠÑĢÐ°Ð·ÑĤÐ¾ÑĩÐ²Ð°":1800,"Ð¼Ð¾Ð³":1801,"ĠÐ¿Ð¾Ð´ÑģÑĥÑĪ":1802,"ÑĦÐ¸Ð¾Ð»":1803,"ÑĢÐ¾Ð´":1804,"ĠÐ¿ÑĢÐµÑģÑĤÐ¾Ð¸":1805,"Ð¿Ð¾Ð´Ð¿ÑĢÐ°":1806,"ĠÐ½Ð°Ð¼Ð°Ñĩ":1807,"Ð´ÑĥÑĪÐ°":1808,"ÐºÐ°ÑĢ":1809,"ĠÐ¢ÐµÑģÑĤÐ¾ÑĤÐ¾":1810,"ĠÑģÐ¼Ð»ÑıÐ½":1811,"ĠÑıÐ±ÑĬÐ»ÐºÐ¸":1812,"Ð¹ÐºÐ°":1813,"ĠÐ²ÑģÑıÐºÐ¾":1814,"ĠÐ²ÑĢÑıÑīÐ°":1815,"ĠÑħÐ¾Ð¼Ð¾Ð³":1816,"ĠÑģÐ¾ÐºÐ°":1817,"ĠÑģÐ¸ÑĢÐ¾Ð¿":1818,"ĠÐľÐ¾Ð¶Ðµ":1819,"ĠÑģÐ¿Ð°Ð³Ðµ":1820,"ÑģÐ½Ð°":1821,"Ð»ÑıÐ²Ð°":1822,"ĠÐ¾ÑĦÐ¾ÑĢÐ¼Ñı":1823,"ĠÐ·Ð°ÑĤÐ¾Ð¿":1824,"ÑīÑĤÐ°":1825,"ĠÐ´ÑĬÐ»Ð±Ð¾Ðº":1826,"ĠÐ¿ÐµÑĩÑĥÑĢÐºÐ¸":1827,"Ð¿Ð°ÑĢ":1828,"ĠÐ½Ð°ÑĢÑıÐ·Ð°Ð½Ð°":1829,"ĠÑģÑĬÑģÑĤÐ°":1830,"ĠÑģÐ°Ð»Ð°":1831,"ĠÑĨÐ°ÑĢÐµÐ²Ð¸ÑĨÐ°":1832,"ÑĥÑĪÐºÐ¸ÑĤÐµ":1833,"ĠÑģÑĥÑģÐ°":1834,"ĠÐ¾Ð±Ð¸Ð»Ð½Ð¾":1835,"ĠÑģÐ¼Ð»ÐµÐ½Ð¸":1836,"ĠÐ¿Ð¾ÑģÐ»ÐµÐ´":1837,"ĠÐ´Ð¸Ð°":1838,"ĠÐ±Ð°Ð½Ð°":1839,"ÐºÑĬÐ»":1840,"Ð³Ð¾Ð»":1841,"ĠÑīÐµ":1842,"ÑĩÐºÐ¸ÑĤÐµ":1843,"ĠÑĤÐ¸ÐºÐ²Ð°":1844,"ĠÐ½Ð°ÑĢÑıÐ·Ð°Ð½Ð¾":1845,"ÑĩÐµÑģÑĤ":1846,"ĠÑĢÐ°Ð·Ð´ÐµÐ»Ñı":1847,"ĠÑĨÑı":1848,"ĠÐ¸Ð·Ð¿Ð¾Ð»Ð·Ð²Ð°":1849,"ĠÐłÐ°Ð·Ð±ÑĬÑĢ":1850,"ĠÐ±Ð»Ð°ÑĤÐ°":1851,"ĠÐºÐ¾Ð³Ð°ÑĤÐ¾":1852,"ĠÐ¿Ð¾Ð²ÐµÑĩÐµ":1853,"ÑĢÑıÐ·Ð²Ð°Ð¼Ðµ":1854,"ĠÑĤÐ¾Ð¿ÑĩÐµÑĤÐ°":1855,"ĠÐ¾ÑĢÐµÑħÐ¾Ð²Ð¸":1856,"Ð»Ð¸Ð²Ð°ÑĤ":1857,"Ð·Ð¼Ð°":1858,"ĠÐ¢Ð°ÐºÐ°":1859,"Ð´ÑĬÑĢ":1860,"ĠÑĢÐ°Ð²Ð½Ð¾":1861,"ĠÐ»ÑİÑĤÐ¸":1862,"ĠÐ¿Ð¾ÐµÐ¼Ðµ":1863,"ÐĶ":1864,"ĠÑĢÐ¾Ð¼":1865,"ĠÐ½Ð°ÐºÑĢÐ°Ñı":1866,"Ð»Ð¾Ð¶ÐµÑĤÐµ":1867,"ĠÐ¼Ð°ÐºÐ°ÑĢÐ¾":1868,"ĠÑģÐ²Ð°Ð»Ñı":1869,"ĠÐŁÐ¾Ð»Ñĥ":1870,"ĠÐ½Ð°ÑĢÑıÐ·Ð°Ð½Ð°ÑĤÐ°":1871,"Ġ6":1872,"ĠÐ¿Ð¾Ð¼Ð¾":1873,"ÑĤÐ¸Ð½Ð¸":1874,"ÐºÑĬÑĤ":1875,"ÑīÐ¾ÑĤÐ¾":1876,"Ð²ÐºÑĥÑģ":1877,"ĠÑģÐ²Ð¸Ð½ÑģÐºÐ¸":1878,"ĠÑģÐ¾Ð´Ð°ÑĤÐ°":1879,"ĠÑģÐ»Ð°Ð½Ð¸Ð½Ð°":1880,"ĠÐ²ÑĬÑĤÑĢÐµ":1881,"ĠÑģÑĥÑĢÐ¾":1882,"ĠÐ¿Ð¾Ð¼Ð¾ÑīÑĤÐ°":1883,"ĠÐºÐ¾Ð»Ð±Ð°":1884,"ĠÐ¸Ð·Ð²Ð°ÑĢÐ°":1885,"ĠÑĢÐµÐ¶Ðµ":1886,"Ð¼ÐµÑĤÑĬÑĢ":1887,"ĠÑĤÐµÐ½Ð´Ð¶ÐµÑĢÐ°ÑĤÐ°":1888,"ĠÐ¿ÑĬÐ»Ð½ÑıÑĤ":1889,"ÑĢÐ°Ð½ÑıÐ²Ð°":1890,"ĠÐ½Ð°ÑģÑĤ":1891,"ĠÑĤÐ¸Ð³Ð°Ð½Ð°":1892,"ĠÐ½Ð°Ð¼Ð°Ð·Ð²Ð°ÑĤ":1893,"ĠÐ¾ÑģÑĤÐ°Ð½Ðµ":1894,"Ð´ÐµÐ»Ð½Ð¾":1895,"ÑĤÐµÑĢ":1896,"ĠÐ¿Ð¾Ð²":1897,"ĠÐ¿Ð¾ÑĤÐ°Ð¿":1898,"ĠÑģÑĤÐ°ÑĦÐ¸Ð´Ð¸":1899,"ÑĪÐ½Ð¸":1900,"ĠÐ¿Ð¸Ð»ÐµÑĤÐ¾":1901,"ĠÑĦÐ¾ÑĢÐ¼Ð°ÑĤÐ°":1902,"ĠÑĢÐ°Ð·ÑĤÐ²Ð°ÑĢÑı":1903,"ĠÐ¸Ð·Ð¿ÑĬÑĢÐ¶Ð²Ð°":1904,"ĠÐ¿Ð¾Ñĩ":1905,"ÑĬÑģÑĤÐ¾":1906,"ĠÐ¿Ð»Ð¾Ð´Ð¾Ð²Ðµ":1907,"ÑĮÐ¾":1908,"ĠÐ¾Ð±Ðµ":1909,"ĠÐ³Ð¾Ð»ÑıÐ¼":1910,"ĠÐºÐ¾ÑģÑĤÐ¸Ð»":1911,"ĠÐ·Ð°ÑģÑĤ":1912,"ĠÐ½ÐµÐ¾Ð±ÑħÐ¾Ð´Ð¸Ð¼Ð¾":1913,"Ð²Ð°Ð½ÐµÑĤÐ¾":1914,"Ð¸Ðº":1915,"ĠÐŁÐ¾Ð´Ð¿ÑĢÐ°Ð²Ñı":1916,"Ð¾Ð»Ð¸ÑĩÐµÑģÑĤ":1917,"ĠÐ±Ð°Ð½Ñı":1918,"ĠÐ±ÑĥÑĤÑĩÐµÑĤÐ°":1919,"ĠÐ²ÐµÐ´Ð½Ð°Ð³Ð°":1920,"ÑĤÐ¾ÑĢ":1921,"Ð°ÑģÐ»Ð¾ÑĤÐ¾":1922,"ĠÑģÐµÑĢÐ²Ð¸ÑĢÐ°Ð½Ðµ":1923,"ÑĥÑĤ":1924,"ĠÐ¾Ð²ÐºÑĥÑģÑıÐ²Ð°":1925,"ĠÐ´ÑĬÐ»Ð±Ð¾ÐºÐ°":1926,"ĠÑĢÐ°Ð²Ð½Ð¾Ð¼ÐµÑĢ":1927,"ĠÐ³ÑĢ":1928,"ÑĪÐºÐ°Ð²Ð°Ð»":1929,"ĠÐ°ÑĢÐ¾":1930,"ĠÑĢÐ¸Ð±Ð°ÑĤÐ°":1931,"ĠÐŁÑĢÐµÐ·":1932,"Ð·Ñĥ":1933,"ĠÐ±ÐµÐ»ÑĤÑĬÑĨÐ¸":1934,"750":1935,"ĠÑģÐµÐ¼Ðµ":1936,"ĠÐ²ÑģÐµÐºÐ¸":1937,"ĠÐºÐµÐºÑģ":1938,"ĠÐ¾ÑĤÑĨÐµÐ¶Ð´Ð°":1939,"ĠÑģÐ³ÑĬÑģÑĤ":1940,"350":1941,"ĠÐ»Ð¸Ð¼Ð¾Ð½Ð¾Ð²Ð¸Ñı":1942,"ÑĪÐºÐ¸ÑĤÐµ":1943,"ĠÐ¸Ð·ÑģÐ¸Ð¿Ð²Ð°ÑĤ":1944,"ĠÐºÑĬÑĢÐ¿Ð°":1945,"ĠÐ·ÐµÐ»ÐµÐ½ÑĩÑĥÐºÐ¾Ð²":1946,"Ġ100":1947,"ĠÐ´Ð¾Ð±Ð°":1948,"Ð²Ð¸ÑĨÐ°ÑĤÐ°":1949,"ĠÐĴÐ°ÑĢÐ¸":1950,"Ð¤":1951,"ĠÑħÐ¾Ð¼Ð¾Ð³ÐµÐ½":1952,"ÐĺÐ·Ð¼Ð¸":1953,"ĠÑģÐ°Ð»Ð°Ð¼":1954,"ÑģÐ¾Ð²Ð¸":1955,"ĠÐ¸Ð¼Ð°":1956,"ĠÑģÐ¸Ð»Ð½Ð¾":1957,"ĠÐ¾Ð±ÑĢÑĬÑīÐ°":1958,"ĠÐ´Ð¸Ð°Ð¼ÐµÑĤÑĬÑĢ":1959,"ĠÐĺÐ·Ð²Ð°Ð¶Ð´Ð°":1960,"ĠÐŁÐ¾ÐºÑĢÐ¸":1961,"âĢ":1962,"ĠÐĹÐ°Ð´ÑĥÑĪÐ°":1963,"ĠÐ´Ð¾Ð¼Ð°ÑĤÐµÐ½":1964,"ĠÐ´Ð¾Ð»Ð¸Ð²Ð°":1965,"Ð¶Ð´Ñĥ":1966,"ĠÐ´Ð¶Ð¸Ð½Ð´Ð¶Ð¸ÑĦÐ¸Ð»":1967,"ĠÐ¹":1968,"ĠÐ¼Ð°ÑħÐ°":1969,"Ð²Ð¾ÑĬÐ³ÑĬÐ»":1970,"ĠÐ¾ÑĨÐµÑĤÐ°":1971,"ÑģÑĥ":1972,"ĠÐ¿Ð¾ÑĩÑĤÐ¸":1973,"ĠÐ²Ðµ":1974,"ĠÐºÐ¾ÑĢÐ¸Ð°Ð½":1975,"ĠÑĤÐµÑĩÐ½Ð°":1976,"ĠÐ²Ð¾Ð´Ð½Ð°":1977,"ÑīÐ°ÑĤ":1978,"ĠÑģÑĤÑĬÑĢ":1979,"Ð¿Ð¾Ð´Ð¿ÑĢÐ°Ð²ÐºÐ¸":1980,"Ð¼ÐµÐ½":1981,"ĠÐ¾Ð±ÐµÐ»ÐµÐ½Ð¸":1982,"ĠÐ·ÐµÐ»ÐµÑĤÐ¾":1983,"ĠÐ±ÐµÐ»ÑĤÑĬÑĨÐ¸ÑĤÐµ":1984,"Ð¼Ð°Ð·Ð½Ð¸":1985,"ĠÐºÑĬÐºÑĢÐ¸":1986,"ĠÐĶÐ¾Ð±Ð°Ð²ÑıÐ¼Ðµ":1987,"Ð»Ð°Ð¶Ð´Ð°":1988,"ĠÑĤÐ¾Ð¿ÐºÐ¸":1989,"ĠÑĤÐ¸ÐºÐ²Ð¸ÑĩÐºÐ°":1990,"ĠÐ¿ÑĢÐ¸Ð±Ð°Ð²ÐµÑĤÐµ":1991,"ĠÐ´ÑĢÑĥÐ³Ð¸":1992,"ĹÐµÐ»":1993,"ĠÐĺÐ·ÑģÐ¸Ð¿Ð²Ð°":1994,"Ð¼Ð°ÑĤÐ¸ÑĤÐµ":1995,"ÐĴÑģÐ¸Ñĩ":1996,"Ð·Ð²Ð°ÑĤ":1997,"ĠÐºÐ°Ðº":1998,"Ð¯Ð¹ÑĨÐ°ÑĤÐ°":1999,"Ð°Ð½Ð°":2000,"ĠÐŁÑĢÐµÐ´Ð¸":2001,"ĠÐºÐ°ÑĢÑĦÐ¸Ð¾Ð»":2002,"ÑħÐ²ÑĬÑĢ":2003,"ĠÐ¸Ð·ÑģÑĤÐ¸Ð½Ð°ÑĤ":2004,"Ð§":2005,"ĠÐºÑĢÐ°Ñı":2006,"ĠÑģÑĬÑģÑĤÐ°Ð²ÐºÐ¸":2007,"ĠÐ¸Ð·Ð´ÑĬÐ»Ð±Ð°":2008,"ĠÐ¿ÑĢÐ°Ð²ÑıÑĤ":2009,"Ð·Ð¼Ð°ÑĢÐ¸Ð½":2010,"ĠÐ¾Ð±ÐµÐ·":2011,"ĠÑĢÐ°Ð·ÑĤÐ²Ð¾ÑĢ":2012,"Ð¼Ð°Ð·Ð½Ð¸Ð½Ð°":2013,"ĠÐ´ÑĬÑĢ":2014,"ÑĪÐºÐ¾ÑĤÐ¾":2015,"ĠÑģÐ°ÑĢ":2016,"ĠÐ¿ÑĢÐ°Ð²Ð¾ÑĬÐ³ÑĬÐ»":2017,"ĠÐŁÐ¾ÑģÐ¾Ð»ÑıÐ²Ð°":2018,"ĠÐ¿ÑĢÐµÑģÑı":2019,"ĠÑĤÐ¾Ð¿Ð»Ð¸":2020,"ÑĩÐ¸ÑĨÐ¸":2021,"ĠÐ±Ð°Ð½Ð¸":2022,"Ð¿ÐºÐ°":2023,"ĠÐĹÐ°Ð»Ð¸Ð²Ð°":2024,"ĠÑĩÐµÑģÑĬÐ½ÑĬÑĤ":2025,"Ð±Ð°ÑĤÐ°":2026,"ĠÐºÐ°ÐºÐ°Ð¾ÑĤÐ¾":2027,"ĠÐ±Ð»Ð°ÑĤ":2028,"ĠÐ¼Ð°ÑĢÐ¸Ð½Ð¾Ð²Ð°":2029,"ÐºÐ¾ÑģÑĤ":2030,"ĠÐ¿ÑĢÑıÑģÐ½Ð°":2031,"ĠÐ¿Ð°ÑģÑĤÐ°":2032,"ĠÐ½Ð°ÑģÑĤÑĬÑĢÐ³Ð°Ð½Ð¾":2033,"ĠÑģÑĤÑĬÑĢÐ³Ð¾":2034,"ÑĤÐ²Ð°ÑĢÑı":2035,"ÑģÑĤÐ¾Ñı":2036,"75":2037,"ĠÐºÑĬÑĢÐ¸":2038,"ĠÑħÐ°Ð¿ÐºÐ¸":2039,"ĠÑıÐ³Ð¾":2040,"Ġ50":2041,"ĠÐºÐ¾ÑĢÐ°ÑĤÐ°":2042,"ĠÐľÐµÑģÐ¾ÑĤÐ¾":2043,"Ð°ÐºÐ¾":2044,"ĠÑĩÐµÑĢÐ²ÐµÐ½Ð¸ÑıÑĤ":2045,"ĠÐ¸Ð·Ð²Ð°Ð¶Ð´Ð°ÑĤ":2046,"ÐłÐ°Ð·Ð±Ð¸":2047,"ĠÐ£":2048,"ĠÐºÐ¾Ð»Ð¸ÑĩÐµÑģÑĤ":2049,"ĠÐ·Ð°Ð¼ÐµÑģÐ²Ð°":2050,"Ð¿Ð¾ÑĢÐµÐ´":2051,"ĠÑĥÐºÑĢÐ°ÑģÐ°":2052,"ĠÐ´ÑĢÑĥÐ³Ð°ÑĤÐ°":2053,"Ð²Ð¸Ð²Ð°ÑĤ":2054,"ĠÑĨÐ°ÑĢÐµÐ²Ð¸Ñĩ":2055,"ĠÐ±ÑĬÑĢÐºÐ°Ð½Ðµ":2056,"ĠÐ¼Ð°ÑĢÐ¸Ð½Ð°ÑĤÐ°ÑĤÐ°":2057,"ĠÑĨÐ²Ðµ":2058,"ÑĤÑĢÐ¸":2059,"ĠÐºÐ°Ð½ÐµÐ»Ð°ÑĤÐ°":2060,"ĠÐ¾Ð±ÑĬÑĢÐºÐ²Ð°":2061,"ĠÐ±Ð»Ð°":2062,"ĠÑĢÑĬÑĨÐµ":2063,"ĠÐ½Ð°ÐºÑĬÑģ":2064,"ĠÐŀÐ²ÐºÑĥÑģ":2065,"Ð¾Ñģ":2066,"Ð¼ÐµÑģÐµ":2067,"ĠÑģÑĤÑĬÑĢÐ³Ð¾ÑĤÐ¸Ð½Ð¸":2068,"ĠÑĢÐ°Ð²Ð½Ð¾Ð¼ÐµÑĢÐ½Ð¾":2069,"ĠÑĢÐµÐ¶Ð°ÑĤ":2070,"ĠÐ´ÑĬÑĢÐ²":2071,"ĠÐ±Ðµ":2072,"ĠÐ½Ð°ÑĤÑĢÐ¾ÑĪÐµÐ½Ð¾ÑĤÐ¾":2073,"ĠÐ½Ð°ÑģÑĤÑĬÑĢÐ³Ð°Ð½Ð¸ÑĤÐµ":2074,"ÑĤÐµÐ½":2075,"ÐµÐ½ÐµÑĤÐ¾":2076,"ĠÐŀÑĦÐ¾ÑĢÐ¼":2077,"ĠÐ¿Ð¾Ð´ÑħÐ¾Ð´ÑıÑī":2078,"Ð¾Ð²Ð°ÑĤÐµÐ»Ð½Ð¾":2079,"ĠÐ·Ð°Ð²Ð¸Ð²Ð°":2080,"ĠÐ»Ð¸Ð¼Ð¾Ð½Ð°":2081,"ĠÐ¿Ð¾Ð»ÑĥÐ¼ÐµÑģÐµ":2082,"ĠÑģÑĥÑĪÐµÐ½Ð¸":2083,"ĠÐ¿ÑĬÑĤÐ¸":2084,"ĠÐ¿Ð¾Ð´Ð¿ÑĢÐ°Ð²ÐºÐ°":2085,"ĠÐ¿Ð¾Ð´ÑħÐ¾Ð´ÑıÑīÐ°":2086,"ĠÐ¿Ð¾Ð»Ð¸Ð²Ð°":2087,"ĠÑģÑĬÐ´Ð°":2088,"Ð¹Ð¼Ð°ÑĤÐ°":2089,"ĠÐºÐ°ÑĪÐ°":2090,"ĠÐºÐ°ÑĢÐ°Ð¼Ðµ":2091,"ĠÐ¼Ð¸Ð½ÑĥÑĤÐ°":2092,"ĠÐ½Ð°Ð±ÑĢÐ°ÑĪ":2093,"ĠÐºÐ²Ð°":2094,"ĠÐ½Ð°Ð¿ÑĬÐ»Ð½Ð¾":2095,"ĠÑĨÐ²ÑıÑĤ":2096,"ĠÑĢÐ°Ð·ÑĤÐ¾Ð¿Ð¸":2097,"ĠÐºÐ°ÑĦÑıÐ²Ð°":2098,"ĠÑĩÐµÑĢÐ½Ð¸ÑıÑĤ":2099,"ĠÐ³Ð°ÑĢÐ½Ð¸ÑĤ":2100,"Ð³Ð°Ð»ÐµÑĤÐ°":2101,"ĠÐ¾Ð±ÐµÐ»Ð²Ð°":2102,"ĠÑĥÐºÑĢÐ°ÑģÑıÐ²Ð°":2103,"Ð»Ð¸Ð¼Ð¾Ð½Ð¾Ð²":2104,"ĠÑģÐºÐ°ÑĢÐ°":2105,"ĠÐ¿Ð°Ð½Ð¸":2106,"Ð¼ÐµÐº":2107,"ĠÐºÐ¾Ð¼":2108,"ĠÑģÐ¾Ðµ":2109,"Ð¿Ð°ÑĢÐ¸":2110,"ĠÐ¿ÑĥÑģÐºÐ°":2111,"ĠÐ¿Ð¾Ð»ÑĥÐ¼ÐµÑģÐµÑĨÐ¸":2112,"ĠÐºÐ»Ðµ":2113,"ĠÑģÐ»Ð°Ð´ÐºÐ¸":2114,"ĠÐ¯Ð¹ÑĨÐ°ÑĤÐ°":2115,"ĠÐºÐ¾ÑĢÐ¸Ð°Ð½Ð´ÑĬÑĢ":2116,"Ġ8":2117,"ĠÑģÑĬÑīÐ°ÑĤÐ°":2118,"ĠÑĤÐ¾Ð¿ÐºÐ°":2119,"ĠÑĢÐ°Ð·ÑĤÐ¾Ð¿ÐµÐ½Ð¾ÑĤÐ¾":2120,"Ð´ÐµÑĤÐµ":2121,"ĠÐ½Ñĥ":2122,"ÑĢÐ¸Ð·":2123,"ĠÐ¼Ð°ÑģÐ»Ð¸Ð½Ð¸ÑĤÐµ":2124,"ĠÐ¿Ð¾Ð½Ðµ":2125,"ÑĬÑĢÐ°":2126,"ĠÐ½Ð°ÑĢÑıÐ·Ð°Ð½Ð¾ÑĤÐ¾":2127,"ĠÑĢÐ°Ð·ÑĤÐ¾Ð¿ÑıÐ²Ð°":2128,"ĠÑĩÐ°ÑĪÐ¸":2129,"ĠÐ¾ÑĢÐµÑħÐ¸ÑĤÐµ":2130,"Ġ25":2131,"ÐºÐ°ÑĪÐºÐ°Ð²Ð°Ð»":2132,"ĠÐ¿ÑĢÐ¸ÑĤÐ¸ÑģÐºÐ°":2133,"ĠÐ¿Ð°ÑĤÐ»Ð°Ð´Ð¶Ð°Ð½":2134,"ÑīÐ¸Ñı":2135,"Ð¸ÐºÐ²Ð¸ÑĩÐºÐ¸ÑĤÐµ":2136,"Ð¿Ð¾Ð»":2137,"ĠÐ²Ð°Ð½Ð¸Ð»Ð¸":2138,"ĠÐ½Ð¾Ð¶":2139,"ĠÐ³ÑĬÑģÑĤÐ°":2140,"ĠÐ¿Ð¾Ð²ÑĢÐ¸":2141,"Ð³Ð¾ÑĤÐ²Ñı":2142,"ĠÐ³Ð°Ð»ÐµÑĤÐ°ÑĤÐ°":2143,"ĠÐ¾ÑħÐ»Ð°Ð´":2144,"Ġ+":2145,"Ð¾Ð»Ð¸Ð¾ÑĤÐ¾":2146,"ĠÐ³Ð°ÑĢÐ½Ð¸ÑĢÐ°":2147,"ĠÐ½Ð°ÑĢÑıÐ·Ð²Ð°Ð¼Ðµ":2148,"ÑĩÑĥÐºÐ²Ð°ÑĤ":2149,"Ð¸ÑīÐ°ÑĤÐ°":2150,"ĠÐļÐ°ÑĢÑĤÐ¾ÑĦÐ¸ÑĤÐµ":2151,"ĠÐ½Ð°ÐºÑĬÐ»":2152,"ĠÑīÐ¸Ð¿":2153,"ĠÐĿÐ°Ð»Ð¸Ð²Ð°":2154,"ĠÐ¿Ð¾Ð´ÑģÑĥÑĪÐ°":2155,"ĠÑģÐ»Ð°Ð´ÐºÐ¾":2156,"Ð¹Ð½Ð°":2157,"ĠÐ¡Ð»Ð¾Ð¶ÐµÑĤÐµ":2158,"ĠÐ·Ð°Ð¿Ð¸ÑĩÐ°ÑĤ":2159,"ĠÐ¿ÑĢÐ¾Ð´ÑĬÐ»Ð¶Ð°":2160,"ĠÐ³Ð¾ÑĢÑĩÐ¸ÑĨÐ°ÑĤÐ°":2161,"ĠÑģÐ»Ð¾Ð¶Ð¸":2162,"ĠÐ³ÑĬÑģÑĤÐ¾":2163,"ĠÑĩÑĥÑĪÐºÐ°ÑĤÐ°":2164,"ĠÐ±ÑĥÑĤÐµÑĢ":2165,"ĠÐ¿Ð¾ÑģÐ»ÐµÐ´Ð¾Ð²Ð°ÑĤÐµÐ»Ð½Ð¾":2166,"ĠÑħÐ¾Ð¼Ð¾Ð³ÐµÐ½Ð½Ð°":2167,"ĠÐ½Ð°Ð¿ÑĢÐ°":2168,"ĠÐ½Ð°Ð¼Ð°Ð»ÑıÐ²Ð°":2169,"ĠÐĿÐ°ÑĢÐµÐ¶ÐµÑĤÐµ":2170,"ĠÐ·ÐµÐ»ÐºÐ°":2171,"ĠÑģÑĥÐ¿Ð°ÑĤÐ°":2172,"ĠÐµÐ´Ð½Ð°ÑĤÐ°":2173,"Ð¼ÐµÑģÐµÑĤÐµ":2174,"ĠÐ¿Ð»ÑĬÑĤ":2175,"ĠÑĢÐ°Ð·ÑĤÐ¾Ð¿ÐµÐ½Ð¾":2176,"ĠÑģÐ¿Ð¾ÑĢÐµÐ´":2177,"ĠÑĩÐµÑĤ":2178,"ĠÐĳÑĢÐ°ÑĪÐ½Ð¾ÑĤÐ¾":2179,"ĠÑĢÐ¾Ð·Ð¼Ð°ÑĢÐ¸Ð½":2180,").[":2181,"ĠÐĿÐ°ÑĢÐµÐ¶Ð´Ð°ÑĤ":2182,"ĠÐ¿Ð¾Ð»ÑĥÑĩÐµÐ½Ð°ÑĤÐ°":2183,"ĠÐŁÑĢÐ°":2184,"ĠÐºÑİÑĦÑĤÐµÑĤÐ°":2185,"ĠÐ´ÐµÑģ":2186,"ĠÑĪÐµ":2187,"ÐļÐ°":2188,"ÑĥÐ¿Ð°":2189,"ĠÑģÐ¸Ð»Ð½Ð°":2190,"ĠÐ¾ÑĤÑĨÐµÐ¶Ð´Ð°ÑĤ":2191,"ĠÐ¾ÑĤÐ²":2192,"ĠÑģÐ³Ð¾ÑĢÐµÑīÐµÐ½Ð¾":2193,"ĠÐ¾ÑħÐ»Ð°Ð´Ð¸":2194,"ĠÑģÐ¸ÑĢÐ¾Ð¿Ð°":2195,"ÑĩÐµÑĤÐ¾":2196,"ĠÐĳÑĬÑĢÐºÐ°":2197,"ĠÐ»ÐµÐ½ÑĤÐ¸ÑĩÐºÐ¸":2198,"ĠÑģÑĬÑĢ":2199,"Ð½Ð°ÐºÐ°":2200,"Ð»ÐµÐ½Ð¾":2201,"ÑħÐ¸":2202,"ĠÐ¾Ð±ÐµÐ»ÐµÐ½Ð¸ÑĤÐµ":2203,"ĠÐºÐ²Ð°Ð´":2204,"ĠÐ³Ð»Ð°Ð´":2205,"ĠÐĺÐ·Ð²Ð°Ð¶Ð´Ð°ÑĤ":2206,"Ðĵ":2207,"ĠÐ¸Ð·ÑĨÐµÐ´":2208,"ĠÐ¿Ð¾Ð¸Ð·":2209,"Ð»Ð¾Ð½":2210,"Ð²ÐºÐ°":2211,"ĠÐŀÑĤÐ´ÐµÐ»Ð½Ð¾":2212,"ĠÐ¿Ð¾ÑĢÑĤÐ¾ÐºÐ°Ð»Ð¾":2213,"ĠÐºÐ¾ÑĢÐ¸ÑĩÐºÐ°":2214,"ĠÐ³Ð¾ÑĤÐ²Ð°ÑĢ":2215,"ĠÐ³Ð°ÑĢÐ½Ð¸ÑĤÑĥÑĢÐ°":2216,"ĠÐ±ÑĢÐ¾ÐºÐ¾Ð»":2217,"ĠÑĤÐµÐ»ÐµÑĪÐºÐ¸":2218,"ĠÑĤÐµÑĩÐ½Ð¾ÑģÑĤÑĤÐ°":2219,"ĠÐºÑĢÐ°ÑģÑĤÐ°Ð²Ð¸ÑĨÐ°":2220,"Ð³ÑĢÑı":2221,"ĠÐ¡Ð¼ÐµÑģÐ²Ð°ÑĤ":2222,"ÐŁÐ¾ÑĩÐ¸ÑģÑĤ":2223,"ĠÐ¿Ð¸Ð»ÐµÑĪÐºÐ¾ÑĤÐ¾":2224,"ĠÐ·Ð°Ð¿Ð¾ÑĩÐ½Ðµ":2225,"ĠÐ¼Ð¸Ðº":2226,"Ð»ÐµÐ¹ÑĤÐµ":2227,"ÐºÑĥÐ¼Ð°":2228,"Ð»ÑĬÐ½":2229,"ÐĴÑģÐ¸ÑĩÐºÐ¸":2230,"ÑĩÐ½Ð°":2231,"ÐľÐ°":2232,"ĠÐºÐ¾ÐºÐ¾ÑģÐ¾Ð²Ð¸":2233,"ĠÐºÐ°ÐºÑĤÐ¾":2234,"ĠÐ´ÑĢÑĬÐ¶":2235,"ĠÐºÐ¾Ð»Ð±Ð°Ñģ":2236,"ĠÑģÐ¸Ð¿":2237,"ĠÐ³Ð»Ð°Ð´ÐºÐ°":2238,"ÑĬÐ±":2239,"ĠÐ¿ÑĢÐµÑħÐ²ÑĬÑĢ":2240,"ĠÐŁÐµÑĩÐµÐ¼":2241,"ĠÑģÐ²Ð°ÑĢÐµÐ½":2242,"Ð³Ð¾ÑĤÐ¾":2243,"ĠÐºÐ¾Ð½Ñı":2244,"ĠÐ·Ð°Ð»Ð¸Ð²ÐºÐ°ÑĤÐ°":2245,"ÐºÐ°ÑĦ":2246,"ÐµÐ½Ð¸Ðµ":2247,"ĠÐ¿Ð»Ð°ÑģÑĤ":2248,"ĠÐ¾Ð±ÐµÐ·ÐºÐ¾ÑģÑĤ":2249,"ĠÐ²ÐµÑĩÐµ":2250,"ĠÐĵÑĬÐ±Ð¸ÑĤÐµ":2251,"ĠÑģÐ»Ð¸":2252,"ĠÐŁÐ°ÑĢ":2253,"Ð¾ÑĤÐ³Ð¾ÑĢÐµ":2254,"ĠÐŀÑģÑĤÐ°Ð²ÐµÑĤÐµ":2255,"ÐµÐ»Ðµ":2256,"ĠÐŁÐ¾Ñģ":2257,"ĠÐºÑĢÐ°Ð¸ÑīÐ°ÑĤÐ°":2258,"ĠÐºÐ°ÑĢÐ°Ð¼":2259,"ĠÑģÑĥÑģÐ°Ð¼":2260,"ÑĢÐ¸Ð»Ð¸Ð·Ð¸":2261,"ĠÐ¸Ð·Ð¿Ð°ÑĢÐ¸":2262,"ĠÐ´Ð²Ð°":2263,"ĠÑħÐ»Ð°Ð´ÐºÐ°":2264,"Ġ500":2265,"ĠÐ¿Ð¾ÑĢÑĬÑģÐ²Ð°Ð¼Ðµ":2266,"ĠÐ¸Ð·Ð»Ð¸Ð²Ð°":2267,"ĠÐ´ÑĢÑĥÐ³Ð¾":2268,"ĠÑīÐ¸Ð¿ÐºÐ¸":2269,"ĠÑģÑĤÐ°Ð¹Ð½Ð°":2270,"ĠÐºÐ°ÑĦÐµ":2271,"ÐµÑĢÐ°":2272,"ĠÐ·Ð°Ð¿ÐµÑĩÐµ":2273,"Ġ250":2274,"Ġ150":2275,"ĠÑĦÐ¾Ð»Ð¸Ð¾ÑĤÐ¾":2276,"ĠÐ²ÑĬÑĤÑĢÐµÑĪ":2277,"ĠÐ¿Ð¾ÑĩÐ¸":2278,"ÑĬÐ·":2279,"ÑĥÑĢÐºÑĥÐ¼Ð°":2280,"ĠÑģÐ¿Ð°Ð³ÐµÑĤÐ¸":2281,"ÐµÐ½ÑĩÑĥ":2282,"ĠÑĦÐ¸Ð»ÐµÑĤÐ°":2283,"ĠÐ¶ÐµÐ»Ð°ÑĤÐ¸Ð½":2284,"ĠÐ¿ÑĢÐµÑĨÐµÐ¶Ð´Ð°":2285,"ĠÐ¿ÐµÑĩÐµÐ¼":2286,"ĠÐ»Ð¾":2287,"ĠÐ¿Ð¸ÑĤ":2288,"ĠÐ¿Ñı":2289,"ĠÐŁÐ¾Ð´Ð½Ð°ÑģÑıÑĤ":2290,"ĠÑĪÐ¸":2291,"90":2292,"ÑĢÐµÐ´ÐµÑĤÐµ":2293,"ĠÐ¿Ð¾ÑĤÐ°Ð¿ÑıÑĤ":2294,"ĠÑģÐ°ÑĢÐ¼Ð¸":2295,"ĠÐ²ÑĤÐ¾":2296,"ĠÐºÐ¾ÑĢ":2297,"Ð²ÑĬÑĢÑĪ":2298,"ĠÐ¿Ð¾ÑĢÑĤÐ¾ÐºÐ°Ð»":2299,"ĠÐºÐ°Ð¿ÐºÐ¸":2300,"ĠÐ½Ð°ÐºÐ¸ÑģÐ²Ð°":2301,"ĠÐ³ÑİÐ²ÐµÑĩ":2302,"ĠÐ¾Ð±ÑĬÑĢ":2303,"ĠÑĤÑĢÐ¾":2304,"ĠÐ±Ð»":2305,"ĠÐºÐ¾Ð»Ð¸ÑĩÐµÑģÑĤÐ²Ð¾":2306,"ĠÐºÑĥÑħ":2307,"ĠÑĥÐ¼ÐµÑĢÐµÐ½":2308,"ĠÐ±Ð°ÑħÐ°ÑĢ":2309,"ĠÐ³Ð¾ÑĤÐ¾Ð²Ð°":2310,"ĠÑĢÐµÑĪ":2311,"Ð±ÑĢÐ¸ÑĨÐ°ÑĤÐ°":2312,"ĠÑģÐ¾ÑģÑĬÑĤ":2313,"ĠÐ³Ð¾ÑĤÐ²Ð°ÑĢÑģÐºÐ°":2314,"Ð³Ð°ÑĤ":2315,"ĠÑĤÑĬÐ½ÐºÐ°":2316,"ĠÐ¿ÑĢÐ¾Ð´ÑĬÐ»Ð¶Ð°Ð²Ð°":2317,"ĠÐµÑģÐµÐ½":2318,"ĠÐµÐ´Ð½Ð¾ÑĢÐ¾Ð´":2319,"ĠÐ¿Ð°ÑģÐ¸ÑĢÐ°ÑĤ":2320,"ĠÐ¿Ð¾ÑĢÑĬÑģÐµÑĤÐµ":2321,"ĠÐŀÑģÑĤÐ°Ð²ÑıÑĤ":2322,"ĠÐŀÑģÑĤÐ°Ð½Ð°":2323,"ĠÐ±Ð°Ð½Ð¸ÑĨÐ°":2324,"Ð±Ð¾Ð½Ð°ÑĤ":2325,"ĠÑĢÐ°Ð·ÑĢÐµÐ¶Ð´Ð°":2326,"ĠÐ±Ð»ÐµÐ½Ð´":2327,"Ð¶Ð½Ð¾":2328,"ĠÐ¿Ð°ÐºÐµÑĤÑĩÐµ":2329,"ĠÐłÐ°Ð·Ð±ÑĬÑĢÐºÐ°Ð¹ÑĤÐµ":2330,"ĠÐºÑĢÐ¸":2331,"ĠÐ±Ð¸ÐºÐ°ÑĢ":2332,"ĠÑĩÑĥÐ±ÑĢÐ¸ÑĨÐ°ÑĤÐ°":2333,"ĠÐ½Ð°ÑĤÑĢÐ¾ÑĪÐ°":2334,"ĠÐ±Ð¸ÐºÐ°ÑĢÐ±Ð¾Ð½Ð°ÑĤ":2335,"ÑĢÐ¾Ð²Ð¸":2336,"ĠÐ¿Ð°ÑĢÐ¼ÐµÐ·Ð°Ð½":2337,"ĠÑģÐ²Ð°ÑĢÐµÐ½Ð¸ÑĤÐµ":2338,"ĠÐ½Ð°Ð¼Ð°ÑĩÐºÐ²Ð°ÑĤ":2339,"ĠÑĢÐµÐ´ÑıÑĤ":2340,"ĠÐŁÐ¾ÑĢÑĬÑģÐ²Ð°ÑĤ":2341,"ĠÐºÑĢÐµÐ½Ð²Ð¸ÑĢÑĪÐ¸":2342,"ĠÐ¾Ð±ÐµÐ¼Ð°":2343,"ĠÐ·Ð°Ð¿ÑĬÑĢÐ¶Ð²Ð°Ð¼Ðµ":2344,"ĠÑģÑĤÐ°Ð½Ð°ÑĤ":2345,"ĠÑģÐµÐ¼ÐºÐ¸ÑĤÐµ":2346,"Ð³ÐµÑĤÐ°":2347,"ĠÐ²Ð°Ð½Ð¸Ð»Ð¸Ð¸":2348,"ĠÐ¿Ð»ÑĬÑĤÐ½Ð¾":2349,"ĠÐ¿ÑĬÑĢÐ²Ð¾":2350,"ĠÐ°Ð³Ð½ÐµÑĪÐºÐ¾":2351,"ĠÐ¼Ð°ÐºÐ°ÑĢÐ¾Ð½Ð¸":2352,"ĠÑıÐ³Ð¾Ð´Ð¸":2353,"Ð¿ÐµÑĢ":2354,"Ð½Ð°ÑģÑĤÑĬÑĢ":2355,"ÑģÑĤÐ°Ð²ÐµÑĤÐµ":2356,"Ð³Ð¾Ð»Ñı":2357,"ĠÑĪÐ¸ÑĪ":2358,"ĠÐ²ÑĢÑĬÑīÐ°":2359,"ĠÑģÐ¼Ð¸Ð»Ð°ÑĤ":2360,"Ð´ÐºÐ¸ÑĤÐµ":2361,"ÑĤÑİ":2362,"Ð»ÐºÐ°":2363,"ĠÑģÑĥÑħÐ¸":2364,"ĠÐ¿Ð¾Ð¿Ð°ÑĢ":2365,"ĠÐŁÑĢÐ¸Ð±Ð°Ð²ÐµÑĤÐµ":2366,"ĠÐºÐ¾Ð¼Ð¿Ð¾":2367,"ÑĥÑĢÐ½Ð°ÑĤÐ°":2368,"ĠÑĤÐ°Ð²Ð¸ÑĩÐºÐ°ÑĤÐ°":2369,"ĠÑĨÐµÐ»Ð¸Ð½Ð°ÑĤÐ°":2370,"ĠÐµÑģÐµÐ½ÑĨÐ¸Ñı":2371,"ĠÑĢÐ°Ð·ÑĢÑıÐ·Ð²Ð°ÑĤ":2372,"ĠÐºÑĥÑħÐ½ÐµÐ½":2373,"Ġ220":2374,"ĠÑģÑĩÑĥÐºÐ°Ð½Ð¸Ñı":2375,"ĠÐ½Ð°ÑĩÐ¸Ð½":2376,"ĠÐ¾ÑģÑĤÐ°Ð½Ð°Ð»Ð¸Ñı":2377,"ĠÑĩÐ¸Ð»Ð¸":2378,"ĠÐ¿Ð»Ð¸":2379,"ĠÐ¼ÐµÐ½":2380,"Ð±ÐµÐ·":2381,"ĠÐºÐ¾ÑĢÐ¸ÑĤÐµ":2382,"Ð»Ð¸Ð½Ð¸":2383,"ĠÐ¿Ð¾Ð¾":2384,"ĠÐºÐ¸ÑģÐµÐ»Ð°":2385,"ĠÐĿÐ°Ð¹":2386,"ĠÐ¿ÑĬÐ»Ð½Ð¸":2387,"ĠÑģÑĤÐµÑĢÐ¸Ð»Ð¸Ð·Ð¸":2388,"ĠÐ½Ð°Ð´ÐµÐ½Ð¸ÑĨÐ°":2389,"ĠÑģÐ»Ð°Ð´ÐºÐ°":2390,"ĠÐ¿Ð¾ÑĢÑĬÑģÐµÐ½Ð°":2391,"ĠÐĹÐ°Ð»Ð¸Ð²Ð°ÑĤ":2392,"Ð´Ð¶":2393,"Ð·Ð°ÑħÐ°ÑĢ":2394,"Ġ7":2395,"Ð·Ð¸ÑĢÐ°":2396,"ĠÐ½Ð°ÑĢÑĬÑģÐ²Ð°":2397,"ĠÐ¿ÑĥÐ´ÑĢÐ°ÑĤÐ°":2398,"Ð¿ÑĥÐ´":2399,"Ð°ÑĤÐ°":2400,"ĠÐ¡Ð¸":2401,"ĠÐ¾Ð¿Ð°":2402,"ÑĩÐµÑģ":2403,"ÑĥÐ»Ð°":2404,"ĠÐºÑĥÑĢÐºÑĥÐ¼Ð°":2405,"ĠÑĩÐ¸Ð½Ð¸":2406,"ĠÑģÑĤÐµÐ³Ð½Ðµ":2407,"ĠÐµÐ´Ð½Ð¾ÑĢÐ¾Ð´Ð½Ð°":2408,"ÐĽ":2409,"ĠÐ±ÑĬ":2410,"Ð»Ð¸Ð²Ð°Ð¼Ðµ":2411,"ÐµÐ»ÑĤÑĬ":2412,"ĠÑĪÑĥÐ½ÐºÐ°ÑĤÐ°":2413,"ĠÐ´ÑĬÑĢÐ²ÐµÐ½Ð°":2414,"ĠÐ½Ð°Ð±ÑĢÐ°ÑĪÐ½ÐµÐ½Ð°":2415,"Ð¿ÑĥÐ´ÑĢÐ°":2416,"ĠÐ¿Ð¾Ð»ÑĥÑĩ":2417,"ĠÐ¾ÑĤÐ´ÐµÐ»Ñı":2418,"ÑĨÐµÐ¶Ð´Ð°ÑĤ":2419,"ÐºÐ½Ð¾Ð²":2420,"ÑĩÐµÑģÑĬÐ½":2421,"ĠÑģÑĤÑĢÐ¸":2422,"ĠÐ·ÐµÐ»ÐµÐ½ÑĩÑĥÐºÐ¾":2423,"ĠÐ»ÑĬÐ¶Ð¸ÑĨÐ¸":2424,"ĠÐ»Ð¸Ð¼Ð¾Ð½Ð¾Ð²Ð°":2425,"ĠÑģÐ»Ð°Ð´Ð¾Ð»":2426,"ĠÐ¿Ð¾Ð»Ð¾Ð²Ð¸Ð½ÐºÐ¸":2427,"ĠÐ·Ð°ÑĤÐ²Ð°ÑĢÑı":2428,"ĠÑģÐ¸Ð»ÐµÐ½":2429,"Ð¹ÑģÐ¸":2430,"Ð¡Ð¸":2431,"ĠÐ»ÑİÑĤÐ°":2432,"ĠÐ¿ÑĥÑĪÐµÐ½Ð¾":2433,"ĠÐºÐ°ÑĢÐ°Ð¼ÑĦÐ¸Ð»":2434,"Ð¸Ð±Ð°ÑĤÐ°":2435,"ÐµÐ½Ð¸ÑĨÐ°ÑĤÐ°":2436,"Ð»Ð°Ð´ÐµÐ½":2437,"Ð½ÑıÐºÐ¾Ð»ÐºÐ¾":2438,"ĠÑĢÐµÐ·ÐµÐ½ÑĩÐµÑĤÐ°":2439,"ÑĢÑıÐ·Ð°Ð½Ð¸":2440,"ĠÐ¶ÑĬÐ»ÑĤÑĬÐºÐ°":2441,"ĠÐ¿ÑĢÑĬÑģÑĤ":2442,"ĠÐ¾ÑĤÑģÑĤÑĢÐ°Ð½ÑıÐ²Ð°":2443,"Ð¿Ð°Ð´":2444,"ĠÐ¿Ð°ÑĤÐ»Ð°Ð´Ð¶Ð°Ð½Ð¸ÑĤÐµ":2445,"ĠÐ²ÑĬÐ·":2446,"Ġ12":2447,"ĠÐ¿ÑĢÐµÑģÑıÐ²Ð°":2448,"ĠÑĨÐ°ÑĢÐµÐ²Ð¸ÑĩÐ½Ð¾":2449,"Ð»ÐµÐ±":2450,"ĠÑģÑĤÑĥÐ´ÐµÐ½Ð¾":2451,"Ð²Ð°ÑĢÑıÐ²Ð°":2452,"ÑģÐµÐ¼":2453,"ĠÐ¾ÑģÐ½Ð¾":2454,"ĠÐ¾ÑĨ":2455,"Ð²ÐµÐ¶":2456,"Ð¼Ð°ÑĤÐ°":2457,"ĠÐºÐ¾Ð¿ÑĢÐ¸":2458,"ĠÐ¼ÐµÐ¶Ð´Ñĥ":2459,"ĠÐ´ÑĬÑĢÐ¶":2460,"ÑĨÐµÑĤ":2461,"Ð¼ÐµÑģÐ²Ð°Ð¼Ðµ":2462,"Ðł":2463,"ĠÑĦÐ¸Ð»Ð¸Ñı":2464,"ÐŁÐ°ÑĤÐ»Ð°Ð´Ð¶":2465,"ĠÐ½Ð°Ñħ":2466,"Ð´Ð¾Ð±ÑĢÐµ":2467,"ĠÑıÐ±ÑĬÐ»ÐºÐ°":2468,"Ð¾ÑģÑĬÑĤ":2469,"ĠÐ¨":2470,"ĠÐ©":2471,"Ð½Ð½Ð¾":2472,"ÑĢÐ¸ÑĤÐµ":2473,"ÑĤÐºÐ¾":2474,"Ð¼Ð°Ð»ÐºÐ¾":2475,"ĠÐºÐµÑĤ":2476,"ÑģÑĤÑĢÐ°":2477,"ĠÐĹÐ°Ð¿Ð¸ÑĩÐ°":2478,"ĠÐ¿Ð¾Ð»Ð¸Ð²Ð°ÑĤ":2479,"ĠÐ¿ÑĢÑĬÑĩÐ¸ÑĨÐ¸":2480,"ĠÐºÑĬÑģ":2481,"ĠÐ¾ÑģÐ¾Ð»":2482,"ĠÐºÑĢÐ°ÑĤÐºÐ¾":2483,"ĠÑĢÐ¸Ð±":2484,"ÐĶÐ¾":2485,"ÑģÐ¸Ð¿Ð²Ð°":2486,"ĠÐ±Ð¸ÑĢÐ°":2487,"ĠÑĤÑĢÐ¾ÑħÐ¸":2488,"ÑĢÐ¸Ð½Ð°":2489,"ÐºÑĬ":2490,"ĠÐ½Ð¾Ñī":2491,"ĠÐĿÐµ":2492,"ÐµÑģÐ¸":2493,"ĠÐ±Ð»ÐµÐ½Ð´ÐµÑĢ":2494,"ĠÑĢÐ¾Ð·Ð¸":2495,"ĠÐºÐ¾ÑĤÐ»Ð¾Ð½":2496,"ÐµÑĤÐ¸Ð½Ð°":2497,"Ð·ÐµÐ»":2498,"Ð³ÑĥÑĢ":2499,"ĠÐ·Ð°Ðµ":2500,"ĠÐĴÑĬÐ²":2501,"ÑĪÐ¸ÑĤÐµ":2502,"ĠÐ¾Ð²ÐµÑģ":2503,"ĠÐ¾Ð±Ð¸ÐºÐ½Ð¾Ð²":2504,"ĠÑģÐ»Ð¸Ð²Ð¸":2505,"Ð¿ÑĬÑĢÐ°":2506,"ĠÐŁÑĢÐ¸Ð±Ð°Ð²ÑıÐ¼Ðµ":2507,"Ġ*":2508,"Ð·ÑĢÐ°":2509,"ĠÐºÐ»Ð°Ð´ÐµÐ½":2510,"ĠÐ³ÑĢÐ¸Ñģ":2511,"ĠÐ¿Ð¾Ð·Ð°":2512,"ÑĢÐ¾Ð²":2513,"Ð¾Ð¼":2514,"ĠÐ²ÑĢÑĬÐ·ÐºÐ¸":2515,"ĠÐºÑİÑĦÑĤÐµÐ½":2516,"ÐºÐµ":2517,"ĠÐ¿Ð¾ÑģÑĤÐ¾Ñı":2518,"ĠÑģÐ²Ð¸Ð½ÑģÐºÐ°":2519,"ĠÑģÑĩÑĥÐºÐ°Ð½Ð¸":2520,"ĠÐ½Ð¸":2521,"ĠÑģÐ»Ð°Ð³Ð°ÑĤÐµ":2522,"ĠÐĶÐ¾Ð¼Ð°ÑĤÐ¸ÑĤÐµ":2523,"ĠÐ¡Ð»Ð°Ð³Ð°Ð¼Ðµ":2524,"ĠÑģÐ³Ð¾ÑĢÐµÑīÐµÐ½Ð¾ÑĤÐ¾":2525,"ĠÐ§ÑĥÑĪÐºÐ¸ÑĤÐµ":2526,"ĠÐ·Ð°Ð²Ð¸ÑģÐ¸":2527,"ĠÐ½Ð°ÐºÑĬÐ»ÑĨÐ°":2528,"ĠÑģÐ²ÐµÑĤ":2529,"Ð»ÐµÐ½Ð¸":2530,"ÐºÐ°Ð½":2531,"ĠÑģÑĤÐ°Ð²Ð°":2532,"ÐµÐ»ÑĤÑĬÑĨÐ¸ÑĤÐµ":2533,"ĠÐ¿Ð¾ÑģÑĤÐ¾ÑıÐ½Ð½Ð¾":2534,"ĠÐ½Ð°Ð²Ð¸Ð²Ð°":2535,"ĠÐ·Ð°Ð¿Ðµ":2536,"ĠÐ¡Ð¾ÑģÑĬÑĤ":2537,"ĠÐ½Ð°ÑģÑĤÑĬÑĢÐ³Ð°Ð½Ð°":2538,"ĠÑĥÐ´":2539,"ÑĢÐµÐ¹ÑĤÐµ":2540,"ĠÐºÐ¾Ð¶Ð°":2541,"ĠÑģÑĤÑĬÐº":2542,"ĠÐ¢Ð¾":2543,"ĠÑģÐ¿Ð°Ð½Ð°ÐºÐ°":2544,"ĠÑģÑĩÑĥÐºÐ°Ð½":2545,"ÑģÑĤÐµÑĤÐµ":2546,"ĠÐ´ÑĢÐ¾Ð±ÑĩÐµÑĤÐ°":2547,"ĠÐ¸Ð·Ð²Ð°ÑĢÐ°ÑĤÐ°":2548,"Ð¢Ð¸ÐºÐ²Ð¸ÑĩÐºÐ¸ÑĤÐµ":2549,"ĠÐŁÑĬÑĢÐ¶Ð°ÑĤ":2550,"ĠÐ·Ð°Ð¼ÑĢÐ°Ð·ÐµÐ½":2551,"ĠÐĸ":2552,"ĠÐ·Ð°ÑīÐ¾ÑĤÐ¾":2553,"ĠÑĤÑĢÐµ":2554,"Ġ45":2555,"ĠÐ¿Ð¾Ð²ÑĬÑĢÑħ":2556,"ĠÐ¿ÑıÐ½Ð°":2557,"Ð¾ÑĨÐµÑĤ":2558,"ĠÑĨÐ²ÐµÐº":2559,"ĠÐŁÐ°":2560,"ÐµÑĢÐ¸":2561,"ĠÑĤÑĬÐ½ÐºÐ¾":2562,"âĢĵ":2563,"ĠÑĪÐ°ÑĢ":2564,"ĠÐ°Ð½Ð°":2565,"ĠÑģÑĤÐ°ÑĦÐ¸Ð´Ð¸ÑĤÐµ":2566,"ĠÐ´Ð¾Ð±Ð°Ð²Ð¸":2567,"ĠÐºÐ¾Ð¿ÑĬÑĢÐ°":2568,"ĠÐĴÑģÐ¸ÑĩÐºÐ¸":2569,"ĠÐ¿Ð¾Ð´Ð½Ð°ÑģÑıÐ½Ðµ":2570,"ĠÐŁÐ¾ÑģÐ»Ðµ":2571,"ĠÐĺÐ·Ð¼Ð¸":2572,"ĠÑĤÐµÐ½Ð´Ð¶":2573,"ĠÐ¸Ð·ÑĢÑıÐ·Ð²Ð°ÑĤ":2574,"ĠÑģÑĤÑĢÑĥ":2575,"Ð°Ð·Ð¸":2576,"ĠÑĩÐµÑĤÐ²ÑĬÑĢ":2577,"ĠÐŀÑģÑĤÐ°Ð²ÑıÐ¼Ðµ":2578,"ĠÑģÐ¼Ð»ÑıÐ½Ð¾":2579,"ĠÐ¹ÐµÐ½":2580,"ĠÐŀÐ²ÐºÑĥÑģÑıÐ²Ð°":2581,"ÑĢÐ¸Ð·ÑĬÑĤ":2582,"Ġ600":2583,"Ð²Ð½Ð¾":2584,"ÑĢÐµÑģ":2585,"ĠÑħÐ»ÐµÐ±":2586,"ÐºÑĥÐ¼":2587,"Ð»ÑĥÐ¼Ð¸":2588,"ĠÐ£ÐºÑĢÐ°":2589,"ĠÐ¼Ð°Ñħ":2590,"ĠÐ¿ÑĢÐ¾Ð·ÑĢÐ°":2591,"ĠÐ´Ð¾Ð»":2592,"ĠÐ´Ð²Ð°ÑĤÐ°":2593,"ĠÑģÐºÐ°ÑĢÐ¸":2594,"ĠÐ·ÑĬÐ±Ð¸":2595,"ĠÐ¿ÑĢÐµÑģÐ¾Ð²Ð°":2596,"ĠÑģÐ²Ð°ÑĢÐµÐ½Ð¾":2597,"ĠÑĨÐ°ÑĢÐµÐ²Ð¸ÑĨÐ°ÑĤÐ°":2598,"ĹÐµÐ»ÐµÐ½ÑĩÑĥ":2599,"ÑĩÐ½Ð¸":2600,"ĠÐ¼Ð»Ðµ":2601,"ĠÐºÐ¸Ð¿Ð²Ð°":2602,"ĠÐ¸Ð·ÑģÐ¸Ð¿Ð²Ð°Ð¼Ðµ":2603,"ĠÐ³ÑĢÐ°ÑħÐ°":2604,"ĠÐ¿ÑĢÐµÑģÑĤÐ¾ÑıÑĤ":2605,"ĠÐ©Ð¾Ð¼":2606,"ĠÐ´Ð¾ÑģÑĤÐ°":2607,"ĠÐºÐ°Ð¹ÑģÐ¸":2608,"ĠÐ¾ÑģÑĤÐ°Ð½Ð°Ð»Ð¸":2609,"ÑĨÐ°ÑĢÐµÐ»Ð°":2610,"ĠÐ³ÑĬÐ±":2611,"ĠÐ¿Ð¾ÐºÑĢÐ¸Ð²Ð°ÑĤ":2612,"ĠÑģÑĤÐµÐ³":2613,"450":2614,"ĠÐ¡ÑĬ":2615,"ÑĢÐ¾Ð·Ð¾":2616,"ĠÐ±ÐµÐ»ÑĤÑĬÐº":2617,"ĠÑģÐ³ÑĬÑģÑĤÑıÐ²Ð°Ð½Ðµ":2618,"Ð½ÑıÐ²Ð°ÑĤ":2619,"ĠÐ»Ð¸ÑģÑĤÐ°ÑĤÐ°":2620,"ĠÐ¼ÐµÐ´Ð°":2621,"ĠÐ½Ð°ÑĤÑĢÐ¾ÑĪÐµÐ½Ð¾":2622,"ĠÐºÐ»ÐµÑĩÐºÐ°":2623,"ĠÐ±ÑĢÐ¾ÐºÐ¾Ð»Ð¸":2624,"ĠÐŁÐ¸Ð»Ðµ":2625,"ĠÐºÐ¾Ð½ÑģÐµÑĢÐ²Ð¸ÑĢÐ°":2626,"ĠÐŀÑĦÐ¾ÑĢÐ¼ÑıÑĤ":2627,"ĠÐ´ÐµÑģÐµÑĤÐ¸Ð½Ð°":2628,"ĠÐķ":2629,"Ð½ÑĪÐ¸":2630,"Ð¸Ð½Ð³":2631,"ĠÑģÐ¾ÐµÐ²Ð¸Ñı":2632,"ĠÐ¿Ð¾Ð¾Ð¼ÐµÐº":2633,"ÑĩÐºÐ°ÑĤÐ°":2634,"ĠÐ´ÐµÐ½":2635,"ĠÐĿÐ°ÑĢÑıÐ·Ð²Ð°":2636,"ĠÐ¿ÑĢÐµÑģÑıÑĤÐ¾ÑĤÐ¾":2637,"ÑĤÑİÑĢ":2638,"ĠÑĢÐ°Ð·Ð±Ð¸ÑĤÐ¾ÑĤÐ¾":2639,"ĠÐ¾Ð±ÑĢÑĬÑīÐ°ÑĤ":2640,"ĠÑģÑĥÑħÐ¾":2641,"ÐĿÐ°ÑĢÐµÐ¶ÐµÑĤÐµ":2642,"Ð³ÑĬ":2643,"ĠÐ¡Ð°":2644,"Ð¼Ð°ÑĤÐ¸":2645,"ÑģÐ¸ÑĢÐµÐ½Ðµ":2646,"ĠÐ·Ð°Ð¿ÑĬÑĢÐ¶ÐµÑĤÐµ":2647,"ĠÐ½Ð°ÑģÑĤÑĬÑĢÐ³Ð°Ð½Ð°ÑĤÐ°":2648,"Ð»ÑĥÐ¼Ð¸Ð½Ð¸Ðµ":2649,"ĠÐ»Ð¸Ðº":2650,"ĠÐ¸Ð·Ð¼Ð¸ÑĤÐ¸":2651,"Ð¾ÑĢÐºÐ¾Ð²Ð¸ÑĤÐµ":2652,"ĠÑĢÐ°Ð·Ð±Ð¸ÑĤÐ¾":2653,"ĠÐ¿Ð¾ÐºÑĢÐ¸ÑĤÐ°":2654,"ĠÐ»ÑĬÐ¶Ð¸ÑĩÐºÐ°":2655,"ĠÐ¾ÑĨÐ²ÐµÑĤ":2656,"Ð´ÐµÐ»ÑıÑĤ":2657,"ÑĤÐºÐ°":2658,"ĠÐ¼Ñı":2659,"ÐľÐ°ÑģÐ»Ð¾ÑĤÐ¾":2660,"Ð³Ð°Ð²Ð°":2661,"ĠÑģÐ²Ð°ÑĢÐ¸":2662,"ĠÑĩÐµÑĢÐµ":2663,"ĠÐ´ÐµÐ±ÐµÐ»Ð¸":2664,"Ð´ÐµÑĤÐ¾":2665,"ĠÑģÑĬÐ²":2666,"ÑĩÑĥÐºÐ²Ð°":2667,"ĠÐºÑĥÐ¿Ð¸ÑĩÐºÐ°":2668,"Ð§ÑĥÑĪÐºÐ¸ÑĤÐµ":2669,"ĠÐ½Ð°ÑĩÑĥÐºÐ²Ð°ÑĤ":2670,"ĠÐ¿ÐµÑĩÐµÐ½ÐµÑĤÐ¾":2671,"ĠÐºÐ»Ð°Ð´ÐµÐ½ÑĩÐµ":2672,"ĠÐ¿ÐµÑĩÐµÑĤÐµ":2673,"ĠÐ½Ð°ÑģÑĤÑĬÑĢÐ³Ð°Ð½Ð¾ÑĤÐ¾":2674,"ĠÐŁÐ°ÑĢÐ¼ÐµÐ·Ð°Ð½":2675,"ÑĢÐµÐ»Ð¸":2676,"ĹÐµÐ»ÐµÐ½ÑĩÑĥÑĨÐ¸ÑĤÐµ":2677,"ĠÑģÑĬÐ²ÑģÐµÐ¼":2678,"ĠÐ¼ÑĬ":2679,"ĠÑĢÐ°Ð·ÑĢÑıÐ·Ð²Ð°":2680,"ĠÑĪÑĥÐ¿":2681,"ĠÐ¿ÑĢÐµÑħÐ²ÑĬÑĢÐ»Ñı":2682,"ĠÐ¿Ð°ÑģÐ°":2683,"ĠÑĩÑĥÐº":2684,"ĠÐ³Ð¾ÑĤÐ²":2685,"ĠÐ´ÑĢÑĬÐ¶ÐºÐ¸ÑĤÐµ":2686,"ĠÐŁÐµÑĩÐµÑĤÐµ":2687,"ĠÐ¸Ð·Ð²Ð°Ð´Ð¸":2688,"Ð±Ñı":2689,"ĠÑģÑĤÐµÐ½Ð¸ÑĤÐµ":2690,"ĠÐ¸Ð·Ð¿Ð¸ÑĩÐ°ÑĤ":2691,"ĠÐ¿Ð¾Ð»Ð·Ð²Ð°":2692,"ĠÐŀÐ¼ÐµÑģÐ²Ð°":2693,"ĠÑģÐ¼Ð»ÐµÐ½Ð¸ÑĤÐµ":2694,"ĠÐ¿Ð¾ÑĢÐ¾Ð·Ð¾":2695,"ĠÐłÐ°Ð·ÑĤÐ¾":2696,"ĠÐ½Ð°ÑģÑĤÑĬÑĢÐ³Ð°Ð½Ð¸":2697,"ĠÐŁÐ¾ÑģÐ¾Ð»ÑıÐ²Ð°ÑĤ":2698,"ĠÐ»ÑİÑĤÐµÐ½Ð¸ÑĨÐ°":2699,"ĠÑĤÐ¾Ð¿ÐµÐ½Ð¾ÑĤÐ¾":2700,"ĠÐ·Ð»Ð°ÑĤÐ¸ÑģÑĤ":2701,"ĠÐ±Ð°Ð½Ð°Ð½Ð¸":2702,"ÑĢÐ¾Ð¹":2703,"ĠÐ´Ð¾Ð¼Ð°ÑĤÐµÐ½Ð¸Ñı":2704,"ĠÑĢÐ°Ð·Ð±ÑĬÑĢÐºÐ°":2705,"ĠÐºÐ°Ð¿Ð°ÐºÐ°":2706,"ĠÑģÐ»Ð°Ð´Ð¾Ð»ÐµÐ´":2707,"ĠÐ¼ÑıÑģÑĤÐ¾":2708,"ĠÑĤÐµÐ»ÐµÑĪÐºÐ°":2709,"Ð´Ð¶Ð¾Ð´Ð¶ÐµÐ½":2710,"ĠÐºÐ°ÑĢÑĤÐ¾ÑĦÐµÐ½Ð¾":2711,"Ð¿ÑĢÐµÑģÐµÐ½":2712,"Ð¸Ð½Ð³Ð°":2713,"ÑģÑĤÐ¸Ðµ":2714,"ĠÐ°Ð»ÑĥÐ¼Ð¸Ð½Ð¸Ðµ":2715,"ĠÐ±ÐµÐºÐ¾Ð½Ð°":2716,"ĠÐ»ÐµÑīÐ°":2717,"ĠÐ¼Ð°ÑĢÐ¸Ð½Ð¾Ð²Ð°Ð½Ð¸":2718,"ĠÐ³Ð»Ð°Ð´ÐºÐ¾":2719,"ĠÐ¿Ð¾Ð¸Ð·ÑģÑĤÐ¸":2720,"ÑĢÐ¾Ð²ÑĬÐ»":2721,"ĠÐ´Ð¾Ð¼Ð°ÑĤÐ°":2722,"ĠÐºÑĢÐ°Ð¹":2723,"ĠÐºÐ»Ð¾Ð½":2724,"ĠÑıÐ±ÑĬÐ»ÐºÐ¸ÑĤÐµ":2725,"ĠÐ»ÐµÑĪÐ½Ð¸":2726,"ĠÐºÑĥÐ¿Ð¸ÑĩÐºÐ¸":2727,"ÐļÐ°Ð¹Ð¼Ð°ÑĤÐ°":2728,"ĠÐ¸Ð·ÐºÐ»Ñİ":2729,"ÑĬÐ»ÑĤÑĬÑĨÐ¸ÑĤÐµ":2730,"ĠÐ·Ð°ÑĩÐµÑĢÐ²Ð¸":2731,"ÑĢÑĥÑĪ":2732,"ĠÐ¾ÑģÑĤÑĬÑĢ":2733,"ÑħÐºÐ°":2734,"ĠÐ¿ÑĢÐ°ÑģÐºÐ¾":2735,"ĠÑĤÐµÐ½Ð´Ð¶ÐµÑĢÐºÐ°":2736,"ĠÐ¼Ð¼":2737,"ĠÐ»ÐµÐ´":2738,"ĠÑĪÐ¾ÐºÐ¾Ð»Ð°Ð´Ð°":2739,"ĠÐĿÐ°Ð¼Ð°Ð·Ð²Ð°":2740,"ĠÐ²ÐµÐ³ÐµÑĤÐ°":2741,"ÑģÐ¿Ð¸":2742,"ĠÐ¿Ð°Ð»Ð°ÑĩÐ¸Ð½ÐºÐ¸":2743,"ĠÐ¼Ð¸ÐºÑĢÐ¾Ð²ÑĬÐ»":2744,"180":2745,"Ð²Ð°Ð½Ð¸":2746,"ĠÐĶÐ¾Ð»Ð¸Ð²Ð°":2747,"ĠÐ½ÑıÐ¼Ð°":2748,"ĠÐĴÑģÑıÐºÐ°":2749,"ĠÐºÑĥÑģ":2750,"ĠÐ²Ð¸Ð´":2751,"ĠÐľÐ°ÑģÐ»Ð¾ÑĤÐ¾":2752,"ĠÐ½Ð¸ÑĪÐµÑģÑĤÐµÑĤÐ¾":2753,"ĠÐ³ÑĢÐ¸Ð»":2754,"ĠÐ²Ð¸ÑģÐ¾":2755,"ĠÑģÑĤÐ°ÑĢ":2756,"ĠÐ¾ÑĤÑĨÐµÐ´ÑıÑĤ":2757,"Ð»ÑģÐ°":2758,"ĠÐ´Ð¾Ð±Ð°Ð²ÑıÑĤÐµ":2759,"ĠÐŁÐ¾ÐºÑĢÐ¸Ð²Ð°":2760,"ÐĳÑĢÐ°ÑĪÐ½Ð¾ÑĤÐ¾":2761,"ĠÑĢÑĬÐºÐ°":2762,"ĠÐ¸Ð·Ð¿Ð¸ÑĩÐ°":2763,"ĠÐĺÐ·Ð¿ÑĬÑĢÐ¶":2764,"ĠÐ¼Ð°ÑĢÑĥÐ»":2765,"ĠÑĤÐ¾ÑĢÑĤÐ°":2766,"ĠÐºÐ¾Ð¿ÑĢÐ¸Ð²Ð°":2767,"Ð¾Ð»Ð°":2768,"ÑĪÐ°Ð¼Ðµ":2769,"ÐŁÐ¸Ð»ÐµÑĤÐ¾":2770,"ĠÐ·Ð°Ð¿Ð°":2771,"ĠÐŀÐ±ÐµÐ»":2772,"ĠÐ³Ð¾ÑĢÐµÑīÐ¾":2773,"ĠÐłÐ°Ð·Ð±ÑĬÑĢÐºÐ²Ð°Ð¼Ðµ":2774,"ĠÐ½Ð°Ð±ÑĬÐ±":2775,"ĠÑĢÐ°Ð·ÑĤÐ²Ð¾":2776,"ĠÑĢÐ°ÑģÑĤÐ¸ÑĤÐµÐ»Ð½Ð¾ÑĤÐ¾":2777,"ĠÑĢÐ°Ð·Ð¿ÑĢÐµÐ´ÐµÐ»ÑıÑĤ":2778,"ÑĢÐ¾Ð²Ð¸Ð½":2779,"ĠÑĢÐ¾Ð·Ð¸ÑĩÐºÐ¸":2780,"ĠÐ·Ð°Ð¿":2781,"ÑĥÐ¿Ð°ÑĤÐ°":2782,"ĠÐºÐ¾Ð½ÑıÐº":2783,"ĠÑĪÐ¸ÑĢÐ¾":2784,"ĠÐ¸Ð·Ð²ÑĢÐ¸":2785,"ĠÑĢÐ°Ð·Ð±Ð¸ÑĤÐ¸":2786,"ĠÐ³Ð¾Ð»ÐµÐ¼Ð¸Ð½Ð°":2787,"ĠÑģÐ³Ð¾ÑĢÐµÑīÐµÐ½Ð°":2788,"ĠÑģÐ¼Ð¸Ð»Ð°":2789,"ĠÐ°ÑĢÐ¾Ð¼Ð°ÑĤ":2790,"ÑĢÐ°Ð·Ñĥ":2791,"ĠÐŁÐ¾Ð´ÑĢÐµÐ¶Ð´Ð°ÑĤ":2792,"ĠÑģÑĤÐ¾":2793,"ĠÐ·Ð°Ð¿ÑĬÑĢÐ¶Ð¸":2794,"ĠÐºÐ¸Ð¿Ð½Ðµ":2795,"ĠÐ¿ÑĢÐ°Ð²Ð¾ÑĬÐ³ÑĬÐ»Ð½Ð¸":2796,"ĠÐŁÐ¾ÑģÑĤÐ°Ð²ÑıÑĤ":2797,"ĠÐĴÑĤ":2798,"ÑĢÐµÐ½ÐµÑĤÐ¾":2799,"Ð¿ÐµÑĩÐµÐ½Ð¸":2800,"Ð²Ð¾ÐºÐ°":2801,"ĠÐ¿ÑĥÑħÐºÐ°":2802,"ÑĢÑıÐ·Ð°Ð½Ð¸ÑĤÐµ":2803,"ĠÑĢÐµÐ·ÐµÐ½Ð¸":2804,"ÑĢÐ¾Ð´ÑĥÐº":2805,"ĠÐ¿Ð¾Ð´ÑĢÐµÐ¶Ð´Ð°":2806,"ĠÐ¿ÑĢÐµÑĤÑĢÐ¸":2807,"ĠÑħÑĢÑĥ":2808,"ĠÐ¿ÑĢÐ¸Ð³Ð¾ÑĤÐ²ÐµÐ½Ð°ÑĤÐ°":2809,"ĠÐ½Ð°Ð¼Ð°ÑĩÐºÐ²Ð°":2810,"ÑĬÑĢÐ¶ÐµÑĤÐµ":2811,"ĠÐ¿Ð¾Ð´Ð½Ð°ÑģÑıÑĤ":2812,"ĠÐ¸Ð·ÑģÑĤÐ¸Ð½Ð°":2813,"ĠÐ±Ð»Ð°Ð½ÑĪÐ¸":2814,"ÐŁÐ°ÑĤÐ»Ð°Ð´Ð¶Ð°Ð½Ð¸ÑĤÐµ":2815,"ĠÐ¸Ð·ÑģÐ¸Ð¿ÐµÑĤÐµ":2816,"ĠÐ¾Ð±ÑĢÐ°Ð·Ñĥ":2817,"ĠÐ½Ð°ÑħÑĥÑĤ":2818,"ĠÐ·Ð°Ð´ÑĥÑĪÐ¸":2819,"ĠÐ¾Ð²Ð°Ð»Ð²Ð°":2820,"ĠÑĦÐ¾ÑĢÐ¼Ð¸ÑĩÐºÐ¸":2821,"ĠÐ³ÐµÐ²":2822,"Ð¿Ð¾ÑĩÐ¸":2823,"Ð»ÑıÐºÐ¾":2824,"ÑĨÐµÐ´":2825,"ĠÐ¾Ð²Ð°Ð»Ð²Ð°Ð½Ðµ":2826,"ĠÐ¿ÑĬÑĢÐ¶Ð¾Ð»Ð¸ÑĤÐµ":2827,"ÑĤÐ½Ð¸":2828,"Ð¿Ð²Ð°":2829,"ĠÐ¼Ð°Ð¶Ðµ":2830,"ĠÐłÐ°Ð·Ð´ÐµÐ»Ñı":2831,"ĠÐ¾ÑĤÐ´ÐµÐ»ÑıÑĤ":2832,"ĠÐºÐµÑĤÑĩÑĥÐ¿":2833,"ÑģÐ¼":2834,"ÑĩÐ²Ð°ÑĤ":2835,"ĠÐ´Ð°ÑĦÐ¸Ð½Ð¾Ð²Ð¸":2836,"ĠÐ¿ÑĥÑģÐºÐ°ÑĤ":2837,"ĠÐºÐ¾Ð¶Ð°ÑĤÐ°":2838,"ÑĩÐ½Ð°ÑĤÐ°":2839,"Ġ300":2840,"ÐµÑĤÐºÐ°":2841,"ĠÐºÐ¾ÐºÐ¾ÑģÐ¾":2842,"ĠÐĹÐ°Ð´ÑĥÑĪÐ°Ð²Ð°":2843,"ĠÐ°Ð»ÑĥÐ¼Ð¸Ð½Ð¸ÐµÐ²Ð¾":2844,"Ð»ÑıÑĤ":2845,"ÑĬÑĢÐ½Ðµ":2846,"ÑĢÑıÐ·Ð°":2847,"ÑģÑĤÐ°ÑĤÐ°":2848,"ĠÐ¡ÐµÑĢÐ²Ð¸ÑĢÐ°ÑĤ":2849,"ĠÐŁÑĬÑĢÐ¶Ð¸":2850,"ÑĤÐµÐ³":2851,"ÑĩÐµÑĤÐµ":2852,"ĠÐ¸Ð·Ð»Ð¸":2853,"ĠÐ¼ÐµÑģÐ¸":2854,"ÐĵÑĬÐ±Ð¸ÑĤÐµ":2855,"ĠÑĥÐ´Ð²Ð¾":2856,"ĠÑĢÐ°Ð·ÑĢÐµ":2857,"ÑĩÐ°ÐºÐ²Ð°":2858,"ĠÐ±Ð¸ÑĪÐºÐ¾":2859,"ÑĢÐ¾Ð´ÑĥÐºÑĤÐ¸ÑĤÐµ":2860,"ĠÑĤÐ¾Ð½":2861,"ĠÐ¼Ð°Ð³Ð´Ð°Ð½Ð¾Ð·ÑĬÑĤ":2862,"ÐĿÐ°ÑĢÑıÐ·Ð²Ð°Ð¼Ðµ":2863,"ĠÐĹÐ°Ð¿ÑĬÑĢÐ¶Ð²Ð°":2864,"ĠÐŁÐ¾Ð»ÑĥÑĩ":2865,"ĠÐºÐ²Ð°Ð´ÑĢÐ°ÑĤ":2866,"Ð´Ð¾Ð»Ñĥ":2867,"ĠÑĢÐ°Ð·Ð±ÑĬÑĢÐºÐ²Ð°ÑĤÐµ":2868,"ĠÐ±Ð¾ÑĢÐ¾Ð²Ð¸Ð½":2869,"ĠÑģÐµÐºÑĥ":2870,"ĠÐ´ÑĥÐ¿":2871,"ĠÐĿÐ°ÑĢÑıÐ·Ð²Ð°ÑĤ":2872,"ĠÐ²Ð°Ð½Ð¸Ð»Ð¾":2873,"ĠÐ½Ð°ÑĢÑĬÑģÐ²Ð°ÑĤ":2874,"ĠÐ½ÑĥÐ¶Ð´Ð°":2875,"ĠÑĢÐ°Ð·Ð¼ÐµÑĢ":2876,"ĠÐ²ÑĢÑıÐ»Ð°":2877,"Ð³ÑĢÐµÐ¹ÑĤÐµ":2878,"ÑĪÐµ":2879,"ĠÐºÐ¾Ð½ÑģÑĥ":2880,"Ð³Ð¾Ð»ÐµÐ¼Ð¸":2881,"ĠÐŁÑĢÐ°Ð²Ð¸":2882,"ĠÐ·Ð°Ð»Ð¸Ð²Ð°Ð¼Ðµ":2883,"ĠÐ¾ÑħÐ»Ð°Ð¶Ð´Ð°":2884,"ĠÐ·Ð°Ð»ÐµÐ¿":2885,"ĠÐ¡Ð²Ð°Ð»Ñı":2886,"ĠÐ¾ÑģÑĤÐ°Ð½Ð°ÑĤ":2887,"ĠÐ¿Ð¾ÑĩÐ¸ÑģÑĤÐµÐ½Ð¸ÑĤÐµ":2888,"ĠÐ¾ÑĤÑģÑĤÑĢÐ°Ð½Ð¸":2889,"ĠÐĽÑĥÐºÐ°":2890,"ÑĢÐ°Ð¼Ðµ":2891,"ĠÐºÐ°ÑĪÐºÐ°Ð²Ð°Ð»ÑĬÑĤ":2892,"ĠÐºÐ¾ÑģÑĤÐ¸Ð»ÐºÐ¸":2893,"Ð³ÑĢÑıÐ²Ð°":2894,"ĠÐ¼ÑĬÑĦÐ¸":2895,"ĠÐ³Ð¾ÑĤÐ²ÐµÐ½Ðµ":2896,"ĠÐ½Ð°ÑģÑĤÑĬÑĢÐ³Ð°Ð½Ð¸ÑıÑĤ":2897,"ĠÐ´ÑĢÐµÐ±Ð¾Ð»Ð¸":2898,"Ð±ÐµÐ»ÐµÑĤÐµ":2899,"ĠÑģÐ°Ð»Ð°ÑĤÐ°ÑĤÐ°":2900,"ĠÑĤÑĬÐ¼":2901,"ĠÐ¿Ð°ÑĢÑĩÐµÐ½ÑĨÐµ":2902,"ĠÑĪÐ¾ÐºÐ¾Ð»Ð°Ð´Ð¾Ð²Ð¸":2903,"ĠÐ¾ÑĤÐ´ÐµÐ»Ð½Ð¾":2904,"ĠÐ°Ð½Ð°Ð½Ð°Ñģ":2905,"ÑĬÐ¶":2906,"Ġ24":2907,"ĠÑĢÐ°Ð·Ð±Ð¸Ð²Ð°Ð¼Ðµ":2908,"ÑĬÐ³ÑĬÐ»Ð½Ð¸":2909,"ĠÐ±Ð»Ð°ÑĤÐ¾":2910,"Ð»ÑıÐºÐ¾ÑĤÐ¾":2911,"Ð»Ð°Ð½Ð°":2912,"ĠÐºÐ°ÑĦÑı":2913,"Ġ400":2914,"Ð¿Ð°Ð½Ð°Ðº":2915,"Ð¼Ð¾ÑģÑĤ":2916,"ĠÐŁÑĢÐ¸Ð³Ð¾ÑĤÐ²Ñı":2917,"Ð¿ÑĬÐ»Ð½Ð¸":2918,"ĠÐ±Ð¸ÑģÐºÐ²Ð¸ÑĤÐ¸ÑĤÐµ":2919,"ĠÐ¾Ð¿Ð°ÐºÐ¾Ð²":2920,"ÑĢÐ¸Ñı":2921,"ĠÐ¿Ð¾Ð±ÐµÐ»":2922,"ĠÐ±Ð°Ð²ÐµÐ½":2923,"ĠÐĵÐ¾ÑĤÐ¾Ð²Ð¸ÑĤÐµ":2924,"Ð´ÑĬÑĤ":2925,"ĠÑĢÑı":2926,"ĠÐ³Ð»Ð¸":2927,"ĠÐ±ÑĥÐ»Ð³ÑĥÑĢ":2928,"ĠÐĳÐµÐ»ÑĤÑĬÑĨÐ¸ÑĤÐµ":2929,"ĠÑĨÐ²ÐµÐºÐ»Ð¾":2930,"ĠÑħÑĢÑĥÐ¿ÐºÐ°":2931,"Ð²ÐµÐ½Ð¸":2932,"ĠÐ½Ð°Ð¼Ð°ÑĩÐºÐ°":2933,"ĠÑģÐ¿Ð°Ð³ÐµÑĤÐ¸ÑĤÐµ":2934,"ĠÐ¿ÑĢÐ°Ð²Ð¾ÑĬÐ³ÑĬÐ»Ð½Ð°":2935,"ĠÐ¿Ð¾ÑħÐ»ÑĥÐ¿Ð²Ð°":2936,"ÐŀÐ±ÐµÐ»":2937,"ĠÐºÐ¾Ð½Ðµ":2938,"ĠÐ´ÑĬÐ»Ð³Ð¸":2939,"ĠÐ¿Ð¾Ð»ÑĥÑĩÐ°Ð²Ð°Ð½ÐµÑĤÐ¾":2940,"Ð½ÑıÐ²Ð°":2941,"ĠÑģÐ¼Ð°":2942,"ĠÐ·Ð°ÑħÐ»ÑĥÐ¿Ð²Ð°":2943,"Ð¼ÐµÑĤÐµ":2944,"ĠÑĤÐ¾Ð·Ð¸":2945,"ĠÐļÑĢÐµ":2946,"ĠÐ¿Ð¾Ð»ÑĥÐ³Ð¾ÑĤÐ¾":2947,"ĠÑĢÐ°Ð²Ð½Ð¸":2948,"ĠÐ¡ÑĥÐ¿Ð°ÑĤÐ°":2949,"ĠÑĤÐµÑĩÐµÐ½":2950,"ĠÐ³Ð¾Ð²ÐµÐ¶":2951,"ĠÐ²Ð¸Ð´Ð°":2952,"ĠÐºÐ¾ÑģÑĤÐ¸Ð»ÐºÐ¸ÑĤÐµ":2953,"ĠÐºÐ°ÑĢÐ°Ð¼ÐµÐ»Ð¸Ð·Ð¸":2954,"ĠÐłÐ°Ð·Ð±ÑĬÑĢÐºÐ²Ð°ÑĤ":2955,"ĠÐ½Ð°ÑĤÑĢÐ¾ÑĪÐ°Ð²Ð°":2956,"ĠÐºÐ¾Ð¼Ð¿Ð¾ÑĤ":2957,"Ð¾Ð»Ð¸ÑĤÐµ":2958,"ÑĮÐ¾ÑĢ":2959,"ĠÑĢÐµÐ´Ñĥ":2960,"ĠÐ¾ÑĤÐ´ÐµÐ»ÐµÐ½":2961,"ĠÐ¼Ð°Ð»ÑĬÐº":2962,"ĠÑĩÑĥÑĪÐ»ÐµÑĤÐ°":2963,"ĠÐ¶ÑĬÐ»":2964,"ĠÑģÑĤÐ¾Ð¿":2965,"ĠÐ¿ÑĬÐ»Ð½Ðµ":2966,"ĠÐ¿ÑĢÐ°Ð·Ð°":2967,"ĠÐ´ÑĢÑĥÐ³Ð¸ÑĤÐµ":2968,"ÐŁÐ¸Ð»ÐµÑĪÐºÐ¾ÑĤÐ¾":2969,"ĠÐ·Ð°Ð¿ÑĢÑĬÐ¶":2970,"Ð²Ð°ÑĢÐµÑĤÐµ":2971,"ĠÐ·Ð°Ð²Ð¸ÑĢÐ°":2972,"ÑĩÐ¸ÑĨÐ°":2973,"ĠÐ°Ð·":2974,"ĠÐ»Ð°Ð¿Ð°Ð´":2975,"ÐµÐ»ÐµÑĤÐ¾":2976,"ĠÑĩÐ¸Ð½Ð¸Ð¸":2977,"ĠÐ¿Ð¾Ð±ÐµÐ»ÑıÐ²Ð°Ð½Ðµ":2978,"Ð½ÑĬÐ¶":2979,"ÑĩÐ¾":2980,"ÐºÐ¸Ð¼Ð¸Ð¾Ð½":2981,"ÐŁÑĢÐ¸":2982,"Ð±Ð¾ÑĤ":2983,"ĠÐ¸Ð·Ð¿Ð»Ð°":2984,"ĠÐ´Ð¾ÑģÑĤÐ°ÑĤÑĬ":2985,"ĠÐ¿Ð°ÑģÐ°ÑĤÐ¾ÑĢ":2986,"ĠÑģÐµÐºÑĥÐ½Ð´Ð¸":2987,"Ð´ÑıÑĤ":2988,"Ð·Ð°Ð½Ð¸":2989,"ĠÐ³Ð¾ÑĤÐ¾Ð²Ð°ÑĤÐ°":2990,"Ð¡Ð²Ð°ÑĢÑı":2991,"ĠÑģÐµÐ¼ÐµÑĤÐ¾":2992,"ĠÐ·Ð°Ð²":2993,"ĠÐ¿ÑĬÐ»Ð½Ð°":2994,"Ð»Ð°ÑĤÐ°ÑĤÐ°":2995,"ĠÑģÐ»Ð¾Ð¹":2996,"Ð²Ð¸Ð·":2997,"ĠÑĪÐ½Ð¸":2998,"ĠÐ¿Ð°ÑĢÑĩÐµÑĤÐ°ÑĤÐ°":2999,"ĠÐ½Ð°ÐºÑĬÑģÐ²Ð°":3000,"Ð»ÐºÐ¸":3001,"Ð²ÐºÐ¸ÑĤÐµ":3002,"ĠÐ³ÑĬÑģÑĤ":3003,"ĠÑıÑģÑĤÐ¸Ðµ":3004,"ÑĥÐ¿Ð¾ÑĢ":3005,"ĠÑħÐ»ÑıÐ±Ð°":3006,"ĠÐ¸Ð·ÑĩÐ¸ÑģÑĤÐ²Ð°ÑĤ":3007,"ĠÑģÑĬÑīÐ¸Ñı":3008,"ĠÐ¿Ð¾ÑģÑĤÐ°Ð²ÑıÐ¼Ðµ":3009,"âĢĶ":3010,"ĠÐ¿Ð°Ð½Ð¸ÑĢÐ¾":3011,"ÐĲ":3012,"Ð¾Ð²Ðµ":3013,"ĠÐ±ÑıÐ»Ð¾ÑĤÐ¾":3014,"ĠÐºÐ¾Ð½ÑĦÐ¸":3015,"ĠÑĨÑıÐ»Ð°ÑĤÐ°":3016,"Ð²ÐµÐ½Ð¾":3017,"ĠÐ±ÑıÐ»Ð°":3018,"ĠÐ±ÐµÐ»ÑĤÑĬÐºÐ°":3019,"ĠÑģÑĬÑĢÑĨÐµ":3020,"ĠÐŁÐ¾Ð»":3021,"ĠÐľÐ°Ð»ÐºÐ¾":3022,"ĠÐ£ÐºÑĢÐ°ÑģÑıÐ²Ð°":3023,"ĠÐºÐ°Ð¹ÑģÐ¸Ð¸":3024,"ĠÑĦÑĬÑģÑĤ":3025,"ĠÐĴÑĢÐ¸":3026,"ĠÑģÐ°Ð»":3027,"ĠÐ¼Ð¾ÑĨÐ°ÑĢÐµÐ»Ð°":3028,"ĠÑģÐ²Ð°ÑĢÑıÑĤ":3029,"ĠÐĲÐ·":3030,"Ð¼Ð±Ð¸":3031,"ĠÐ´ÐµÐºÐ¾":3032,"ĠÐŁÐ¾ÑĢÑĬÑģÐµÑĤÐµ":3033,"ĠÑĤÐµÑĩÐ½Ð¾ÑģÑĤ":3034,"Ð·ÑĥÑĢÐ°ÑĤÐ°":3035,"Ð¼Ð°Ð»Ð°Ð´":3036,"ÑĢÑĬÑīÐ°":3037,"Ð¿Ð¸ÑĢÐ°":3038,"ĠÑģÐ¾ÐºÑĬÑĤ":3039,"ĠÐ¼Ð¾Ð³Ð°ÑĤ":3040,"ĠÐºÑĥÐ¿Ð°ÑĤÐ°":3041,"ĠÐ±ÑĬÑĢÐºÐ°Ð¼Ðµ":3042,"ĠÐ´ÑĬÑĢÐ¶Ð¸":3043,"ĠÐ³ÐµÐ²Ð³Ð¸":3044,"ĠÐ´ÑĢÐµÑģ":3045,"Ð´Ð°ÑĦÐ¸":3046,"ĠÑĢÐ°Ð·Ð±ÑĬÑĢÐºÐ²Ð°Ð½Ðµ":3047,"ĠÑĤÑĢÐ¸ÑĬÐ³ÑĬÐ»Ð½Ð¸":3048,"ĠÐ»Ð¸ÐºÑĮÐ¾ÑĢ":3049,"ÑĬÑĢÐ²Ð¾":3050,"ĠÐ¡Ð¸Ð¿Ð²Ð°":3051,"ĠÐºÑĢÐ°Ð²Ðµ":3052,"ĠÐ¿Ð¾ÑĢÑĨÐ¸Ñı":3053,"ĠÐ¾ÑĤÑģÑĤÑĢÐ°":3054,"ÐľÐ°ÑıÑĤÐ°":3055,"ÐºÐ°Ð½Ðµ":3056,"ĠÐ±Ð¾Ð±Ð°":3057,"ĠÐ¾Ð±ÐµÐ·ÐºÐ¾ÑģÑĤÑıÐ²Ð°":3058,"Ð´Ð°ÑĦÐ¸Ð½Ð¾Ð²":3059,"ĠÐ½Ð°Ð²":3060,"Ð¾Ð´Ð°ÑĤÐ°":3061,"ĠÑģÑĢÐµÐ´Ð½Ð°":3062,"ĠÐ¸Ð·ÑĨÐµÐ¶Ð´Ð°":3063,"ĠÐ²Ð°ÑĢÐµÐ½ÐµÑĤÐ¾":3064,"ĠÐ¼Ð°ÐºÐ°ÑĢÐ¾Ð½Ð¸ÑĤÐµ":3065,"ĠÐ·Ð°ÑģÑĤÑĢÐ¾Ð¹":3066,"ÑĤÐ°Ð½Ð°ÑĤÐ°":3067,"ĠÐ¿Ð¾ÑģÑĤÐ°Ð²ÐµÑĤÐµ":3068,"ÑħÐ»Ñİ":3069,"ĠÑħÐ»Ð°Ð´Ð½Ð¾":3070,"ĠÐĹÐ°Ð´ÑĥÑĪÐ°Ð²Ð°ÑĤ":3071,"ĠÐ¿Ð¾Ð´ÑģÑĥÑĪÐ°Ð²Ð°ÑĤ":3072,"ĠÐ¾ÑĤÐ²ÑĬÑĤÑĢÐµ":3073,"ĠÐ¼ÐµÐ½ÑĤÐ°":3074,"ĠÐºÑĢÑĥÑĪ":3075,"ĠÑĥÐ·":3076,"ĠÐ±ÑĥÐ»ÑĮÐ¾Ð½ÑĬÑĤ":3077,"ĠÐ´Ð°ÑĦÐ¸Ð½Ð¾Ð²Ð¸Ñı":3078,"ĠÐ±ÑĬÐ´Ðµ":3079,"ĠÐ¼ÑĬÑĦÐ¸Ð½Ð¸":3080,"ĠÐºÐ¾Ð½ÐµÑĨ":3081,"Ð¼Ð°ÑīÐµÑĢÐºÐ°":3082,"ĠÐ¿ÑĢÐ¸Ð±Ð°":3083,"ĠÑģÐµÑĢÐ²Ð¸ÑĢÐ°ÑĤ":3084,"ĠÑĤÐ²ÑĬÑĢÐ´":3085,"Ð¿ÑĢÐ¸ÑĨ":3086,"ĠÐ½Ð°ÑģÑĤÑĢÐ°Ð½Ð¸":3087,"ĠÐ³ÐµÐ²Ð³Ð¸ÑĢ":3088,"ÑĤÐµÐ½Ð°":3089,"ĠÐ³Ð°Ð·Ð¸":3090,"ĠÐ¿Ð¾Ð»Ðµ":3091,"ĠÐ»ÑİÑģÐ¿Ð¸":3092,"ĠÐ³ÑĢÐ°ÑħÑĬÑĤ":3093,"ĠÑĪÐµÐ¿Ð°":3094,"ĠÐ¿ÑĢÐµÐ´Ð¿Ð¾ÑĩÐ¸":3095,"ÑģÑĥÑĪ":3096,"ĠÐ·Ð°Ð´ÑĥÑĪÐ°Ð²Ð°Ð¼Ðµ":3097,"ĠÑĥÐºÐ°":3098,"ĠÐłÐ°Ð·Ð±Ð¸Ð²Ð°ÑĤ":3099,"ĠÐ¾ÑĦÐ¾ÑĢ":3100,"ĠÐ²ÐºÐ»Ñİ":3101,"ĠÐºÐ¸ÑģÐµÐ»Ð¸Ð½Ð°":3102,"ĠÐ¾Ð³Ð½Ðµ":3103,"ĠÑģÑĥÑħÐ¸ÑĤÐµ":3104,"ĠÐ¾ÑĤÑĨÐµÐ´Ð¸":3105,"ĠÐ¿Ð»Ð¾Ð´Ð¾Ð²ÐµÑĤÐµ":3106,"Ð¾Ð²Ð¾":3107,"ĠÐ¼Ð¾ÑĢ":3108,"ĠÐµÐ´Ð½Ð°Ðº":3109,"ĠÐĿÐ°ÑĢÑıÐ·Ð²Ð°Ð¼Ðµ":3110,"ĠÐ±Ð°Ð´Ðµ":3111,"ĠÐĶÐ¾ÐºÐ°ÑĤÐ¾":3112,"ĠÑĢÑĥÐ»":3113,"ĠÐ¿ÑĬÑĢÐ¶ÐµÐ½ÐµÑĤÐ¾":3114,"ĠÑģÐµÐ¼ÐºÐ¸":3115,"ĠÐ¾Ð²ÐµÑģÐµÐ½Ð¸":3116,"ĠÑĪÑĥÐ¿Ð½Ðµ":3117,"Ð²Ð°Ð½Ð¸Ð»Ð¸Ñı":3118,"ĠÐ¼Ð°ÑĢÑĥÐ»Ñı":3119,"ĠÐ¾Ð³Ð½ÐµÑĥÐ¿Ð¾ÑĢ":3120,"ĠÐ¾ÑĤÐ»Ðµ":3121,"ĠÐµÐ´Ð¸":3122,"ĠÐ±Ð°Ð»ÑģÐ°":3123,"ĠÐĹÐ°Ð¼ÐµÑģÐ²Ð°":3124,"ĠÐ½Ð°ÑĢÐµÐ¶Ð´Ð°Ð¼Ðµ":3125,"ĠÐ¿Ð¾Ð´ÑģÑĥÑĪÐ°Ð²Ð°":3126,"ĠÐ¿ÑĢÐµÐ´Ð¿Ð¾ÑĩÐ¸ÑĤÐ°":3127,"ĠÑģÐ»ÑĬÐ½":3128,"ĠÐŀÑĤÑĨÐµÐ¶Ð´Ð°ÑĤ":3129,"ĠÐłÐµ":3130,"ĠÐ²ÑĬÑĤÑĢÐµÑĪÐ½Ð¾ÑģÑĤÑĤÐ°":3131,"ĠÐ·Ð°Ð²Ð¸ÑģÐ¸Ð¼Ð¾ÑģÑĤ":3132,"ĠÐ¾Ð¿Ð°ÐºÐ¾Ð²ÐºÐ°ÑĤÐ°":3133,"ÑģÑĤÐµÐ½":3134,"ÑĨÐµÐ¿":3135,"ĠÐ¿ÑİÑĢÐµÑĤÐ¾":3136,"Ð¿ÑĢÑĬÑģ":3137,"Ð³Ð°Ð½Ðµ":3138,"ÑĤÐ½Ð¾Ð²Ð¾":3139,"ĠÐ¿Ð¸Ð»ÐµÑĪÐºÐ¸ÑĤÐµ":3140,"ĠÐ¸Ð·Ð¼Ð¸ÑĤ":3141,"Ð±Ð¾ÑģÐ¸Ð»ÐµÐº":3142,"ÑĥÑĢÐ°ÑĤÐ°":3143,"Ð¡Ð¸ÑĤÐ½Ð¾":3144,"ĠÐ¿Ð¾Ð·Ð°Ð¿ÑĬÑĢÐ¶":3145,"ĠÐ½Ð°Ð±ÑĬÐ±Ð½Ðµ":3146,"ÐĹ":3147,"ÑģÐ²Ð°":3148,"ÑĤÐ²ÑĬÑĢ":3149,"Ð±Ð¸Ðµ":3150,"ĠÐºÐ¾ÑĤÐ»Ðµ":3151,"ĠÐ·ÐµÐ»ÐµÐ²":3152,"ĠÐ¼Ð¾ÑĢÐºÐ¾Ð²ÑĬÑĤ":3153,"ĠÑģÑĥÑĢÐ¾Ð²Ð¸":3154,"ĠÐ¡Ð°Ð»Ð°ÑĤÐ°ÑĤÐ°":3155,"ĠÑģÐ¸Ð½":3156,"ĠÐ¿ÑĢÐ¸ÑĤÐ¸ÑģÐºÐ°ÑĤ":3157,"ÐµÐ»Ð¸":3158,"ĠÐ¡Ð²Ð°ÑĢ":3159,"ĠÐ³Ð»Ð°Ð·ÑĥÑĢÐ°ÑĤÐ°":3160,"ĠÐ°Ð²Ð¾ÐºÐ°":3161,"ĠÐļÐ°Ð¹Ð¼Ð°ÑĤÐ°":3162,"Ð»ÐºÐ¾Ð²Ð°":3163,"ĠÐ·Ð°Ð²Ð¸Ð²Ð°ÑĤ":3164,"ĠÐ¥":3165,"ĠÐ²Ð¸Ð½":3166,"Ð¹ÐºÐ¸ÑĤÐµ":3167,"ĠÐ¼Ð»Ñı":3168,"ĠÐ¾Ð±ÑĢÐ°":3169,"ĠÐ¢ÑĢÑıÐ±Ð²Ð°":3170,"ĠÐ¿ÑĥÑĪÐµÐ½Ð¸":3171,"ĠÑģÐ¸Ð¿Ð²Ð°ÑĤ":3172,"ĠÐ¹ÐµÐ½ÑģÐºÐ°":3173,"ÐµÑģÑĬÐ½":3174,"ĠÐ¼Ð°ÑģÐ°":3175,"ĠÑĨÐ¸Ð¿":3176,"ĠÑĢÐ°Ð·Ð¼Ð¸ÑĤÐ¾":3177,"ĠÑĢÐ°Ð·Ð±Ð¸Ð¹ÑĤÐµ":3178,"ĠÐ±Ð¾Ð½":3179,"ĠÑĢÐ°Ð·Ð»Ð¸":3180,"ĠÑĤÐ¾Ð»ÐºÐ¾Ð²Ð°":3181,"ĠÐ´Ð¾ÑģÑĤÐ°ÑĤÑĬÑĩÐ½Ð¾":3182,"Ġ170":3183,"ĠÐŁÐ¾ÑģÑĤÐµ":3184,"ĠÐ³Ð¾Ð»ÐµÐ¼Ð¸Ð½Ð°ÑĤÐ°":3185,"ĠÐ½Ð°ÑĤÑĢÐ¸":3186,"ĠÐ²Ð½Ð¸Ð¼Ð°Ð²Ð°":3187,"ÑģÐµÑĤÐµ":3188,"ÑģÐ»Ð°Ð´":3189,"ĠÐ½Ð°Ð³Ð¾ÑĢÐµ":3190,"ĠÐ´Ð¾Ð¿Ð¸ÑĩÐ°":3191,"Ð¸Ð½Ð´Ð¸":3192,"ĠÑĪÐ¿ÑĢÐ¸ÑĨ":3193,"Ð±Ð¾Ð¶Ð´Ð°":3194,"ÑĮÐ¾Ð¼":3195,"ĠÐ¸Ð·Ð´ÑĬÐ»Ð±Ð°Ð²Ð°ÑĤ":3196,"Ð¿Ð°Ð½Ð°ÐºÑĬÑĤ":3197,"ÑĩÐ¾Ð³":3198,"ĠÐ½Ð°ÑĩÑĥÐ¿":3199,"ÑĢÑıÑģÐ½Ð¾":3200,"ĠÑĦÑĢÐ¸":3201,"ĠÐĴÑģÑıÐºÐ¾":3202,"ĠÑģÑĩÑĥÐºÐ°Ð½Ð¸ÑĤÐµ":3203,"ĠÐ·Ð°ÑģÑĤÐ»Ð°Ð½Ð°":3204,"ĠÑģÐ»Ð°Ð´ÐºÐ°ÑĢ":3205,"ĠÐ¿Ð¸Ð¿ÐµÑĢÐ°":3206,"ÑĢÐ¾Ð·":3207,"ÑĩÐ¸ÑģÑĤÐµÑĤÐµ":3208,"ĠÑĤÐ¸ÐºÐ²Ð¸ÑĩÐºÐ°ÑĤÐ°":3209,"ĠÐ±ÑĥÑĢÐºÐ°Ð½Ð¸":3210,"ĠÑĤÐ¸ÐºÐ²Ð°ÑĤÐ°":3211,"ĠÐŁÐ¾Ð»ÑĥÑĩÐµÐ½Ð°ÑĤÐ°":3212,"ĠÐ¿Ð¾Ð¸Ð·ÑģÑĤÐ¸Ð½Ðµ":3213,"ÐµÑģÑĬÐ½ÑĬÑĤ":3214,"Ð¸ÑģÐµ":3215,"ĠÐ»ÐµÐ½":3216,"Ð»Ð¾Ð´Ð¾":3217,"ĠÐŀÑĤÐ½Ð¾Ð²Ð¾":3218,"ĠÐ»Ð¸Ð¼Ð¾Ð½Ð¾Ð²Ð¸ÑıÑĤ":3219,"Ð½Ð¸Ð¼":3220,"ÑĩÐ°Ð²Ð°":3221,"ĠÐ»Ð¸ÑģÑĤÐµÐ½":3222,"ĠÐ·Ð°Ð²ÑĬÑĢ":3223,"Ð±Ð¸ÑĢÐ°":3224,"Ð³Ð¾ÑĢÐ¸":3225,"ĠÐºÑĢÐ°ÑģÑĤÐ°Ð²Ð¸ÑĩÐºÐ¸ÑĤÐµ":3226,"ĠÐ¿Ð°ÑĤÐ»Ð°Ð´Ð¶Ð°Ð½Ð°":3227,"Ð´ÐµÐ»ÐµÑĤÐµ":3228,"ĠÐĺÐ·ÑģÐ¸Ð¿ÐµÑĤÐµ":3229,"ĠÐ»ÐµÑĪÐ½Ð¸ÑĨÐ¸":3230,"ĠÐ±Ð¸ÑĪÐºÐ¾ÑĤÐ¸":3231,"Ð¼Ð°ÑĢ":3232,"ÑĪÐºÐ°ÑĤÐ°":3233,"ĠÐ¸Ð·ÑĩÐ¸ÑģÑĤÐ²Ð°":3234,"ÐłÐ¸Ð±Ð°ÑĤÐ°":3235,"ĠÐŁÐ¾ÑģÑĤÐµÐ¿ÐµÐ½Ð½Ð¾":3236,"ÑĮÐ¾Ð¼Ð³Ð°":3237,"ÑĩÐ¾Ð³Ð»ÐµÐ´":3238,"ÑĪÐ¾":3239,"Ġ160":3240,"ĠÑģÐ»Ð°Ð³Ð°Ð¼":3241,"ĠÑĨÐµÐ´ÐºÐ°":3242,"ĠÐ³Ð¾ÑĤÐ²Ð¸":3243,"ĠÐºÑİÑĦÑĤÐµÐ½ÑĨÐ°":3244,"ĠÑĢÐ°Ð·ÑĤÐ²Ð¾ÑĢÐ¸":3245,"Ð´ÐµÐ½":3246,"ĠÐ¾ÑħÐ»Ñİ":3247,"ĠÐĹÐ°Ð¿ÑĬÑĢÐ¶Ð²Ð°ÑĤ":3248,"ĠÐ±Ð°Ð½Ð°Ð½":3249,"Ð¼ÐµÐ½ÑĤÐ°":3250,"ÑĢÐ¸ÑĢÐ°":3251,"ĠÐ±Ð°Ð¼":3252,"Ð¾Ð²Ð¸Ð½Ð°ÑĤÐ°":3253,"ĠÐ¸Ð·Ð¼Ð¸ÑĤÐ¸ÑĤÐµ":3254,"ÐĺÐ·Ð¼Ð¸Ð¹ÑĤÐµ":3255,"Ð¸Ð½Ð´Ð¸Ð¹ÑģÐºÐ¾":3256,"ĠÐ²Ð°ÑĪ":3257,"ĠÐ³Ð¾ÑĢÐµÑīÐ¸":3258,"ĠÐ¿Ð¾ÑĤÐ°Ð¿Ñı":3259,"ĠÑģÐ³ÑĬÑģÑĤÑıÐ²Ð°":3260,"ĠÑģÑĤÑĢÑĥÐ¹ÐºÐ°":3261,"ĠÐ¿Ð¾ÑĢÐ¾Ð·Ð¾Ð²ÑıÐ²Ð°Ð½Ðµ":3262,"ÐºÐ¸ÑģÐµ":3263,"ĠÐ¿Ð¾ÑĢÑĬÑģÐµÐ½Ð¾":3264,"ĠÐ¾Ð²ÐºÑĥÑģÑıÐ²Ð°ÑĤ":3265,"ĠÐłÐ°Ð·Ð±Ð¸Ð¹ÑĤÐµ":3266,"ĠÑĩÐµÑĤÐ²ÑĬÑĢÑĤÐ¸Ð½":3267,"ĠÐ½Ð°ÑĤÑĥÑĢÐ°":3268,"ĠÑĤÐ¾ÑĢÑĤÐµÐ½Ð°":3269,"ĠÐ¿ÑĢÐ°ÑģÐºÐ¾Ð²Ð¸":3270,"Ġ0":3271,"ÑģÐºÐ²Ð°":3272,"Ð³ÑĢÐ°":3273,"ĠÐ·Ð°Ð´ÑĥÑĪÐ°ÑĤ":3274,"ĠÑĢÐµÐ´Ð¸":3275,"ĠÑĩÐµÑĤÐ¸":3276,"ĠÐ¸Ð·Ð¿ÐµÑĩÐµ":3277,"Ð¤ÑĥÑĢÐ½Ð°ÑĤÐ°":3278,"Ð³Ð¾Ð»ÑıÐ¼Ð°":3279,"Ð²ÐµÑģÐ¸":3280,"ÑĦÐ¸Ð»Ð°":3281,"ĠÑĩÐ°Ð¹":3282,"ÐºÑĥÑģÐ°":3283,"ĠÐ½Ð°ÐºÐ¸ÑģÐ²Ð°ÑĤ":3284,"ĠÐĵÐ¾ÑĤÐ¾Ð²Ð¾ÑĤÐ¾":3285,"ÐºÐ°Ð½ÐµÐ»Ð°":3286,"ĠÐ½Ð°Ð»Ñı":3287,"ĠÐ²ÐµÐ½ÑĤÐ¸":3288,"Ð¶ÑĬÐ»":3289,"ĠÐºÑĢÑĬÐ³Ð»Ð°":3290,"ĠÐºÐ¾ÑĢÐµÐ½Ð¸":3291,"ĠÑĥÐ´Ð²Ð¾Ð¸":3292,"ĠÑģÑĬÑħ":3293,"ĠÐłÐ°Ð·Ð±Ð¸Ð²Ð°":3294,"ĠÐºÑĥÑħÐ½ÐµÐ½ÑģÐºÐ¸":3295,"ĠÑĦÑĬÑģÑĤÑĬ":3296,"ĠÐ²ÐµÐ½ÑĤÐ¸Ð»Ð°":3297,"ĠÐ¼Ð¸ÐºÑĢÐ¾Ð²ÑĬÐ»Ð½Ð¾Ð²Ð°":3298,"ÑĪÐ°Ð¼ÐµÐ»":3299,"ĠâĢĵ":3300,"Ð¿Ð»Ðµ":3301,"ĠÐ¾ÑĤÐ²Ð¾":3302,"ĠÐŁÑĬÐ»":3303,"ĠÐ²ÑĢÑĬÑħ":3304,"ĠÐĵÐ¾ÑĤÐ¾Ð²Ð°ÑĤÐ°":3305,"ÐµÑĤÐ°":3306,"Ð²Ð°Ð½":3307,"ÑĥÑģ":3308,"ĠÐ·Ð°ÑħÐ»ÑĥÐ¿":3309,"ĠÑģÐ¸Ð½Ð¸":3310,"ĠÑģÐ¼ÐµÑģÐ¸":3311,"ĠÐ¿Ð¾ÑĢÑĬÑģÐµÐ½Ð¸":3312,"ĠÐ¿ÑĥÑģ":3313,"ĠÑĪÐ½Ð¸ÑĨÐµ":3314,"ĠÐ½Ð°Ð³Ð¾ÑĢÐµÑī":3315,"ĠÑģÐ»Ð°Ð±Ð°":3316,"ĠÑĢÐ¾Ð»":3317,"ÑĢÐ°Ð²":3318,"ÐµÑĢÐºÐ°ÑĤÐ°":3319,"ĠÑģÐ¼ÐµÑģÐµÑĤÐµ":3320,"Ġ35":3321,"ÑģÐ¾Ðº":3322,"ĠÑģÑĤÐµÑĢÐ¸Ð»Ð¸Ð·Ð¸ÑĢÐ°Ð½Ð¸":3323,"ĠÑĢÐ°Ð·Ð¿Ð¾Ð»":3324,"ĠÑģÐ¸ÑĤÐ½Ð¸":3325,"ĠÑģÐ¼ÐµÑģÐ²Ð°Ð¼Ðµ":3326,"ÑģÑĤÑĬÑĢÐ³":3327,"ĠÑĪÐ¾ÐºÐ¾Ð»Ð°Ð´Ð¾":3328,"ÑģÐ¾ÐºÑĬÑĤ":3329,"ÐŁÑĢÐ¸Ð³Ð¾ÑĤÐ²Ñı":3330,"ĠÐĹ":3331,"ĠÐºÐ°ÑĢÐ°Ð¼ÐµÐ»Ð¸Ð·Ð¸ÑĢÐ°":3332,"ĠÐ´Ð½Ð¸":3333,"ĠÐ¶ÐµÐ»Ð°Ð½Ð°ÑĤÐ°":3334,"ĠÐ±Ð¸ÑĢÐ°ÑĤÐ°":3335,"ĠÐ±ÑĥÑĤÑĩÐµÑĤÐ°ÑĤÐ°":3336,"Ð½Ð°ÑĤÐ¸":3337,"Ð»Ð¾Ð½Ð¾Ð²":3338,"ÑĢÐ°Ð·ÑĬÑĤ":3339,"ĠÑĤÐ¾Ð³Ð°Ð²Ð°":3340,"ĠÐ¿Ð¾Ð´Ð½Ðµ":3341,"ĠÑĢÐ°ÑĨÐ¸":3342,"ĠÐ³Ð¾ÑĢÐµÑī":3343,"Ð½ÑĬÑĤ":3344,"ÑĩÐ²Ð°Ð¼Ðµ":3345,"ÑĢÑĥÑĤÐ¾":3346,"ÐĹÐ°Ð¿ÑĬÑĢÐ¶":3347,"ĠÐºÑĢÐ°ÑģÑĤÐ°Ð²Ð¸ÑĩÐºÐ°":3348,"Ð²ÑĬÑĢÑĪÐ²Ð°":3349,"ÑĤÐµÐ³Ð»Ñı":3350,"ĠÑģÐ»ÐµÐ¿":3351,"ĠÐľÐ¾ÑĢÐºÐ¾Ð²Ð¸ÑĤÐµ":3352,"ĠÐ¿Ð¾ÑĩÐ¸ÑģÑĤÐµÐ½Ð¸":3353,"ĠÐ¼Ð°ÑĢÐ¼Ð°Ð»Ð°Ð´":3354,"Ð¿ÐµÑĩÐµÑĤÐµ":3355,"ĠÐ¾Ð±ÑĬÑĢÐºÐ²Ð°ÑĤ":3356,"ĠÐ¾ÑĨÐ²ÐµÑĤÑıÐ²Ð°Ð½Ðµ":3357,"ĠÐ±Ð¾ÑĢÐ¾Ð²Ð¸Ð½ÐºÐ¸":3358,"Ð¨":3359,"ĠÐĹÐµÐ»ÐµÐ½ÑĩÑĥÑĨÐ¸ÑĤÐµ":3360,"Ð»Ð°Ð¶":3361,"ĠÐľÐµ":3362,"ĠÐºÑİÑĦÑĤÐµÑĤÐ°ÑĤÐ°":3363,"ĠÐ³ÑĬÑģÑĤÐ¾ÑĤÐ°":3364,"ĠÑģÐ»ÑĬÐ½ÑĩÐ¾Ð³Ð»ÐµÐ´":3365,"ĠÐ¿Ð¾ÑģÐ¸Ð¿":3366,"ĠÑģÐ¸ÑĤÐ¾":3367,"ĠÑĩÐµÑĢÐ½Ð¸":3368,"ĠÐ¸Ð·Ð¼Ð¸ÑĤÐ¸Ñı":3369,"ĠÐ¿Ð¾ÑģÐ¾":3370,"ÑģÐ¾ÐµÐ²":3371,"ĠÐ¿Ð¾ÑĩÐ¸Ð½Ðµ":3372,"ĠÐ²ÑĤÐ¾ÑĢÐ°ÑĤÐ°":3373,"ĠÐĸÑĬÐ»ÑĤÑĬÑĨÐ¸ÑĤÐµ":3374,"ĠÐ¿Ð¾Ð»ÑĥÐ³Ð¾ÑĤÐ¾Ð²":3375,"ĠÑĩÐµÑĤÐ²ÑĬÑĢÑĤÐ¸Ð½ÐºÐ¸":3376,"ĠÐ¾Ð¼":3377,"Ð¼Ð¸ÑĤÐµ":3378,"ĠÐŀÐ²Ð°Ð»":3379,"ĠÐºÐ¸ÑģÐµÐ»Ð¸ÑĤÐµ":3380,"ĠÐ¿Ð¸ÐºÐ°Ð½":3381,"ĠÐºÐ¾ÑģÑĤÐ¸ÑĤÐµ":3382,"ĠÐ½Ð°Ð»ÑıÐ³Ð°Ð½Ðµ":3383,"ĠÑģÐ²Ð°Ð»Ð¸":3384,"ĠÐ·Ð°Ð¼ÑĢÐ°Ð·ÐµÐ½Ð¸":3385,"Ð¿ÑĬÐ»Ð½Ð¸ÑĤÐµÐ»Ð½Ð¾":3386,"ĠÐ¿Ð¾Ð¿Ð¸":3387,"Ð±ÑĬÐ»ÐºÐ¸ÑĤÐµ":3388,"Ð·ÐµÐ¼Ð°":3389,"ĠÐĴÐ°ÑĢÑıÑĤ":3390,"ĠÐ´ÑĢÐ¾Ð±ÑĩÐµÑĤÐ°ÑĤÐ°":3391,"ĠÐ¤ÑĥÑĢÐ½Ð°ÑĤÐ°":3392,"Ðĸ":3393,"ÑĢÐ°ÑģÑĤÐ°":3394,"ÐºÐ¾ÑĢÐ°ÑĤÐ°":3395,"ĠÑıÐ¹ÑĩÐµÐ½Ð°ÑĤÐ°":3396,"ĠÐ¿Ð¾Ð´Ð¿ÑĢÐ°Ð²ÑıÑĤ":3397,"ĠÑĢÐ°Ð·Ð¼Ð¸Ð²Ð°":3398,"ÐłÐ°Ð·Ð±Ð¸Ð²Ð°ÑĤ":3399,"ÐºÐµÐ¼":3400,"ĠÐ¿ÑĢÐ¾Ð·ÑĢÐ°ÑĩÐµÐ½":3401,"ÑĤÐºÐ¸":3402,"Ð·Ð²Ð°Ð¼Ðµ":3403,"ĠÐ½Ð°Ð´Ñĥ":3404,"Ð²Ð¸Ð½Ð°ÑĤÐ°":3405,"ÑħÐ°ÑĢÑĤÐ°":3406,"ĠÐ·Ð°Ð³ÑĢÑıÑĤ":3407,"ÑģÐ¸Ð»ÐµÐºÐ°":3408,"ĠÐµÐ´Ð½Ð°ÐºÐ²Ð¸":3409,"ĠÐ±ÑĬÑĢ":3410,"ÑĪÐµÐ½Ð¸":3411,"ĠÐ¿Ð¾ÑħÐ»":3412,"ĠÐ¼Ð°Ðº":3413,"ĠÐ¸Ð·ÑĩÐ°ÐºÐ²Ð°":3414,"ÑĨÐµÑĤÐ¾":3415,"ĠÑĤÐµÑĦ":3416,"ĠÐ²Ð°ÑĢÐµÐ½Ð¸":3417,"ĠÑĥÐºÐ°Ð·Ð°Ð½Ð¸":3418,"ĠÐ²ÐµÐ½ÑĤÐ¸Ð»Ð°ÑĤÐ¾ÑĢ":3419,"ĠÐ¿Ð¾ÑħÐ»ÑĥÐ¿Ð°":3420,"Ð¹Ð¼":3421,"ĠÐ¿Ð¾Ð´Ð½Ð°ÑģÑıÐ½ÐµÑĤÐ¾":3422,"Ð¼Ð°ÑģÐ»Ð¸Ð½Ð¸":3423,"ĠÐ½Ð°ÑģÑĤÑĢÐ°Ð½Ð°":3424,"ĠÐłÐ°Ð·ÑĤÐ¾ÑĩÐ²Ð°":3425,"Ð²ÐµÑģÐ¸Ð»":3426,"ÑĢÐ°ÑĤÐ¸":3427,"ĠÐ³ÑĢÐ¾Ð·":3428,"ÑĢÑıÐ»":3429,"ĠÐ°ÑĢ":3430,"ĠÑĥÐ½Ð¸":3431,"ÐļÐ¾":3432,"ĠÐ²Ð°ÑĢÐ¸Ð¼":3433,"ĠÐ±ÐµÐ»ÐµÐ½Ð¸":3434,"ĠÐ¾ÑĤÐ²ÑĬÐ½":3435,"ĠÑĪÐ°ÑĢÐµÐ½Ð°":3436,"ĠÑģÐºÐ°ÑĢÐ¸Ð´Ð¸":3437,"ĠÐ¿Ð°Ð½Ð¸ÑĢÐ¾Ð²ÐºÐ°ÑĤÐ°":3438,"ÑģÑĬ":3439,"Ð½ÐµÐ½Ð¸":3440,"Ð¹ÐºÐ°ÑĤÐ°":3441,"ĠÑģÐ¼ÐµÑģÐµÐ½Ð¾":3442,"ĠÐ¿Ð¾Ð»ÑĥÑĩÐ°ÑĤ":3443,"ĠÑĢÐµÐ·ÐµÐ½Ð°":3444,"ĠÐ³Ð»Ð¸Ð½ÐµÐ½":3445,"160":3446,"Ð¶ÐµÐ½Ð¸Ðµ":3447,"ĠÐ´Ð¾Ð¾":3448,"ÑĥÐ»ÑĮ":3449,"ĠÐĵÐ°ÑĢÐ½Ð¸":3450,"ĠÐ½Ð°Ð´ÐµÐ½Ð¸":3451,"ĠÑģÐ¸Ð½ÑĮÐ¾":3452,"ĠÑģÐ»Ð°Ð´ÐºÐ°ÑĢÑģÐºÐ°":3453,"Ð¸ÑģÐºÐ²Ð¸":3454,"ĠÑĤÑĥÑĢ":3455,"ĠÐĳÐµ":3456,"ĠÐ¿ÑĬÐ»Ð½Ð¾":3457,"ĠÑĤÐ¾ÑĢÑĤÐ°ÑĤÐ°":3458,"ÑĤÐ°Ð¿Ñı":3459,"ĠÐºÐ¸Ð¿Ñı":3460,"ĠÐ¿Ð¾ÑħÐ»ÑĥÐ¿Ð°Ðº":3461,"ÑĩÐµÐ½Ð¸ÑĤÐµ":3462,"Ð²ÐµÐ»Ð¸":3463,"ĠÐ·ÐµÐ»ÐµÐ½Ð¸Ñı":3464,"ĠÑĨÐµÐ´":3465,"ĠÐ¿ÑĬÐ»Ð½Ð¾ÑĤÐ¾":3466,"ÐŀÑĢÐ¸Ð·ÑĬÑĤ":3467,"ĠÐ´ÑĬÐ½Ð¾":3468,"ĠÐ¿ÑĥÑĪÐµÐ½Ð°":3469,"Ð½Ð´":3470,"ĠÐ¿ÑĬÐ½":3471,"ĠÐ½Ð°Ð²Ð¸Ð²Ð°ÑĤ":3472,"ĠÑĩÐµÑĢÐ¸":3473,"ĠÐ±Ð¾ÑģÐ¸Ð»ÐµÐºÐ°":3474,"ĠÑģÑĩÑĥÐºÐ°Ð½Ð¸ÑıÑĤ":3475,"ĠÐ»ÐµÑīÐ°ÑĤÐ°":3476,"Ġ800":3477,"ĠÑģÑĮÐ¾Ð¼Ð³Ð°":3478,"ĠÑĢÐ°Ð·Ð´ÐµÐ»ÑıÑĤ":3479,"ĠÐŁÑĢÐ¾":3480,"ĠÐ·Ð°Ð»Ð¸Ð²ÐºÐ°":3481,"ĠÐ¼ÐµÑģÑĤÐ°":3482,"ĠÐ·Ð°ÐµÐº":3483,"ÑĪÑĥ":3484,"ĠÐ¼Ð°Ð»Ð¸Ð½Ð¸":3485,"ĠÐ´Ð¾Ð¼Ð°ÐºÐ¸":3486,"ĠÑģÑĤÐµÐ¿ÐµÐ½":3487,"ĠÐŀÑĦÐ¾ÑĢÐ¼Ñı":3488,"Ð±ÑıÐ»":3489,"ÐºÐ¾Ð²Ð¾":3490,"ĠÐ¡Ð¼ÐµÑģÐµÑĤÐµ":3491,"ĠÐ¿Ð¾ÑĢÑĬÑģÐ¸":3492,"ĠÑģÐºÐ¸Ð»Ð¸Ð´ÐºÐ¸ÑĤÐµ":3493,"ĠÐ¿Ð»Ð¾Ð´":3494,"ĠÐĿÐ°Ð¼Ð°Ð·Ð²Ð°ÑĤ":3495,"ĠÐ½ÑĥÐ¶Ð½Ð¾":3496,"Ð³Ð¾Ð²Ðµ":3497,"ĠÐ·Ð°ÑĤÐ¾Ð¿Ð»Ñı":3498,"ĠÐ¿Ð¸ÑĤÐºÐ¸":3499,"ĠÐ¿Ð¾Ð»ÑĥÐ³Ð¾ÑĤÐ¾Ð²Ð½Ð¾ÑģÑĤ":3500,"ĠÐ·Ð°Ð»ÐµÐ¹ÑĤÐµ":3501,"ĠÐ¡Ð¸Ð¿":3502,"ĠÑĩÐµÑģÑĤÐ¾":3503,"ĠÐ±Ð°Ð²Ð½Ð¾":3504,"Ð½ÑģÐºÐ¾":3505,"ĠÑĥÐ²Ð¸Ð²Ð°":3506,"ĠÑĢÐµÐ±":3507,"ĠÐ±ÐµÐ»ÑıÑĤ":3508,"ĠÐ½Ð°Ð´Ð¾Ð»Ñĥ":3509,"ĠÑĪÐµÐ¿Ð¸":3510,"ĠÑĩÐµÑĢÐµÑĪÐ¸":3511,"ĠÐºÐ¾Ð½ÑĦÐ¸ÑĤÑİÑĢ":3512,"Ð¿Ð°ÑĤ":3513,"ĠÐ¿ÑĥÐµ":3514,"ÐŁÑĬÑĢÐ²Ð¾":3515,"ĠÐ¿ÑĥÑĪÐµÐ½":3516,"ĠÐ¼ÑĥÑģÐ°":3517,"ĠÐ¿Ð¾Ð²ÑĬÑĢÑħÐ½Ð¾ÑģÑĤÑĤÐ°":3518,"ĠÑĦÐ¸Ð½Ð¸":3519,"ĠÐ·Ð°Ð´ÑĥÑĪÐµÐ½Ð¸ÑĤÐµ":3520,"ĠÐºÐ¾Ð½ÑģÐµÑĢÐ²Ð¸ÑĢÐ°Ð½Ð¸":3521,"ĠÐķÐ´":3522,"ĠÐŁÐ¸":3523,"ĠÐ¿ÑĬÑĢÐ¶ÐµÐ½Ð¸":3524,"ĠÑĢÐµÑĨÐµÐ¿":3525,"ĠÐºÐ°ÑĢÑĤÐ¾ÑĦÐ°":3526,"ĠÐ»Ð°Ð¹Ð¼":3527,"ĠÐ±ÑĥÑĩÐºÐ¸":3528,"ĠÐ¿Ð¾Ð¾Ð¼ÐµÐºÐ½Ð°ÑĤ":3529,"ĠÐ·Ð°Ð¿ÑĢÑĬÐ¶ÐºÐ°":3530,"ĠÐ¿Ð¾ÐºÐ°ÑĦ":3531,"ĠÐ¾ÑģÑĤÐ°Ð²Ð°":3532,"ÑģÑıÐ²Ð°ÑĤ":3533,"ĠÐ½Ð°Ð¼Ð°Ð·Ð²Ð°Ð¼Ðµ":3534,"ĠÑĥÐ²ÐµÐ»Ð¸":3535,"ĠÑģÐµÐ¼ÐµÐ½Ð°":3536,"ĠÐ¿ÑĬÑĢÐ¶Ð¸Ð¼":3537,"ĠÐ¿Ð»Ð¸Ðº":3538,"ĠÐ»Ð¸ÑģÑĤÐµÐ½ÑĨÐ°":3539,"Ð³Ð°ÑĢ":3540,"ÑģÑĤÑĥÐ´":3541,"Ð³Ð¾Ð½":3542,"ĠÑģÐ¼ÐµÑģÑıÑĤ":3543,"Ð¡Ð¼ÐµÑģÐ²Ð°ÑĤ":3544,"Ð´Ð¾Ð¼Ð°ÑĤ":3545,"ĠÑĤÑĬÐ½ÑĬÐº":3546,"ĠÐ¿ÑĢÐ¸Ð´Ð¾":3547,"ĠÐ¿Ð¾ÐºÑĢÐ¸ÑĤÐ¾":3548,"ĠÐ¿Ð¾ÑģÐ¾Ð»ÐµÑĤÐµ":3549,"ĠÑģÐ»Ð°Ð´ÐºÐ¾ÑĤÐ¾":3550,"ĠÐ¿Ð¾Ð´ÑģÐ»Ð°Ð´":3551,"ĠÐ±Ð°Ð´ÐµÐ¼Ð¾":3552,"ĠÐľÐµÐ¶Ð´Ñĥ":3553,"ÑĤÑĢÐ¾":3554,"Ð½Ð¾Ð²Ð°ÑĤÐ°":3555,"ĠÐ»ÑĥÐºÑĩÐµÑĤÐ°":3556,"Ð¿Ð°Ð´Ð¶Ð¸":3557,"ĠÐ·ÐµÑħÑĤÐ¸Ð½ÑĬÑĤ":3558,"ĠÑģÑĩÑĥÐºÐ²Ð°":3559,"ÐļÑĬÐ¼":3560,"ĠÑĢÐ¾Ð±Ð¾ÑĤ":3561,"ĠÐ²ÐµÐ´Ð½ÑĬÐ¶":3562,"ÐŁÐ¸Ð»ÐµÑĪÐºÐ¸ÑĤÐµ":3563,"ĠÐ³Ð°ÑĢÐ½Ð¸ÑĢÐ°Ð½Ðµ":3564,"ĠÐºÐ²Ð°Ð´ÑĢÐ°ÑĤÐ¸":3565,"Ð¿ÐµÑĢÑģÐ¸":3566,"Ð¸ÑģÐºÐ²Ð¸ÑĤÐ¸ÑĤÐµ":3567,"ĠÑĤÐ¾Ð¹":3568,"Ð¼Ð¸ÑĢÐ°":3569,"ĠÑģÐ»ÐµÐ´Ð²Ð°":3570,"ĠÐ·Ð»Ð°ÑĤÐ¸ÑģÑĤÐ°":3571,"ĠÑĤÑĥÑĢÑĪÐ¸":3572,"ÑģÐ½Ð¸":3573,"ĠÑģÐ»Ñĥ":3574,"Ð½ÐµÐ¼Ð°":3575,"ĠÐ¡Ð¼ÐµÑģÐ²Ð°":3576,"ÑıÐ²Ð°Ð¼Ðµ":3577,"ĠÑĤÐ¾Ð¿ÑĬÐ»":3578,"ĠÑĦÐ¸Ð´Ðµ":3579,"ĠÐ·Ð°Ð³ÑĢÐµ":3580,"Ð¾Ð±ÑĢÐ°Ð·":3581,"ĠÐ¿ÑĢÐ°Ð²Ð¸Ð¼":3582,"ÐĶÐ¾Ð¼Ð°ÑĤÐ¸ÑĤÐµ":3583,"220":3584,"ÐºÑģÐ°":3585,"ĠÐłÐ°Ð·Ð¿ÑĢÐµÐ´ÐµÐ»":3586,"ĠÐ¿Ð¾Ð»ÑĥÑĩÐµÐ½Ð¸Ñı":3587,"ĠÐŁÐ¾Ð»Ð¾Ð²Ð¸Ð½Ð°ÑĤÐ°":3588,"ĠÐ¾ÑĤÑģÑĤÑĢÐ°Ð½ÑıÐ²Ð°ÑĤ":3589,"Ð·Ð¾Ð²Ð¸":3590,"ĠÐ·Ð°Ð¿ÑĬÑĢÐ¶Ð°ÑĤ":3591,"Ð¾ÑĤÐ´ÐµÐ»Ð½Ð¾":3592,"ĠÑĢÐµÑĪÐµÑĤÐºÐ°":3593,"Ð½Ð°ÑģÑĤÑĬÑĢÐ³Ð°Ð½Ð°":3594,"ĠÐ³Ð¾Ð²ÐµÐ¶Ð´Ð¾":3595,"Ðķ":3596,"ĠÐ¾ÑĤÐ²Ð°":3597,"ÑĨÐµÐ´ÐµÑĤÐµ":3598,"ĠÐĴÐ½Ð¸Ð¼Ð°":3599,"ĠÐ¢Ðµ":3600,"Ð´ÐµÐ½Ð·Ð¸ÑĢÐ°":3601,"ĠÑĢÑĬÑģ":3602,"ĠÐ¸ÑģÐºÐ°":3603,"ĠÐ·Ð°ÑĪÐ¸":3604,"ĠÑĢÐ°Ð·ÑģÑĤÐ¾Ñı":3605,"ĠÐ¡Ð¼ÐµÑĤÐ°Ð½Ð°ÑĤÐ°":3606,"ĠÑģÑĢÐµÐ´ÐµÐ½":3607,"ĠÐºÐµÑĢÐµ":3608,"ĠÐłÐ°Ð·Ð±Ð¸Ð²Ð°Ð¼Ðµ":3609,"Ð¤Ð¸Ð»Ðµ":3610,"Ð¼ÐµÐ½Ð½Ð¾":3611,"ĠÐ±Ð»Ð°ÑĤÐ¾Ð²ÐµÑĤÐµ":3612,"ĠÐµÐ´Ð¸Ð½Ð¸Ñı":3613,"ĠÐ°Ð²Ð¾ÐºÐ°Ð´Ð¾":3614,"ĠÑĩÐµÑĤÐ¸ÑĢÐ¸":3615,"ÑĦÐ»Ð¸":3616,"ÑīÐµÑĢÐºÐ°ÑĤÐ°":3617,"ĠÐĺÐ·Ð²Ð°Ð´ÐµÑĤÐµ":3618,"ĠÐłÐ¸Ð±Ð°ÑĤÐ°":3619,"ĠÐ¿Ð¾Ð²ÑĬÑĢÑħÐ½Ð¾ÑģÑĤ":3620,"ÑĦÐ»Ðµ":3621,"Ð·Ð°Ð½Ñı":3622,"ĠÐĿÐ°ÑĢÐµÐ¶Ð´Ð°":3623,"ĠÑĢÐ¾Ð¼Ð°":3624,"ĠÑĦÐ¸Ð»ÐµÑĤÐ¾":3625,"ĠÑģÑĥÑģÐ°Ð¼Ð¾":3626,"ĠÐ¡Ð¸ÑĤÐ½Ð¾":3627,"ĠÑĤÐµÑĦÐ»Ð¾Ð½Ð¾Ð²":3628,"ĠÐ¼Ð°ÑīÐµÑĢÐºÐ°ÑĤÐ°":3629,"ĠÑĤÐµÐ»":3630,"ĠÑĪÐºÐµÐ¼":3631,"Ð¡Ð²Ð°ÑĢÐµÑĤÐµ":3632,"ĠÑĥÐ·ÑĢÐµÐ»Ð¸":3633,"35":3634,"ÑĢÐ°Ð¹ÑĤÐµ":3635,"Ð³Ð¾ÑĢ":3636,"ĠÐ¿Ð¾ÐºÑĢÐ¸ÑĤÐ¸":3637,"ĠÐ»Ð¸Ð¼Ð¾Ð½Ð¾Ð²Ð°ÑĤÐ°":3638,"ĠÐĺÐ·ÑģÐ¸Ð¿Ð²Ð°Ð¼Ðµ":3639,"ĠÐ·Ð°Ð¿Ð¾ÑĩÐ²Ð°":3640,"ĠÐ¾Ð±ÑĢÐ°Ð·ÑĥÐ²Ð°":3641,"ĠÑĢÐ°Ð·ÑģÑĤÐ¾ÑıÐ½Ð¸Ðµ":3642,"ĠÑģÐ²ÑĬÑĢÑĪ":3643,"Ð²ÐµÐ½Ð¸ÑĤÐµ":3644,"ĠÐ¿Ð¾ÑģÐ¸Ð¿Ð²Ð°":3645,"ĠÐ¾ÑĤÐ´Ð¾Ð»Ñĥ":3646,"ĠÐµÐ·Ð¸":3647,"ĠÐ¿ÑĢÐµÐ¿ÐµÑĩ":3648,"ÐµÐ´ÑĢÐ¸":3649,"Ð¡Ð»Ð¾Ð¶ÐµÑĤÐµ":3650,"ĠÐŁÐ¾ÑĢÑĬÑģÐ²Ð°Ð¼Ðµ":3651,"ĠÐºÑĥÑħÐ½ÐµÐ½ÑģÐºÐ°":3652,"ĠÐ²ÑĬÐ·Ð¼Ð¾":3653,"Ð·Ð°Ð½Ð°":3654,"ĠÐºÑĢÑĬÐ³Ð¾Ð²Ðµ":3655,"ĠÐ½Ð°ÑģÑĤÑĬÑĢÐ¶ÐµÑĤÐµ":3656,"ĠÐ´Ð¾Ð±Ð°Ð²Ð¸ÑĤÐµ":3657,"ĠÑģÐ»Ð°Ð´ÐºÐ¸ÑĪ":3658,"ĠÐ¦":3659,"ĠÐ¿ÐµÑĢ":3660,"ĠÐ½Ð°ÑĢÐµÐ´ÐµÑĤÐµ":3661,"ÑĢÐµÐ¼ÐµÐ½Ð½Ð¾":3662,"ĠÐ¿Ð¾ÑģÑĤÐ°":3663,"Ð´Ð°Ð¼Ð¾":3664,"ĠÑģÐ¾Ð»ÐµÐ½Ð°":3665,"ĠÐ»Ð¸Ð¼Ð¾Ð½Ð¸":3666,"ĠÐ¢Ð¸ÐºÐ²Ð¸ÑĩÐºÐ¸ÑĤÐµ":3667,"Ð»ÑİÑĤ":3668,"ĠÑģÐ»Ð°Ð½Ð¸Ð½Ð°ÑĤÐ°":3669,"ĠÐ»Ð°Ð·Ð°Ð½Ñı":3670,"ĠÐŀÐ±ÑĬÑĢÐºÐ²Ð°":3671,"ÑģÑĤÐ¸ÑĤÐµ":3672,"Ð·Ð¸Ð¼Ð°":3673,"ĠÐ¿ÑĢÐ°Ð·ÑĬÑĤ":3674,"ĠÐ¡ÐµÑĢÐ²Ð¸ÑĢÐ°Ð¹ÑĤÐµ":3675,"ĠÐĿÐ°ÑĢ":3676,"ĠÐ·Ð°ÑģÑĤÑĢÐ¾Ð¹Ð²Ð°":3677,"Ð¸ÐºÐ²Ð°":3678,"Ð½ÐµÑĢ":3679,"Ġ190":3680,"ĠÑĤÐ¾ÑĩÐ¸":3681,"ĠÐŀÑĤÑģÑĤ":3682,"ĠÐºÐ¾Ð½Ð´ÐµÐ½Ð·Ð¸ÑĢÐ°":3683,"ĠÐºÑĢÐ¸ÑģÑĤÐ°":3684,"ĠÑģÐºÑĥÐ¼":3685,"ĠÐ¿ÐµÑĢÐ¸":3686,"ĠÐºÑĢÑĥÑĤÐ¾":3687,"ĠÐ¿Ð¾ÑħÐ»ÑĥÐ¿":3688,"Ð½Ð¸Ð½Ð°ÑĤÐ°":3689,"ÐŁÑĬÑĢÐ¶":3690,"ĠÐŁÑĢÐ°Ð²ÑıÑĤ":3691,"Ð½Ð°Ð»":3692,"ĠÐĴÑĢÑĬÑīÐ°":3693,"ĠÑĢÐµÐ¿Ð¸":3694,"ĠÐ³ÑİÐ²ÐµÑĩÐµÑĤÐ°":3695,"ĠÑĢÐ°Ð·Ð¼Ð¸ÑĤÐ¾ÑĤÐ¾":3696,"ĠÑĢÐ°Ð·Ð¿Ð¾Ð»Ð¾":3697,"Ð¸ÐºÐ²Ð°ÑĤÐ°":3698,"ÐºÑĢÐµ":3699,"ĠÐ½Ð°Ð¿ÑĢÑĬÑģ":3700,"ÑĢÐ¸Ð³Ð°Ð½":3701,"ĠÐ¿Ð¾Ð¾ÑĤÐ´ÐµÐ»Ð½Ð¾":3702,"ĠÐ¼Ð°Ð½":3703,"ĠÐ³ÑĢÐ°Ð¼Ð°":3704,"ĠÐºÑĢÐ°ÑģÑĤÐ°Ð²Ð¸ÑĨÐ¸":3705,"ĠÑĢÑĥÐ»Ð¾ÑĤÐ¾":3706,"ĠÐ³ÑİÐ²ÐµÑĩÐ°":3707,"ĠÐ¾Ð±Ð¸ÐºÐ½Ð¾Ð²ÐµÐ½Ð¸":3708,"ĠÐºÐ¾ÐºÐ¾ÑģÐ¾Ð²Ð¾":3709,"ĠÐĿÐ°ÑĢÑĬÑģ":3710,"ÑĢÐ°ÑĨÐ¸Ñı":3711,"ÑĢÐ¸Ð·Ð°":3712,"ÑĢÑıÐ½":3713,"Ð»ÐµÐµ":3714,"ĠÐ¿ÐµÑĩÐµÐ½Ð¾":3715,"ĠÑĦÐ°ÑģÑĥÐ»Ð°":3716,"ĠÐ´ÑĢÐµÑģÐ¸Ð½Ð³Ð°":3717,"Ð²Ð¾Ð´Ð°":3718,"ĠÐ·ÑĢÑıÐ»":3719,"Ð»Ð°ÑģÑĤÐ¸":3720,"ĠÐºÐ¾ÑģÑĤ":3721,"ĠÐµÐ»Ð°ÑģÑĤÐ¸":3722,"Ð½Ð¾Ð·ÑĬÑĢÐ½Ðµ":3723,"ĠÐĺÐ·Ð´ÑĬÐ»Ð±Ð°":3724,"ĠÑĨÐµÐ»":3725,"ĠÑģÐµÐ¼ÐµÐ½Ð°ÑĤÐ°":3726,"ĠÐºÐ°ÑĢÐ´Ð°Ð¼Ð¾":3727,"ÑĪÐ½Ð°ÑĤÐ°":3728,"ĠÐºÐ°Ð¼Ð±Ð¸":3729,"ĠÐĹÐ°Ð²Ð¸Ð²Ð°":3730,"ĠÐºÐ°ÑĢÑĤÐ¾ÑĦÐµÐ½Ð¾ÑĤÐ¾":3731,"ĠÑģÑĥÑĪÐµÐ½":3732,"ĠÐ¿ÑĢÐ¾Ð´ÑĬÐ»Ð¶ÐµÐ½Ð¸Ðµ":3733,"Ð»ÐµÐ¿Ð²Ð°":3734,"ĠÐºÑĢÐ¸Ð»":3735,"ÑģÐºÐ°ÑĤÐ°":3736,"Ð±ÐµÐ»Ð°":3737,"ÑĦÑĢÐ°Ð½":3738,"ĠÐ½Ð°Ð¼Ð°Ð¶ÐµÑĤÐµ":3739,"ĠÑĢÐ¸Ð±Ð¸":3740,"ĠÐ¿Ð°Ð»Ð°ÑĩÐ¸Ð½ÐºÐ¸ÑĤÐµ":3741,"ĠÐ²ÐµÑĩÐµÑĢ":3742,"ĠÐļÑĢÐµÐ¼Ð°":3743,"ĠÐ±ÑĬÑĢÐ·Ð¾":3744,".)[":3745,"ĠÑĢÐ°Ð·Ð¼ÐµÑģÐ²Ð°":3746,"ĠÑĢÐ°Ð·Ð±Ð¸ÑĤÐ°ÑĤÐ°":3747,"ĠÑĦÐ¸Ð´ÐµÑĤÐ¾":3748,"ĠÐĹÐ°Ð³ÑĢÑıÐ²Ð°":3749,"ÐŀÐ±ÐµÐ»ÐµÑĤÐµ":3750,"ĠÐ´ÐµÐ²ÐµÑģÐ¸Ð»":3751,"ĠÐ¿ÑĢÐµÑģÑĤÐ¾ÑıÐ²Ð°":3752,"Ð¾ÑĢÐµÑħ":3753,"ÑĤÐ¾Ð²Ð°":3754,"ÑģÑĤÐ¸Ð»Ð°ÑĤ":3755,"ĠÐ¼ÐµÑģÐµÐ½":3756,"ĠÐłÐ°Ð·ÑģÑĤÐ¸Ð»Ð°":3757,"ĠÐ´Ð¶Ð¾Ð»":3758,"ĠÐŁÑĢÐµÑģÑĤÐ¾":3759,"ĠÑĢÐ°Ð·ÑĤÐ¾ÑĩÐ²Ð°ÑĤ":3760,"ĠÐ·Ð°ÑĩÐµÑĢÐ²ÑıÑĤ":3761,"ĠÐ¸Ð·Ð´ÑĬÐ»Ð±Ð°Ð²Ð°":3762,"ÐºÐ°ÑĦÑı":3763,"ĠÐŀÑģÑĤÐ°Ð½Ð°Ð»Ð¸ÑĤÐµ":3764,"ÑģÑĤÑĢÐ°Ð³Ð¾Ð½":3765,"ĠÐ³ÑĬÐ±ÐµÐ½":3766,"Ġ60":3767,"ĠÐ¿Ð»Ðµ":3768,"ĠÐ¿ÑĪÐµÐ½Ð¸":3769,"Ð·ÑĥÑĢÐ°":3770,"ĠÐ¾Ð¼ÐµÑģÐ²Ð°ÑĤ":3771,"ĠÐºÐ°Ð¿ÐµÑĢÑģÐ¸":3772,"ĠÐ¿ÑĢÐµÑģÐµ":3773,"Ð¡Ð»Ð°Ð³Ð°":3774,"Ð¿ÑĢÐ¸Ð¼ÐµÑĢ":3775,"ĠÐ°Ð³Ð½ÐµÑĪÐºÐ¸":3776,"Ð¿Ð¾Ð»Ð¾Ð²Ð¸":3777,"ĠÑģÑĤÐ¾Ð¿Ð¸":3778,"Ð¸ÑģÐµÐ»Ð¾ÑĤÐ¾":3779,"Ð¼Ð¸Ð¾Ð½Ð°":3780,"ĠÐºÐ¸Ð¼Ð¸Ð¾Ð½Ð°":3781,"ĠÑĤÐ¾Ð¿ÑĩÐµ":3782,"ĠÑģÑĥÑħÐ°ÑĤÐ°":3783,"ĠÐ±Ð°Ð´ÐµÐ¼Ð¸ÑĤÐµ":3784,"ĠÐ¡Ð¸ÑĢÐµÐ½ÐµÑĤÐ¾":3785,"ĠÐ¿ÑĬÐ»Ð½ÐµÐ¶Ð°":3786,"Ð¿Ð½Ðµ":3787,"Ð¿Ð¸Ð»Ðµ":3788,"ĠÑĩÐ¾ÑĢ":3789,"ĠÐŀÐ±":3790,"ĠÐ±ÑĬÑĢÐºÐ°ÑĤÐµ":3791,"ĠÑıÐ±ÑĬÐ»ÐºÐ¾Ð²":3792,"ÐłÐ°Ð·Ð±Ð¸Ð¹ÑĤÐµ":3793,"ĠÐ²ÑĬÑĢÑħ":3794,"ĠÐ²ÑĢÐ°ÑĤ":3795,"ĠÐ·Ð°Ð³Ð¾ÑĢÐ¸":3796,"ĠÐ¼Ð°Ð¹Ð¾":3797,"ĠÐµÐ»":3798,"ĠÐŁÐ¾ÑĩÐ¸ÑģÑĤ":3799,"ĠÐºÑĢÑĬÐ³ÑĩÐµ":3800,"ĠÐ¿ÑĥÐ¹ÐºÐ°":3801,"ĠÐ±ÑĥÑĤÑĩÐµ":3802,"ĠÐ±ÑĥÑĢÐºÐ°Ð½Ð°":3803,"Ð¾Ð´Ð¸ÑĩÐ½Ð¾":3804,"ĠÐ½Ð°ÐºÑĬÐ»ÑĨ":3805,"ĠÐ¿ÑĢÑĬÑģÑĤÐµÐ½":3806,"ĠÑģÑĤÐµÐ³Ð½Ð°ÑĤ":3807,"ĠÐ³Ð°Ð·Ð¸ÑĢÐ°Ð½Ð°":3808,"ÑĥÐ½Ð¸":3809,"ĠÐŁÐ°ÑĤÐ»Ð°Ð´Ð¶":3810,"ĠÑĩÐµÑĢÑĥÐ¿":3811,"ĠÐ³Ð»Ð°Ð·ÑĥÑĢÐ°":3812,"ĠÐĿÐ°ÑģÑĤÑĬÑĢÐ³":3813,"ĠÐ¸Ð·Ð¼Ð¸Ð¹ÑĤÐµ":3814,"ÑĥÐ½ÐºÐ°ÑĤÐ°":3815,"ĠÐľÐ°ÑħÐ°":3816,"ĠÐ´ÑĢÑĥÐ³Ð¸Ñı":3817,"ĠÑģÐ»ÑĥÑĩÐ°":3818,"ÐŁÑĬÑĢÐ¶Ð¾Ð»Ð¸ÑĤÐµ":3819,"ĠÑģÑĩÑĥÐºÐ²Ð°ÑĤ":3820,"Ð¿Ð¾ÑĢ":3821,"Ð»Ð¸Ð¾ÑĤÐ¾":3822,"Ð»ÐµÑģÐ½Ð¾":3823,"Ð¼Ð¾ÐºÐ¸":3824,"Ð´ÐµÐ»Ð¸":3825,"ĠÑĪÐ°Ð¼":3826,"ĠÑĨÑıÐ»Ð°":3827,"Ġ/":3828,"ÑĩÐµÐ½Ð¾":3829,"ĠÐŀÑĢÐ¸Ð·ÑĬÑĤ":3830,"Ð¾Ð»Ð¸Ð²Ð°ÑĤ":3831,"ĠÐ¿ÑĢÐ¸Ð³Ð¾ÑĤÐ²ÑıÑĤ":3832,"ĠÐ¿Ð¾ÑĢÑĤÐ¾ÐºÐ°Ð»Ð¸":3833,"Ð¿ÐµÑĩÐµÐ½Ð¸ÑĤÐµ":3834,"ĠÐ»ÑİÑĤÐµÐ½Ð¸ÑĨÐ°ÑĤÐ°":3835,"Ð´Ð¾ÑĤÐ¾":3836,"ĠÐ±ÑĢÐ°ÑĪ":3837,"Ð½Ð°Ð¿":3838,"ĠÐŀÑħ":3839,"ĠÐ·Ð°Ð³ÑĢÑıÑĤÐ¾":3840,"ĠÑħÐ°Ð²Ð°Ð½":3841,"ĠÐ¸Ð·ÑĨÐµÐ¶Ð´Ð°ÑĤ":3842,"ĠÐ§ÐµÑģÑĬÐ½ÑĬÑĤ":3843,"ĠÐĺÐ·Ð¿ÑĬÑĢÐ¶Ð²Ð°ÑĤ":3844,"ĠÐºÐ¸Ð¿ÑıÑīÐ°":3845,"ĠÑĤÑĥÑĢÑĪÐ¸Ñı":3846,"ĠÐµÐ»Ð°ÑģÑĤÐ¸ÑĩÐ½Ð¾":3847,"Ð²ÐµÐ½Ð°":3848,"ÑĥÐ»Ð¸":3849,"Ð»Ð¸ÑģÑĤÐ°":3850,"ĠÐ¿Ð°ÑĢÐ°":3851,"ĠÑĥÑģ":3852,"ĠÐ¿Ð¾Ð¿Ð¸Ðµ":3853,"Ð¿Ð²Ð°ÑĤ":3854,"Ð²Ð¸ÑģÐ¸":3855,"ĠÐ¿Ð¾Ð´Ð½Ð¾":3856,"ÐľÐ»ÑıÐºÐ¾ÑĤÐ¾":3857,"ĠÐ·ÐµÐ»ÐµÐ²Ð¸":3858,"ĠÐ¿Ð¾ÑģÐ¾Ð»ÑıÐ²Ð°Ð¼Ðµ":3859,"ĠÑħÐ°ÑĢÑĤÐ¸ÑıÑĤÐ°":3860,"ĠÐ¾ÑĤÐ»ÐµÐ¶Ð¸":3861,"Ð¿Ð°ÑĤÑĥÐ»Ð°":3862,"ĠÐ¿Ð¾ÑĤÐ¾Ð¿":3863,"ĠÑĪÐ¿Ð°ÑĤÑĥÐ»Ð°":3864,"ĠÐ°Ð¹":3865,"ĠÐ·Ð°Ð´ÑĥÑĪÐµÑĤÐµ":3866,"Ð»ÑıÐ±":3867,"ĠÑĦÐ¸Ð»Ð¸Ð¹ÐºÐ°":3868,"ĠÐ¿Ð°ÑģÐ¸ÑĢÐ°Ð½Ð¸":3869,"ĠÐºÑĢÐµÐ½Ð²Ð¸ÑĢÑĪ":3870,"ÑģÑĥÑģÐ°":3871,"ĠÐŀÐ²Ð°Ð»Ð²Ð°ÑĤ":3872,".)":3873,"ĠÐ·Ð°Ð³Ð»Ð°Ð¶Ð´Ð°":3874,"ĠÐ¿ÑĢÐ¸Ð³Ð¾ÑĤÐ²ÐµÐ½":3875,"ĠÐ¿ÑĢÐ¾Ð´ÑĬÐ»Ð³Ð¾":3876,"ĠÐ´Ð°ÑĦÐ¸Ð½Ð¾Ð²Ð¸ÑıÑĤ":3877,"ÑĢÑĬÐ½":3878,"ĠÐºÐ¾ÑĢÐµÐ½":3879,"ĠÐ¿ÑĢÐµÐ³ÑĬ":3880,"ĠÐ¿ÑĢÐµÑĨÐµÐ´":3881,"ĠÐ¶Ð¸":3882,"ĠÑĢÑĥÐ»Ð°":3883,"ĠÐŁÐ°ÑģÐ¸":3884,"Ð±Ð°Ð¿":3885,"ÑģÐ¸ÑģÑĤÐµÐ½":3886,"Ð¿ÐµÐºÐ°ÑĤ":3887,"ĠÐ³Ð¾ÑĢÐµÑīÐ°ÑĤÐ°":3888,"ĠÐ³Ð¾Ð»ÑıÐ¼Ð¾":3889,"ĠÐ³Ð¾ÑĢÐ½Ð°ÑĤÐ°":3890,"ÑģÐ¾ÐºÐ°":3891,"ĠÑĨÐ²ÐµÑĤÐ°":3892,"ÑĤÑĥ":3893,"ĠÐ´Ð¾Ð¿ÑĬÐ»Ð½Ð¸ÑĤÐµÐ»Ð½Ð¾":3894,"ĠÐĵÐ¾ÑĤ":3895,"ĠÐ¾ÑģÐ½Ð¾Ð²Ð°ÑĤÐ°":3896,"ĠÐ¸Ð·Ð¼Ð¸ÑĤÐ¸ÑıÑĤ":3897,"ĠÐ½Ð°Ð´ÑĥÐ¿":3898,"Ð¿ÑĢÑıÑģÐ½Ð¾":3899,"ĠÐ·Ð°Ð²ÑĬÑĢÑĪÐ²Ð°":3900,"Ð¼Ð°ÑĨÐ¸Ñı":3901,"ĠÐµÐ½ÐµÑĢ":3902,"Ð¿Ð°Ð³Ðµ":3903,"ĠÐ°Ð½":3904,"ĠÐŁÐ¾ÑģÑĤÐ°Ð²ÐµÑĤÐµ":3905,"ĠÐ¿Ð¾ÐºÑĢÐ¸ÑıÑĤ":3906,"ĠÑģÐ²Ð°ÑĢÐµÐ½Ð¸Ñı":3907,"ĠÐ¿ÑĬÐ»Ð½Ð¾Ð·ÑĬÑĢÐ½Ðµ":3908,"ĠÐ½Ð°Ð¿ÑĬÐ»Ð²Ð°ÑĤ":3909,"Ð³Ð¸ÑĩÐ½Ð¾":3910,"ÐºÐ°ÑĢÐ¾Ð½Ð¸ÑĤÐµ":3911,"ÑĥÐ»ÑĮÐ¾Ð½":3912,"ĠÐĺ":3913,"ĠÐ½Ð°Ð¿ÑĢÐµ":3914,"ĠÐ¾ÑĩÐ¸":3915,"Ð²Ð¸Ð²Ð°Ð¼Ðµ":3916,"ĠÐŁÐ»ÑĬÐ½":3917,"ĠÐ¡Ð»Ð°":3918,"ĠÑĦÐ¸Ð»Ð¸Ð¸ÑĤÐµ":3919,"ÐĿÐ°ÑĢÑıÐ·Ð²Ð°":3920,"Ð¾Ð´Ð¶ÐµÐ½Ð°":3921,"ĠÐ¿Ð¾ÑĢÑĤÐ¾ÐºÐ°Ð»Ð¾Ð²":3922,"ĠÐºÑĬÑģÑĩÐµÑĤÐ°":3923,"ĠÐ¿Ð¾Ð¾Ð¼ÐµÐºÐ½Ðµ":3924,"Ð¿Ð°Ð´Ð¶Ð¸Ðº":3925,"ĠÐłÐ°Ð·Ð¿ÑĢÐµÐ´ÐµÐ»Ñı":3926,"ĠÐµÐ½ÐµÑĢÐ³Ð¸ÑĩÐ½Ð¾":3927,"ÑĤÑĬÐ½":3928,"ĠÐµÐº":3929,"ĠÐ¿ÑĢÐµÐºÐ°":3930,"ÑģÐµÑĢÐ°":3931,"ĠÐºÐ¸Ð¼":3932,"ĠÐ´Ð¾Ð±Ð°Ð²ÑıÐ¼":3933,"ĠÐĹÐ°Ð³ÑĢÐµÐ¹ÑĤÐµ":3934,"ĠÐ¿ÑĢÐ¸Ð±Ð°Ð²ÑıÑĤÐµ":3935,"ĠÐºÑĢÐ°ÑģÑĤÐ°Ð²Ð¸ÑĨÐ°ÑĤÐ°":3936,"ĠÑģÐ²Ð¸Ð½ÑģÐºÐ¾ÑĤÐ¾":3937,"ĠÑĢÐ°Ð²Ð½Ð°":3938,"ĠÐ´Ð¶Ð¸Ð½Ð´Ð¶Ð¸ÑĦÐ¸Ð»Ð°":3939,"ĠÐ¿ÑĢÐµÑģÑıÑĤÐ¾":3940,"ĠÐ¾ÑħÐ»Ð°Ð´ÑıÑĤ":3941,"Ð½Ð°ÑģÑĤÑĬÑĢÐ³Ð°":3942,"ĠÐºÐ¾Ð½ÑģÑĥÐ¼Ð°ÑĨÐ¸Ñı":3943,"ÑģÐ¸ÑģÑĤÐµÐ½ÑĨÐ¸Ñı":3944,"ĠÐ²ÑĢÑĬÑīÐ°ÑĤ":3945,"ĠÑģÐ³Ð¾ÑĢÐµÑīÐµÐ½Ð°ÑĤÐ°":3946,"ĠÐ¿Ð¾Ð¿Ð°ÑĢÐ²Ð°ÑĤ":3947,"ĠÑģÐºÐ°ÑĢÐ¸Ð´Ð¸ÑĤÐµ":3948,"ĠÐ´ÐµÐºÐ¾ÑĢÐ°ÑĨÐ¸Ñı":3949,"ĠÐºÐµÑĢÐµÐ²Ð¸Ð·":3950,"ĠÐŁÐ»ÑĬÐ½ÐºÐ°ÑĤÐ°":3951,"ĠÐ½Ð°Ð¿Ð¾":3952,"ÑĨÑı":3953,"Ð²Ð¸Ð¹ÑĤÐµ":3954,"ĠÑĢÐ°Ð·ÑĤÐ°Ð¿Ñı":3955,"Ð¼ÐµÑģÐ²Ð°Ð½Ðµ":3956,"ĠÐ½Ð°Ð´ÐµÐ½Ð¸ÑĨÐ°ÑĤÐ°":3957,"ĠÐ·Ð°ÑĤÐ¾Ð¿Ð»ÐµÐ½Ð°":3958,"ÐĽÑĥÐºÐ°":3959,"ÐºÑĬÐ´Ðµ":3960,"ĠÐĳÐµÑĪÐ°Ð¼ÐµÐ»":3961,"ĠÐ²ÑĬÑĢÑħÐ°":3962,"ĠC":3963,"ĠÐ²ÑĬÑĢ":3964,"ÐµÐ´ÑĢÐ¾":3965,"ĠÐ´Ð¶Ð¾Ð´Ð¶ÐµÐ½Ð°":3966,"ĠÐ¾Ð¼ÐµÐºÐ½Ð°":3967,"Ð¢ÐµÑģÑĤÐ¾ÑĤÐ¾":3968,"ĠÐ¸Ð½Ð´Ð¸Ð¹ÑģÐºÐ¾ÑĤÐ¾":3969,"ÐĺÐ·Ð¼Ð¸ÑĤÐ¸ÑĤÐµ":3970,"ÐºÐ»Ð°":3971,"ÑĩÐºÐ²Ð°ÑĤ":3972,"ÑĤÐµÐ¹":3973,"ĠÐ²ÑĤÐ²ÑĬÑĢ":3974,"ĠÐºÐ¾ÑĪÐ½Ð¸":3975,"ĠÐŀÑĤÑĨÐµÐ¶Ð´Ð°":3976,"ĠÐ²Ð°Ð´Ð¸":3977,"ĠÐ¸Ð·Ð¿ÑĬÑĢÐ¶ÐµÐ½Ð¸ÑĤÐµ":3978,"ĠÐ½Ð°Ð¼Ð°Ð·Ð°Ð½":3979,"ĠÐºÐ°ÑĦÐµÑĤÐ¾":3980,"ĠÐ·Ð°ÐºÐ²Ð°ÑģÐµÐ½Ð°ÑĤÐ°":3981,"ĠÐĿÐ°Ð¼Ð°Ð¶ÐµÑĤÐµ":3982,"ĠÐ°ÑĢÐ¾Ð¼Ð°ÑĤÐ¸":3983,"ĠÐºÐ°ÑĢÑĦÐ¸Ð¾Ð»Ð°":3984,"ÐŁÐ¾ÑĩÐ¸ÑģÑĤÐµÐ½Ð¸ÑĤÐµ":3985,"ĠÐºÑİÑĦÑĤÐµÐ½ÑĨÐ°ÑĤÐ°":3986,"ÑģÐ¼Ð»Ñı":3987,"ÑģÑĬÑħ":3988,"Ð¥":3989,"Ð»ÐµÐ½Ð°ÑĤÐ°":3990,"Ð¼ÐµÐ½Ð¸":3991,"ĠÐ·Ð°Ð±":3992,"ĠÐŁÑĢÐ¾Ð´ÑĥÐºÑĤÐ¸ÑĤÐµ":3993,"ĠÐºÐ¸ÑĦÐ»Ð¸":3994,"ĠÑĢÐ°Ð·Ð±Ð¸ÑĤ":3995,"ĠÐ·Ð°Ð¿Ð¾ÑĩÐ½Ð°ÑĤ":3996,"ĠÐ¼Ð¸ÐºÑģÐµÑĢÐ°":3997,"ĠÐ¾ÑĤÐ²Ð°ÑĢÐ°":3998,"ÐµÑĤÑĬ":3999,"ĠÐ¿ÑĢÑĬÑģ":4000,"ĠÑıÐ´ÐºÐ¸ÑĤÐµ":4001,"ĠÐ¾ÑģÑĤÐ°ÑĤÑĬ":4002,"ĠÐĶÐ¾Ð±ÑĢÐµ":4003,"ÑĢÐµÑħÐ²ÑĬÑĢ":4004,"ĠÐ±ÑıÐ»Ð°ÑĤÐ°":4005,"ĠÐ¼Ð°ÑĢÐ³Ð°ÑĢÐ¸Ð½Ð°":4006,"ĠÑĢÐµÑĪÐµÑĤÑĬ":4007,"ĠÐ·ÐµÐ»ÐµÐ½ÑĩÑĥÐºÐ¾Ð²Ð°":4008,"ĠÐ·Ð°Ð¿ÐµÐºÐ°ÑĤ":4009,"ĠÑĢÐµÐ´ÑĥÐ²Ð°ÑĤ":4010,"ĠÐ¾Ð±ÑĢÐ°ÑĤÐ½Ð¾":4011,"ĠÑĨÐµÐ´ÐµÐ½Ð¾":4012,"Ġ\"":4013,"ÑģÑĢÐµÐ´":4014,"ÑĩÐºÐ²Ð°":4015,"Ð¼Ð°Ð»ÐºÐ¸":4016,"ĠÐŁÑĢÐµÑħÐ²ÑĬÑĢ":4017,"ĠÐ´ÑĬÐ»Ð³Ð¾":4018,"ĠÐ¾Ð²Ð½Ðµ":4019,"ĠÐºÐ¾Ð½ÑģÐ¸ÑģÑĤÐµÐ½ÑĨÐ¸Ñı":4020,"ÐłÐ°Ð·Ð±Ð¸Ð²Ð°Ð¼Ðµ":4021,"ÑĢÐ°Ð½Ð°ÑĤÐ°":4022,"ĠÐĿÐ°Ð¿ÑĬÐ»":4023,"ĠÐ¿Ð¸ÑĨÐ°":4024,"ĠÐĽÐ¸":4025,"ĠÐ¼Ð»ÐµÑĩÐµÐ½":4026,"ĠÐ¿ÑĢÐ¸Ð±Ð°Ð²Ð¸":4027,"ĠÑĢÐ°Ð·Ð»Ð¸ÑĩÐ½Ð¸":4028,"Ð²Ð¸ÑĨÐ¸ÑĤÐµ":4029,"ĠÐ¿Ð¾ÐºÑĢÐ¸Ð¹ÑĤÐµ":4030,"ĠÐ¿Ð°Ð»Ð°ÑĩÐ¸Ð½ÐºÐ°":4031,"ĠÐ¿Ð°ÑģÑĤÐ°ÑĤÐ°":4032,"ĠÐºÐ¾Ð¼Ð¿Ð¾ÑĤÐ°":4033,"ĠÐ¡ÑĬÐ´ÑĬÑĤ":4034,"ĠÐ¿Ð¾Ð´Ð½Ð¾Ñģ":4035,"ĠÐ·Ð°ÑĤ":4036,"ÐºÐ¸Ñı":4037,"Ð»ÐµÑĤ":4038,"ĠÐ½ÐµÐ·Ð°":4039,"Ð¡Ð¿Ð°Ð½Ð°ÐºÑĬÑĤ":4040,"ĠÑģÐ²Ð°ÑĢÐµÐ½Ð¾ÑĤÐ¾":4041,"Ð´ÑĥÑħ":4042,"ĠÐ´ÐµÐ±ÐµÐ»Ð°":4043,"ĠÐ¼ÐµÐ´ÑĬÑĤ":4044,"ĠÐ»ÑİÑĤÐ¸Ð²Ð¸":4045,"ĠÐºÐµÐºÑģÐ¾Ð²Ð°":4046,"ĠÑģÐ»Ð°Ð´ÐºÐ¸ÑĪÐ°":4047,"ĠÑģÐ»Ð¾Ð¶Ð¸ÑĤÐµ":4048,"ĠÐ½Ð°Ð¿ÑĢÐ°Ð²Ð¸":4049,"ĠÐ³Ð»Ð°Ð´ÑĬÐº":4050,"ĠÐ·Ð°Ð²ÑĢÑıÑĤ":4051,"ĠÐ¼Ð¾ÑĢÑģÐºÐ°":4052,"ĠÐ·Ð°ÑĪÐ¸Ð²Ð°":4053,"ĠÐ¿ÐµÑĢÐ¸Ð¾Ð´Ð¸ÑĩÐ½Ð¾":4054,"140":4055,"ĠÐ»Ð¸ÑģÑĤÐ¾":4056,"ÑĤÑĬÑĢÐ°":4057,"ĠÐ·Ð°Ð³ÑĢÑıÐ²Ð°ÑĤ":4058,"ĠÑĨÐ²ÐµÑĤ":4059,"ĠÐ¸Ð·Ð±ÑĢÐ¾":4060,"ĠÐ¾Ð²ÑĩÐµ":4061,"Ð·ÐµÑĢÐ°":4062,"ĠÐ¢Ð°Ð²Ð°ÑĤÐ°":4063,"ĠÐ¾ÑĦÐ¾ÑĢÐ¼ÑıÐ¼Ðµ":4064,"ĠÐºÐ°ÑĢÐ°Ð¼ÐµÐ»":4065,"ĠÐºÐ»ÐµÑĩÐºÐ¸":4066,"ĠÑĩÐµÑĤÐºÐ°":4067,"Ð¡Ð¸ÑĢÐµÐ½ÐµÑĤÐ¾":4068,"ĠÐ¿ÑĥÑħÐºÐ°Ð²":4069,"ĠÐ´ÑĢÐµÐ±Ð¾Ð»Ð¸Ð¸":4070,"ĠÑĦÑĢÐ¸Ð·ÐµÑĢÐ°":4071,"ĠÐ´Ð¾Ð¼Ð°ÑĪ":4072,"ĠÐĹÐ°Ð»Ð¸Ð²Ð°Ð¼Ðµ":4073,"ÐºÐ¾Ð»ÐºÐ¾ÑĤÐ¾":4074,"ĠÐ·ÑĬÑĢÐ½Ð°ÑĤÐ°":4075,"ĠÐ¾ÑģÑĤÐ°Ð½Ð°Ð»Ð¸ÑıÑĤ":4076,"ÐĹÐµÐ»ÐµÑĤÐ¾":4077,"Ð»Ð¾Ð´Ð¾Ð²ÐµÑĤÐµ":4078,"ÑĩÐµÐ½Ð¸":4079,"Ð´ÑĢÐ°":4080,"ĠÐ¾ÑĤÐ²Ð¾ÑĢ":4081,"ĠÑĢÐ°Ð·Ð¿ÑĢÐµÐ´":4082,"ĠÐ¡Ð²Ð°ÑĢÑı":4083,"ĠÐŀÑīÐµ":4084,"ÑģÑıÐºÑĬÐ´Ðµ":4085,"ĠÐ¾ÑĨÐµÑĤÑĬÑĤ":4086,"ÐĺÐ·ÑĩÐ¸ÑģÑĤ":4087,"ĠÐ·Ð°Ð¿ÐµÑĩÐµÑĤÐµ":4088,"ĠÐ»Ð¾ÐºÑĥÐ¼":4089,"Ð»ÑĬ":4090,"Ð´ÑĢÐµÐ±":4091,"ĠÐ½ÐµÑģ":4092,"Ð¿ÑĬ":4093,"ĠÐ´Ñİ":4094,"ÐºÐ¾ÑĢÐ¸":4095,"ĠÐ¸Ð·ÑĢÑıÐ·Ð²Ð°":4096,"ĠÐ¸Ð·ÑģÑĤÑĥÐ´":4097,"ĠÐ¸Ð·ÑģÑĤÐ¸ÑģÐºÐ°":4098,"ĠÐ²ÑĢÑıÑīÐ°ÑĤÐ°":4099,"ĠÐºÐµÐ±Ð°Ð¿":4100,"ĠÐ¸Ð·Ð¿Ð¾Ð»Ð·Ð²Ð°Ñħ":4101,"ĠÐ¾Ð±ÐµÐ»ÐµÑĤÐµ":4102,"ĠÑĢÐ°Ð·ÑĤÐ²Ð¾ÑĢÐµÐ½Ð°ÑĤÐ°":4103,"Ð¼ÐµÐºÐ½Ð°":4104,"Ð¿ÐµÑĢÐ¶Ð¸":4105,"ĠÐ¼Ð°ÑħÐ½ÐµÑĤÐµ":4106,"Ð¡Ð²Ð°ÑĢÑıÐ²Ð°Ð¼Ðµ":4107,"ĠÐ±Ð°Ð»ÑģÐ°Ð¼Ð¾":4108,"ÑģÑĥÑģÐ°Ð¼":4109,"ÑĢÐ°Ð½Ð¸ÑĤÐµ":4110,"ÑĢÐµÐ·":4111,"ĠÐĹÐ°Ð¿Ð¸ÑĩÐ°ÑĤ":4112,"ĠÐĺÐ·ÑģÑĤÐ¸":4113,"ÑĢÐµÐ±Ð²Ð°":4114,"Ð¿ÑĢÐµÑģÐ½Ð¸":4115,"ĠÐ½Ð°ÑĤÑĢÐ¾ÑĪÐµÐ½Ð¸":4116,"ĠÐĺÐ·ÑģÐ¸Ð¿Ð²Ð°ÑĤ":4117,"ĠÐ¿ÑĢÐµÐ´Ð¿Ð¾ÑĩÐ¸ÑĤÐ°Ð½Ðµ":4118,"ĠÑģÐ¼Ð¾ÐºÐ¸":4119,"ĠÐ¿ÑĬÑĤ":4120,"Ð¼ÑĬÑĤ":4121,"Ð³Ð»Ð°":4122,"Ð½Ð¸Ðº":4123,"Ð¼ÐµÑĤÐ°":4124,"ĠÑıÐ´":4125,"Ð¾ÑĢÐºÐ¾Ð²":4126,"Ð¡Ð²Ð¸Ð½Ñģ":4127,"Ð¡Ð²Ð°ÑĢ":4128,"ĠÐ·Ð°Ð³ÑĢÑıÑĤÐ¾ÑĤÐ¾":4129,"Ð²ÐµÑĢÑģÐ°":4130,"ĠÐ¿Ð°ÐºÐµÑĤÐ°":4131,"ĠÐºÐ¾Ð»Ð±Ð°ÑģÐ°":4132,"ĠÐ¾ÑģÐ¾Ð»ÑıÐ²Ð°":4133,"ĠÑĢÐµÑĪÐµÑĤÑĬÑĩÐ½Ð°":4134,"Ð´Ð¸Ð½":4135,"Ð½Ð°ÐºÑĢÐ°Ñı":4136,"ĠÑĢÐ°Ð·ÑģÑĤÐ¸Ð»Ð°ÑĤ":4137,"ĠÑĤÐ¸Ð¿":4138,"ĠÑģÐ²Ð°ÑĢÐµÑĤÐµ":4139,"ĠÐ¾Ð²Ð°Ð»Ñı":4140,"ĠÑĪÐ°ÑĢÐ°Ð½":4141,"ĠÐ±ÐµÐ»Ð¸":4142,"ĠÐŁÐ¸Ð»ÐµÑĤÐ¾":4143,"ĠÐŀÐ±ÐµÐ»Ð²Ð°ÑĤ":4144,"ÑģÐ¿ÐµÑĢÐ¶Ð¸":4145,"ÑĤÑĢÐ°":4146,"Ð»Ð°Ð¶Ð´Ð°ÑĤ":4147,"Ð¹ÑĨÐµÑĤÐ¾":4148,"ĠÐ¾ÑĤÐ²Ð°ÑĢÑı":4149,"ÑĢÐµÐ´Ð²Ð°ÑĢÐ¸ÑĤÐµÐ»Ð½Ð¾":4150,"ĠÐ¼Ð¾Ñī":4151,"ĠÑģÐ²Ð°ÑĢÐµÐ½Ð°":4152,"ÐľÐ¾ÑĢÐºÐ¾Ð²Ð¸ÑĤÐµ":4153,"ĠÑĢÐ°ÑģÑĤÐ¸ÑĤÐµ":4154,"Ð»Ð¸Ð¼Ð¾Ð½":4155,"ĠÐ¸Ð·Ð¿Ð¾Ð»Ð·Ð²Ð°ÑĤÐµ":4156,"900":4157,"ÐĹÐµÐ»":4158,"ĠÑģÐµÐ·":4159,"ÑĥÑĤÐ°":4160,"ÑģÑĤÐ²ÐµÐ½Ð¾":4161,"ĠÑĤÐ¾Ð¿Ð»Ð¾ÑĤÐ¾":4162,"ÐŁÑĢÐ¾Ð´ÑĥÐºÑĤÐ¸ÑĤÐµ":4163,"ĠÐ¸Ð·Ð²Ð°Ð´ÐµÑĤÐµ":4164,"Ð±ÐµÐº":4165,"ĠÐ¸Ð·Ð²Ð°Ð¶Ð´Ð°Ð½ÐµÑĤÐ¾":4166,"ĠÐ½Ð°Ð¹Ð»Ð¾":4167,"ĠÐĽÐµÐºÐ¾":4168,"ĠÑģÑĥÑĢÐ¾Ð²Ð°":4169,"ĠÑģÐ²ÐµÑĤÐ»Ð°":4170,"ĠÑģÐ²ÐµÑĤÐ»Ð¾":4171,"ĠÑĢÐ°Ð·Ð¼ÐµÑĢÐ¸":4172,"ĠÐ¾Ð³Ð½ÐµÑĥÐ¿Ð¾ÑĢÐµÐ½":4173,"ĠÐ¼Ð»ÑıÐ½":4174,"ĠÑĪÐ½Ð¸ÑĨÐµÐ»Ð¸":4175,"ĠÐĴÐ½Ð¸Ð¼Ð°ÑĤÐµÐ»Ð½Ð¾":4176,"ÑģÐºÐ²Ð°ÑĤ":4177,"ÐºÐ¾Ð²Ð°":4178,"ĠÐºÐ¾Ð·Ñĥ":4179,"ĠÐ¡Ð¾":4180,"ÐĹÐ°Ð¼ÐµÑģÐ²Ð°":4181,"ĠÑĥÐ¼ÐµÑĢÐµÐ½Ð¾":4182,"ĠÑģÐ³Ð¾ÑĢÐµÑīÑıÐ²Ð°":4183,"ĠÐ²ÑĤÐ°ÑģÐ°ÑĤ":4184,"Ð¢Ð¸ÐºÐ²Ð°ÑĤÐ°":4185,"ĠÐŁÐ¾ÐºÑĢÐ¸Ð¹ÑĤÐµ":4186,"ĠÐ»ÑİÑģÐ¿Ð¸ÑĤÐµ":4187,"ĠÑĢÑĥÐ»ÑĨÐ°":4188,"ĠÐºÐ¾ÑĤÐ»ÐµÑĤÐ¸":4189,"ĠÑģÐ²ÑĬÑĢÑĪÐ°ÑĤ":4190,"ĠÐ½Ð°Ð¿ÑĢÐµÑĩÐ½Ð¾":4191,"ĠÐĹÐµÐ»":4192,"Ð²ÑĢÐµÐ¼ÐµÐ½Ð½Ð¾":4193,"ÑĥÑĤÐµÑĢ":4194,"ĠÐ½Ð°Ð¿Ð¾Ð»Ð¾Ð²Ð¸":4195,"ĠÐ¿Ð¾Ð±Ðµ":4196,"ĠÑĢÐ°Ð·ÑĢÐµÐ´":4197,"ĠÐ·ÐµÐ»ÐºÐ°ÑĤÐ°":4198,"ĠÐ¿Ð°ÑģÑĤÐµ":4199,"ĠÐ¼ÐµÐºÐ¾ÑĤÐ¾":4200,"ĠÐŁÐ¾Ð»ÑĥÑĩÐ°Ð²Ð°":4201,"ÐºÑĬÐºÑĢÐ¸":4202,"ĠÐ²Ð¸ÑģÐ¾ÐºÐ°":4203,"Ð»ÑıÐ±ÑĬÑĤ":4204,"45":4205,"ĠÐ½Ð°ÑĩÑĥÐºÐ²Ð°":4206,"ĠÑĤÐµÑĩÐ°":4207,"ĠÐĿÐ°ÑĢÑıÐ·Ð°Ð½Ð¸ÑĤÐµ":4208,"ĠÐ²Ð¸ÑĪÐ½Ð¸":4209,"ĠÑģÐ°Ð»Ð°ÑĤÐ¸":4210,"ĠÐ±Ð¾Ñı":4211,"ĠÑģÑĤÑĥÐ´ÐµÐ½":4212,"ĠÐ»ÐµÐ¿Ð½Ðµ":4213,"ĠÐ´ÐµÑģÐµÑĢ":4214,"ĠÑģÐ°ÑĢÐ¼Ð¸ÑĤÐµ":4215,"ĠÑĪÐ¸ÑĪÑĩÐµÑĤÐ°":4216,"ĠÐ¼Ð°ÑħÐ°ÑĤ":4217,"ĠÐ³ÑĢÐ¾Ð·Ð´Ðµ":4218,"ĠÐ¿Ð¾ÐºÐ°ÑĦÐµÐ½Ðµ":4219,"ĠÑħÐ°Ð²Ð°Ð½ÑĩÐµ":4220,"ÐĹÐµÐ»ÐµÐ½ÑĩÑĥÑĨÐ¸ÑĤÐµ":4221,"ĠÐ±Ð»Ñİ":4222,"ĠÑĢÐ°Ð·Ð¼ÑĢÐ°Ð·":4223,"ĠÑĩÐµÑĢÐ¿Ð°":4224,"ĠÐ·ÐµÐ»ÐµÐ½Ð¸ÑĤÐµ":4225,"ĠÑĩÐ¸Ð½Ð¸ÑıÑĤÐ°":4226,"ĠÑĪÐ°ÑĦÑĢÐ°Ð½":4227,"ĠÑģÐ»Ð°Ð´ÑĬÐº":4228,"ÑģÑĥÑħ":4229,"ĠÑģÑĤÑĢÑĥÑı":4230,"ĠÑĤÑĬÐ¼ÐµÐ½":4231,"ĠÐ½Ð°Ð¿Ð¾Ð»Ð¾Ð²Ð¸Ð½Ð°":4232,"ĠÑĤÐµÑĩÐ°ÑīÐ°":4233,"Ð¾ÑĤÐ½Ð¾":4234,"ĠÐºÑĬÐ»":4235,"ĠÐ·ÑĢÑĬÐ½":4236,"ĠÐŁÑĥ":4237,"ÐµÑģÑĤÐ¾":4238,"ĠÐ¿ÑĢÐ¸Ð±Ð¸ÑĢÐ°":4239,"ĠÐ³Ð¾ÑĤÐ¾Ð²Ð¸Ñı":4240,"ĠÐ¼Ð¸Ð´Ð¸":4241,"ÐĿÐ°ÑĢÑıÐ·Ð°Ð½Ð¸ÑĤÐµ":4242,"ĠÑĥÐºÑĢÐ°ÑģÑıÐ²Ð°ÑĤ":4243,"ĠÐ»ÐµÐ¿ÐºÐ°":4244,"ĠÐ·Ð°ÑĤÐ²Ð°ÑĢÑıÑĤ":4245,"ĠÑģÑĤÐµÐ³Ð½Ð°ÑĤÐ¾":4246,"ĠÐ²Ð°Ð½Ð¸Ð»Ð¾Ð²Ð°":4247,"ĠÑĢÐ¾Ð»ÑĨÐ°":4248,"130":4249,"Ð¼Ð¾Ðº":4250,"ĠÑĢÐ°Ð·Ð±Ð¸ÑĤÐ°":4251,"ĠÑĥÐ²Ð¸Ð²Ð°ÑĤ":4252,"ĠÐ¿ÐµÑĩÐµÐ½Ð°":4253,"Ð±Ð¾Ð¶Ð´Ð°ÑĤ":4254,"Ð°Ð½ÑĬÑĤ":4255,"ĠÐĹÐ°Ð¿ÑĬÑĢÐ¶ÐµÑĤÐµ":4256,"ĠÑģÐ¸Ð¿Ð²Ð°Ð¼Ðµ":4257,"170":4258,"ĠÐºÑĢÐµÑħ":4259,"ĠÐ´ÑĢ":4260,"ÐµÐ»ÐµÐ½Ð¸":4261,"ĠÐ·Ð°Ð´ÑĥÑĪÐµÐ½Ð¸":4262,"ÐŁÑĢÐ°":4263,"ĠÑĢÐ¾Ð·Ð¾":4264,"ĠÑĢÐ°Ð·ÑĤÐ¾Ð¿ÐµÐ½":4265,"ĠÑģÑĤÑĢÑĬÐºÑĩÐµÑĤÐ°":4266,"ĠÐ¿Ð°ÐºÐµÑĤÑĩÐµÑĤÐ°":4267,"ĠÐ¾ÑħÐ»ÑİÐ²":4268,"ĠÐ¿ÑĬÐ½ÑĩÐµÑĤÐ°ÑĤÐ°":4269,"ĠÑĢÐµÑĨÐµÐ¿ÑĤÐ°":4270,"ÑĦÐ»ÐµÐ¹":4271,"Ð°Ð»Ð½Ð¾":4272,"ÑĨÐµÐ»Ð¸Ð½Ð°":4273,"ÑĢÑĬÐ·":4274,"ĠÐºÑĥÐ¿":4275,"ĠÐ¾ÑģÑĤÐ°Ð²ÑıÑĤÐµ":4276,"ĠÐ³Ð»Ð°Ð²Ð°ÑĤÐ°":4277,"ĠÐ»Ð¸Ð¼Ð¾Ð½ÐµÐ½Ð°":4278,"ĠÐºÑĬÐ´ÐµÑĤÐ¾":4279,"ĠÐŁÐ¾ÑģÐ¾Ð»ÐµÑĤÐµ":4280,"ĠÐ¸Ð¼Ð°ÑĤÐµ":4281,"Ð¿Ð°Ð³ÐµÑĤÐ¸ÑĤÐµ":4282,"16":4283,"ĠÑİÑĦ":4284,"ÐºÑĤ":4285,"ÑĥÑħ":4286,"ĠÐ½Ð°Ð»Ð¸Ð²Ð°Ð¼Ðµ":4287,"ĠÐĴÑģÐµÐºÐ¸":4288,"ĠÐĴÐ·ÐµÐ¼Ð°":4289,"ĠÑģÐ¼ÐµÑģÐµÐ½Ð°":4290,"Ð¾Ð»Ð¸Ð²Ð°Ð¼Ðµ":4291,"ĠÐ¿Ð¾ÐºÑĢÐ¸Ð²Ð°Ð¼Ðµ":4292,"ĠÐ¡Ð»Ð°Ð³Ð°ÑĤÐµ":4293,"ÐºÑģÐµÐ»":4294,"ĠÐ¼ÐµÐºÐ¸":4295,"ĠÐłÐµÐ´":4296,"ĠÐºÐ¾ÐºÐ¾ÑģÐ¾Ð²Ð¸ÑĤÐµ":4297,"ĠÐ¢Ð¾Ð¿":4298,"ĠÐ´ÑĢÐµÐ±Ð¾Ð»Ð¸Ð¸ÑĤÐµ":4299,"ĠÑģÑĬÑĢÑĨÐµÐ²Ð¸Ð½Ð°ÑĤÐ°":4300,"ĠÐ±Ð¾Ð½Ð±Ð¾":4301,"ÑĨÑıÐ»Ð¾":4302,"ĠÐ¿Ð¾Ð¶ÑĬÐ»":4303,"Ð³Ð°ÑĢÐ¸Ð½":4304,"ĠÐ²ÑĤÐ°ÑģÐ²Ð°":4305,"ĠÐ³ÑİÐ²ÐµÑĩÐµ":4306,"ĠÐ¿Ð¾ÐµÐ¼Ð°ÑĤ":4307,"ĠÐ³ÑĢÐ¸ÑģÐ°":4308,"ĠÑĨÑıÐ»Ð¾ÑĤÐ¾":4309,"ĠÐ½Ð°ÑĤÑĢÐ¾ÑĪÐ°Ð²Ð°ÑĤ":4310,"Ð¾ÑĢÐµÑħÐ¸":4311,"Ð½ÑĦÐ»ÐµÐ¹":4312,"ÑĤÐ°ÑĢÑı":4313,"Ð½ÐµÐ·":4314,"ÑİÐºÑģÐµÐ»":4315,"ĠÐºÐ¸Ð²Ð¸":4316,"Ð¿Ð¾Ð½Ðµ":4317,"Ð´Ð¾Ð²Ðµ":4318,"ĠÐ¿ÑĥÐ´Ð¸Ð½Ð³":4319,"ĠÐ½Ð°Ð¿ÑĬÐ»Ð²Ð°":4320,"ÑģÑĤÐµÐ»ÐµÑĤÐµ":4321,"ĠÐ¿Ð°Ð½Ð¸ÑĢÐ°":4322,"ĠÐ¿ÑĢÐµÑĤÑĢÐ¸Ð²Ð°ÑĤ":4323,"ÐŀÐ±ÐµÐ»ÐµÐ½Ð¸ÑĤÐµ":4324,"ĠÑģÐ°Ð»ÑĦ":4325,"ĠÐ¾ÑĦÐ¾ÑĢÐ¼ÐµÑĤÐµ":4326,"ĠÐ¡Ð²Ð°ÑĢÐµÐ½Ð¸ÑĤÐµ":4327,"Ð¼ÐµÐ½ÑĤÐ°Ð»":4328,"ĠÐ¼Ð°ÐºÑģÐ¸":4329,"ĠÐ´Ð¾Ð¼Ð°ÐºÐ¸Ð½ÑģÐºÐ¾":4330,"ĠÐ·Ð°Ð³ÑĢÐµÐµ":4331,"ĠÑĢÑĬÑģÐ¸":4332,"ĠÑģÐºÑĥÐ¼ÑĢÐ¸Ñı":4333,"ĠÐ°Ð½ÑĪÐ¾":4334,"ÑģÐ²Ð°ÑĢ":4335,"ĠÑģÐºÑĬÐ»":4336,"Ð»ÐºÐ°ÑĤÐ°":4337,"ÑĥÐ¼":4338,"ĠÐ¾Ñģ":4339,"ĠÐ±Ð°ÑĢ":4340,"ĠÐºÐ°ÑĪÐ¸":4341,"Ð°ÑĢÑĦÐ¸Ð¾Ð»":4342,"Ð¼Ð¾Ð½Ñı":4343,"ĠÐ¶ÐµÐ»Ð°ÑĤÐ¸Ð½Ð°":4344,"ĠÑĨÐµÐ½":4345,"ĠÐ½Ð°ÑģÑĤÑĬÑĢÐ³Ð²Ð°Ð¼Ðµ":4346,"ĠÑģÐ¿Ð°Ð½Ð°ÐºÑĬÑĤ":4347,"ĠÐŀÐ²ÐºÑĥÑģÐµÑĤÐµ":4348,"ĠÑĢÐ¸Ð±ÐµÐ½":4349,"ĠÐºÐ°ÑĦÑıÐ²":4350,"ĠÑģÐ¼Ð°ÑĩÐºÐ°":4351,"ĠÐ¶ÑĬÐ»ÑĤÐ°":4352,"ĠÑĥÐºÐ°Ð·Ð°Ð½Ð¸ÑıÑĤÐ°":4353,"ĠÐ¸ÑģÐºÐ°ÑĤÐµ":4354,"ÐµÐ»ÐµÑĤÐµ":4355,"Ð½Ð°Ð»Ð°ÑĤÐ°":4356,"Ð²ÑıÐ²Ð°ÑĤ":4357,"ĠÐ¼Ð°ÑģÐ»ÐµÐ½Ð¾":4358,"ĠÐºÑĥÑĤÐ¸Ñı":4359,"ĠÐļÑĢÐ°ÑģÑĤÐ°":4360,"Ð½Ð¸ÑıÑĤÐ°":4361,"ĠÐ³Ð¾ÑĤÐ¾Ð²Ð¸ÑĤÐµ":4362,"ĠÐ¸Ð·Ð¼Ð¸Ð²Ð°Ð¼Ðµ":4363,"ĠÐ±ÑĥÑĢÐºÐ°Ð½ÑĩÐµÑĤÐ°":4364,"ĠÐ±ÑĢÐ¾ÐºÐ¾Ð»Ð¸ÑĤÐµ":4365,"ĠÑĦÐ¸Ð»ÐµÑĤÐ°ÑĤÐ°":4366,"ÑĢÑıÐ·Ð°Ð½Ð¸ÑıÑĤ":4367,"ĠÐºÑĢÑĥÑĪÐ¸":4368,"ĠÐ²ÐºÑĥÑģÐ°":4369,"ĠÑģÐ¸Ð½Ð°Ð¿":4370,"ĠÐ¼ÐµÑģÐµ":4371,"ĠÐ»ÑĥÐºÐ°Ð½":4372,"ĠÐĳÐ°":4373,"ĠÐ±ÑĬÑĢÐºÐ°Ð»ÐºÐ°":4374,"ĠÑģÐµÑĢÐ²Ð¸ÑĢÐ°Ð¹ÑĤÐµ":4375,"ĠÐ¿Ð»Ð¾ÑĤ":4376,"ĠÐºÐ²Ð°Ð´ÑĢÐ°ÑĤÑĩÐµÑĤÐ°":4377,"ĠÑģÐµÐ·Ð¾Ð½Ð°":4378,"Ð±ÐµÐºÑİ":4379,"Ð²ÐµÐ½Ð°ÑĤÐ°":4380,"Ð³ÑĥÑĢÐ°":4381,"Ð¼ÐµÐ·Ð°Ð½Ð°":4382,"Ð½ÑģÐºÐ¸":4383,"ĠÐ·Ð°Ð´ÑĥÑĪÐµÐ½":4384,"ĠÐĹÐ°Ð¿ÑĬÑĢÐ¶Ð²Ð°Ð¼Ðµ":4385,"ĠÐºÑĢÐµÐ½Ð²Ð¸ÑĢÑĪÐ¸ÑĤÐµ":4386,"ĠÐ¤Ð¸Ð»Ðµ":4387,"ĠÑģÑĬÑĢÑĨÐ°":4388,"ĠÐ¸Ð·ÑĨÐµÐ´ÐµÐ½":4389,"ĠÐ¿Ð¾ÑĩÐ¸ÑģÑĤÐµÑĤÐµ":4390,"ĠÐ¢Ð¾Ð³Ð°Ð²Ð°":4391,"ĠÐ¸Ð·Ð»Ð¸Ð·Ð°":4392,"ĠÐ½Ð°ÑĤÑĢÐ¸Ð²Ð°":4393,"ĠÐ¿Ð¸ÐºÐ°Ð½ÑĤÐ¸Ð½Ð°":4394,"ÑİÐºÑģÐµÐ»ÑģÐºÐ¾":4395,"ĠÐ¿Ð¾ÐºÑĬÐºÑĢÐ¸":4396,"ĠÐŀÐºÐ¾Ð»Ð¾":4397,"ÐµÐ´ÑĬÑĢ":4398,"ĠÑĩÐ¸ÑģÑĤÐ°":4399,"Ð²ÐµÑĢÑıÐ²Ð°":4400,"ÑĨÐ°ÑĢÐµÐ»Ð°ÑĤÐ°":4401,"Ð¾Ð±ÑĬÑĤ":4402,"ĠÐ¾ÑĤÑĨÐµÐ´ÐµÑĤÐµ":4403,"ĠÐ¿Ð»Ð°ÑĤÐ¾":4404,"ĠÐ¿ÑĢÐ¸Ð³Ð¾ÑĤÐ²ÐµÐ½Ð°":4405,"ĠÑģÐ¾ÐµÐ²Ð¸ÑıÑĤ":4406,"ĠÐ¨Ð¾ÐºÐ¾Ð»Ð°":4407,"ĠÐ¿ÑĢÐµÑĤÑĢÐ¸Ð²Ð°":4408,"ĠÐºÐ¾Ð½ÑģÑĥÐ¼Ð¸ÑĢÐ°":4409,"ĠÐ²Ð¸Ð½ÐµÐ½":4410,"ĠÐºÑĢÑĥÑĤÐ¾Ð½Ð¸":4411,"Ð»ÐµÐ½Ð¾ÑĤÐ¾":4412,"ĠÐ½Ð°Ð»Ð¸Ð²Ð°ÑĤ":4413,"ÐºÐ°ÑĢÑĤÐ¾":4414,"ĠÑģÐ¸ÑĢ":4415,"ĠÐĴÐµ":4416,"ĠÐĿÐ°Ð²Ð¸Ð²Ð°":4417,"ĠÐ²Ð¸ÑĪ":4418,"ĠÐ´Ð¾Ð¼Ð°ÑĤÑĩÐµÑĤÐ°":4419,"ĠÐ¼Ð°ÑĢÐ¸Ð½Ð¾":4420,"ÐĳÐ¸ÑģÐºÐ²Ð¸ÑĤÐ¸ÑĤÐµ":4421,"ĠÑĨÑıÐ»Ð¾":4422,"ĠÐ¿Ð»Ð¸ÑĤÐºÐ°":4423,"ĠÐºÑĢÐ¸ÑģÑĤÐ°Ð»Ð½Ð°":4424,"ĠÐ½ÐµÐ·Ð°Ð»ÐµÐ¿Ð²Ð°":4425,"ĠÐ±Ð»ÑİÐ´Ð¾":4426,"ĠÐ½Ð°Ð¼Ð¾Ðº":4427,"ĠÐ¾Ð¿Ð¸":4428,"Ð¶Ð½Ð¾ÑģÑĤ":4429,"Ð±Ð¸ÑĢÐ°ÑĤ":4430,"ĠÐŀÐ±ÐµÐ»ÐµÑĤÐµ":4431,"ÑģÐ¸ÑĤÐ½Ð¾":4432,"ĠÐľÐ»ÑıÐºÐ¾ÑĤÐ¾":4433,"ÑĤÐ¾Ð¿ÐµÐ½Ð¾":4434,"ĠÐ¸Ð·Ð²Ð°Ð´ÑıÑĤ":4435,"ĠÑģÐ¸ÑĢÐ¾Ð¿Ð¸ÑĢÐ°":4436,"Ð¿Ð¾Ð´Ð¿ÑĢÐ°Ð²ÐºÐ°":4437,"ĠÐ´ÑĬÑĢÐ¶Ð°ÑĤ":4438,"ĠÐ±Ð°Ð¼Ñı":4439,"ÑģÐ²Ð¸Ð½Ñģ":4440,"ĠÐ½Ð°Ð½Ð¸":4441,"ĠÐ·Ð°Ð³Ð°ÑĢ":4442,"ĠÐŀÐ»Ð¸Ð¾ÑĤÐ¾":4443,"ĠÐ°ÑģÐ¿ÐµÑĢÐ¶Ð¸":4444,"ĠÐ°Ð¼Ð¾Ð½Ñı":4445,"ĠÑģÑĬÑīÐ¾ÑĤÐ¾":4446,"ÐĹÐ°Ð³ÑĢÐµÐ¹ÑĤÐµ":4447,"ĠÐłÐ°Ð·ÑĤÐ¾Ð¿":4448,"ĠÐºÑĢÐµÐ¼Ð¾":4449,"ĠÐ±ÑĬÑĢÐºÐ°Ð¹ÑĤÐµ":4450,"ĠÐºÑĢÑĬÐ³Ð»Ð¸":4451,"Ð³ÐµÑĤÐ°ÑĤÐ°":4452,"ĠÐ²Ð°ÑĢÐµÐ½Ðµ":4453,"ĠÐ¿Ð»Ð°ÑģÑĤÐ¾":4454,"ĠÐºÐ¾Ð½ÑıÐºÐ°":4455,"ĠÐĸÐµÐ»Ð°":4456,"ĠÐŁÐ¸Ð»ÐµÑĪÐºÐ¾ÑĤÐ¾":4457,"ĠÐ±Ð°ÑĢÐ±ÐµÐºÑİ":4458,"ĠÑĨÐµÐ½ÑĤÑĬÑĢÐ°":4459,"Ð±Ð»Ð¸Ð·Ð¸":4460,"Ð»Ð¸ÑıÑĤ":4461,"Ð½Ð°ÑĤÐ°ÑĢ":4462,"ÑĩÐ¸Ð½Ð°":4463,"ĠÐĹÐ°Ð»ÐµÐ¹ÑĤÐµ":4464,"Ð¿Ð¾ÑģÑĢÐµÐ´":4465,"ÐŁÑĢÐ°Ð·ÑĬÑĤ":4466,"ĠÐ¿Ð¾Ð»Ð¾Ð²Ð¸Ð½Ð¸":4467,"ĠÐ±ÑĥÑĤÐ¸":4468,"ĠÑħÐ°Ð¹":4469,"ĠÐ¾ÑĤÑĨÐµÐ´ÐµÐ½Ð¸ÑĤÐµ":4470,"ĠÐĵÐ¾ÑĤÐ¾Ð²Ð¸ÑıÑĤ":4471,"ĠÑĩÐ°ÑĪÐ°ÑĤÐ°":4472,"ĠÐłÑĥ":4473,"ĠÐ¿ÑĢÐ¸Ð³Ð¾ÑĤÐ²ÐµÐ½Ð¸Ñı":4474,"ÐºÐ¸ÑģÐµÐ»Ð¾":4475,"ĠÐ¾ÑĤÐ²Ð¾ÑĢÐ°":4476,"ĠÐºÐ¾Ð½Ð´ÐµÐ½Ð·Ð¸ÑĢÐ°Ð½Ð¾":4477,"ĠÑĩÐ¾ÑĢÐ±Ð°":4478,"ĠÐ¼Ð°Ð¹Ð¾ÑĢÐ°Ð½Ð°":4479,"240":4480,"Ð´Ð¾Ð²Ð¸":4481,"ĠÑĤÑĬ":4482,"ĠÐ½Ð°ÑĢÑıÐ·Ð²Ð°ÑĤÐµ":4483,"ĠÐ¿ÑĢÐ¾Ð³ÑĢÐ°":4484,"ĠÐľÐµÑģÐ¸":4485,"ÐĿÐ°Ð¼Ð°":4486,"ÐĴÑģÐ¸ÑĩÐºÐ¾":4487,"ĠÐ´ÑĥÐ¿ÐºÐ°":4488,"ĠÐ¿Ð¾Ð·Ð°Ð¿ÑĬÑĢÐ¶Ð¸":4489,"ĠÐ½Ð°ÑĤÑĥÑĢÐ°Ð»Ð½Ð¾":4490,"ĠÐ°Ð½ÑĪÐ¾Ð°":4491,"Ð¾ÑĤÐ°":4492,"ÑģÐ¼ÐµÑĤÐ°":4493,"ÐºÑĤÐµÐ¹":4494,"ÐµÐ½Ð´Ð¸":4495,"ĠÐ³Ð½ÐµÐ·":4496,"Ð»Ð¸Ð½Ð¸ÑĤÐµ":4497,"Ð¼ÐµÑģÑĤ":4498,"ĠÐ±ÑĢÐµÐ½Ð´Ð¸":4499,"Ð½ÐµÑģÐµÑĤÐµ":4500,"ĠÐºÐ¸Ñģ":4501,"ĠÐļÐ¾Ð½":4502,"ĠÑģÑĤÐ°Ð²Ð°ÑĤ":4503,"ĠÐĶÐ¾Ð±Ð°Ð²ÑıÑĤÐµ":4504,"ĠÐ±ÐµÐºÐ¾Ð½ÑĬÑĤ":4505,"ĠÐ¿ÑĢÐ¸Ð³Ð¾ÑĤÐ²ÑıÐ½Ðµ":4506,"ĠÐ²Ð°ÑĢÐµÐ½Ð¾":4507,"ĠÑģÑĬÑģÑĤÐ°Ð²ÐºÐ¸ÑĤÐµ":4508,"ĠÐ»Ð¾Ð·Ð¾Ð²Ð¸":4509,"ĠÐ¿Ð¸ÑĤÐºÐ°":4510,"ĠÐ±Ð»Ð°Ð½ÑĪÐ¸ÑĢÐ°ÑĤ":4511,"ĠÑħÑĢÑĥÐ¿ÐºÐ°Ð²Ð¸":4512,"ĠÐºÑĢÐ¸Ð»ÑĨÐ°":4513,"ĠÐ¿ÑĢÐµÐºÐ°Ð»ÐµÐ½Ð¾":4514,"ĠÐ¼Ð¾ÑīÐ½Ð¾ÑģÑĤ":4515,"Ð¦":4516,"Ð½ÐµÐ½Ð°ÑĤÐ°":4517,"Ð»ÑĥÐº":4518,"ÑĩÐºÐ¾":4519,"ĠÑĤÐµÐ·Ð¸":4520,"ÑģÐ¸ÑĤÐµ":4521,"ĠÐŁÐ¾ÑħÐ»ÑĥÐ¿Ð²Ð°":4522,"ÐµÐ´Ð¸Ð½":4523,"ĠÑĢÐµÐ¾ÑĤÐ°":4524,"ĠÑĦÐ¸Ð»Ð¸Ð¹ÐºÐ¸ÑĤÐµ":4525,"ĠÐ½Ð°ÐºÐ¸ÑģÐ½Ð°ÑĤ":4526,"ĠÐºÑĥÐ±ÑĩÐµÑĤÐ¾":4527,"ĠÐĺÐ·Ð²Ð°Ð¶Ð´Ð°Ð¼Ðµ":4528,"ĠÐ¿Ð¾Ð»ÑĥÑĩÐµÐ½Ð¾ÑĤÐ¾":4529,"ĠÑĢÐ°Ð·ÑĢÐµÐ·Ð¸":4530,"ĠÑĥÐ½Ð¸Ð²ÐµÑĢÑģÐ°":4531,"ĠÑĢÐµÐ±ÑĢÐ°":4532,"ĠÐ¾Ð²Ð½ÐµÑĪÐºÐ¾":4533,"ÑĤÐ½Ð°":4534,"ÑĪÐ¾ÐºÐ¾Ð»Ð°":4535,"Ð¼Ð°Ð»Ð°":4536,"ĠÐºÐ°ÑĪÑĥ":4537,"ĠÐ±ÑĢÑİÐºÑģÐµÐ»ÑģÐºÐ¾":4538,"ĠÑģÐ¾Ð±":4539,"ĠÑĤÐ²ÑĬÑĢÐ´Ð¸":4540,"ĠÐ´ÑĬÑĢÐ²ÐµÐ½Ð¾":4541,"ĠÑĨÐ¸Ð¿Ð¸ÑĤÐµ":4542,"ĠÐ¿Ð¾ÑģÐ¾ÑĩÐµÐ½Ð¸ÑĤÐµ":4543,"ĠÑĪÐºÐµÐ¼Ð±Ðµ":4544,"ĠÐ²ÑĬÐ·Ð¼Ð¾Ð¶Ð½Ð¾ÑģÑĤ":4545,"ĠÑģÐµÐ´":4546,"Ð·ÐµÐ»Ð°":4547,"ĠÐºÐ°Ð¿ÐºÐ°":4548,"ĠÐ¸Ð·ÑħÐ²ÑĬÑĢ":4549,"ĠÐµÑģÑĤÑĢÐ°Ð³Ð¾Ð½":4550,"ÐŁÑĢÐµ":4551,"ĠÐ·Ð°Ð³ÑĢÑıÑĤÐ°ÑĤÐ°":4552,"ĠÐ±ÑĬÑĢÐºÐ°ÑĤ":4553,"ÑģÐ¾Ñģ":4554,"ĠÑĢÑĬÑĨÐµÑĤÐµ":4555,"ĠÐŁÐ¾ÑģÐ»ÐµÐ´":4556,"ĠÐ¾ÑģÐ¾Ð»ÑıÐ²Ð°ÑĤ":4557,"ÐĶÐ¾Ð±ÑĢÐµ":4558,"ĠÐ¸Ð·ÐºÐ»ÑİÑĩÐ²Ð°":4559,"ĠÐ·Ð°Ð¿Ð°Ð·Ð²Ð°":4560,"ĠÐ¿ÑĢÐ°Ð²Ð¾ÑĬÐ³ÑĬÐ»Ð½Ð¸Ðº":4561,"ĠÐ¿Ð¾Ð´Ð½ÐµÑģÐµ":4562,"ÐµÐ´Ð°":4563,"ÑĤÑıÐ²Ð°Ð½Ðµ":4564,"Ð½Ð°ÑĢÑıÐ·Ð°Ð½Ð¸":4565,"ĠÐ¼Ð°ÑĪ":4566,"ĠÐ¾ÑĤÑĤÐµÐ³Ð»Ñı":4567,"ĠÐĴÐµÐ´":4568,"ĠÑħÐ²Ð°Ð½Ðµ":4569,"ĠÐŁÑĢÐ¸Ð³Ð¾ÑĤ":4570,"ĠÐ¢Ð¾ÑĢ":4571,"ĠÐ¾ÑĤÐ´ÐµÐ»Ð½Ð°":4572,"ĠÐ¿ÑĥÐ¹ÐºÐ°ÑĤÐ°":4573,"ĠÐ½Ð°ÐºÐ¸ÑģÐ½Ð°":4574,"Ð»ÐºÐ¾Ñħ":4575,"ĠÑĤÐ¾ÑĢÑĤÐ¸":4576,"ĠÐ½Ð°ÐºÑĬÑģÐ°":4577,"ÐľÐ°ÐºÐ°ÑĢÐ¾Ð½Ð¸ÑĤÐµ":4578,"ĠÐŀÑģÑĤÐ°Ð½Ð°Ð»Ð¾ÑĤÐ¾":4579,"Ð·ÐµÐ»ÐµÐ½Ð¸":4580,"ÐĸÑĬÐ»ÑĤÑĬÑĨÐ¸ÑĤÐµ":4581,"ĠÑĢÐµÐ¿Ð¸ÑĩÐºÐ¸":4582,"ĠÐºÐ°ÑĢÐ´Ð°Ð¼Ð¾Ð¼":4583,"ĠÐŁÑĢÐµÑģÑĤÐ¾ÑıÐ²Ð°":4584,"ĠÐ¿Ð°ÑģÑĤÐµÑĤ":4585,"Ð¿Ð¾ÑģÑĢÐµÐ´ÑģÑĤÐ²ÐµÐ½Ð¾":4586,"24":4587,"ÐºÐ¾ÐºÐ¾":4588,"Ð¼Ð°Ð¹Ð¾Ð½ÐµÐ·Ð°":4589,"Ð¹ÑģÐºÐ¸":4590,"ĠÐ¼Ð°ÑģÐºÐ°ÑĢ":4591,"ÑģÑĤÐ¸ÑĤÐµÐ»Ð½Ð¾":4592,"Ð¶Ð¸ÑĤÐµÐ»Ð½Ð¾":4593,"ĠÐ¿Ð¾Ð´Ð¿ÑĢÐ°Ð²ÐºÐ°ÑĤÐ°":4594,"ĠÐ½Ð°Ð¼Ð°Ð·Ð°Ð½Ð¸":4595,"ĠÐ¸Ð·ÑĩÐ¸ÑģÑĤÐµÐ½Ð¸":4596,"ĠÐ¤Ð¾ÑĢ":4597,"ĠÑģÑĥÑĢÐ¾Ð²Ð¾":4598,"ÑĥÑĤÑĩÐµÑĤÐ°ÑĤÐ°":4599,"ĠÐŀÑģÑĤÐ°Ð½Ð°Ð»Ð°ÑĤÐ°":4600,"ĠÐ·ÐµÐ»ÐµÐ½ÑĩÑĥÐºÐ¾Ð²Ð°ÑĤÐ°":4601,"ĠÐ¾Ð²ÐµÑģÐµÐ½Ð¸ÑĤÐµ":4602,"ĠÐ·Ð°Ð¿ÐµÑĩÐ°ÑĤ":4603,"ĠÐ°ÑĢÐ¾Ð¼Ð°ÑĤÐ½Ð¸":4604,"ĠÐ°ÑĢÐ¿Ð°Ð´Ð¶Ð¸Ðº":4605,"ĠÑģÐµÐ´Ð¼Ð¸":4606,"ÑĪÐµÐ½Ð¸Ðµ":4607,"ĠÐ´Ð¾Ð±Ð¸Ðµ":4608,"ÑĢÐ¾ÐºÐ¾Ð»":4609,"ĠÐ·Ð°Ð´ÑĥÑĪÐ°Ð²Ð°Ð½ÐµÑĤÐ¾":4610,"ĠÐ¼Ð¾Ð¶ÐµÑĤÐµ":4611,"ĠÑģÑĬÐ´ÑĬÑĤ":4612,"ĠÐ¸Ð·Ð¿Ð¾Ð»Ð·Ð²Ð°ÑĤ":4613,"ĠÑĢÐ°Ð·ÑĤÐ²Ð¾ÑĢÐµÐ½Ð°":4614,"Ð¿Ð¾Ð»Ð·Ð²Ð°":4615,"ĠÐ¸Ð·Ð»Ð¸ÑĪÐ½Ð°ÑĤÐ°":4616,"ĠÐ¼Ð°ÑĪÐ¸Ð½":4617,"Ð¾Ð²Ð°ÑĤ":4618,"Ð¾Ð²Ð°ÑĤÐ°":4619,"Ð·ÑĬÑĢÐ½Ðµ":4620,"ÑĤÐµÐ»Ðµ":4621,"ĠÐ²ÑĢÑıÑĤ":4622,"Ð¼ÐµÐ»Ð°":4623,"Ð²Ð¸Ð´":4624,"Ð¼Ð°Ñħ":4625,"ÑĦÐ°":4626,"ĠÑģÑĬÐ¾ÑĤÐ½Ð¾":4627,"ĠÐĹÐ°ÑĤÐ²Ð°ÑĢÑı":4628,"ÐĹÐ°ÑħÐ°ÑĢÑĤÐ°":4629,"ĠÐ²Ð°ÑĢÐµÑĤÐµ":4630,"ĠÐ¿Ð¾ÑĢÑĬÑģÐ²Ð°ÑĤÐµ":4631,"ĠÐ¸Ð·ÑģÑĤÐ¸ÑģÐºÐ²Ð°":4632,"ĠÐ³Ð¾ÑĢÐµÑīÐ¸Ñı":4633,"ĠÐ²Ð¾Ð´ÐµÐ½Ð¸":4634,"ĠÑĨÐ°ÑĢÐµÐ²Ð¸ÑĩÐ½Ð¾ÑĤÐ¾":4635,"ĠÐºÐ°ÑĢÐ°Ð¼ÐµÐ»Ð°":4636,"Ð³Ð¾Ð»ÑıÐ¼":4637,"ĠÐ±Ð°Ð»ÑģÐ°Ð¼Ð¸":4638,"ĠÐ¼Ð°Ð½Ð´Ð°":4639,"ĠÑģÐ¾Ð±ÑģÑĤ":4640,"Ð»Ð½Ð°ÑĤÐ°":4641,"ÑĩÐµÐ½Ð°":4642,"ÑĥÐ´Ð°":4643,"Ð½Ð°Ð¹":4644,"ÐµÐ½Ð´Ð¶Ðµ":4645,"ĠÐ¡ÐµÑĢÐ²Ð¸ÑĢÐ°Ð¼Ðµ":4646,"ĠÐ¿Ð¾ÑĢÑĤÐ¾ÐºÐ°Ð»Ð°":4647,"ĠÐ¿ÑĬÑĢÐ²Ð°ÑĤÐ°":4648,"ĠÐŁÐ¾ÑģÐ¾Ð»ÑıÐ²Ð°Ð¼Ðµ":4649,"ĠÐºÑĬÑĢÐ¸ÑĤÐ¾":4650,"ĠÐ¿ÑĥÑģÐ½Ð°ÑĤ":4651,"ĠÑģÐ»ÑĬÐ½ÑĩÐ¾Ð³Ð»ÐµÐ´Ð¾Ð²Ð¸":4652,"ĠÐ¿ÑĢÐ¸Ð´Ð¾Ð±Ð¸Ðµ":4653,"ÐºÐ»Ð°ÑīÐ°":4654,"Ð±Ð»Ð¸Ð·Ð¸ÑĤÐµÐ»Ð½Ð¾":4655,"ĠÐ½Ð°Ð¿ÑĢÐ¸Ð¼ÐµÑĢ":4656,"ĠÐ·Ð°Ð¿ÐµÑĩÐµÐ½Ð¸":4657,"ĠÐ¼Ð°ÑĪÐ¸":4658,"ĠÐ¼Ð°Ð½Ð°ÑĤÐ°ÑĢ":4659,"ĠÐ´Ð°Ð»Ð¸":4660,"ĠÐ¡ÑĬÑģ":4661,"ĠÐĿÐ°ÑĢÐµÐ´ÐµÑĤÐµ":4662,"ĠÐºÐ¾Ð½ÑģÐµÑĢÐ²Ð°ÑĤÐ°":4663,"ĠÐ¿Ð¸Ð»ÐµÑĪÐºÐ¸Ñı":4664,"ĠÐ¿ÑĢÑĬÑģÑĤÐ°":4665,"ĠÐ±Ð°Ð½Ð¸ÑĨÐ°ÑĤÐ°":4666,"Ð·ÐµÐ»ÐµÐ½ÑĩÑĥ":4667,"ĠÐ¿ÑĬÐ»Ð½ÐµÐ¶":4668,"ĠÑĢÐµÐ¾ÑĤÐ°Ð½":4669,"ĠÑģÑĩÑĥÐ¿":4670,"ÑħÐ°Ð½":4671,"ĠÐ¼Ð°Ð¶Ð°ÑĤ":4672,"Ġ26":4673,"ĠÐ¾ÑģÑĤÐ°Ð²Ð¸":4674,"ĠÐ¯Ð±ÑĬÐ»ÐºÐ¸ÑĤÐµ":4675,"ĠÐ½Ð°ÑĤÑĢÐ¾ÑĪÐµÐ½Ð¸ÑĤÐµ":4676,"ĠÑĤÐµÐ¼Ð¿ÐµÑĢÐ°ÑĤÑĥÑĢÐ°ÑĤÐ°":4677,"ĠÐ¿Ð¾Ð¿Ð°ÑĢÐ²Ð°":4678,"ĠÐ´Ð¾Ð»Ð½Ð°ÑĤÐ°":4679,"ÑĢÑıÐ·Ð°Ð½Ð¾ÑĤÐ¾":4680,"ĠÑģÑĬÑħÑĢÐ°Ð½ÑıÐ²Ð°":4681,"ĠÐľÐµÐ¶Ð´ÑĥÐ²ÑĢÐµÐ¼ÐµÐ½Ð½Ð¾":4682,"Ð¤Ð¸Ð»ÐµÑĤÐ¾":4683,"ĠÑĤÐ¾ÑĩÐ¸Ð»ÐºÐ°":4684,"ĠÑģÑĬÐ¾ÑĤÐ½Ð¾ÑĪÐµÐ½Ð¸Ðµ":4685,"Ð½ÐµÐ½Ð¸ÑĤÐµ":4686,"ĠÐ²Ð»Ð°Ð¶":4687,"Ð»ÐµÐ·Ðµ":4688,"ĠÐ¸Ð·ÑĩÐµÑĢ":4689,"ÑĬÑģÐºÐ°":4690,"ĠÐŁÐ¾Ð»Ð¸Ð²Ð°":4691,"ÑĦÐ¸Ð»Ðµ":4692,"Ð½ÑģÐºÐ°":4693,"ĠÐ´Ð¾Ð¼Ð°ÑĤÐµÐ½Ð°":4694,"ĠÑĢÐ¸Ð³Ð°Ð½Ð°":4695,"ĠÐ¢Ð¾Ð²Ð°":4696,"ĠÐ³Ð¾ÑĢÐµÑīÐ¾ÑĤÐ¾":4697,"ĠÑģÐ»Ð¾Ð¶Ð°ÑĤ":4698,"ÑĪÐºÐ°Ð²Ð°Ð»ÑĬÑĤ":4699,"ĠÐ²ÐµÐ³ÐµÑĤÐ°ÑĤÐ°":4700,"ĠÐºÐ¾Ð»Ð¸ÑĩÐµÑģÑĤÐ²Ð¾ÑĤÐ¾":4701,"ĠÐŁÐ¾Ð»ÑĥÑĩÐµÐ½Ð¾ÑĤÐ¾":4702,"ĠÐĵÐ°ÑĢÐ½Ð¸ÑĢÐ°":4703,"ĠÐ¿ÑĬÐ»Ð½Ð¾Ð·ÑĬÑĢÐ½ÐµÑģÑĤÐ¾":4704,"ĠÑģÐ°Ð»ÑĦÐµÑĤÐºÐ°":4705,"ĠÐºÑĬÑĢ":4706,"ĠÐ¾ÑĤÑĢÑıÐ·Ð²Ð°ÑĤ":4707,"ĠÑĩÐ°ÐµÐ½Ð¸":4708,"Ð¿Ð¸Ñı":4709,"ĠÐ¼Ð¸Ð´Ð¸ÑĤÐµ":4710,"ĠÐ¾Ð²Ð°Ð»Ð²Ð°Ð¼Ðµ":4711,"ĠÑĢÐ°Ð·Ð±Ð¸Ð²Ð°ÑĤÐµ":4712,"ĠÐ¸Ð·ÑĩÐ¸ÑģÑĤÐµÐ½Ð¸ÑĤÐµ":4713,"Ð½Ð°ÑģÑĤÑĬÑĢÐ³Ð°Ð½":4714,"Ð¼Ð°ÑĢÐ³Ð°ÑĢÐ¸Ð½":4715,"ĠÐ¿Ð¾ÐºÑĢÐ¸ÑĤÐ¸Ðµ":4716,"ĠÐŀÑĤÑģÑĤÑĢÐ°Ð½ÑıÐ²Ð°":4717,"ĠÐ²ÐµÑĩÐµÑĢÑĤÐ°":4718,"ÑģÐ¼Ð»ÑıÐ½":4719,"ĠÐ±Ð°Ð»ÑģÐ°Ð¼Ð¾Ð²":4720,"ÐµÐ½Ð¸ÐºÐ°":4721,"ĠÐ¢Ð°Ð·Ð¸":4722,"ĠÐ¿ÑĢÐ¸Ð³Ð¾ÑĤÐ²Ð¸":4723,"ÐĿÐ°ÐºÐ¸Ñģ":4724,"ĠÐºÐ¸Ð¿Ð²Ð°ÑĤ":4725,"ĠÑħÐ¾Ð¼Ð¾Ð³ÐµÐ½Ð¸":4726,"ĠÑĢÐ°Ð·ÑĤÐ²Ð¾ÑĢÐµÐ½Ð¾":4727,"ĠÐ¸Ð·ÑĨÐµÐ´ÑıÑĤ":4728,"ĠÐ¾ÑģÑĤÑĬÑĢÐ³":4729,"ĠÑĩÐµÑĢÐ¿Ð°Ðº":4730,"ĠÐ¿Ð¾Ð¶ÑĬÐ»ÑĤÑıÐ²Ð°Ð½Ðµ":4731,"ĠÐĴÐµÐ´Ð½Ð°Ð³Ð°":4732,"ÑıÐ¹":4733,"ÑĢÐ°Ð¼":4734,"ĠÑĩÐ¾":4735,"ĠÑģÐ¾Ð»ÐµÐ½Ð¾":4736,"ĠÑħÑĢÑıÐ½":4737,"ĠÑĤÐ¾Ð¿ÑĩÐµÑĤÐ°ÑĤÐ°":4738,"ÐºÑĥÑģÐºÐ°":4739,"Ð´ÐµÐ±Ðµ":4740,"ĠÐºÐµÐºÑģÐ°":4741,"ĠÐ¾Ð±Ð¸ÑĩÐ°":4742,"ĠÐŁÐ¾ÐºÑĢÐ¸Ð²Ð°ÑĤ":4743,"ĠÐ±ÐµÐ»Ð¸Ñı":4744,"ÑĪÐµÐ¿Ð°":4745,"ĠÐ¿ÑĥÐµÑĪÐºÐ¾":4746,"ĠÐ¿Ð¾Ð´ÑģÐ»Ð°Ð´ÐµÐ½Ð¾":4747,"ĠÑģÐ²Ðµ":4748,"Ð»ÑĬÑĤ":4749,"ÑĩÐµÐ½Ð¾ÑĤÐ¾":4750,"ÑĪÐ°ÑĢ":4751,"ĠÑģÑĥÐ¿":4752,"ĠÐ¸Ð·Ð¼Ð¸ÑĤÐ°":4753,"ĠÑģÐ²Ð°ÑĢÑıÐ²Ð°Ð½Ðµ":4754,"ĠÐŁÐ¾Ð´Ð½ÐµÑģÐµÑĤÐµ":4755,"ĠÐŁÑĢÐµÑĨÐµÐ¶Ð´Ð°":4756,"ÑĢÐ°Ð½Ð·ÐµÐ»Ð°":4757,"ĠÐ¿Ð¾ÐµÐ¼Ð°":4758,"ĠÐ¿Ð¾ÑĢÑĤÐ¾ÐºÐ°Ð»Ð¾Ð²Ð°":4759,"ĠÐ²ÑĤÐ¾ÑĢÐ¸":4760,"ĠÐ±Ð»Ð°ÑĤÐ¾Ð²Ðµ":4761,"ĠÐ¾ÑĦÐ¾ÑĢÐ¼Ð¸":4762,"ĠÑģÐ¿Ð¸ÑĢÐ°":4763,"ĠÐ¸Ð½":4764,"ÐºÐ°Ðº":4765,"Ð¼ÐµÑģÑĤÐ¾":4766,"ĠÐºÐ°Ð¿":4767,"ĠÐ¿Ð¾Ð´ÑĢÐµÐ´ÐµÑĤÐµ":4768,"Ð´ÑĥÑĪÐµÑĤÐµ":4769,"ĠÐ¿ÑĬÑĢÐ¶Ð¾Ð»Ð°":4770,"ĠÐ¾Ð±ÐµÐ»Ð²Ð°Ð¼Ðµ":4771,"ĠÐºÐ¾Ð¿ÑĬÑĢÑĬÑĤ":4772,"ĠÑģÐ³ÑĬ":4773,"ĠÐ³ÑĬÑĢÐ´Ð¸ÑĤÐµ":4774,"ĠÐ²Ð°Ð½Ð¸Ð»Ð¸Ð¸ÑĤÐµ":4775,"ĠÐ½Ð°Ð¿ÑĢÐ°Ð²ÐµÑĤÐµ":4776,"ĠÐ²ÐºÐ»ÑİÑĩÐ²Ð°":4777,"ĠÐ¿Ð»ÐµÑĪÐºÐ°":4778,"Ð¾ÑĢÐºÐ¾Ð²ÑĬÑĤ":4779,"ĠÑģÐºÑĬÐ»ÑĨÐ°":4780,"ĠÐ¿Ð»Ð°ÑģÑĤÐ¾Ð²Ðµ":4781,"ÑģÐ¼ÐµÑĤÐ°Ð½Ð°":4782,"ĠÑĨÐ¸":4783,"Ð»ÐºÐ¸ÑĤÐµ":4784,"ÑĤÐ¾ÑĢÐ°":4785,"Ð¿ÑĥÑĪ":4786,"ĠÑĤÐµÑģÑĤ":4787,"ĠÐĶÐ¾Ð¼Ð°ÑĤ":4788,"ĠÐ¿ÐµÑĩÐºÐ°":4789,"ĠÑģÐ²Ð°ÑĢÑıÐ²Ð°Ð¼Ðµ":4790,"ĠÐļÐ¾ÑĤ":4791,"ÐĿÐ°ÑĢÑıÐ·Ð²Ð°ÑĤ":4792,"ĠÐ¿ÑĢÐµÑģÑĤÐ¾ÑıÐ²Ð°ÑĤ":4793,"ÐĳÐ¾Ð±ÑĬÑĤ":4794,"ĠÐ¿Ð¾Ð´ÑħÐ¾Ð´ÑıÑīÐ¸":4795,"Ð¯Ð±ÑĬÐ»ÐºÐ¸ÑĤÐµ":4796,"ĠÐ¾Ð¼Ð»ÐµÑĤ":4797,"ĠÐ´Ð¶Ð¾Ð»Ð°Ð½":4798,"ĠÐĵÐ¾ÑĤÐ²Ð¸":4799,"Ð°ÑĢÑĦÐ¸Ð¾Ð»ÑĬÑĤ":4800,"ÐµÑĢÐ²Ð¸Ð·":4801,"ÑģÑĤÑĬÑĢÐ¶ÐµÑĤÐµ":4802,"ĠÐŀÑĢÐ¸Ð·Ð°":4803,"ĠÑĤÐ¾Ð¿Ð»Ð°ÑĤÐ°":4804,"ĠÐºÐ¾Ð»ÐºÐ¾":4805,"ĠÐ½Ð°Ð´ÑĢÐ¾Ð±":4806,"ÐĳÐµÐ»ÑĤÑĬÑĨÐ¸ÑĤÐµ":4807,"ĠÐ¼Ð°ÑħÐ°Ð¼Ðµ":4808,"ĠÐ±ÑĬÐ±ÑĢÐµ":4809,"ĠÐ¼Ð¸ÐºÑĢÐ¾Ð²ÑĬÐ»Ð½Ð¾Ð²Ð°ÑĤÐ°":4810,"ĠÐ½ÑıÐ¼Ð°ÑĤÐµ":4811,"ĠÐ¿ÑĥÑħÐºÐ°Ð²Ð°":4812,"ĠÑĢÐµÐ´Ð¸Ð¼":4813,"ĠÐŁÑĬÐ»Ð½ÑıÑĤ":4814,"ĠÑģÑĥÑģÐ°Ð¼Ð¾Ð²Ð¾":4815,"ÐºÐ°ÑĦÑıÐ²Ð¾":4816,"ĠÐºÑĬÐ»Ð½Ð¾":4817,"Ð²Ð°Ð¼":4818,"ÑĤÐ¾ÐºÐ°":4819,"Ð½Ð¾Ð²Ð¸Ñı":4820,"ÑĨÐ¸Ð¸ÑĤÐµ":4821,"ĠÑĤÐ°ÑħÐ°Ð½":4822,"ĠÐ¿Ð°ÑĢÐ¼ÐµÐ·Ð°Ð½Ð°":4823,"ĠÐ±ÑĥÐ»Ð³ÑĥÑĢÐ°":4824,"ĠÐ¿ÐµÑĩÐµÐ½Ð¸ÑĤÐµ":4825,"ĠÐ¿Ð¾Ð»ÑĥÑĩÐ°Ð²Ð°":4826,"ĠÐ¸Ð·Ð¿Ð¾Ð»Ð·Ð²Ð°Ð¼":4827,"Ð¾ÑģÐ°Ð½Ð¸":4828,"ĠÐ¿ÑĢÐµÑħÐ²ÑĬÑĢÐ»ÑıÑĤ":4829,"ĠÐºÐ¾ÑĢÐ½ÑĦÐ»ÐµÐ¹":4830,"ĠÑĤÑĢÐµÐ²Ð¸":4831,"ĠÐ¿Ð¾ÑĢÐ¾Ð·Ð¾Ð²Ðµ":4832,"ĠÐºÐ»Ð¾Ð½ÐºÐ¸":4833,"ĠÑģÑĤÐ¾Ð¿ÑıÐ²Ð°":4834,"ĠÑĨÐµÐ»Ñĥ":4835,"Ð²Ð¸ÑģÐ¸Ð»":4836,"ĠÐ°ÑĢÐ¾Ð¼Ð°ÑĤÐ¸Ð·Ð¸ÑĢÐ°":4837,"ĠÐ¼Ð°ÑĪÐ¸Ð½ÐºÐ°":4838,"ÐµÐ¹ÑĤÐµ":4839,"ĠÐ´ÑĢÑĬ":4840,"ÑĪÑĬÑĤ":4841,"Ð¹Ð½Ð¾":4842,"Ð¾ÑĢÑĩÐµ":4843,"ÑĢÑĬÐ³":4844,"ÑĥÐ»ÑĬÑĤ":4845,"ĠÑģÐ¼ÐµÑģÐµÐ½Ð¸":4846,"ĠÑĩÐ°ÑĪÐºÐ¸":4847,"ĠÐµÐ´ÑĢÐ°":4848,"ĠÐĹÐ°ÑħÐ»ÑĥÐ¿Ð²Ð°":4849,"ĠÐļÐ¾ÑĢÐ¸ÑĤÐµ":4850,"ĠÑģÑĤÑĥÐ´ÐµÐ½Ð¸":4851,"Ð¹Ð¾Ð½ÐµÐ·Ð°ÑĤÐ°":4852,"Ð°ÑģÑĥÐ»ÑĬÑĤ":4853,"ĠÑģÑĢÐµÐ´Ð½Ð¸":4854,"Ð¼Ð°ÑģÐ»ÐµÐ½Ð¾":4855,"ĠÐ¿ÑĬÑģÑĤÑĬÑĢ":4856,"Ð¿Ð°ÑĢÑĩÐµ":4857,"ĠÐºÐ°ÑĦÑıÐ²Ð¾":4858,"ĠÑĢÑıÐ´ÐºÐ°":4859,"ĠÐ´Ð¾Ð¾Ð¼ÐµÑģÐ²Ð°Ð½Ðµ":4860,"ĠÐ¾ÑģÑĤÐ°ÑĤÑĬÐºÐ°":4861,"ĠÑģÐ¼Ð¾ÐºÐ¸Ð½Ð¸":4862,"Ð´ÑĬ":4863,"Ð±ÐµÑĢ":4864,"ĠÐ¿Ð¾ÑĤÑĬ":4865,"ĠÐ¡Ð¼ÐµÑģÐ²Ð°Ð¼Ðµ":4866,"ĠÐ¼ÐµÑģÐ°":4867,"ĠÐ·ÐµÐ»ÐµÐ½Ð¸ÑıÑĤ":4868,"ÑĩÐ°ÑĤÐ°":4869,"ĠÐºÑĥÐ±ÑĩÐµÑĤÐ°ÑĤÐ°":4870,"ĠÑĢÐ°ÐºÐ¸Ñı":4871,"ĠÐľÐ°ÑĢÐ¸":4872,"ÐĶÑĢÐ¾Ð±":4873,"ĠÑĢÐ°Ð·Ð¿Ð¾Ð»Ð¾Ð²ÑıÐ²Ð°ÑĤ":4874,"ĠÐ¸Ð·Ð±ÑĢÐ¾ÐµÐ½Ð¸ÑĤÐµ":4875,"ĠÐ¼Ð°ÐºÑģÐ¸Ð¼Ð°":4876,"ĠÐ½ÐµÐ·Ð°Ð»ÐµÐ¿Ð²Ð°ÑīÐ¾":4877,"Ð¼ÐµÐ»Ð°ÑĩÐºÐ°":4878,"Ð»ÑĬÐ±":4879,"ĠÐ¼ÐµÑĢ":4880,"ĠÐ¾ÑĤÐ´ÐµÐ»Ð¸":4881,"ÐµÑģÑĤÐ¸":4882,"Ð±Ð¸ÑıÑĤ":4883,"ÐµÐºÐ¾Ð½ÑĬÑĤ":4884,"ĠÐ·ÐµÐ»ÐµÐ½Ð°ÑĤÐ°":4885,"ÑĩÑĥÐ¿Ð°":4886,"ĠÑĢÐ°Ð·Ð±Ð¸ÑĤÐ¸Ñı":4887,"ĠÐĹÐ°ÑħÐ°ÑĢÑĤÐ°":4888,"ÐĹÐ°Ð´ÑĥÑĪÐ°":4889,"ĠÐĺÐ·ÑĩÐ¸ÑģÑĤ":4890,"ĠÐ²ÑģÐ¸ÑĩÐºÐ¸ÑĤÐµ":4891,"ĠÑģÐ²Ð°ÑĢÐµÐ½Ð¸ÑıÑĤ":4892,"ĠÐºÐ°Ð¿Ð°ÑĩÐµ":4893,"ĠÐ³Ð¾ÑĢÐµÐ½":4894,"ĠÐ¸Ð·ÑĨÐµÐ´Ð¸":4895,"ĠÑĤÐ¾ÑĢÐ±Ð¸":4896,"ÐŁÐ¾ÑĩÐ¸ÑģÑĤÐµÑĤÐµ":4897,"ĠÑĢÐµÐ¶ÐµÐ¼":4898,"ĠÐ¾ÑģÐ½Ð¾Ð²Ð°":4899,"ĠÐºÐµÑĤÑĩÑĥÐ¿Ð°":4900,"ĠÐ¿ÑĢÐ°Ð²Ð¾ÑĬÐ³ÑĬÐ»Ð½Ð¸ÑĨÐ¸":4901,"ĠÑĢÑıÐ¿Ð°":4902,"ĠÐ¸Ð·Ð¿Ð»Ð°ÐºÐ²Ð°":4903,"ĠÐ½Ð°ÑĤÑĥÑĢÐ°Ð»ÐµÐ½":4904,"ĠÐĹÐµÐ»ÐµÑĤÐ¾":4905,"ĠÐµÐºÑģÑĤÑĢÐ°":4906,"Ð·ÑĬÑĢÐ½ÐµÑģÑĤ":4907,"ĠÑģÐ¿Ð»Ðµ":4908,"Ð´Ð»ÑĬÐ±":4909,"Ð¿ÑĢÐ¾":4910,"Ð±ÐµÑĤÐ¾":4911,"ĠÐ²Ð´Ð»ÑĬÐ±":4912,"ĠÐ´Ð»Ð°":4913,"ĠÐ»ÐµÑģ":4914,"ÑĢÑıÐ·Ð°Ð½":4915,"ĠÐ¡Ð²Ð°ÑĢÑıÐ²Ð°":4916,"Ð²Ð¾ÑĢÐµÑĤÐµ":4917,"ĠÐºÐ¸ÑĤÐ°":4918,"ĠÐ¿Ð¸Ð»ÐµÑĪÐºÐ°":4919,"ĠÐĹÐ°Ð²Ð¸Ð²Ð°ÑĤ":4920,"ĠÑĨÐµÐ»Ð¸ÑĤÐµ":4921,"ĠÑģÐ¿Ð°Ð½Ð°":4922,"ĠÑĤÐµÑĩÐ½Ð°ÑĤÐ°":4923,"ĠÐ¼ÐµÑĤÐ°":4924,"ĠÑģÑĥÑĪÐµÐ½Ð°":4925,"ĠÐ¿Ð¾ÑĢÑĨÐ¸Ð¸ÑĤÐµ":4926,"ĠÐ¤Ð¸":4927,"ĠÐ±Ð°Ð½Ð°Ð½Ð¸ÑĤÐµ":4928,"ĠÑģÑĥÑĢÐ¾Ð²":4929,"Ð³ÑĢÑıÐ²Ð°Ð¼Ðµ":4930,"ÐŁÐ¾ÑĩÐ¸ÑģÑĤÐµÐ½Ð¾ÑĤÐ¾":4931,"ĠÐ½Ð°ÑħÑĥÑĤÐ°":4932,"ĠÐ¿ÑĢÐµÑģÐ¾Ð²Ð°Ð½Ð¸Ñı":4933,"ĠÐŁÑĬÑĢÐ¶Ð¸Ð¼":4934,"Ð³Ð¾ÑĢÑĩÐ¸ÑĨÐ°":4935,"ĠÐ»ÐµÐ¿ÐºÐ°Ð²Ð¾":4936,"ĠÐ¸Ð·ÑĩÐµÑĢÐ¿":4937,"Ð¾ÑĢÑĩÐµÑģÑĤÑĬÑĢ":4938,"ĠÑīÐ¾":4939,"Ð·ÑĬÐº":4940,"ĠÐ½Ð°ÑĢÐµÐ´":4941,"ĠÐ¸Ð·ÑģÑĥÑĪ":4942,"ĠÐ¸Ð·ÑĨÑıÐ»Ð¾":4943,"ĠÐŁÑĢÐ°Ð·ÑĬÑĤ":4944,"ĠÐ¼Ð¸Ð½ÑĥÑĤÐºÐ¸":4945,"ĠÑĩÐµÑģÐ½Ð¾Ð²":4946,"ĠÑĩÐ°ÑĪÐºÐ°":4947,"ÑĥÐ´Ð¶":4948,"ĠÐ´Ð¾Ð¼Ð°ÑĤÐµÐ½Ð¸ÑıÑĤ":4949,"ĠÐ¼Ð¾ÐºÑĢÐ¸":4950,"ÑĥÐ½ÐºÐ°":4951,"ĠÑĢÐ°Ð·ÑĤÐ¾Ð¿ÐµÐ½Ð¸Ñı":4952,"ĠÑģÐ»Ð¾Ð¶":4953,"ĠÑģÐµÑĢÐ²Ð¸ÑĢÐ°Ð½ÐµÑĤÐ¾":4954,"ĠÐ¾ÑħÐ»Ð°Ð¶Ð´Ð°ÑĤ":4955,"ĠÐ¾ÑĤÑĨÐµÐ´ÐµÐ½":4956,"ĠÑĤÑĢÐ¸ÑĤÐµ":4957,"ĠÐ¿ÑĢÐ¸Ð³Ð¾ÑĤÐ²ÐµÐ½Ð¸ÑĤÐµ":4958,"ĠÐĴÐ°ÑĢÐ¸Ð¼":4959,"Ð¡Ð²Ð°ÑĢÑıÐ²Ð°ÑĤ":4960,"ĠÐ¼ÑĥÑģÐ°ÐºÐ°ÑĤÐ°":4961,"ĠÐ·Ð°ÑĤÐ²Ð¾ÑĢ":4962,"ĠÑıÐ´ÐµÐ½ÐµÑĤÐ¾":4963,"ĠÐºÑĢÐµÐ¼Ð¾Ð¾Ð±ÑĢÐ°Ð·":4964,"ĠÑģÐ²ÐµÐ¶":4965,"ÑĬÐ½Ð¾ÑĤÐ¾":4966,"Ð½Ð°ÑĩÐ°":4967,"Ð´Ð°ÑĤ":4968,"ĠÐºÐ°Ð½Ð°":4969,"ĠÑĢÐ°Ð·ÐºÐ»Ð°ÑīÐ°":4970,"ĠÐ¿ÑĢÐ¸ÑıÑĤ":4971,"ĠÐ¿Ð¾Ð´Ð³Ð¾ÑĤ":4972,"ĠÐĴÑĬÑĤÑĢÐµ":4973,"ĠÑĦÑĥÑĢÐ¼Ð¸":4974,"ĠÑĢÐµÐ´Ð°":4975,"ĠÐŁÐ¾ÑģÑĤÐ°Ð²ÑıÐ¼Ðµ":4976,"ĠÐ·Ð°ÑĤÐ¾Ð¿Ð»ÐµÐ½Ð¾ÑĤÐ¾":4977,"ĠÐ¿Ð¾Ð²ÑĤÐ°ÑĢÑı":4978,"ÐĺÐ·Ð¼Ð¸Ð²Ð°Ð¼Ðµ":4979,"ĠÐºÐ°ÑĦÑıÐ²Ð°ÑĤÐ°":4980,"ĠÐŁÐ°ÑĢÑĩÐµÑĤÐ°ÑĤÐ°":4981,"ĠÑĨÐ²ÐµÐºÐ»Ð¾ÑĤÐ¾":4982,"ĠÐ¿Ð¾Ð»Ð·Ð²Ð°Ð¼":4983,"ĠÐ½Ð°Ð¿ÑĢÑĬÑģÐºÐ²Ð°":4984,"ĠÐ¡Ð»Ð°Ð´ÐºÐ¸":4985,"14":4986,"Ð»ÐµÑĨ":4987,"Ð»ÐµÑĤÐ¸ÑĤÐµ":4988,"ÐµÑģÑĬÐ½Ð°":4989,"Ġ16":4990,"ĠÐ¿ÑĢÐµÑģÐ°":4991,"ĠÑħÐµÑĢ":4992,"ÐŁÐ°ÑĢ":4993,"ĠÐºÑĢÐµÐ¼ÑĬÑĤ":4994,"ĠÐľÐ°Ð³Ð¸":4995,"ĠÐ¿Ð¾Ð´Ð¿ÑĢÐ°Ð²ÑıÐ¼Ðµ":4996,"ĠÐŁÐ¾Ð´Ð¿ÑĢÐ°Ð²ÑıÑĤ":4997,"ĠÐ¾ÑĢÐµÑħÐ¾Ð²Ð¸ÑĤÐµ":4998,"ĠÑģÐ»Ð¾Ð¶Ð¸Ñħ":4999,"ĠÐ¿Ð¸ÑĤÐºÐ°ÑĤÐ°":5000,"ĠÑĪÐ¸ÑĢÐ¾ÐºÐ°":5001,"ĠÑģÐ»ÐµÐ¿Ð²Ð°ÑĤ":5002,"ĠÐ²ÑĤÐ²ÑĬÑĢÐ´Ð¸":5003,"ĠÐºÑĢÐµÑħÐºÐ¾":5004,"ĠÑħÐ°Ð¹Ð²ÐµÑĢ":5005,"ÐµÐ½Ð´Ð¶ÐµÑĢÐ°ÑĤÐ°":5006,"ĠÑħÐ¾Ð¼Ð¾Ð³ÐµÐ½Ð¸Ð·Ð¸ÑĢÐ°":5007,"ĠÑīÐ¾Ð¼":5008,"ĠÑģÑĤÐ¸":5009,"Ð´Ð¿ÑĬ":5010,"ÑĢÐ°ÑģÑĤÐ¸ÑĤÐµÐ»Ð½Ð¾":5011,"ÑĨÐµÐ½":5012,"Ð¹ÑģÐºÐ°":5013,"ĠÐ±ÑĢÐ¾":5014,"ĠÐºÐ¾ÐºÐ°":5015,"ĠÐ¡Ð¿Ð°Ð½Ð°ÐºÑĬÑĤ":5016,"ÑĢÐ¾Ð±Ð°":5017,"ĠÑĤÑĢ":5018,"ÑĩÐµÐ½ÑĨÐ°":5019,"ĠÐŁÐ¾Ð´ÑĢÐµÐ¶Ð´Ð°":5020,"ĠÐ¿Ð¾ÑģÐ³":5021,"ĠÐ¸Ð·Ð¿ÑĬÑĢÐ¶ÐµÑĤÐµ":5022,"ĠÑħÐ»ÑıÐ±ÑĬÑĤ":5023,"Ð°ÑĢÑĤÐ¾ÑĦ":5024,"ĠÑĢÑĬÐ±Ð°":5025,"ĠÐ¸Ð·Ð²Ð°Ð¶Ð´Ð°Ð¼Ðµ":5026,"ĠÑģÑĤÑĬÐºÐ»ÐµÐ½":5027,"ĠÐ»Ð¸ÐºÑĮÐ¾":5028,"ÑģÐ»Ð°Ð´ÐºÐ¾":5029,"Ġ700":5030,"Ð¾Ð²":5031,"ĠÐ¿ÑĢÐ¸Ð±Ð»Ð¸Ð·Ð¸ÑĤÐµÐ»Ð½Ð¾":5032,"ĠÐ°Ð»ÐºÐ¾Ñħ":5033,"ĠÑĢÐ°Ð·Ð±Ð¸Ð²Ð°Ð½Ðµ":5034,"ĠÐºÐ°Ð¿Ð°ÑĩÐµÑĤÐ°ÑĤÐ°":5035,"ĠÐ³Ð°ÑĢÐ½Ð¸ÑĢÐ°ÑĤ":5036,"ĠÑģÐ¸Ð¿ÐµÑĤÐµ":5037,"ĠÑĩÑĥÐºÐ²Ð°ÑĤ":5038,"ÑĢÑıÐ·Ð°Ð½Ð°ÑĤÐ°":5039,"ĠÐ¸Ð·Ð¿Ð»Ð°Ðº":5040,"ĠÑĦÑĬÑģÑĤÑĬÑĨÐ¸":5041,"ĠÐ¿ÑĢÐµÐ¿ÐµÑĩÐµÐ½Ð¾":5042,"Ð¡Ð²Ð¸Ð½ÑģÐºÐ¾ÑĤÐ¾":5043,"ĠÐ·ÑĢÑĬÐ½ÑĨÐ°":5044,"175":5045,"ÐµÑīÐ°ÑĤÐ°":5046,"ÑĤÐµÑĩÐµ":5047,"ÑĤÐ¸Ðº":5048,"ÑīÑĬÑĢ":5049,"ĠÐĴÑĤÐ°":5050,"Ð²Ð°Ð»ÑıÑĤ":5051,"ĠÐ½Ð°Ð¼Ð°Ð»ÐµÑĤÐµ":5052,"ĠÑģÐ»ÐµÐ´Ð½Ð¸Ñı":5053,"ĠÐ¾ÑģÑĤÐ°Ð²Ð°ÑĤ":5054,"Ð¡Ð¼Ðµ":5055,"ĠÐ¿ÑĢÐµÑģÐ½Ð¸Ñı":5056,"ĠÐ¿ÑİÑĢÐ¸ÑĢÐ°":5057,"Ð¿ÑĢÐµÐ´Ð²Ð°ÑĢÐ¸ÑĤÐµÐ»Ð½Ð¾":5058,"ĠÐ¾Ð¼ÐµÐºÐ²Ð°Ð½ÐµÑĤÐ¾":5059,"ĠÐ·Ð°Ð¿Ð¸ÑĩÐ°Ð¼Ðµ":5060,"ĠÐ½Ð°ÐºÐ¸ÑģÐ½Ð°ÑĤÐ¸":5061,"ĠÐ²Ð¾Ð´ÐºÐ°":5062,"ÑĤÐ¸Ð½ÑĬÑĤ":5063,"ĠÐ·Ð°ÑģÑĤÑĬ":5064,"ĠÐŀÐ²ÐºÑĥÑģÑıÐ²Ð°ÑĤ":5065,"ÐĽÐ¸":5066,"ĠÑĩÑĥÐºÐ²Ð°":5067,"ĠÑĪÐ¿ÑĢÐ¸ÑĨÐ¾Ð²Ð°":5068,"ĠÐ¸Ð·ÑħÐ²ÑĬÑĢÐ»Ñı":5069,"ÐĿ":5070,"ĠÐ·Ð°Ð»Ðµ":5071,"ÑĨÐ¸Ð¿":5072,"ĠÐ¸Ð·Ð»ÐµÐ·Ðµ":5073,"ÑĢÐ¾Ð·Ð¼Ð°ÑĢÐ¸Ð½":5074,"ĠÑģÑĥÑħÐ°ÑĢ":5075,"ĠÐ¾Ð²ÐºÑĥ":5076,"ĠÑħÐ°ÑĢÑĤÐ¸":5077,"ĠÐ¿ÑĢÐ¸Ð³Ð¾ÑĤÐ²ÑıÐ½ÐµÑĤÐ¾":5078,"ĠÐľÐ¾ÑĨÐ°ÑĢÐµÐ»Ð°":5079,"ĠÐ°Ð³Ð½ÐµÑĪÐºÐ°":5080,"ĠÑģÑĤÑĬÐºÐ»ÐµÐ½Ð°":5081,"ĠÑĩÑĥÐºÑĩÐµ":5082,"ĠÐ¿Ð¾ÑģÐ¸Ð¿Ð²Ð°ÑĤ":5083,"ĠÐĿÐ°ÑĢÑĬÑģÐ²Ð°":5084,"ĠÐ¼Ð°ÑģÐ»ÐµÐ½Ð¾ÑģÑĤ":5085,"ĠÐ½Ð°Ð¿Ð¸":5086,"ĠÐ²Ð·Ð¸Ð¼Ð°":5087,"ĠÑĩÐ¸Ð¿":5088,"ĠÐ·Ð°Ð´ÑĬÐ»":5089,"ĠÐºÐ¾ÐºÑĤÐµÐ¹":5090,"ĠÑĦÐ¸Ð½Ð¾":5091,"ĠÐ·Ð°Ð³ÑĢÐµÐ¹ÑĤÐµ":5092,"ĠÐ¢ÐµÐ½Ð´Ð¶ÐµÑĢÐ°ÑĤÐ°":5093,"ĠÐ¼ÐµÐº":5094,"ĠÐ±ÑĥÑĢÐºÐ°Ð½Ð¸ÑĤÐµ":5095,"ĠÐĴÐ°ÑĢÐµÑĤÐµ":5096,"ĠÐºÐµÐºÑģÐ¾Ð²Ð¾":5097,"ĠÐ¾ÑħÐ»Ð°Ð´ÐµÐ½Ð¾":5098,"ĠÐ²ÑĤÐ¾ÑĢÐ¸Ñı":5099,"ĠÐ¨ÑĥÐ½ÐºÐ°ÑĤÐ°":5100,"ĠÑģÑĤÑĬÐºÐ»ÐµÐ½Ð¸":5101,"ĠÑģÐ¼Ð°ÑĩÐºÐ²Ð°ÑĤ":5102,"ĠÐ´ÑĢÐµÑģÐ¸Ð½Ð³":5103,"ĠÑĩÐµÑĢÑĥÐ¿ÐºÐ¸ÑĤÐµ":5104,"ĠÐ¼Ð°ÑĢÐ¸Ð½Ð¾Ð²Ð°ÑĤ":5105,"ĠÐļÐ¾Ð½ÑģÑĥ":5106,"ĠÐºÑĬÐ»Ð½Ð¾Ð²Ðµ":5107,"ĠÐ»Ð¸ÐºÑĮÐ¾ÑĢÐ°":5108,"ÑĤÐ¾Ð·Ñĥ":5109,"ÑĢÐ°Ð¼Ð¸":5110,"ĠÐ²ÑĬÐ½":5111,"ÑĪÑĥÐ½ÐºÐ°":5112,"ĠÐ´Ð¾Ð¿ÑĬÐ»":5113,"ĠÐ¸Ð·ÑģÑĬÑħ":5114,"Ð¸Ð½Ð´ÑĥÑħ":5115,"ĠÑĦÑĢÐ¸Ð·":5116,"ĠÑģÑĬÐ¼":5117,"ÐµÐ´ÑĢÐ¾Ð²Ð¸":5118,"ĠÐĹÐ°Ð¿Ð¾":5119,"ĠÐ´Ð¾Ð¼Ð°ÑĤÐµÐ½Ð°ÑĤÐ°":5120,"ĠÐ¿ÑĬÑĢÐ¶ÐµÑĤÐµ":5121,"ÑĩÐµÐ½ÑĨÐµ":5122,"ĠÐ±Ð°ÐºÐ»Ð°":5123,"ĠÐ³Ð¾ÑĤÐ¾Ð²Ð¾ÑĤÐ¾":5124,"ĠÐ²ÑĢÐµÐ¼ÐµÑĤÐ¾":5125,"ĠÐ¸Ð·Ð¿ÑĬÑĢÐ¶ÐµÐ½Ð¸":5126,"ĠÐ±ÐµÐ·ÑģÐ¾Ð»":5127,"Ð¸Ð»Ð¸Ð¸ÑĤÐµ":5128,"ĠÑģÐ¼Ð»ÑıÐ½Ð¾ÑĤÐ¾":5129,"ĠÐ§Ð°":5130,"ĠÐ¿Ð°Ð½Ð¸ÑĢÐ°ÑĤ":5131,"ÐºÑĬÑĢÐ¸":5132,"ĠÐ¾Ð±Ð¸ÐºÐ½Ð¾Ð²ÐµÐ½Ð¾":5133,"ĠÐĺÐ·Ð¼Ð¸Ð¹ÑĤÐµ":5134,"ĠÐŁÐ¾Ð»ÑĥÑĩÐµÐ½Ð¸ÑĤÐµ":5135,"ÐĲÐºÐ¾":5136,"ĠÐłÐµÐ¶Ðµ":5137,"ĠÐłÐµÐ´ÑıÑĤ":5138,"ĠÑĦÑĢÐ¸Ð·ÐµÑĢ":5139,"ĠÐ¼Ð°ÑģÐ»Ð¸Ð½Ð°":5140,"ĠÑĤÐµÐ½":5141,"ĠÐ±ÑĥÑĩÐºÐ°":5142,"ĠÐ¸Ð·Ð¿Ð»Ñĥ":5143,"ĠÐ¿Ð¾Ð»Ð¾Ð²Ð¸Ð½ÐºÐ°":5144,"ĠÐŁÐ¾Ð´Ð¿ÑĢÐ°Ð²ÐµÑĤÐµ":5145,"ĠÑĪÐ¸ÑĢÐ¾ÐºÐ¸":5146,"ĠÑĤÑĬÐ¼Ð½Ð¾":5147,"ĠÑĤÑĢÐ¸ÑĬÐ³ÑĬÐ»Ð½Ð¸ÑĨÐ¸":5148,"ÐºÐ¸ÑģÐµÐ»Ð¸":5149,"ĠÐŁÐ°ÑĤÐ»Ð°Ð´Ð¶Ð°Ð½Ð¸ÑĤÐµ":5150,"ĠÐŁÑĢÐµÑħÐ²ÑĬÑĢÐ»Ñı":5151,"ĠÑİÑĦÐºÐ°":5152,"ĠÑĤÑĬÐ¹":5153,"Ð¼Ð°ÑĢÐ¸":5154,"ĠÐŁÐ¾Ð»Ð¸Ð²Ð°ÑĤ":5155,"ÑĥÐºÑĬÑĢÐ°":5156,"ĠÑĤÑĢÐ°":5157,"ĠÑĩÐµÑĢÐ²ÐµÐ½Ð¾ÑĤÐ¾":5158,"ĠÐĿÐ°Ð»Ð¸Ð²Ð°Ð¼Ðµ":5159,"ĠÐŁÑĢÐ¸ÑĤÐ¸ÑģÐºÐ°":5160,"ĠÐ¿ÑĢÐ¾ÑĨÐµ":5161,"ĠÐłÐ°Ð·ÑĢÐµÐ¶Ð´Ð°":5162,"ĠÐĺÐ·ÑĩÐ°ÐºÐ²Ð°":5163,"ĠÐ»ÐµÐº":5164,"ĠÐ±Ð¸ÑģÐºÐ²Ð¸ÑĤ":5165,"ĠÐĿÐ°Ð¼Ð°Ð·Ð²Ð°Ð¼Ðµ":5166,"Ð°Ð½Ð°Ð½Ð¸ÑĤÐµ":5167,"Ð´Ð¾Ð¼Ð°ÑĤÐµÐ½Ð¾":5168,"ĠÐĿÐ°ÑĢÐµÐ¶Ð´Ð°Ð¼Ðµ":5169,"ĠÐ½Ð°ÐºÑĬÐ»ÑĨÐ²Ð°":5170,"Ð¡Ð²Ð°ÑĢÐµÐ½Ð¸ÑĤÐµ":5171,"Ð´Ð¸Ð½ÑģÐºÐ¸":5172,"ĠÑĢÐ¾Ð·Ð¾Ð²Ð¾":5173,"Ð»Ð²Ð°":5174,"ĠÐ½Ð°ÑģÐ¸Ð¿Ð²Ð°":5175,"ĠÐ´ÑĬÑĢÐ¿Ð°":5176,"Ð³ÑĬÑģÑĤÐ¾":5177,"ÑħÐ½Ð¸ÑıÑĤÐ°":5178,"ĠÐ¿Ð¾ÑģÑĤÐ¾":5179,"ĠÐ´Ð¾Ð²Ð°ÑĢÑıÐ²Ð°":5180,"ĠÐ¸Ð·Ð²":5181,"ĠÐ¸Ð·Ð¿ÐµÐºÐ°ÑĤ":5182,"ĠÐ¿ÑĢÐµÐ¼Ð°Ñħ":5183,"ÑĢÑĬÑīÐ°ÑĤ":5184,"ĠÑģÐ¼ÐµÑģÐµÐ½Ð¸ÑĤÐµ":5185,"ĠÐºÐ¸Ð½Ð¾":5186,"ĠÐ¿Ð¾ÑĢÑĬÑģÐµÐ½":5187,"ĠÐ¿ÐµÑĩÐºÐ°ÑĤÐ°":5188,"ĠÐ²Ð°Ð½Ð¸Ð»ÐµÐ½Ð°":5189,"ĠÐ»Ð¸Ð¼Ð¾Ð½ÑĤÐ¾Ð·Ñĥ":5190,"ĠÐ¸Ð·Ð¿ÑĬÑĢÐ¶Ð°ÑĤ":5191,"ĠÑĪÐ¾ÐºÐ¾Ð»Ð°Ð´ÑĬÑĤ":5192,"ÐºÑĬÑģÐ½Ð¾":5193,"ĠÐ¿ÑĬÐ¿Ðµ":5194,"ĠÐ£Ð¾ÑĢÑĩÐµÑģÑĤÑĬÑĢ":5195,"ĠÐ½Ð°ÐºÑĬÑģÐ²Ð°ÑĤ":5196,"ĠÐµÑģÐµÐ½ÑĨÐ¸ÑıÑĤÐ°":5197,"ĠÐºÑĥÑĢÐºÑĥÐ¼Ð°ÑĤÐ°":5198,"ĠÐ¡ÑĬÑħ":5199,"ĠÐŁÐ¸Ð»ÐµÑĪÐºÐ¸ÑĤÐµ":5200,"ĠÑĢÑıÐ´":5201,"ĠÑĪÐ¾ÐºÐ¾Ð»Ð°Ð´Ð¾Ð²":5202,"ÐĹÐ°Ð¿ÑĬÑĢÐ¶Ð²Ð°Ð¼Ðµ":5203,"ĠÐ¼ÑĥÑģÐ°ÐºÐ°":5204,"ĠÑģÐ°Ð»Ð°ÑĤÐ¸ÐµÑĢÐ°":5205,"ĠÐ±Ð¾Ð½Ð±Ð¾Ð½Ð¸":5206,"ĠÐ¼Ð°Ð½Ð°ÑĤÐ°ÑĢÐºÐ¸":5207,"Ð´Ð¿ÑĬÐ´ÑĬ":5208,"Ð¾Ðº":5209,"ĠÐ½Ð°ÑĤÐ¸ÑģÐºÐ°":5210,"Ð¿Ð»Ð¾Ð´Ð¾":5211,"ĠÐ¼Ð°ÐºÐ¾Ð²Ð¾":5212,"ĠÐ¿Ð¾Ð´Ð¾Ð±":5213,"ĠÐ·Ð°ÑħÐ°ÑĢÐµÐ½":5214,"ÐºÐ²Ð°ÑģÐºÐ°":5215,"ĠÐŀÐ³":5216,"ĠÐ¼ÐµÑģÐµÑģÑĤÐ¸":5217,"ĠÐļÑİÑĦ":5218,"ĠÐļÐ¸ÑģÐµÐ»Ð¾ÑĤÐ¾":5219,"ÐŁÐ°":5220,"ÐļÑĢÐ°ÑģÑĤÐ°":5221,"ĠÐ¿ÑĥÑĪÐµÐ½Ð¾ÑĤÐ¾":5222,"ĠÐ´Ð°ÑĦÐ¸Ð½Ð¾Ð²Ð¸ÑĤÐµ":5223,"ĠÑĢÐ°Ð·ÑĤÐ²Ð°ÑĢÑıÑĤ":5224,"ĠÐ²ÑĬÐ·Ð²Ð°ÑĢÑıÐ²Ð°":5225,"ĠÑħÐ»ÐµÐ±Ð½Ð°":5226,"ĠÐ¿ÑĢÐµÑģÐ¾Ð²Ð°Ð½":5227,"ĠÐ²Ð°Ð½Ð¸Ð»Ð¾Ð²":5228,"ĠÐ»ÐµÐ½ÐµÐ½Ð¾":5229,"ĠÐ¾Ð¼Ð»ÐµÑĤÐ°":5230,"ĠÐµÐ·Ð¸Ðº":5231,"ĠÐ¡Ð²Ð°ÑĢÑıÐ²Ð°ÑĤ":5232,"ĠÐºÑĬÑĢÐ²Ð°":5233,"ĠÑģÑĥÐ´Ð¶":5234,"ĠÐºÐµÐ´ÑĢÐ¾Ð²Ð¸":5235,"ĠÐ´Ð²Ð¾":5236,"ĠÐ·Ð°ÐºÐ²Ð°ÑģÐºÐ°":5237,"ÑĢÐµÑĤÐ¾":5238,"ÑĤÐ¸ÑıÑĤ":5239,"ĠÐ¼Ð°ÑģÑĤÐ°":5240,"ÑĥÑĢÐµÐ½Ð¾":5241,"ÑģÐ°Ð¼Ð¾":5242,"Ð¶ÐµÐ»Ð°":5243,"ĠÑģÐ°Ð»Ð°ÑĤ":5244,"ĠÐ²Ð°ÑĢÐ¸Ð°Ð½":5245,"ĠÐ´ÐµÐ±ÐµÐ»":5246,"ĠÐ±Ð°ÐºÐ¿ÑĥÐ»Ð²ÐµÑĢÑĬÑĤ":5247,"ÑĥÐ±Ð°Ð²Ð¾":5248,"ĠÐľÐ°Ð³Ð´Ð°Ð½Ð¾Ð·":5249,"ĠÐºÐ¾ÐºÐ¾ÑĪÐºÐ°":5250,"ĠÐĿÐ°Ð¼Ð°Ð»ÑıÐ²Ð°":5251,"ĠÑģÑĥÑĪÐµÐ½Ð¸ÑĤÐµ":5252,"ĠÐ¿Ð°ÑģÐ¸ÑĢÐ°Ð¹ÑĤÐµ":5253,"ĠÐ¿Ð¾Ð´ÑģÑĥÑĪÐµÑĤÐµ":5254,"ĠÑģÑĥÑģÐ°Ð¼Ð°":5255,"ĠÐ¿ÑĢÐµÑģÑıÐ²Ð°ÑĤ":5256,"ĠÐ´ÑĢÑĬÐ¶ÐºÐ°ÑĤÐ°":5257,"ĠÐ²ÑĬÑĤÑĢÐµÑĪÐ½Ð¾":5258,"ĠÐ·ÐµÐ»ÐµÐ½ÑĩÑĥÐºÐ¾Ð²Ð¸Ñı":5259,"ĠÐºÐ¾Ð½ÑģÐµÑĢÐ²Ð¸ÑĢÐ°Ð½":5260,"ĠÐ¿Ð¾Ð´ÑĢÐµÐ¶Ð´Ð°Ð¼Ðµ":5261,"ÑĥÐ»ÑĮÐ¾Ð½ÑĬÑĤ":5262,"ÐŁÑĢÐ°Ð²Ð¸":5263,"ĠÐ¿ÑĢÐ¾Ð³ÑĢÐ°Ð¼Ð°":5264,"Ð¾Ð²ÐµÑĤÐµ":5265,"ÑĤÐ²Ð°":5266,"ĠÐºÐ¾ÑĢÐµ":5267,"ĠÐ¡Ð²Ð°ÑĢÐµÑĤÐµ":5268,"ÐµÑĤÐµÑģÑĤÐ°":5269,"Ð±ÑĬÑĢÐºÐ²Ð°ÑĤ":5270,"Ð¾Ð½ÑģÐºÐ°":5271,"ĠÐ¿Ð°Ð½":5272,"ĠÐ¿Ð°ÑĢÑĩÐµÐ½ÑĨÐ°ÑĤÐ°":5273,"ĠÐ¯Ð¹ÑĨÐµÑĤÐ¾":5274,"ĠÐ²ÑĤÐ°Ñģ":5275,"ĠÑĤÑĢÐ¸ÑĨÐ¸":5276,"ĠÑĢÐµÑĪÐµÑĤÐµÑģÑĤÐ°":5277,"ĠÐ¸Ð·Ð¿Ð»Ð°ÐºÐ²Ð°ÑĤ":5278,"ĠÐ½Ð°Ð²Ð»Ð°Ð¶":5279,"ĠÐ·Ð°Ð²ÑĬÑĢÐ·Ð²Ð°":5280,"ĠÑģÐ»ÑĥÑĩÐ°Ð¹":5281,"ĠÑĢÐ°ÑģÑĤÐ¸ÑĤÐµÐ»Ð½Ð°":5282,"ĠÐ¼Ð°Ð½Ð´Ð°ÑĢÐ¸":5283,"225":5284,"ÐµÐº":5285,"Ð¼Ð°Ð·Ð²Ð°":5286,"Ð¹Ñģ":5287,"ĠÐĶÑĢÑĥ":5288,"ĠÐĿÐ°ÑĤÑĢÐ¾":5289,"ĠÐ·ÐµÐ»ÐµÐ½ÑĩÑĥÐº":5290,"ĠÐ±Ð¸Ðµ":5291,"ĠÐºÐ¾ÑĢÐ¸ÑĩÐºÐ¸":5292,"ÑĤÐ°Ð¿ÑıÑĤ":5293,"ÐºÐ»ÑİÑĩÐ²Ð°":5294,"ĠÐ±ÐµÑĪÐ°Ð¼Ðµ":5295,"ĠÐ¿ÐµÑĢÐ³Ð°":5296,"Ð¿Ð¸Ð»ÐµÑĪÐºÐ¸":5297,"ĠÐ¿ÑĢÑĬÑģÑĤÐ¸":5298,"ĠÐŁÑĥÑģÐºÐ°":5299,"ĠÑĥÐ½Ð¸Ð²ÐµÑĢÑģÐ°Ð»Ð½Ð°":5300,"ÑģÑĬÑĤ":5301,"Ð´ÑĬÑĢÐ¶":5302,"Ð¿ÐºÐ¸ÑĤÐµ":5303,"ĠÐ¾Ð¿Ð¸ÑĩÐ°ÑĤ":5304,"ĠÐ·Ð°Ð¼":5305,"ĠÐ¿Ð¾ÑģÑĤ":5306,"Ð¼ÐµÐºÐ²Ð°":5307,"Ð±Ð°ÑģÐºÐ¾":5308,"Ġ175":5309,"ÑĢÑĬÐº":5310,"ĠÐ½ÐµÑīÐ¾":5311,"ĠÐ¶ÐµÐ»Ð¸":5312,"ĠÐļÑĢÐ°":5313,"ĠÐĶÐµÑģ":5314,"ĠÐºÐ¸ÑģÐµÐ»ÐµÑĨ":5315,"ĠÑĢÐ°Ð·Ð±Ð¸Ð²Ð°Ð½ÐµÑĤÐ¾":5316,"ĠÑģÐ°Ð½Ð´":5317,"ÐŁÐ»Ð¾Ð´Ð¾Ð²ÐµÑĤÐµ":5318,"ĠÐ·ÐµÐ»ÐµÐ½ÑĩÑĥÐºÐ°":5319,"ÐļÐ¸ÑģÐµÐ»Ð¾ÑĤÐ¾":5320,"ĠÐ·ÐµÐ»ÐµÐ²Ð¸ÑĤÐµ":5321,"ĠÐºÐµÑģÑĤ":5322,"Ð´ÑĬÐ»Ð±Ð¾":5323,"ĠÐ²Ð°ÑĢÐµÐ½Ð°":5324,"ĠÐ±ÐµÐ¹Ð±Ð¸":5325,"ĠÐ¿Ð¾Ð¿Ð°ÑĢÐµÐ½Ð¸ÑĤÐµ":5326,"ĠÑģÐ²ÐµÑĤÑĬÐ»":5327,"ĠÐ·Ð°Ð²Ð¸ÑĢÐ°Ð½Ðµ":5328,"ĠÐ½Ð°Ð²ÑģÑıÐºÑĬÐ´Ðµ":5329,"ĠÐ¿Ð¾Ð»ÐµÑĤÐ¸":5330,"ĠÐ¡Ð¾ÑģÐ°":5331,"ĠÐ¸Ð·ÑĩÐµÑĢÐ¿Ð²Ð°Ð½Ðµ":5332,"ĠÐ¾ÑĤÑĢÑıÐ·Ð²Ð°":5333,"ĠÐºÐ¾ÑĩÐ°":5334,"ĠÑĦÑĢÐ°Ð½Ð·ÐµÐ»Ð°":5335,"ĠÑĦÐ¸Ð»ÐµÐ½":5336,"ĠÐŀÑĤÐ´ÐµÐ»Ñı":5337,"ĠÐ±ÑĥÑħ":5338,"ĠÐĵÐ¾":5339,"ĠÐ³Ð¾ÑĢÑĩÐ¸Ð²Ð¸Ñı":5340,"ÐºÐ¸ÑģÐµÐ»":5341,"ĠÐ³Ð¾ÑĤÐ²ÐµÑĤÐµ":5342,"ĠÑģÐ²Ð°Ð»ÑıÐ½ÐµÑĤÐ¾":5343,"Ð¤Ð°ÑģÑĥÐ»ÑĬÑĤ":5344,"ĠÑĪÐ¸ÑĢÐ¸Ð½Ð°":5345,"ÑĤÑİÑĢÐ°":5346,"ĠÑģÑĤÐµÑĢÐ¸Ð»Ð¸Ð·Ð¸ÑĢÐ°ÑĤ":5347,"ĠÐ½Ð°ÐºÑĬÐ»ÑĨÐ°Ð½":5348,"ĠÐ¸Ð·Ð¿Ð¸ÑĩÐ°Ð½ÐµÑĤÐ¾":5349,"ĠÐ·Ð°Ð¿Ð°Ð·Ð¸":5350,"ĠÐŁÐ¾Ð»ÑĥÑĩÐµÐ½Ð¸ÑıÑĤ":5351,"ĠÐ»ÐµÐ½ÑĤÐ°":5352,"ĠÑģÐ»ÐµÐ´Ð²Ð°ÑīÐ¸Ñı":5353,"Ð½Ð°ÑģÑĤÑĬÑĢÐ³Ð°Ð½Ð¾":5354,"Ð´ÑĢÐµÐ±Ð½Ð¸":5355,"ĠÐ¿Ð¾Ð±ÐµÐ»ÐµÐµ":5356,"ĠÐ°Ð¼Ð¾Ð½ÑıÑĩÐ½Ð°":5357,"ĠÐ½Ð°ÐºÐ¸ÑģÐ½Ð°ÑĤÐ¸Ñı":5358,"ĠÐ¿Ð¾ÑģÐ³ÑĬÑģÑĤÐ¸":5359,"ÑĤÑĬÑĤ":5360,"Ð²ÑĢÑĬÐ·":5361,"ÑĩÐ½Ð¸Ñı":5362,"ÑĤÐ¾Ð²ÐµÑĤÐµ":5363,"Ð³ÑĬÐ±Ð¸":5364,"ÐºÐ°Ð¾":5365,"Ð½Ð°Ð»Ð°":5366,"ĠÐ»Ð¾Ð±":5367,"ĠÐ¿ÑĢÐµÑĨÐµÐ¶Ð´Ð°ÑĤ":5368,"ĠÐŀÑģÐ¾Ð»":5369,"ĠÑħÐ²Ð°":5370,"ÑģÑĤÑĬÑĢÐ³Ð°":5371,"Ð°Ð·Ð½Ð¸Ð½Ð°ÑĤÐ°":5372,"ĠÑĦÐ¸ÑĤÐ¸":5373,"ĠÐ¿Ð°ÑīÑĬÑĢ":5374,"ĠÐ·Ð°Ð³ÑĢÑıÐ²Ð°Ð¼Ðµ":5375,"ĠÐ¸Ð·ÑģÐ¸Ð¿Ð²Ð°ÑĤÐµ":5376,"ĠÐĵÐ°":5377,"ĠÐ¿Ð¾Ð»ÑĥÑĩÐ¸ÑĤÐµ":5378,"ĠÑĢÑĬÐ±":5379,"ĠÐ¾ÑĤÑĨÐµÐ´ÐµÐ½Ð¸":5380,"ĠÑģÐ°Ð»Ð°Ð¼Ð°":5381,"ĠÑģÐ»Ð¸Ð²Ð¸ÑĤÐµ":5382,"ĠÐļÑĢÐµÐ¼ÑĬÑĤ":5383,"ĠÐ½Ð°Ð´ÑĥÐ¿ÑĩÐ²Ð°":5384,"ĠÐĺÐ·ÑģÑĤÐ¸Ð½Ð°":5385,"ĠÐºÐ¾ÑĢÐ½ÑĦÐ»ÐµÐ¹ÐºÑģ":5386,"Ð¼Ð°Ð·":5387,"Ð±Ð°ÑħÐ°ÑĢ":5388,"ĠÐĴÐ¾Ð´Ð°ÑĤÐ°":5389,"ĠÐ¼Ð¾ÑĨÐ°ÑĢÐµÐ»Ð°ÑĤÐ°":5390,"ĠÐ¾Ð±ÐµÐ»ÐµÐ½":5391,"ĠÐ²Ð°Ð´ÑıÑĤ":5392,"Ð²ÐµÐ½ÑĤÑĥ":5393,"ĠÑģÐ°Ð»Ð°Ð¼ÑĥÑĢÐµÐ½Ð¾":5394,"ĠÐ¾Ð±ÐµÐ·ÐºÐ¾ÑģÑĤÐµÐ½Ð¾":5395,"ĠÑģÐ»Ð°Ð´Ð¾Ð»ÐµÐ´Ð°":5396,"ĠÐ¡Ð¸Ð¿ÐµÑĤÐµ":5397,"ĠÐ¿ÑĢÐ¾Ð´ÑĬÐ»Ð³Ð¾Ð²Ð°":5398,"ĠÐ¿ÑĢÐµÐ³ÑĬÐ²Ð°":5399,"Ð¥Ð»ÑıÐ±ÑĬÑĤ":5400,"ĠÐ²Ð´Ð»ÑĬÐ±Ð½Ð°":5401,"ĠÐ¾Ð²ÐºÑĥÑģÐ¸":5402,"ĠÑģÐ°Ð½Ð´Ð²Ð¸Ñĩ":5403,"ÑģÐµÐ½Ð°":5404,"ÑģÐ¼ÐµÑģ":5405,"ĠÑģÐ½Ð¸Ð¼":5406,"Ð´ÑĬÑĢÐ°":5407,"ĠÐ´ÑĢÐ¾Ð±Ð°":5408,"ÐºÐ¾Ð½Ñģ":5409,"ĠÑĢÐ°Ð·Ð´":5410,"ÑĩÐ¸ÑĨÐ¸ÑĤÐµ":5411,"ÑĥÐ»Ð³ÑĥÑĢ":5412,"Ð²ÐµÐ´":5413,"ĠÐļÐ¾Ð»":5414,"ĠÐ¾Ð³ÑĬÐ½ÑıÑĤ":5415,"ĠÐ¼ÐµÑģÐ¾Ð¼ÐµÐ»Ð°ÑĩÐºÐ°":5416,"Ð¡Ð¼ÐµÑģÐµÑĤÐµ":5417,"ĠÐ¿ÑĢÐµÐ´Ñı":5418,"ĠÑıÐ±ÑĬÐ»ÐºÐ°ÑĤÐ°":5419,"ĠÐ¼ÐµÐºÐ°":5420,"ĠÐľÐ¾Ð³Ð°ÑĤ":5421,"ĠÐ½ÐµÐ¾Ð±ÑħÐ¾Ð´Ð¸Ð¼Ð¾ÑģÑĤ":5422,"ĠÐŁÐ¾ÐºÑĢÐ¸Ð²Ð°Ð¼Ðµ":5423,"ĠÐ¿Ð¾ÑĢÑĤÐ¾ÐºÐ°Ð»Ð¾Ð²Ð¸":5424,"Ð»ÑĬÐ½ÐºÐ°":5425,"ĠÐ·Ð°ÐµÐºÐ°":5426,"ĠÐ¼Ð»ÐµÑĩÐ½Ð°ÑĤÐ°":5427,"ÐŀÐ±ÐµÐ»Ð²Ð°Ð¼Ðµ":5428,"ĠÐ¿Ð¾Ð»ÐµÐ¹ÑĤÐµ":5429,"ÑĢÑıÑģÐ½Ð¾ÑĤÐ¾":5430,"ĠÐµÐ»Ð´Ð°":5431,"ĠÑĪÐ°Ð¼Ð¿Ð°":5432,"ÐºÐ¾ÐºÐ¾ÑģÐ¾Ð²Ð¸":5433,"ĠÐ±Ð°Ð»ÑģÐ°Ð¼Ð¸ÐºÐ¾Ð²":5434,"ĠÑĤÐµÐ½Ð·Ñĥ":5435,"ĠÐ¿ÐµÑĢÐ³Ð°Ð¼ÐµÐ½":5436,"ĠÐºÐµÑĢÐ²Ð¸Ð·":5437,"Ð¿ÐµÐºÐ¾":5438,"ĠÐ²Ð¾Ð´Ð¸":5439,"ĠÐ·Ð°Ð¼Ðµ":5440,"ÐºÐ¾ÑĤÐ°":5441,"Ð»Ð¾Ð¶Ð¸":5442,"Ð°Ð½Ð¸ÐµÑĤÐ¾":5443,"ĠÐĶÐ²ÐµÑĤÐµ":5444,"ĠÐ¼Ð¾Ð·ÑĬÐº":5445,"ÐŁÐ¾Ð´":5446,"ĠÐ»Ð¸Ð¼Ð¾Ð½Ð¾Ð²Ð¸":5447,"ĠÑĤÐµÐ»ÐµÑĪÐºÐ¾ÑĤÐ¾":5448,"ĠÑĢÐ°Ð·ÑģÑĤÐ¸Ð»Ð°Ð¼Ðµ":5449,"ĠÐ¿Ð°ÑģÐ¸ÑĢÐ°Ð½Ð¸ÑĤÐµ":5450,"ĠÑĦÐ¾ÑĢÐ¼Ð¸ÑĤÐµ":5451,"ĠÑĦÐ¾ÑĢÐ¼Ð¸ÑĩÐºÐ¸ÑĤÐµ":5452,"Ð¿Ð°ÑĢÑĩÐµÐ½ÑĨÐµ":5453,"ĠÐºÐ¾ÑĢÐ¸Ð°Ð½Ð´ÑĬÑĢÐ°":5454,"ĠÑıÐ³Ð¾Ð´Ð¸ÑĤÐµ":5455,"ĠÐºÐ°ÑĢÐ°Ð¼ÑĦÐ¸Ð»ÑĩÐµÑĤÐ°":5456,"Ð·ÐµÐ»ÐµÐ½Ð°":5457,"ĠÐ¸Ð·Ð¿Ð¸ÑĩÐ°Ð½Ðµ":5458,"ĠÑĥÐ²ÐµÐ»Ð¸ÑĩÐ¸":5459,"ĠÐ¿Ð°Ð½Ð¸ÑĢÐ°Ð½Ðµ":5460,"ÐºÐ°ÑĢÑĤÐ¾ÑĦÐ¸":5461,"ÑĢÐ¾ÐºÐ¾Ð»Ð¸ÑĤÐµ":5462,"ÐµÑĤÐ¸":5463,"ĠÑģÐºÐ¾":5464,"Ð¿Ð»Ð°":5465,"Ð»Ð¸Ð½":5466,"ĠÐ»Ñĥ":5467,"Ð¹Ð»Ð¸":5468,"ĠÐ¸Ð·Ð³":5469,"ĠÐ¿ÑĢÐµÐ¿ÐµÑĩÐµÐ½Ð¸":5470,"ÑĩÐ¸ÑĤÐµÐ»Ð½Ð¾":5471,"ĠÐļÐµ":5472,"ĠÐĿÐ°Ð»Ð¸Ð²Ð°ÑĤ":5473,"ĠÐ¶ÐµÐ»Ð°ÐµÑĤÐµ":5474,"ÑĤÐ¾Ð¿Ð»Ñı":5475,"ĠÑģÑĬÐ´ÑĬÑĢÐ¶":5476,"ĠÑĥÐºÑĢÐ°ÑģÐ¸":5477,"ĠÐļÐ°ÑĪÐºÐ°Ð²Ð°Ð»ÑĬÑĤ":5478,"ĠÐºÐ°ÑĢÑĤÐ¾ÑĦÐµÐ½Ð°ÑĤÐ°":5479,"ĠÐ½Ð°Ð¼Ð°ÑģÐ»ÐµÐ½Ð¸":5480,"ĠÐ¿Ð¾Ð»Ð¸Ð²Ð°Ð¼Ðµ":5481,"ÑĢÐµÐ½Ð²Ð¸ÑĢÑĪÐ¸ÑĤÐµ":5482,"ĠÐ¿Ð¾Ð²Ð´Ð¸":5483,"Ð§ÐµÑģÑĬÐ½ÑĬÑĤ":5484,"ĠÐºÐ¾Ð¿ÑĢÐ¸Ð²Ð°ÑĤÐ°":5485,"ĠÐ¡Ð¸Ð¿Ð²Ð°ÑĤ":5486,"ĠÐ¢Ð¾ÑĢÑĤÐ°ÑĤÐ°":5487,"ĠÐ²Ð»Ð°Ð¶Ð½Ð°":5488,"Ð´ÐµÐ±ÐµÐ»Ð¸":5489,"Ð²ÑĢÑĬÐ·ÐºÐ°":5490,"Ð²ÐµÐ´Ð½ÑĬÐ¶":5491,"/[":5492,"42":5493,"ĠÐ¾Ð¿ÐµÑĩÐµ":5494,"Ð¼Ð°Ð»ÐºÐ°":5495,"ĠÐ¸Ð·Ð¿ÐµÑĩ":5496,"ÐµÐ»ÑĦÐ¸":5497,"ĠÐ·Ð°ÑħÐ°ÑĢÐ¾ÑģÐ°Ð½Ð¸":5498,"Ð±ÑĬÑĢÐ·Ð¾":5499,"ĠÑĩÐ°ÐµÐ½Ð°":5500,"Ð¾Ð²Ð¸ÑĤÐµ":5501,"ĠÐ¼Ð°ÑĢÐ»Ñı":5502,"ĠÐ³ÑİÐ²ÐµÑĩÐµÑĤÐ°ÑĤÐ°":5503,"ĠÑĢÐ°Ð·Ð¿ÑĢÐµÐ´ÐµÐ»ÑıÐ¼Ðµ":5504,"Ð»Ð¸Ð¼Ð¾Ð½Ð¾Ð²Ð°":5505,"ĠÐŁÑĬÑĢÐ¶Ð¾Ð»Ð¸ÑĤÐµ":5506,"ĠÐ¿ÑĬÑĢÐ²Ð¸Ñı":5507,"ĠÑĢÐ°Ð·ÑĤÐ²Ð¾ÑĢÐµÐ½":5508,"ĠÑģÑĤÑĬÐºÐ»Ð¾":5509,"ĠÐ¿ÑĢÐ¾Ð·ÑĢÐ°ÑĩÐ½Ð¾":5510,"ĠÐ·Ð°Ð¿ÑĢÑĬÐ¶ÐºÐ°ÑĤÐ°":5511,"ÑģÐ²Ð°ÑĢÐµÐ½Ð¸":5512,"ÑĪÐ°ÑĢÐµÐ½Ð°":5513,"ĠÑĤÐ¾ÑĢÐ±Ð¸ÑĩÐºÐ°":5514,"ĠÐºÑĢÐµÐ¼Ð¾Ð¾Ð±ÑĢÐ°Ð·Ð½Ð°":5515,"ĠÐŀÐ³ÑĬÐ½":5516,"ÐµÐ½Ð½Ð°ÑĤÐ°":5517,"ÐºÐ°ÐºÐ°Ð¾":5518,"ĠÐ·Ð°Ð¿ÑĬÐ»":5519,"ĠÐ´Ð¾Ð·Ð°":5520,"ĠÐ¡Ð»Ð°Ð´":5521,"ÑĥÑĪÐºÐ°ÑĤÐ°":5522,"ĠÐŀÑĦÐ¾ÑĢ":5523,"ĠÐ»Ð¸ÑĩÐ½Ð¾":5524,"ĠÐ·Ð°Ð´ÑĥÑĪÐµÐ½Ð¸Ñı":5525,"Ð¿Ð¾ÑĤ":5526,"ĠÑģÑĥÑĤ":5527,"ÑĢÐµÑħÐ¸ÑĤÐµ":5528,"ĠÐ¿Ð¾Ð»ÑĥÐ¾":5529,"ĠÐ¾ÑģÑĤÐ°Ð½Ð°Ð»Ð°":5530,"ĠÐŀÑĤÑĨÐµÐ´ÐµÑĤÐµ":5531,"ÐŁÑĢÐµÐ´Ð²Ð°ÑĢÐ¸ÑĤÐµÐ»Ð½Ð¾":5532,"Ð¿ÐµÑĩÐµÐ½":5533,"Ð»Ð°Ð´Ð¸ÑĤÐµ":5534,"ĠÐ¿ÑĥÑĪÐµÐ½Ð¸ÑĤÐµ":5535,"ĠÐľÐ°Ð¹Ð¾Ð½ÐµÐ·Ð°ÑĤÐ°":5536,"ĠÐ½ÐµÐ¾Ð±ÐµÐ»ÐµÐ½Ð¸":5537,"ĠÑĢÐ¾Ð¼Ð±Ð¾":5538,"ĠÐºÐ°ÑĪÐ°ÑĤÐ°":5539,"ĠÐĳÑĬÑĢÐºÐ°Ð¼Ðµ":5540,"ĠÐºÐ»Ð¾Ð½ÑĩÐµ":5541,"ĠÐ³Ð°Ð·Ð¸ÑĢÐ°Ð½Ð°ÑĤÐ°":5542,"Ð½Ð¸Ð¼ÑĥÐ¼":5543,"ĠÑĪÐ¾ÐºÐ¾Ð»Ð°Ð´Ð¾Ð²Ð°ÑĤÐ°":5544,"ĠÑĥÑģÑĥÐº":5545,"ÐĿÐ°ÑĢÑıÐ·Ð²Ð°ÑĤÐµ":5546,"ĠÐ½Ð°Ð¹Ð»Ð¾Ð½Ð¾Ð²Ð¾":5547,"ĠÐ»ÐµÑģÐ½Ð¾":5548,"ĠÐ»Ð¾Ð±Ð¾Ð´Ð°":5549,"Ġ80":5550,"ĠÑģÐ¿":5551,"ĠÑģÑĢÑıÐ·Ð²Ð°ÑĤ":5552,"ĠÑĩÐµÐ´ÑĬÑĢ":5553,"ĠÐ·Ð°ÑģÑĤÐ¸Ð»Ð°":5554,"Ð¹Ðº":5555,"ÑĥÑĪÐ¸":5556,"ĠÑģÐ¾Ð»ÐµÐ½Ð¸":5557,"ĠÐĿÐ°Ð¼Ð°Ñģ":5558,"ĠÑĤÐ¾Ð¿Ð¸Ð½Ð³":5559,"ĠÐľÐ¾ÑĢÐºÐ¾Ð²ÑĬÑĤ":5560,"ĠÑģÐ²Ð°ÑĢÑıÐ²Ð°Ð½ÐµÑĤÐ¾":5561,"ĠÑģÐ²Ð°ÑĢÐµÐ½Ð°ÑĤÐ°":5562,"ĠÐ»ÑİÑĤÐ°ÑĤÐ°":5563,"ĠÐ´Ð¸Ð°Ð³Ð¾":5564,"ĠÐ¿Ð¾ÑĩÐ¸Ð²Ð°":5565,"ĠÐ½Ð¸ÑģÐºÐ°":5566,"ĠÐ±Ð»Ð°Ð½ÑĪÐ¸ÑĢÐ°":5567,"ĠÐ´ÐµÐºÐ¾ÑĢÐ¸ÑĢÐ°":5568,"ĠÐŀÑħÐ»Ð°Ð¶Ð´Ð°":5569,"ĠÐºÑĥÐ¿ÑĩÐ¸Ð½":5570,"ĠÐ½Ð°Ð½Ð¸Ð·Ð²Ð°ÑĤ":5571,"ĠÐ²Ð¾Ð´ÐµÐ½Ð¸ÑĩÐºÐ¸":5572,"\"[":5573,"ĠÑī":5574,"ĠÑģÐ¾ÑĢ":5575,"ĠÑģÐ½ÐµÐ¼Ð°":5576,"Ð´Ð½Ð¸":5577,"ÑĤÐµÑģÑĤÐ¾":5578,"ĠÐ·Ð°Ð±Ð¾Ð¶Ð´Ð°":5579,"Ð½Ð°Ð»Ð¸":5580,"ĠÐ¿Ð¾Ð¼Ðµ":5581,"ĠÐĴÐ·Ð¸Ð¼Ð°":5582,"Ð±ÑĬÑĢÐºÐ°Ð¹ÑĤÐµ":5583,"ĠÐĶÑĬÐ½Ð¾ÑĤÐ¾":5584,"ĠÐĿÐ°Ð²Ð¸Ð²Ð°ÑĤ":5585,"ĠÑģÑĬÐ´Ð¾Ð²Ðµ":5586,"ĠÐ·Ð°Ð³ÑĢÐµÐ±Ð²Ð°":5587,"ĠÐĺÐ·Ð¿ÐµÑĩÐµÑĤÐµ":5588,"ĠÐŁÐ¾Ð´ÑħÐ¾Ð´Ñı":5589,"ĠÐ¿ÑĢÐ¸Ð³Ð¾ÑĤÐ²ÑıÐ¼Ðµ":5590,"ÐĺÐ·Ð²Ð°":5591,"ĠÐ´Ð¸Ð²":5592,"ĠÐ¸Ð·ÑĨÐµÐ´ÐµÐ½Ð¾":5593,"ÑĢÑıÐ·Ð°Ð½Ð¸Ñı":5594,"ĠÐ·Ð°Ð²Ð¸ÑĢÐ°Ð½ÐµÑĤÐ¾":5595,"ĠÑĦÑĢÐ¸ÑĤÑİÑĢ":5596,"Ð¤Ð¸Ð»ÐµÑĤÐ°ÑĤÐ°":5597,"ĠÑĤÐµÐ½Ð·ÑĥÑħ":5598,"ÐºÑĬÐ¼":5599,"Ð´ÐºÐ°ÑĤÐ°":5600,"ĠÐ½Ð°Ð½Ð°ÑģÑı":5601,"ĠÐ½Ð°Ð²ÐµÐ´Ð½ÑĬÐ¶":5602,"ĠÐºÐ°Ð¼Ðµ":5603,"ĠÐ¡ÑĤÐ°":5604,"ĠÑĤÐ»":5605,"ĠÐ¶ÑĥÐ»Ð¸":5606,"ĠÐŁÐ¾ÑĩÐ¸ÑģÑĤÐµÑĤÐµ":5607,"Ð»Ð°Ð´ÐµÐ»ÑĦÐ¸":5608,"ĠÐłÐ°Ð·Ð´ÐµÐ»ÐµÑĤÐµ":5609,"ĠÐĺÐ·ÑĨÐµÐ¶Ð´Ð°":5610,"ĠÐ³ÑĢÐ°Ð´Ð¸Ð½ÑģÐºÐ¸":5611,"ĠÐ¢Ð¸":5612,"ĠÐĳÐ¸":5613,"ĠÐ¿Ð¾ÑĩÐ¸ÑģÑĤÐµÐ½Ð°":5614,"ĠÐ½Ð¾Ð¶Ð°":5615,"ĠÐºÐ°ÑĦÐµÐ½Ð¸ÐºÐ°":5616,"ÐĳÑĥÑĤÑĩÐµÑĤÐ°ÑĤÐ°":5617,"ĠÐ¾Ð²ÐºÑĥÑģÐµÑĤÐµ":5618,"ĠÐ¿Ð¾Ð´ÑģÐ»Ð°Ð¶Ð´Ð°":5619,"Ð¢ÐµÐ»Ðµ":5620,"ĠÐ·Ð°Ð²Ð¸Ð²Ð°Ð¼Ðµ":5621,"Ð·Ð¼Ð°ÑĢÐ¸Ð½Ð°":5622,"ĠÐ°ÑĢÐ¾Ð¼Ð°ÑĤÐ°":5623,"ĠÐ°Ð½Ð°Ð½Ð°":5624,"ĠÑĢÐ°Ð·Ð±ÑĬÑĢÐºÐ°Ð½Ð¾":5625,"ĠÑĢÐ°Ð·ÑĢÐµÐ·":5626,"ĠÐ·Ð°Ð»ÐµÐ¿Ð½Ðµ":5627,"ĠÐ³Ð¾Ð²ÐµÐ¶Ð´Ð¸":5628,"ĠÐ¿Ð¾Ð·Ð°Ð¿ÑĬÑĢÐ¶Ð°ÑĤ":5629,"ĠÐºÐ¾ÑĤÐ»ÐµÑĤÐ¸ÑĤÐµ":5630,"ĠÑĢÐµÐ±ÑĢÐ°ÑĤÐ°":5631,"ĠÐķÐ´Ð½Ð°ÑĤÐ°":5632,"ĠÐ¿ÑĪÐµÐ½Ð¸ÑĩÐ½Ð¾":5633,"ĠÐ´ÑİÐ»Ð¸":5634,"ĠÐ¿Ð¾ÐºÐ°ÑĦÐµÐ½ÐµÑıÑĤ":5635,"ĠÑģÑĥÑĤÑĢÐ¸Ð½":5636,"*[":5637,"ĠÐ½Ð°Ð»ÐµÐ¹ÑĤÐµ":5638,"Ð¿Ð½ÐµÑĤÐµ":5639,"ĠÐ¾Ð¼ÐµÑģ":5640,"Ð¾Ð»Ð°ÑĤÐ°":5641,"Ð²Ð¸Ð¶":5642,"Ð¼Ð°Ðº":5643,"ĠÐŁÐ°Ð½Ð¸":5644,"ĠÐ¿ÐµÑĢÐ°":5645,"Ð·Ð°Ð¼ÑĢÐ°Ð·":5646,"ĠÐĶÑĬÑĢÐ¶":5647,"ÐºÑĥÑģÐ½Ð¾":5648,"ĠÐ¾ÑģÑĤÐ°Ð²ÑıÐ¼":5649,"ĠÑĤÐ¾Ð¿ÑĩÐµÐ½ÑĨÐ°":5650,"ĠÐ±Ð¾Ð·Ð°":5651,"ÐĴÑĬÐ²":5652,"ĠÐĳÑĥÐ»ÑĮÐ¾Ð½ÑĬÑĤ":5653,"ĠÐ¢Ð°Ð²Ð¸ÑĩÐºÐ°ÑĤÐ°":5654,"ĠÐ·Ð°ÑĤÐ¾Ð¿Ð»ÐµÐ½Ð¸":5655,"Ð¸ÐºÐ²Ð¸ÑĩÐºÐ°ÑĤÐ°":5656,"ĠÐ±ÐµÑĪÐ°Ð¼ÐµÐ»":5657,"ĠÐ½Ð°Ð¿ÑĢÐ°Ð²Ð¸ÑĤÐµ":5658,"Ð³Ð¾ÑĤÐ¾Ð²Ð¾":5659,"ĠÐ²ÑĢÑĬÑīÐ°Ð¼Ðµ":5660,"Ð·ÐµÐ»ÐµÐ½":5661,"ĠÐ¿Ð°ÑģÐ°ÑĤÐ¾ÑĢÐ°":5662,"ĠÑħÑĢÑĥÐ¿ÐºÐ°Ð²Ð°":5663,"Ð¨Ð¾ÐºÐ¾Ð»Ð°":5664,"ĠÐºÐ¸ÑĦÐ»Ð¸ÑĩÐºÐ¸":5665,"ĠÐºÐ¾Ð·ÑĥÐ½Ð°Ðº":5666,"ĠÐ¾ÑģÐ²Ð¾":5667,"Ð¼Ð°Ð»Ð°Ð¹ÑģÐºÐ°":5668,"ĠÐŀÑĦÐ¾ÑĢÐ¼ÐµÑĤÐµ":5669,"ÑģÐ»Ð°":5670,"ÑĤÑĢÑıÐ±Ð²Ð°":5671,"ÐºÑĤÐ¸":5672,"Ð²ÑıÐ²Ð°":5673,"Ð³Ð°ÑĤÐ°":5674,"ÑģÑĤÑĢÐ¾Ð¹":5675,"ĠÑĢÐ°Ð·Ð²Ð°ÑĢÑı":5676,"ĠÑĢÐ°Ð·Ð¼ÐµÑģÐ²Ð°ÑĤ":5677,"ĠÑģÐ¾ÑģÐ¸":5678,"Ð´Ð¸Ð¼":5679,"Ð¿ÑĢÐ°Ð²ÐµÑĤÐµ":5680,"ĠÑģÐ°Ñĩ":5681,"Ð´Ð¾Ð¼Ð°ÑĤÐ¸":5682,"ĠÐ²ÑģÐ¸ÑĩÐºÐ°ÑĤÐ°":5683,"ĠÐ±ÑĥÑĩÐ¸ÑĨÐ¸":5684,"ĠÐ»ÑİÑĤÐ¸ÑĤÐµ":5685,"ĠÐ¼Ð¸Ð½Ð¸Ð¼ÑĥÐ¼":5686,"ĠÐľÐ°Ñħ":5687,"Ð¿ÑĢÐ¸Ð²Ð°ÑĤÐ°":5688,"ĠÑģÐºÐ°ÑĢÐ°ÑĤÐ°":5689,"Ð»ÑĥÐ·Ð°":5690,"ĠÑģÐ°ÑĢÐ¼Ð¸ÑĩÐºÐ¸":5691,"ĠÐĿÐ°ÑĢÑıÐ·Ð²Ð°ÑĤÐµ":5692,"ĠÑĢÐ°Ð·ÑĢÐµÐ·Ð°":5693,"ĠÐ¸Ð·Ð¿ÐµÑĩÐµÑĤÐµ":5694,"Ð¶ÑĬÐ»ÑĤÐ¾":5695,"ĠÐ¿Ð¾ÑĤÑĬÐ¼":5696,"ĠÐµÐºÑģÑĤÑĢÐ°ÐºÑĤ":5697,"Ð¿Ð»Ð¾Ð´Ð¾Ð²Ðµ":5698,"ĠÑģÐºÐ¾ÑĢÐ¾":5699,"Ġ,":5700,"ĠÑģÑĢÑıÐ·Ð²Ð°":5701,"Ð²Ð°Ð¹ÑĤÐµ":5702,"Ð±ÑĥÐ»ÑĮÐ¾Ð½":5703,"ĠÐ¼Ð°Ð·":5704,"Ð¼Ð°ÑĤÐ½Ð¾":5705,"ĠÐ¶ÐµÐ»Ðµ":5706,"Ð¾ÑĢÐºÐ¾Ð²Ð°":5707,"ĠÐĶÐµÐºÐ¾":5708,"ĠÐĹÐ°Ð¿ÐµÑĩÐµÑĤÐµ":5709,"ĠÐĹÐ°ÑģÑĤÑĢÐ¾Ð¹":5710,"Ð¡Ð²Ð°ÑĢÑıÐ²Ð°":5711,"ĠÐĺÐ·ÑĢÑıÐ·Ð²Ð°ÑĤ":5712,"ĠÑģÐµÑĢÐ²Ð¸ÑĢÐ°Ð¼Ðµ":5713,"Ð·ÐµÐ¼ÐµÑĤÐµ":5714,"ĠÑĢÐµÐ·ÐµÐ½ÑĩÐµ":5715,"ĠÐ¾Ð±ÑĢÑĬÑīÐ°Ð¼Ðµ":5716,"ĠÐ¿Ð¾ÑģÐ»ÐµÐ´Ð¾Ð²Ð°ÑĤÐµÐ»Ð½Ð¾ÑģÑĤ":5717,"ĠÐ¿ÑĬÐ»Ð½Ð¸Ð¼":5718,"ĠÑħÐ»ÐµÐ±Ð½Ð¸":5719,"ĠÐķÐ¼ÐµÐ½ÑĤÐ°Ð»":5720,"ĠÐ´ÑĥÐ¿ÐºÐ¸":5721,"ĠÐºÑĢÐ°Ð²ÐµÑĤÐ¾":5722,"ĠÐ¿ÑĥÑģÐ½Ðµ":5723,"ĠÐŀÑĤÑģÑĤÑĢÐ°Ð½Ð¸":5724,"Ð¿Ð¾ÑĢÑĬ":5725,"ĠÐ¿ÑĢÐ¾Ð´ÑĬÐ»Ð³Ð¾Ð²Ð°ÑĤÐ°":5726,"ĠÑĢÐ°Ð·Ð¿ÑĢÐµÐ´ÐµÐ»ÐµÑĤÐµ":5727,"ĠÐ½Ð°Ð¼Ð¾ÐºÑĢ":5728,"Ð¼ÐµÑģÑĤÐ²Ð°":5729,"Ð¼ÐµÐºÐ²Ð°Ð½Ðµ":5730,"Ð²ÐµÐ½ÑĤÑĥÐ°Ð»Ð½Ð¾":5731,"65":5732,"Ġ)[":5733,"ÑĤÐºÐ°ÑĤÐ°":5734,"Ð½ÐµÐ½Ð¾":5735,"ĠÑģÐ¿Ðµ":5736,"Ð²ÐµÐ½Ð¾ÑĤÐ¾":5737,"Ð²ÐµÐ½Ð¸Ñı":5738,"ĠÐ½Ð°Ð±Ð¾Ð¶Ð´Ð°":5739,"ÑĢÐ°Ñħ":5740,"ĠÐ¿Ð¾ÐºÐ°":5741,"Ð¼ÐµÐ´":5742,"Ð½ÐµÐ¶":5743,"Ġ22":5744,"ĠÑĢÐ°Ð·Ð±ÑĬÑĢÐºÐ²Ð°Ð¼":5745,"Ð¡Ð¿Ð°Ð³ÐµÑĤÐ¸ÑĤÐµ":5746,"ĠÑģÐ¼Ð¸Ð½Ð´ÑĥÑħ":5747,"ĠÑĢÐ¾Ð·Ð¼Ð°ÑĢÐ¸Ð½Ð°":5748,"ĠÐ»ÐµÐºÐ°":5749,"ĠÐ½Ð°Ð´Ð»ÑĬ":5750,"ĠÐ¾Ð²ÐºÑĥÑģÐµÐ½Ð°":5751,"ĠÐ¿ÑĬÑĢÐ²Ð¸ÑĤÐµ":5752,"ĠÑĦÐ¾ÑĢÐ¼Ð¸ÑĩÐºÐ°":5753,"ĠÐ¿Ð¾ÑĢÑĤÐ¾ÐºÐ°Ð»Ð¾Ð²Ð¸Ñı":5754,"ĠÐºÐ°ÑĢÐ°Ð¼ÑĦÐ¸Ð»Ð°":5755,"ĠÐĺÐ·Ð¼Ð¸Ð²Ð°ÑĤ":5756,"ĠÐ¸Ð·Ð²Ð°Ð´Ð¸Ð¼":5757,"ĠÑģÐ°Ð»ÑĨÐ°":5758,"ĠÐŁÑĢÐ¾Ð´ÑĬÐ»":5759,"ĠÐ¿Ð¾ÑħÐ»ÑĥÐ¿Ð²Ð°ÑĤ":5760,"Ð¡Ð»Ð°Ð³Ð°Ð¼Ðµ":5761,"ĠÐ´ÑĬÐ»Ð³Ð¾Ð·ÑĬÑĢÐ½ÐµÑģÑĤ":5762,"ĠÑĨÐµÐ»ÑĥÐ²ÐºÐ¸":5763,"ĠÑģÐ¾ÑģÐ¸ÐµÑĢÐ°":5764,"ĠÑģÐºÐ¾ÑĢÐ¾ÑģÑĤ":5765,"ĠÐ½Ð°Ð´Ð»ÑĬÐ¶Ð½Ð¾":5766,"230":5767,"ÐºÐµÑĤ":5768,"ĠÐ²ÐµÑĢ":5769,"ÑĢÐµÐ¹":5770,"ĠÐºÐ°ÑģÐ¸":5771,"Ġ18":5772,"ĠÐ·Ð°Ð¿ÑĬÑĢÐ¶ÐµÐ½Ð¾ÑĤÐ¾":5773,"ÑģÐ¸Ð¿ÐµÑĤÐµ":5774,"ĠÐ¿ÑĢÐ¾Ð²ÐµÑĢÑıÐ²Ð°":5775,"ÐĴÐ¾Ð´Ð°ÑĤÐ°":5776,"ĠÐĳÐ¸ÑģÐºÐ²Ð¸ÑĤÐ¸ÑĤÐµ":5777,"ĠÐĳÐµÐºÐ¾Ð½ÑĬÑĤ":5778,"ĠÐĵÑİÐ²Ðµ":5779,"ĠÐ´ÐµÐ²Ð¸ÑģÐ¸Ð»":5780,"ĠÐ¼ÐµÑħ":5781,"ĠÐ¿Ð¾ÑĢÑĨÐ¸Ð¾Ð½":5782,"ĠÐ·Ð°ÑģÑĤÑĢÐ¾":5783,"ĠÐ½Ð°Ð±ÑĢÐ°ÑĪÐ½ÐµÐ½":5784,"ĠÐ¾Ð±Ð¸ÐºÐ½Ð¾Ð²ÐµÐ½Ð°":5785,"ĠÐ½Ð¸ÑģÐºÐ¾":5786,"Ð¡Ð¼ÐµÑĤÐ°Ð½Ð°ÑĤÐ°":5787,"ĠÐ·Ð°Ð´ÑĬÐ»Ð¶Ð¸ÑĤÐµÐ»Ð½Ð¾":5788,"ĠÐ²Ð°ÑĢÐ¸Ð°Ð½ÑĤ":5789,"ĠÐ²ÑĬÑĤÑĢÐµÑĪÐ½Ð¾ÑģÑĤÐ¸ÑĤÐµ":5790,"ÐµÐ¼":5791,"ÐºÐ¾Ð½":5792,"ÑģÑĤÑĢÑĬÐº":5793,"ĠÐŁÑĬÑĢ":5794,"Ġ120":5795,"Ð½Ð°ÑĤÐ°ÑĤÐ°":5796,"Ð¿Ð°Ð´Ð°":5797,"ÑĥÑĢÐºÐ¸ÑĤÐµ":5798,"Ð¶ÐµÑģÑĤ":5799,"ĠÐĿÐ°ÑģÑĤÑĬÑĢÐ¶ÐµÑĤÐµ":5800,"ĠÐ·Ð°Ð¿ÑĬÑĢÐ¶ÐµÐ½Ð¸ÑĤÐµ":5801,"Ð¡Ð¼ÐµÑģÐ²Ð°Ð¼Ðµ":5802,"ĠÐ¿ÑĢÐµÐ´Ð²Ð¸Ð´":5803,"ĠÐ¿ÑĢÐµÑģÐ¾Ð²Ð°ÑĤ":5804,"ĠÐľÐ°ÑĢ":5805,"ĠÐ¸Ð·Ð¿ÑĬÑĢÐ¶Ð²Ð°Ð¼Ðµ":5806,"Ð¿ÑĢÐµÑģÐ¾":5807,"ĠÐºÑĢÐ¾ÐºÐµ":5808,"ĠÐŁÐ¾Ð´Ð½Ð°ÑģÑıÐ¼Ðµ":5809,"ĠÐ§ÐµÑģÑĬÐ½Ð°":5810,"ĠÐłÐ¸":5811,"ĠÐ¿Ð¾Ð´ÑģÑĥÑĪÐµÐ½Ð¸":5812,"ÑĥÑĤÑĬÑĤ":5813,"ĠÑħÐ¾Ð¼Ð¾Ð³ÐµÐ½Ð½Ð¾ÑģÑĤ":5814,"ĠÐ¾ÑħÐ»Ð°Ð´ÐµÐ½Ð°":5815,"ĠÐ¾ÑģÐ½Ð¾Ð²Ð½Ð¾":5816,"ĠÐĿÐµÐ¿Ð¾ÑģÑĢÐµÐ´ÑģÑĤÐ²ÐµÐ½Ð¾":5817,"Ð±ÑıÐ»Ð¾":5818,"ĠÐ¿Ð¾Ð»Ð·Ð²Ð°ÑĤÐµ":5819,"ĠÐŀÐ±ÐµÐ»ÐµÐ½Ð¸ÑĤÐµ":5820,"ĠÐºÐ¾ÐºÐ¾ÑģÐ¾Ð²Ð¾ÑĤÐ¾":5821,"ĠÐºÐ¾Ð½ÑĦÐ¸ÑĤÑİÑĢÐ°":5822,"ĠÐ¾ÑħÐ»ÑİÐ²Ð¸":5823,"ÑĪÑĥÑĤÐ¾":5824,"ĠÐłÑĥÐ»Ð¾ÑĤÐ¾":5825,"ÐµÐ´Ð¸Ð½ÑıÐ²Ð°ÑĤ":5826,"ĠÐ¸Ð·Ð¿Ð»ÑĥÐ²Ð°ÑĤ":5827,"ĠÐ¿Ð¾Ð»ÑĥÐ¾Ð¼ÐµÐºÐ²Ð°Ð½Ðµ":5828,"ĠÑĦÑĢÐ¸ÑĤÑİÑĢÐ½Ð¸Ðº":5829,"Ð»Ð°Ð´ÐµÐ»ÑĦÐ¸Ñı":5830,"110":5831,"Ð¾Ð±Ð°":5832,"ĠÐ¿ÑĤÐ¸":5833,"ĠÐ¿ÐµÑģÑĤÐ¾":5834,"ÑĤÐ¾Ð²Ðµ":5835,"Ð¿ÑĥÑģ":5836,"ĠÐ·Ð´ÑĢÐ°":5837,"ĠÐ·Ð°ÐºÑĢÐµ":5838,"Ð½Ð°ÑĢÑıÐ·Ð°Ð½":5839,"ĠÐ´Ð¾Ð¸Ð·":5840,"Ð²Ð¸ÑĤÐ¾":5841,"ĠÐºÐ°Ð»":5842,"ÑģÑĤÐ½Ð¾":5843,"ĠÑĤÐ¾ÑĩÐµÐ½Ð¸":5844,"ĠÐ¿Ð¾Ð´ÑĢÐµÐ´":5845,"ĠÐ¿Ð¾Ð»ÑĥÐº":5846,"ĠÐ¿Ð¾ÑĢÑĬÑģÑıÑĤ":5847,"ĠÐĿÐ°ÐºÐ¸Ñģ":5848,"ĠÐĺÐ·Ð¿Ð¸ÑĩÐ°ÑĤ":5849,"ĠÐ¾Ð±ÐµÐ»ÐµÐ½Ð°":5850,"ĠÐľÐ°Ñģ":5851,"ĠÑĤÐ¸ÐºÐ²ÐµÐ½Ð¸":5852,"ĠÐºÐ°Ð¿Ð°ÑĩÐºÐ¸":5853,"ĠÐºÐµÑĢÐ°Ð¼Ð¸":5854,"ĠÐ³ÑĬÑĢÐ½Ðµ":5855,"ĠÑģÐ¼Ð»ÐµÐ½Ð¸Ñı":5856,"ĠÐºÐ¾ÑĢÐµÐ½Ð¸ÑĤÐµ":5857,"ÐĽÐµÑīÐ°ÑĤÐ°":5858,"ĠÐ½Ð°ÐºÑĬÐ»ÑĨÐ°Ð½Ð¸ÑĤÐµ":5859,"ĠÐ¾ÑĨÐ²ÐµÑĤÑıÐ²Ð°":5860,"ĠÐ¼Ð°ÑĢÑĥÐ»ÑıÑĤÐ°":5861,"ĠÐ¸Ð·ÑģÑĤÐ¸Ð½Ð°Ð»Ð°ÑĤÐ°":5862,"ĠÐ·Ð°Ð²ÑĢÐ°ÑĤ":5863,"ĠÐ·Ð°ÑģÑĤÑĢÐ¾Ð¹ÐºÐ°ÑĤÐ°":5864,"ĠÑĪÐºÐµÐ¼Ð±ÐµÑĤÐ¾":5865,"ĠÐ´Ð¾Ð¼Ð°ÑĪÐ½Ð°":5866,"ĠÐ¾ÑģÑĤÑĬÑĢÐ³Ð²Ð°ÑĤ":5867,"ĠÑģÑĥÐ´Ð¶ÑĥÐº":5868,"ÑĩÐ½Ð¾ÑģÑĤ":5869,"ÑĥÐºÐ¸":5870,"ĠÐ½Ð°ÑĩÐ°":5871,"ĠÐ²Ð·ÐµÐ¼Ð°":5872,"ĠÐ´ÐµÐ½Ð¾":5873,"ĠÐ±Ð»ÐµÐ´":5874,"Ð»Ð¸Ð¿":5875,"ÑĢÑıÐ»Ð°":5876,"ĠÐºÐ°Ð¿Ð¸Ñı":5877,"ĠÐ¡Ð°ÑĢ":5878,"Ð³Ð¾ÑĢÑıÑĤ":5879,"ĠÐ¿Ð¾Ð»Ð·Ð²Ð°ÑĤ":5880,"ĠÐŁÐ¾Ð²":5881,"ĠÐļÐ¸Ð¿Ð²Ð°":5882,"ĠÑĦÐ¸Ð³":5883,"ĠÐ»Ð¸Ð¼Ð¾Ð½Ð¸ÑĤÐµ":5884,"ĠÐ¿ÑİÑĢÐ¸":5885,"ĠÐºÑĢÐ°ÑģÑĤÐ°Ð²Ð¸ÑĨÐ¸ÑĤÐµ":5886,"ĠÐ»ÑĬÐ¶Ð¸ÑĨÐ°ÑĤÐ°":5887,"ĠÑģÑĤÑĥÐ´ÐµÐ½Ð¾ÑĤÐ¾":5888,"ĠÐ½Ð¾Ð²Ð°":5889,"ĠÑģÑĤÐµÐ±":5890,"ÑħÐ°ÑĢÐ°":5891,"ĠÑĢÑĬÐ¶":5892,"ĠÐľÐ°Ð¶Ðµ":5893,"ÑīÐ¸ÑıÑĤ":5894,"ĠÐ±Ð¾Ð±ÑĬÑĤ":5895,"ĠÐºÐ¾ÑģÑĤÐ¸Ð»ÐºÐ°":5896,"ĠÐ¾Ð±ÑĬÑĢÐ½ÐµÑĤÐµ":5897,"ĠÑĩÐµÑĤÐ²ÑĬÑĢÑĤÐ¸Ð½Ð¸":5898,"ĠÐŁÑĬÐ»Ð½Ð¸Ð¼":5899,"ĠÐ½Ð°Ð³Ð¾ÑĢÐµÑīÐµÐ½Ð¾":5900,"ĠÑģÐ»ÑĬÐ½ÑĩÐ¾Ð³Ð»ÐµÐ´Ð¾Ð²Ð¾":5901,"ĠÑģÐ»ÑĥÑĩÐ°Ñı":5902,"ĠÐ±ÑĢÐ°ÑĪÐ½ÐµÐ½Ð°ÑĤÐ°":5903,"ĠÐºÐµÐ±Ð°Ð¿ÑĩÐµÑĤÐ°":5904,"Ð¼ÐµÐºÐ½Ð°ÑĤÐ¾ÑĤÐ¾":5905,"ĠÐĴÐµÑĩÐ½Ð°":5906,"ĠÐ¼ÐµÑĢÐ»ÑĥÐ·Ð°":5907,"ĠÑĩÐ¸Ð¿Ñģ":5908,"ÑĥÐ»Ð³ÑĥÑĢÑĬÑĤ":5909,"ĠÐ´ÐµÐ½Ð¾Ð½Ð¾":5910,"ÑĤÐ²Ð¾ÑĢÐµÑĤÐµ":5911,"Ð»ÑĮÐ¾":5912,"Ð¿Ñĥ":5913,"Ð½Ð¾Ð²Ð¸":5914,"ÐºÐ¾Ð²ÐµÑĤÐµ":5915,"ĠÐ¼Ð°Ð·Ð°":5916,"ĠÐ¸Ð·ÑĤÐ¸":5917,"ĠÐ¸Ð·Ð»Ð¸Ð²Ð°ÑĤ":5918,"ĠÐŁÑĬÑĢÐ²Ð¾":5919,"ĠÑĤÐ¾ÑģÑĤÐµ":5920,"ĠÐ¿Ð¾Ð´ÐºÐ¸ÑģÐµÐ»":5921,"ĠÑĤÐµÐ»ÐµÐ½Ð°":5922,"Ð²ÐµÐ³ÐµÑĤÐ°":5923,"Ð¾Ð»Ð¸Ð¸ÑĤÐµ":5924,"ĠÐ¡Ð»ÐµÐ´Ð²Ð°":5925,"ĠÐ¿Ð¾Ð´Ð¿ÑĢÐ°Ð²ÐµÑĤÐµ":5926,"ĠÐ·Ð°Ð¿ÑĬÑĢÐ¶Ð²Ð°Ð½Ðµ":5927,"ĠÐĹÐ°ÐºÑĥÑģÐºÐ°":5928,"Ð±ÐµÑĢÐµÑĤÐµ":5929,"ĠÐ·Ð»Ð°ÑĤÐ¸ÑģÑĤÐ¸":5930,"ĠÑħÑĥÐ±Ð°Ð²":5931,"ĠÐŁÐ¾Ð´Ð¿ÑĢÐ°Ð²ÑıÐ¼Ðµ":5932,"ÑĤÐ¾ÑĢÐ¾ÑĤÐ¾":5933,"ĠÐ¿ÑıÐ½Ð°ÑĤÐ°":5934,"Ð³Ð¾Ð»ÑıÐ¼Ð°ÑĤÐ°":5935,"ĠÐ¿Ð¾Ð¾Ñħ":5936,"ĠÑĩÐ¸Ð½Ð¸Ð¹ÐºÐ¸":5937,"ĠÑģÑĤÑĢÐ¸Ð²Ð°":5938,"ĠÐ½Ð°ÐºÑĬÐ»ÑĨÐ°Ð½Ð¸Ñı":5939,"ĠÐŁÐ°Ð»Ð°ÑĩÐ¸Ð½":5940,"ĠÐĺÐ·Ð¼Ð¸Ð²Ð°":5941,"Ð³ÑĬÐ²Ð°":5942,"ĠÐ¿Ð¾Ð¸Ð·ÑģÑĤÐ¸Ð½Ð°ÑĤ":5943,"ĠÐ¼Ð»ÑıÐ½Ð¾":5944,"ĠÑĥÐ²ÐµÐ»Ð¸ÑĩÐ°Ð²Ð°":5945,"ĠÐŀÐ±ÑĢÑĬÑīÐ°":5946,"ĠÐ½Ð°ÐºÑĬÐ»ÑĨÐ²Ð°ÑĤ":5947,"ĠÐ¿Ð°ÑīÑĬÑĢÐ½Ð°Ðº":5948,"ĠÐ¿ÐµÑĢÐ³Ð°Ð¼ÐµÐ½ÑĤÐ¾Ð²Ð°":5949,"ĠÐ¾ÑģÐ²Ð¾Ð±Ð¾Ð¶Ð´Ð°":5950,"ĠÑģÐ¿ÐµÑĨÐ¸":5951,"ÑģÐ¼Ð°ÑĤÐ¸":5952,"ĠÑģÑĬÐ±Ð¸":5953,"ĠÐ½ÑıÐºÐ¾":5954,"ĠÐ¾Ðº":5955,"ÑĢÐ°Ð½ÑıÐ²Ð°ÑĤ":5956,"ĠÐ²ÑĤÐ¾ÑĢÐ¾ÑĤÐ¾":5957,"ĠÐ¸Ð·Ð¿Ð°":5958,"ĠÐ¼Ð°ÑģÐ°ÑĤÐ°":5959,"ĠÑĤÐµÐ¶ÐµÑģÑĤ":5960,"ÑģÐµÐ¹ÑĤÐµ":5961,"ĠÑģÑĤÑĢÐµ":5962,"ĠÐ¼ÐµÑģÐ°ÑĤÐ°":5963,"ĠÐĿÐ°Ð´":5964,"ĠÐ±Ð°ÑħÐ°ÑĢÐ°":5965,"ĠÐĹÐ°Ð´ÑĥÑĪÐµÑĤÐµ":5966,"ĠÐ¿ÑĢÐ¾Ð¼ÐµÐ½Ð¸":5967,"ĠÐ¾ÑĢÐ¸Ð·Ð¾Ð²Ð¾":5968,"ĠÐ±Ð¸ÑĤÐ°":5969,"ÐļÐ°ÑĢÑĦÐ¸Ð¾Ð»ÑĬÑĤ":5970,"ĠÐ´Ð¶Ð¾Ð±":5971,"ĠÐ³Ð¾ÑĢÑĩÐ¸Ð²Ð¸Ð½Ð°ÑĤÐ°":5972,"ĠÐ¿ÑĢÐ¾Ð´ÑĬÐ»Ð¶ÐµÑĤÐµ":5973,"ĠÐ´ÑĬÐ»Ð¶Ð¸Ð½Ð°ÑĤÐ°":5974,"ĠÐ¿ÑĬÐ´Ð¿ÑĬÐ´ÑĬ":5975,"ĠÐ´Ð¶Ð¸Ð½Ð´Ð¶Ð¸ÑĦÐ¸Ð»ÑĬÑĤ":5976,"ĠÐ½Ð°Ð¿ÑĢÐ°Ð²Ð¾":5977,"ÐŁÐ¾ÑĩÐ¸ÑģÑĤÐµÐ½Ð¸ÑıÑĤ":5978,"ÐºÐ°Ð½ÑĤÐ¸Ð½Ð°":5979,"ĠÐ¹ÐµÐ½ÑģÐºÐ¾":5980,"ĠÐ¾Ð±ÑĢÐ°Ð·ÑĥÐ²Ð°ÑĤ":5981,"ĠÐ½Ð°Ð¼Ð°ÑĩÐºÐ°Ð¹ÑĤÐµ":5982,"ĠÐ·Ð°ÑħÐ»ÑĥÐ¿Ð²Ð°ÑĤ":5983,"ĠÐ¼Ð°ÑģÐºÐ°ÑĢÐ¿Ð¾Ð½Ðµ":5984,"ĠÐºÐ¸Ð½Ð¾Ð°":5985,"ĠÐ¿ÑĢÐ¾Ð´ÑĬÐ»Ð³Ð¾Ð²Ð°ÑĤÐ¸":5986,"ĠÑģÑĥÑĤÑĢÐ¸Ð½ÑĤÐ°":5987,"ĠÐ±Ð»ÐµÐ´Ð¾":5988,"Ġ70":5989,"Ð¸ÑģÐºÐ¸":5990,"ĠÐ½Ð°Ð³ÑĢÑı":5991,"Ð¿ÑĦ":5992,"Ð±Ñĥ":5993,"ĠÐ·Ð½Ð°":5994,"ĠÐ·Ð°Ñħ":5995,"ĠÐºÐ°Ð¼":5996,"ĠÐºÐ¾Ð¶Ð¸":5997,"ÑīÐ¸ÑĤÐµ":5998,"ĠÐ¿ÑĢÐµÐ¿ÑĬÑĢÐ¶":5999,"ĠÐŁÐ¾ÑĤÐ°Ð¿ÑıÑĤ":6000,"ÐºÐ¸Ð»Ð¸Ð´ÐºÐ¸ÑĤÐµ":6001,"ĠÐ½Ð°Ð¼Ð°Ð·Ð½ÐµÐ½Ð¸":6002,"ĠÑĥÐ¾Ðº":6003,"ĠÐ¼Ð¾Ð¼ÐµÐ½ÑĤÐ°":6004,"Ð´Ð¾Ð±":6005,"ĠÐ¿Ð¾ÑģÐ¾Ð»ÐµÐ½Ð¸":6006,"ĠÐŀÑģÑĤÐ°Ð²ÑıÑĤÐµ":6007,"ÐŀÑĢÐ¸Ð·Ð°":6008,"ÐĿÐ°ÑĢÑıÐ·Ð°Ð½Ð¸ÑıÑĤ":6009,"ĠÐłÐ°Ð·Ð±ÑĬÑĢÐºÐ²Ð°ÑĤÐµ":6010,"ĠÑĢÐ°Ð·ÑĤÐ¾ÑĩÐ²Ð°Ð¼Ðµ":6011,"ĠÐ½Ð°Ð¼Ð°ÑģÐ»ÐµÐ½":6012,"ĠÑĨÑıÐ»":6013,"ĠÐ¾Ð²ÐºÑĥÑģÑıÐ²Ð°Ð¼Ðµ":6014,"ÑĤÑĢÐ¸Ð²Ð°":6015,"ĠÐ¿Ð¾Ð¸Ð·Ð¿Ð°ÑĢÐ¸":6016,"ÐŁÐ¾ÑĩÐ¸ÑģÑĤÐµÐ½Ð°ÑĤÐ°":6017,"ĠÐ²ÑĬÑĤÑĢÐµÑĪÐ½Ð°ÑĤÐ°":6018,"ĠÐ±ÑĬÐ´Ð°ÑĤ":6019,"ĠÐ¼Ð°ÑħÐ½Ðµ":6020,"ĠÐ·Ð°Ð»ÐµÐ¿Ð²Ð°":6021,"ĠÐ½Ð°Ð´ÐµÐ½Ð¸ÑĩÐºÐ¸":6022,"ĠÐĽÐ¸ÑģÑĤÐ°ÑĤÐ°":6023,"ĠÐ¨Ð¾ÐºÐ¾Ð»Ð°Ð´ÑĬÑĤ":6024,"ĠÐ¿Ð¾ÑĢÐ¾Ð·Ð¾Ð²ÐµÐµ":6025,"ĠÑģÐ²ÐµÐ¶Ð¾":6026,"ĠÐºÐ°Ð½Ð°Ð¿Ðµ":6027,"ĠÐ¼Ð°Ð·Ð°Ð½Ðµ":6028,"ÑĩÐµÐ½Ð¸Ðµ":6029,"ÑĤÐ°ÑĢÐ°":6030,"ĠÐ½Ð°Ð´Ð¸":6031,"ĠÐ½Ð°ÑĩÑĥ":6032,"ĠÐ½Ð°Ð»Ð°Ð³Ð°":6033,"ĠÐ½Ð°ÑĩÑĥÐºÐ°":6034,"ĠÐ²Ð¼ÐµÑģÑĤÐ¾":6035,"ĠÐºÐ°ÑĩÐ°":6036,"ĠÐŁÑİ":6037,"ĠÐŁÑĢÐµÐ´Ð²Ð°ÑĢÐ¸ÑĤÐµÐ»Ð½Ð¾":6038,"ÑĨÐµÐ»Ð¸":6039,"ÐºÐ¾Ð»Ð±Ð°":6040,"ĠÑģÐ¼ÐµÑģÐµÐ½":6041,"ĠÑĩÐµÑĢÐ²ÐµÐ½Ð¸ÑĤÐµ":6042,"ĠÑĪÐ¿ÐµÐºÐ¾":6043,"ĠÐ°ÑģÐ¿Ð¸":6044,"ĠÐ¸Ð·ÑģÑĤÐ¸Ð²Ð°":6045,"ĠÐĵÐ»Ð°":6046,"ĠÑĤÐ²ÑĬÑĢÐ´Ð°":6047,"ĠÑħÐ°ÑĢÐµÑģ":6048,"ĠÐ½Ð°Ð¿ÑĬÐ»Ð½ÐµÑĤÐµ":6049,"ĠÐ¶ÑĬÐ»ÑĤÑĬÐºÑĬÑĤ":6050,"ĠÐ±Ð»ÐµÐ½Ð´ÐµÑĢÐ°":6051,"ĠÐ½Ð¸Ð²Ð¾ÑĤÐ¾":6052,"ĠÐ½Ð°Ð¼Ð°ÑĩÐºÐ°Ð½Ð¸ÑĤÐµ":6053,"ĠÐ¥ÑĥÐ±Ð°Ð²Ð¾":6054,"ĠÐ±Ð°Ð¼ÑıÑĤÐ°":6055,"ĠÑĢÐµÑĨÐµÐ¿ÑĤÐ°ÑĤÐ°":6056,"ĠÐ²ÑĬÐ·Ð¼Ð¾Ð¶Ð½Ð¾":6057,"ĠÐ¿ÑĢÐµÑģÐµÑĩÐµ":6058,"ĠÐºÐ¸ÑģÐ½Ðµ":6059,"ÐĶÑĢÐ¾Ð±ÑĩÐµÑĤÐ°ÑĤÐ°":6060,"330":6061,"Ð¸ÑīÐ°":6062,"ÑıÐ³Ð°":6063,"ĠÐ·Ð°Ð²ÑĬÑĢÑĪ":6064,"ÑĤÐ¸Ñģ":6065,"ĠÐ»ÑĥÐ½Ð¸":6066,"Ð»Ð¾Ðº":6067,"ĠÐ¸Ð·ÑĤÐµÑĩÐµ":6068,"ĠÐºÐ¾Ð·Ðµ":6069,"ÑĦÐ¸Ð»Ð¸":6070,"ÑĥÑĪÑĥÐ»":6071,"ĠÐµÐ»Ð¸Ð¿":6072,"ĠÐŁÐ¾ÑħÐ»ÑĥÐ¿":6073,"ĠÐ±Ð°ÑģÐ¼Ð°ÑĤÐ¸":6074,"ĠÐĹÐ°ÑħÐ»ÑĥÐ¿":6075,"ĠÐºÑĢÐ°Ð¸ÑīÐ°":6076,"Ð´Ð¾Ð²":6077,"ĠÐĳÑĥÑĢÐºÐ°":6078,"ĠÐ¸Ð·Ð¿ÑĬÑĢÐ¶Ð¸":6079,"ĠÐ¿ÑĬÐ»Ð½":6080,"ĠÐ´ÑĢÑĥÐ³Ð¾ÑĤÐ¾":6081,"ĠÐ½Ð°Ð¼Ð°Ð·Ð²Ð°ÑĤÐµ":6082,"ĠÐ½Ð°ÑĤÑĢÐ¾ÑĪÐµÐ½Ð¸Ñı":6083,"ĠÐ¾ÑĤÑģÑĤÑĢÐ°Ð½":6084,"ĠÐ¿Ð»Ð°ÑģÑĤÐ°":6085,"ĠÐ±Ð°Ð½Ð°Ð½Ð°":6086,"ĠÐ»Ð¸Ð¼Ð¾Ð½Ð°Ð´Ð°":6087,"ĠÐ¹ÐµÐ½ÑģÐºÐ¸":6088,"ĠÐ¸Ð·ÑģÑĤÐ¸Ð½Ð°Ð»":6089,"ĠÑĢÑĥÐ»ÑĨÐ°ÑĤÐ°":6090,"ĠÐ°Ð²Ð¾ÐºÐ°Ð´Ð¾ÑĤÐ¾":6091,"Ð¨ÑĥÐ½ÐºÐ°ÑĤÐ°":6092,"ĠÐ¸Ð·ÑĩÐ°ÐºÐ²Ð°Ð¼Ðµ":6093,"ĠÐŁÐ°ÑģÐ¸ÑĢÐ°":6094,"ĠÑģÐ¸ÑĢÐµÐ½Ð°ÑĤÐ°":6095,"ÑģÐ²Ð¸Ð½ÑģÐºÐ¾":6096,"ĠÑĩÐ¾Ð¿ÑĬÑĢ":6097,"ĠÐĴÑĬÑĤÑĢÐµÑĪ":6098,"ĠÐ¿ÑĬÐ¿ÐµÑĪ":6099,"ĠÐ¿ÑĢÐµÐ´ÑıÑģÑĤÐ¸Ðµ":6100,"ĠÐ¶ÑĥÐ»Ð¸ÐµÐ½Ð¸":6101,"ĠÐ»ÑĥÐ½Ð¸ÑĩÐºÐ¸":6102,"Ġ90":6103,"ÐºÐµÑĢ":6104,"Ð´Ð½Ðµ":6105,"Ð¼Ð¾ÑĢ":6106,"ĠÐ½Ð°Ðº":6107,"Ð±Ð¾Ð´":6108,"ĠÐ²ÑĢÐµÐ»Ð¸":6109,"Ð¾Ð»Ð¾":6110,"Ð»Ð°Ð¼":6111,"Ð¼Ð°Ð·Ð°Ð½":6112,"ĠÐ¾ÑĤÐºÑĬÐ¼":6113,"Ð»Ð¾Ð²":6114,"ĠÐ¡Ð¿Ð°Ð³ÐµÑĤÐ¸ÑĤÐµ":6115,"ĠÑıÐ¹ÑĩÐ½Ð°ÑĤÐ°":6116,"ĠÑģÐ»Ð°Ð±Ð¾":6117,"ĠÑĦÐ°":6118,"ĠÐĶÐ²Ð°ÑĤÐ°":6119,"ĠÑģÐ°ÑĩÐ°":6120,"ÐĹÐ°ÐºÐ²Ð°Ñģ":6121,"ĠÐ¾ÑģÑĤÐ°Ð½Ð°Ð»Ð¾":6122,"ĠÐ½Ð°Ð¼Ð°Ð·Ð½ÑıÐ²Ð°":6123,"ĠÐĺÐ·ÑĨÐµÐ¶Ð´Ð°ÑĤ":6124,"ĠÐ¸Ð·Ð¼Ð¸ÑĤÐ¾":6125,"ĠÐ¿Ð¾ÑģÑĤÐ°Ð²ÑıÑĤÐµ":6126,"ĠÐ½Ð°ÑĢÐµÐ¶Ðµ":6127,"ĠÐ¸Ð·Ð²Ð°Ð´Ð¸ÑĤÐµ":6128,"ĠÐ»Ð¸Ð¼Ð¾Ð½ÐµÐ½Ð°ÑĤÐ°":6129,"ĠÐĳÐ»Ð°":6130,"ÑĨÐ°ÑĢÐµÐ²Ð¸ÑĨÐ°":6131,"ĠÑĢÐ°Ð·ÑĤÐ¾Ð¿ÑıÐ²Ð°ÑĤ":6132,"ĠÑĢÐ°Ð·ÑĤÐ¾Ð¿ÑıÐ²Ð°Ð½Ðµ":6133,"Ð·ÐµÐ»Ðµ":6134,"Ð¾ÑĤÐ´Ð¾Ð»Ñĥ":6135,"ÐĳÐ°":6136,"ĠÐ¿ÑĢÑĬÑĩÐ¸ÑĨÐ°":6137,"ĠÐ¢Ð°Ð±Ð°ÑģÐºÐ¾":6138,"ĠÐ¾ÑĤÑĨÐµÐ¶Ð´Ð°Ð¼Ðµ":6139,"ĠÑĢÐ°Ð·ÑĤÐ²Ð¾ÑĢÐµÐ½Ð¸Ñı":6140,"ĠÑģÐ°ÑĢÐ¼Ð°":6141,"ĠÐ³Ð°ÑĢÐ½Ð¸ÑĤÑĥÑĢÐ°ÑĤÐ°":6142,"ÐŁÐ¾ÑĩÐ¸ÑģÑĤÐµÐ½Ð¸Ñı":6143,"ĠÐ²ÑĬÑĤÑĢÐµÑĪÐ½Ð¾ÑģÑĤ":6144,"ÐŁÐ°ÑĤÐ»Ð°Ð´Ð¶Ð°Ð½ÑĬÑĤ":6145,"ÑģÐ¼Ð»ÐµÐ½Ð¸":6146,"ĠÐ±Ð¾ÑĢÐ¾Ð²Ð¸Ð½ÐºÐ¸ÑĤÐµ":6147,"ĠÐ¿Ð°Ð½Ð¸ÑĢÐ¾Ð²ÐºÐ°":6148,"ĠÐ±Ð°Ð´ÐµÐ¼":6149,"ĠÐ¾Ð³Ð½ÐµÑĥÐ¿Ð¾ÑĢÐ½Ð°":6150,"ĠÐĿÐ°ÑĢÑĬÑģÐ²Ð°ÑĤ":6151,"Ð¿Ð¸Ð»ÐµÑĪÐºÐ¾":6152,"ĠÐŀÑħÐ»Ð°Ð´":6153,"ĠÑĢÐ°Ð·Ð¿ÑĢÐµÐ´ÐµÐ»Ð¸":6154,"ĠÐ¿Ð¾ÐºÐ°ÑĦÐµÐ½ÐµÐµ":6155,"ĠÑĦÐ¸Ð»ÐµÐ½ÑĨÐ°":6156,"ĠÐŀÐ³ÑĬÐ½ÑıÑĤ":6157,"ĠÐĶÑĬÑĢÐ¶Ð¸":6158,"ÑĢÐµÐ¹Ð¿ÑĦ":6159,"ĠÐ·Ð°ÑģÑĤÑĢÐ¾Ð¹ÐºÐ°":6160,"ĠÐ¸Ð·Ð¿Ð°ÑĢÑı":6161,"190":6162,"ĠÑģÐ²Ð¾":6163,"ÑĩÑĥÑĪ":6164,"ĠÐ¸Ð³Ð»Ð°":6165,"Ð¼Ð¾ÑĤÐ¾":6166,"Ð¼Ð¾ÑĢÐºÐ¾":6167,"ĠÐ½Ð°Ð¾ÐºÐ¾Ð»Ð¾":6168,"ÑħÐ¸ÑĤÐµ":6169,"ÑĢÑıÐ»Ð¾":6170,"ĠÑģÐ¸Ð»Ð¸":6171,"ÑİÑģ":6172,"ÑĪÐºÐ°Ð²Ð°Ð»Ð°":6173,"ĠÐ½Ð°Ð¼Ð°Ð·Ð½ÐµÐ½":6174,"ĠÐ¿Ð¾ÑģÐ¾Ð»ÐµÐ½Ð°":6175,"ÐĿÐ°Ñħ":6176,"ĠÐ¾ÑĤÐ´ÐµÐ»Ð½Ð¸":6177,"ÑħÐ°Ð½Ð°":6178,"ĠÐ³ÑĬÑĢÐ½ÐµÑĤÐ¾":6179,"ĠÑħÐ»Ð°Ð´ÐºÐ¾":6180,"ĠÐ¿Ð°Ð»Ð°ÑĩÐ¸Ð½ÐºÐ¾Ð²Ð¾":6181,"ĠÑĢÐ°Ð·ÑĤÐ²Ð°ÑĢÑıÐ½Ðµ":6182,"Ð¾Ð»Ð¸ÑĩÐµÑģÑĤÐ²Ð¾ÑĤÐ¾":6183,"ĠÐ°ÑĢÐ¾Ð¼Ð°ÑĤÐ¸ÑĤÐµ":6184,"ĠÐ°ÑĢÐ¾Ð¼Ð°ÑĤÐ½Ð¾":6185,"ĠÐ¿Ð»Ð¸ÐºÐ°":6186,"ĠÐŁÑĢÐ°Ð²Ð¸Ð¼":6187,"ĠÐ½Ð°ÑĩÑĥÐ¿Ð²Ð°":6188,"ĠÐĹÐµ":6189,"ĠÐĿÐ°ÑģÑĤÑĬÑĢÐ³Ð²Ð°ÑĤ":6190,"ÑĤÑĬÐ½ÐºÐ¸":6191,"ĠÐ»ÑĥÐºÐ°Ð½ÐºÐ°":6192,"ĠÐ¡Ð»Ð°Ð´ÐºÐ¸ÑĪÑĬÑĤ":6193,"ĠÑħÐ¾Ð¼Ð¾Ð³ÐµÐ½Ð¸Ð·Ð¸ÑĢÐ°Ð½Ðµ":6194,"Ð¼Ð¾ÑĢÐºÐ¾Ð²Ð¸":6195,"ÐºÑĤÐ°":6196,"ĠÑĢÐ°Ð·Ð¼ÐµÐºÐ½Ð°ÑĤÐ¾ÑĤÐ¾":6197,"ĠÐ¸Ð·Ð²Ðµ":6198,"ÑĨÐµÐ»Ð°":6199,"ĠÐ¿Ð¾Ð´Ð»Ñĥ":6200,"ĠÑħÐ¸":6201,"ĠÐ°Ð¼Ð°":6202,"ĠÐµÐ´Ð½Ð¾ÑĤÐ¾":6203,"ĠÐĿÐ°ÑĢÑıÐ·Ð°Ð½Ð¸ÑıÑĤ":6204,"ÐºÑĥÐ±":6205,"ĠÐ¾ÑģÑĤÐ°Ð²Ð¸ÑĤÐµ":6206,"ĠÐĹÐ°Ð³":6207,"ĠÐ¿Ð¾ÑĩÐ¸ÑģÑĤÐµÐ½Ð°ÑĤÐ°":6208,"ÐľÐ°ÑĢ":6209,"ĠÐ±ÑĥÑĤÐ°":6210,"ĠÐºÐ°Ð¿Ð°ÑĩÐµÑĤÐ°":6211,"ĠÐºÐ°Ð¿Ð°ÑĩÐµÑĤÐ¾":6212,"Ð·ÐµÐ¼Ð°ÑĤ":6213,"ĠÑĢÐ°Ð·ÑĤÐ¾ÑĩÐµÑĤÐµ":6214,"Ð¸Ð»Ð¸Ð¹ÐºÐ¸ÑĤÐµ":6215,"ĠÐ¿Ð¾Ð´ÑħÐ¾Ð´ÑıÑīÐ¾":6216,"ĠÐ¸Ð·Ð²Ð°Ð¶Ð´Ð°Ð½Ðµ":6217,"ĠÑģÐµÐ¼ÐµÐ½Ð½Ð°ÑĤÐ°":6218,"Ð¸ÑĪÐµÑģÑĤÐµÑĤÐ¾":6219,"ĠÐ½Ð°Ð±ÑĥÑħ":6220,"ĠÐ³ÑĬÐ±Ð°":6221,"ĠÑĦÐ°ÑģÑĥÐ»ÑĬÑĤ":6222,"ĠÐ²Ð°ÑĢÐµÐ½":6223,"Ð¸Ð½Ð´Ð¶Ð¸ÑĦÐ¸Ð»":6224,"ĠÐ·Ð°ÑĤÐ¾Ð¿Ð»ÐµÐ½Ð¾":6225,"ĠÑĢÐ¾Ð¼ÑĬÑĤ":6226,"ĠÐ·Ð°Ð¿ÐµÑĩÐ°ÑĤÐ°":6227,"ĠÐ´Ð¾Ð»Ð½Ð°":6228,"ĠÑĪÑĥÐ¿Ð½Ð°Ð»Ð°ÑĤÐ°":6229,"ĠÐºÑĢÑĥÑĪÐ¸ÑĤÐµ":6230,"ÐĸÐµÐ»Ð°":6231,"ĠÑĥÐºÐ°Ð·Ð°Ð½Ð¸ÐµÑĤÐ¾":6232,"ĠÐ½Ð°Ð´ÐµÐ½Ð¸ÑĨÐ¸":6233,"ĠÐĿÐ°ÑģÑĤÑĬÑĢÐ³Ð²Ð°":6234,"ĠÐ¤Ð¸Ð»ÐµÑĤÐ°ÑĤÐ°":6235,"ĠÑģÐµÐ´Ð¼Ð¸ÑĨÐ¸":6236,"ĠÑģÑĥÐ¿ÐµÐ½Ð°":6237,"ĠÐ¼Ð°ÐºÑģÐ¸Ð¼Ð°Ð»Ð½Ð°":6238,"ĠÐ·Ð°Ð»ÐµÑĤÐ¸":6239,"ĠÐ±ÐµÐ·ÑģÐ¾Ð»Ð½Ð°":6240,"ĠÐļÑİÑĦÑĤÐµ":6241,"Ð¶ÐµÐ»Ð°Ð½Ð¸Ðµ":6242,"ĠÐļÑĢÐ°Ð¸ÑīÐ°ÑĤÐ°":6243,"ĠÐ½Ð°ÑĩÐ°Ð»Ð¾ÑĤÐ¾":6244,"18":6245,"280":6246,"Ġ)":6247,"ÑģÐµÑĢ":6248,"ÑģÐºÐ¸ÑĤÐµ":6249,"ÑģÑĬÐº":6250,"Ð´Ð²Ð°":6251,"ĠÐ½Ð°ÑģÐ¸":6252,"Ð¿Ð»ÑĬÑĤ":6253,"ĠÐ³ÑĢÑĬ":6254,"ĠÐ·Ð°Ð±Ð¾Ð¶Ð´Ð°ÑĤ":6255,"ĠÑĢÐ°Ð·Ð¼Ðµ":6256,"ĠÑĢÐ°Ð·Ð¼Ð°":6257,"ĠÐ¾Ð±Ð²Ð¸":6258,"ÑĤÑĬÐº":6259,"ÐµÐ»Ð°ÑĩÐºÐ°":6260,"Ð¿Ð¾Ð½ÐµÑĤÐ¾":6261,"ĠÐ¿ÑĢÐ¾ÑģÑĤÐ¾":6262,"ĠÐ·Ð°Ð³ÑĬ":6263,"ÑĩÐ°ÐºÐ°Ð¹ÑĤÐµ":6264,"Ð¡Ð°":6265,"ĠÐŀÑĤÑģÑĤÑĢÐ°":6266,"ĠÐ±Ð¸Ð²Ð°":6267,"ĠÐŁÐ¾ÑĢÑĨÐ¸Ð¸ÑĤÐµ":6268,"ÐĿÐ°ÑĢÑıÐ·Ð°Ð½Ð¾ÑĤÐ¾":6269,"ĠÐ±Ð¸ÑģÐºÐ²Ð¸ÑĤÐºÐ¸":6270,"ĠÐľÐ°ÑıÑĤÐ°":6271,"ĠÐ§Ð¾ÑĢ":6272,"ĠÐ¾ÑĤÑĨÐµÐ´ÐµÐ½Ð¸Ñı":6273,"ĠÐ¿ÑĢÐ¸Ð³Ð¾ÑĤÐ²ÐµÐ½Ð¾":6274,"ĠÐºÑĢÐµÐ½Ð²Ð¸ÑĢÑĪÐ°":6275,"ĠÑģÐ²Ð°Ð»ÑıÐ¼Ðµ":6276,"ĠÑĢÐ°Ð²Ð½Ð¾Ð¼ÐµÑĢÐµÐ½":6277,"ĠÐ¾Ð±ÑĬÑĢÐºÐ²Ð°Ð¼Ðµ":6278,"ĠÐ½ÑĥÐ¶":6279,"ĠÐ¿ÑĢÐ¾Ð´ÑĬÐ»Ð¶Ð°Ð²Ð°Ð¼Ðµ":6280,"ĠÐ¾ÑģÐ½Ð¾Ð²":6281,"ĠÐ¨Ð°":6282,"ĠÐºÑĬÑģÐ¾Ð²Ðµ":6283,"ĠÐºÐ¾ÑĤÐ»Ð¾Ð½ÑĬÑĤ":6284,"ĠÐŀÐ²ÐºÑĥÑģÑıÐ²Ð°Ð¼Ðµ":6285,"ĠÐ¸Ð·Ð»Ð¸ÑĪ":6286,"ĠÑģÐ°Ð»Ð²Ð¸Ñı":6287,"ĠÐ¾ÑĤÑģÑĤÑĢÐ°Ð½ÐµÑĤÐµ":6288,"ĠÐ·Ð°Ð²ÑĬÑĢÐ·Ð²Ð°ÑĤ":6289,"ĠÐ¿ÑĬÐ½ÑĩÐµÑĤÐ°":6290,"ĠÐºÐ¾Ð½Ð´ÐµÐ½Ð·Ð¸ÑĢÐ°Ð½Ð¾ÑĤÐ¾":6291,"ĠÐĸÐµÐ»Ð°ÑĤÐ¸Ð½ÑĬÑĤ":6292,"ĠÐ¼Ð°ÑĪÐ¸Ð½Ð°ÑĤÐ°":6293,"ĠÐ½Ð°Ð¿Ð¸ÑĤÐºÐ°":6294,"ĠÐļÐ¾Ð½ÑģÑĥÐ¼Ð¸ÑĢÐ°":6295,"ĠÐ¼Ð°Ð½Ð´Ð°ÑĢÐ¸Ð½Ð¸":6296,"ĠÐºÐ¾ÑĩÐ°Ð½Ð°":6297,"ÐºÑĤÐ¸Ð²Ð¸ÑĢÐ°":6298,"ĠÐ¡Ð°ÑĢÐ¼Ð¸ÑĤÐµ":6299,"ÑģÑıÑĤ":6300,"ÑĢÑĤÐ°":6301,"ÑĢÑĥÐº":6302,"ĠÑģÐ¿ÑĢÐµ":6303,"Ð¼Ð»Ñı":6304,"ĠÐ¼Ð»Ð°Ð´":6305,"ĠÐ³ÑĢÐµÐ¹Ð¿ÑĦ":6306,"ĠÐ´ÑĬÑģÐºÐ°":6307,"ÑĢÐµÐº":6308,"ĠÐ¸Ð·Ð²Ð¸ÑĢÐ°":6309,"ĠÐ¸Ð·ÑĢÐ°Ð²":6310,"ĠÐ¡Ð¼Ð¸":6311,"ĠÐ»Ð¸Ð¼Ðµ":6312,"ĠÐºÑĥÐ²ÐµÑĢ":6313,"ÑĩÐ¸ÑĨÐ°ÑĤÐ°":6314,"ĠÑĪÑĥÑĪÑĥÐ»":6315,"ĠÐĹÐ°Ð³ÑĢÑıÐ²Ð°Ð¼Ðµ":6316,"ÐĹÐ°Ð³ÑĢÑıÐ²Ð°":6317,"ĠÑģÐºÐ¸Ð»Ð¸Ð´ÐºÐ°ÑĤÐ°":6318,"ĠÐ¿ÑĬÑĢÐ¶Ð¸ÑĤÐµ":6319,"ĠÑĥÐ¿Ð¾ÑĤ":6320,"ĠÑĥÐ¸ÑģÐºÐ¸":6321,"ĠÐ¾Ð±ÐµÐ»ÐµÐ½Ð¸Ñı":6322,"ÑģÐºÐ°ÑĢ":6323,"ĠÐ·Ð°Ð¿ÑĬÑĢÐ¶Ð²Ð°ÑĤÐµ":6324,"Ð´ÑĥÑĢÐ°ÑĤÐ°":6325,"ĠÐ·Ð°Ð»Ð¸Ð²Ð°ÑĤÐµ":6326,"ĠÐ¿Ð¾ÑĩÐ¸ÑģÑĤÐµÐ½Ð¸Ñı":6327,"ĠÐ¿ÑĥÐ´Ð¸Ð½Ð³Ð°":6328,"ÑģÐ¾Ð²Ð°":6329,"ÑĢÐ°Ð½Ð¶Ð¸":6330,"ĠÐ¾ÑĤÐ´ÐµÐ»ÐµÐ½Ð°ÑĤÐ°":6331,"ĠÑĤÐµÑĩÐ½Ð¸Ñı":6332,"ÐĳÐ»Ð°ÑĤ":6333,"ĠÐ¿Ð¾ÑĢÑĨÐµÐ»Ð°":6334,"ÐłÐ°Ð·ÑĤÐ¾Ð¿":6335,"ĠÑģÐ¸Ð¿Ð²Ð°ÑĤÐµ":6336,"ĠÑģÐ¸ÑĢÐ¾Ð¿ÑĬÑĤ":6337,"ĠÑĢÐ°Ð·Ð´ÐµÐ»ÑıÐ¼Ðµ":6338,"ĠÐ»Ð¾Ð´ÐºÐ¸":6339,"ĠÑĪÐ¸ÑĪÑĩÐµÑĤÐ°ÑĤÐ°":6340,"ĠÐ¿Ð¾Ð»ÑĥÑĩÐµÐ½Ð¸ÑĤÐµ":6341,"ĠÑģÑĤÑĢÐ¸ÑĤÐ°":6342,"ĠÐ³ÑĢÐ¸ÑģÑĬÑĤ":6343,"ĠÐ¿ÑĥÑħÐºÐ°Ð²Ð¾":6344,"ĠÐ½Ð°ÑĤÑĢÐ¸Ð²Ð°ÑĤ":6345,"ĠÑĪÐ½Ð¸ÑĨÐµÐ»Ð¸ÑĤÐµ":6346,"ĠÐ´Ð¾Ð¼Ð°ÐºÐ¸Ð½ÑģÐºÐ°":6347,"ĠÐºÐ°ÑĪÐ¸ÑĨÐ°":6348,"ĠÐ·Ð°Ð¿ÐµÑĩÐ°ÑĤÐ²Ð°":6349,"ĠÐ¾Ð±Ð¸ÑĩÐ°ÑĤÐµ":6350,"ÐĽÐ¸ÑģÑĤÐ°ÑĤÐ°":6351,"ĠÐ¶ÐµÐ»Ð¸ÑĢÐ°":6352,"ĠÐ´Ð¸Ð°Ð³Ð¾Ð½Ð°Ð»":6353,"Ð»ÐµÐ½Ð¸ÑĤÐµ":6354,"Ð¼Ð½Ð¾Ð³Ð¾":6355,"ĠÐ¼Ð»Ð°Ð´Ð¸":6356,"ĠÐ¾Ð¼ÐµÑģÐµÑĤÐµ":6357,"ĠÐ²ÑĬ":6358,"ĠÐ²ÐµÐ½Ðµ":6359,"Ð»Ð¸Ð²Ð¾":6360,"ĠÐ¼Ð°Ð»Ð¸":6361,"ĠÐ»Ð¾Ð´":6362,"ĠÑģÐ¸ÑĢÐµÐ½":6363,"ĠÐ¿ÑĢÐµÐ¿ÑĬÐ»":6364,"ĠÐ°Ð¿Ðµ":6365,"ĠÑĤÐ¾Ð¿Ð»Ð¸Ñı":6366,"ĠÑĤÐ¾Ð¿ÑĩÐ¸ÑĨÐ¸":6367,"ĠÐ¿Ð°ÑĤÐ¸":6368,"ĠÐľÐ¾ÑĢÐºÐ¾Ð²Ð°":6369,"ĠÐ³ÑĢÐ°Ð½":6370,"Ð¶Ð°Ð²Ð°":6371,"ĠÐ¿Ð»Ð¾Ð´Ð¾Ð²":6372,"ĠÐ¾ÑĤÑĨÐµÐ´ÐµÐ½Ð°":6373,"ĠÐ¸Ð·ÑĩÐ¸ÑģÑĤÐµÐ½Ð¸ÑıÑĤ":6374,"ĠÐŁÑĬÑĢÐ¶ÐµÑĤÐµ":6375,"ĠÐ·Ð°Ð¼ÑĢÐ°Ð·ÐµÐ½Ð°":6376,"ÑģÑĥÑħÐ°":6377,"ĠÐ¾ÑĤÐ²ÑģÑıÐºÑĬÐ´Ðµ":6378,"ĠÐ¿Ð¾Ð¸Ð·Ð²ÑĢÐ¸":6379,"ĠÑĤÑĢÐµÑĤÐ°ÑĤÐ°":6380,"ĠÐºÐ»Ð¾Ð½ÐºÐ°":6381,"ĠÐºÐ»Ð¾Ð½ÑĩÐµÑĤÐ°":6382,"ĠÐ¿ÑĢÐ°ÑģÐºÐ¾Ð²Ð¸ÑĤÐµ":6383,"ĠÐ½Ð°Ð¼Ð°ÑĩÐºÐ²Ð°Ð¼Ðµ":6384,"ĠÑħÑĢÑĥÐ¿ÐºÐ°Ð²":6385,"ĠÑģÐ¼Ð°ÑĩÐºÐ²Ð°":6386,"ĠÐ¼Ð°ÑģÐ°Ð»Ð°":6387,"ĠÑĦÑĬÑģÑĤÑĬÑĩÐµÐ½Ð¾":6388,"ÐļÐ¾Ð¿ÑĢÐ¸Ð²Ð°ÑĤÐ°":6389,"ĠÐļÑĢÐ°ÑģÑĤÐ°Ð²Ð¸ÑĨÐ°ÑĤÐ°":6390,"ĠÐ¤Ð¸Ð»ÐµÑĤÐ¾":6391,"Ð±ÐµÑĢÐ³":6392,"ĠÐĹÐ°ÑģÑĤÑĢÐ¾Ð¹Ð²Ð°":6393,"ĠÐºÐ°ÑģÐ¸Ñģ":6394,"er":6395,"ÑģÑĩÑĥÐºÐ°":6396,"ĠÐ²ÐµÑĤ":6397,"ĠÐ´Ð¾ÑĢÐ¸":6398,"Ð²Ð¸Ðµ":6399,"Ð´Ð°Ð²Ð°":6400,"Ð»ÐµÐº":6401,"ÑĢÐ°Ð·Ð°":6402,"ĠÑĢÐ°Ð·ÐºÑĬÑģ":6403,"ĠÑıÑħÐ½Ð¸ÑıÑĤÐ°":6404,"ĠÐ¡Ñĥ":6405,"ĠÑģÐ¾Ð»ÐµÐ½":6406,"ĠÑĤÑĥÐº":6407,"Ġ28":6408,"Ð²ÐµÐº":6409,"ĠÑĪÐ¾Ð»":6410,"ĠÐļÐ°ÑĢÑĤÐ¾ÑĦ":6411,"ĠÐĶÐ°":6412,"ĠÐ·Ð°Ð¿ÑĬÑĢÐ¶ÐµÐ½Ð¸Ñı":6413,"ĠÐĹÐ°ÐµÐ´Ð½Ð¾":6414,"ĠÐ´Ð¾Ð¼Ð°ÑĤÑĬÑĤ":6415,"ĠÑĢÐµÐ´Ð¸ÑĤÐµ":6416,"ĠÐ³Ð°ÑĢÐ°Ð¼":6417,"ĠÐ³Ð¾ÑĢÑģÐºÐ¸":6418,"ĠÑĢÐ°Ð·ÑĤÐ¾Ð¿ÑıÑĤ":6419,"Ð±ÑĬÐ»ÐºÐ°ÑĤÐ°":6420,"Ð¿ÑĬÐ»Ð½Ð°":6421,"ĠÑĢÑĥÐº":6422,"ĠÐ¿Ð¾ÑĢÑĤÐ¾ÐºÐ°Ð»Ð¸ÑĤÐµ":6423,"ĠÐ³ÑĬÑģÑĤÐ¾ÑĤÐ°ÑĤÐ°":6424,"ĠÐ¸Ð·ÑĨÐµÐ´ÐµÐ½Ð¸Ñı":6425,"ĠÑģÑĤÑĢÐ¸ÑĤ":6426,"ĠÑĢÐ°Ð·Ð±ÑĬÑĢÐºÐ°Ð½Ð¸ÑĤÐµ":6427,"Ð²Ð¾ÐºÐ°Ð´Ð¾ÑĤÐ¾":6428,"ĠÐ²Ð°Ð½Ð¸Ð»Ð¾Ð²Ð°ÑĤÐ°":6429,"ĠÐ¾ÑĤÐ»ÐµÐ¶Ð°ÑĤ":6430,"ĠÐ¥Ð»ÑıÐ±ÑĬÑĤ":6431,"ĠÐ²Ð¸Ð½ÐµÐ½Ð°":6432,"ĠÐ½Ð°Ð´ÐµÐ½Ð¸ÑĩÐºÐ¸ÑĤÐµ":6433,"ĠÐŁÑĢÐµÑģÑĤÐ¾ÑıÐ²Ð°ÑĤ":6434,"ĠÑĢÑıÐ´ÐºÐ¾":6435,"ĠÐĵÐ¾ÑĢÐµ":6436,"ĠÑĪÐ°Ð¼Ð¿Ð°Ð½ÑģÐºÐ¾":6437,"ÑĤÐ°ÑĢÐ°ÐºÐ¸":6438,"ÐºÐ¾Ð»Ð±Ð°Ñģ":6439,"ĠÐ¸Ð·Ð²ÐµÑģÑĤÐ½Ð¾":6440,"ĠÐ²ÐµÑĤÑĢÐ¸":6441,"320":6442,"ĠÐĻ":6443,"Ð¸Ð½Ð°":6444,"ÑĢÑĥÐ´":6445,"Ð´ÑĢÑĬ":6446,"ĠÐ½Ð°Ð±Ð¾Ð¶Ð´Ð°ÑĤ":6447,"Ð¿Ñı":6448,"ĠÐ·Ð°Ð¼ÐµÐ½Ð¸":6449,"ÐºÐ¾ÑĢÐ°":6450,"Ð²Ð¸Ð½Ð°":6451,"ÑĦÑĬÑģÑĤ":6452,"Ð»Ð¾Ð²Ð°":6453,"ÐµÑģÐµÐ½":6454,"ĠÐ¡Ð¾Ð»":6455,"Ð±Ð¸Ð²Ð°":6456,"ĠÐºÑĥÑĤÐ¸":6457,"ÑģÐ°ÑĤ":6458,"ÑħÑĤÐ¸Ð½ÑĬÑĤ":6459,"ĠÑģÐ¼ÐµÐ½":6460,"ĠÐ³Ð»Ð°Ð²Ð¸ÑĤÐµ":6461,"ĠÐ¿ÑĢÐ°Ð²Ñı":6462,"ĠÐ¸Ð·ÑģÑĤÐ¸ÑģÐºÐ²Ð°ÑĤ":6463,"ĠÐĳÐ°Ð½Ð¸":6464,"ĠÐ¿Ð¾ÑĩÐ¸ÑģÑĤÐµÐ½Ð¸ÑıÑĤ":6465,"Ð¹Ð¾Ð½ÐµÐ·":6466,"ĠÐ³Ð¾ÑĢÐ½Ð¸Ñı":6467,"ĠÑģÐµÑĢÐ²Ð¸ÑĢÐ°ÑĤÐµ":6468,"ĠÐ¿Ð»Ð¾ÑģÐºÐ°":6469,"ĠÐ¿Ð»Ð¾ÑģÐºÐ¸":6470,"Ð¾Ð±ÐµÐ»ÐµÐ½Ð¸":6471,"ĠÐ¾ÑĤÐ´ÐµÐ»ÐµÐ½Ð¸Ñı":6472,"Ð¶Ð°ÑĤÐ°":6473,"ĠÐºÐ°ÑĢÑĤÐ¾ÑĦÐµÐ½Ð°":6474,"ĠÐ·Ð°Ð¿Ð¾ÑĩÐ²Ð°Ð¼Ðµ":6475,"ĠÐ¾ÑħÐ»Ð°Ð´ÐµÐ½":6476,"ĠÐ½Ð°Ð¼Ð°Ð»ÑıÐ²Ð°Ð¼Ðµ":6477,"ĠÐ¿Ð»Ð°ÑģÑĤÐ¼Ð°":6478,"ĠÐ»Ð¾Ð¿Ð°":6479,"ĠÐ³Ð¾ÑĤÐ²ÐµÐ½ÐµÑĤÐ¾":6480,"ĠÐ±Ð¸ÑĪÐºÐ¾ÑĤÐ¸ÑĤÐµ":6481,"ĠÑĨÐ¸Ð¿Ð°ÑĤÐ°":6482,"ĠÐ¿Ð¾ÐºÐ°ÑĦÐµÐ½":6483,"Ð´Ð¾Ð¼Ð°ÑĤÐµÐ½":6484,"Ð¾Ð±ÑĢÐ°Ð·Ð½Ð¾":6485,"ÐºÐ°ÑĦÑıÐ²":6486,"ĠÐºÐ°Ð¿ÐµÑĢÑģÐ¸ÑĤÐµ":6487,"ĠÐ¡Ð»Ð°Ð½Ð¸Ð½Ð°ÑĤÐ°":6488,"ĠÑģÐ¾Ð±ÑģÑĤÐ²ÐµÐ½":6489,"ĠÐ·Ð°ÑĤÐ²Ð¾ÑĢÐµÐ½":6490,"ĠÑħÐ°ÑĢÑĤÐ¸ÐµÐ½Ð¸":6491,"ĠÐ¿Ð¾ÑģÑĤÐ¾Ð¸":6492,"ĠÐĿÐ°ÑĤÑĢÐ¾ÑĪÐ°":6493,"ĠÐºÑĢÐ¾ÐºÐµÑĤÐ¸":6494,"ÐĹÐ°ÐºÐ²Ð°ÑģÐºÐ°ÑĤÐ°":6495,"ĠÑģÐ¸Ð»Ð¸ÐºÐ¾":6496,"Ġ9":6497,"ÐµÑģÑĤÑĢÐ°Ð³Ð¾Ð½":6498,"Ð´Ð²Ðµ":6499,"ÑĤÐ°ÐºÐ°":6500,"ĠÐ½ÑĥÐ´":6501,"ĠÐ½Ð°Ð²Ð¸Ð²Ð°Ð¼Ðµ":6502,"ĠÐ¾Ð¼ÐµÑģÐ²Ð°Ð¼Ðµ":6503,"ĠÐ²ÑģÐµ":6504,"ĠÐ³Ñĥ":6505,"ĠÐ´Ð¾Ð»Ð¸Ð²Ð°Ð¼Ðµ":6506,"ĠÐ·Ð°ÑĤÐ¾Ð²Ð°":6507,"Ð»Ð¸Ð°":6508,"ĠÐ´Ð¾ÑģÑĤÐ¸":6509,"ÑģÑĤÑĢÐ¸":6510,"ĠÑĢÐ°Ð·Ð¼ÐµÑģ":6511,"ĠÑĢÐ°Ð·ÑģÑĤÐµÐ»ÐµÑĤÐµ":6512,"ĠÐ¡ÑĤ":6513,"ÑĥÑĪÐµÐ½Ð¸ÑĤÐµ":6514,"ĠÐĴÑĤÐ¾":6515,"ÑĨÐ¸Ð¸":6516,"ÑĩÐ¸Ð»Ð¸":6517,"ĠÑĩÐ°ÑĪÐ¸ÑĤÐµ":6518,"ĠÑĢÐ°Ð·Ð±ÑĬÑĢÐºÐ²Ð°Ð¹ÑĤÐµ":6519,"ĠÐ¿Ð¾ÑĩÐ¸ÑģÑĤÐ²Ð°Ð¼Ðµ":6520,"ĠÐ¼Ð¸Ð½Ð°":6521,"Ð¿Ð¸ÑĩÐ°Ð¼Ðµ":6522,"Ð¿ÑĢÐµÐ´ÐµÐ»ÐµÑĤÐµ":6523,"ĠÑĢÐµÐ´Ð¾Ð²Ðµ":6524,"ĠÐ½Ð°Ð¼Ð°ÑģÐ»ÑıÐ²Ð°":6525,"ĠÐ·Ð°Ð¿Ð¸ÑĩÐ°Ð½Ðµ":6526,"ĠÐ§ÐµÑĢ":6527,"Ð¯Ð¹ÑĨÐµÑĤÐ¾":6528,"ĠÐ¿Ð°ÑģÐ¸ÑĢÐ°Ð¼Ðµ":6529,"ĠÐ¿Ð°ÑģÐ¸ÑĢÐ°Ð½Ð¸Ñı":6530,"ÐºÐ»ÑİÑĩÐµÑĤÐµ":6531,"ĠÐ½Ð°ÑĢÐµÐ¶Ð´Ð°ÑĤÐµ":6532,"ĠÐĹÐ°Ð´ÑĥÑĪÐ°Ð²Ð°Ð¼Ðµ":6533,"ĠÐºÐ¾Ð½ÑıÐºÑĬÑĤ":6534,"ĠÐ¾Ð±ÐµÐ·ÐºÐ¾ÑģÑĤÑıÐ²Ð°ÑĤ":6535,"ĠÐ£ÐºÑĢÐ°ÑģÑıÐ²Ð°ÑĤ":6536,"ĠÐ»ÐµÑĪÐ½Ð¸ÑĨÐ¸ÑĤÐµ":6537,"ĠÐŀÐ±ÐµÐ»Ð²Ð°Ð¼Ðµ":6538,"Ð¸ÑģÐµÐ»Ð¸ÑĤÐµ":6539,"ĠÐ½Ð°Ð³Ð¾ÑĢÐµÑīÐµÐ½Ð°":6540,"Ð½Ð´ÑĢÐ¸":6541,"ĠÐ¿ÑĢÐ¸Ð´Ð¾Ð±Ð¸ÑıÑĤ":6542,"ĠÐ±Ð°Ð´ÐµÐ¼Ð¾Ð²Ð¾":6543,"ĠÐŁÐ¾ÑĩÐ¸ÑģÑĤÐµÐ½Ð¸ÑĤÐµ":6544,"ÑĤÑĥÐ·Ñĥ":6545,"Ð¼ÐµÐºÐ½Ð°Ð»Ð¾ÑĤÐ¾":6546,"ÑĢÐµÐ·ÐµÐ½":6547,"ĠÐºÐ°ÑĪÐ¸ÑĩÐºÐ°":6548,"ĠÐ±ÑĬÐ±ÑĢÐµÑĨÐ¸":6549,"ĠÐºÐµÑģÑĤÐµÐ½Ð¸":6550,"ĠÐ³ÑĢÐµÐ¹Ð¿ÑĦÑĢÑĥ":6551,"ÑģÐ»ÐµÐ´":6552,"ÑģÐ¿Ð¾ÑĢÐµÐ´":6553,"ÑĤÐºÐ¸ÑĤÐµ":6554,"ĠÐ¸Ð´Ðµ":6555,"ÑĤÐ°ÑĤ":6556,"ĠÐ½Ð¸ÑĤÐ¾":6557,"Ð±ÐµÐºÐ¾":6558,"Ð³ÑĢ":6559,"ÑĨÐµÐ»":6560,"ÐºÐ¾Ð²Ðµ":6561,"ÐºÐ¾Ð²Ð°ÑĤÐ°":6562,"Ð¹ÐµÐ½":6563,"ĠÐŁÐ»Ð¾Ð´Ð¾Ð²ÐµÑĤÐµ":6564,"ĠÐ¿Ð¾Ð´ÑģÐ¾Ð»":6565,"ĠÐĴÐ¸":6566,"ĠÐŀÐ¼ÐµÑģÐ²Ð°Ð¼Ðµ":6567,"ĠÐ¿ÐµÑĤ":6568,"ĠÑĪÐ¿Ð¸":6569,"ĠÐļÐ¾Ð»Ð¸ÑĩÐµÑģÑĤÐ²Ð¾ÑĤÐ¾":6570,"ĠÐ¾Ð±ÑīÐ¾":6571,"ĠÐ·Ð°Ð¿ÑĬÑĢÐ¶ÐµÐ½Ð¾":6572,"ĠÐ·Ð°Ð´ÑĥÑĪÐµÐ½Ð¸ÑıÑĤ":6573,"ĠÐºÑĢÐ°Ðº":6574,"ĠÐĺÐ·Ð¿Ð»Ð°":6575,"ĠÐľÐ°Ð·Ð½Ð¸Ð½Ð°ÑĤÐ°":6576,"ĠÐ¿Ð¾ÐºÑĢÐ¸ÑĤ":6577,"ĠÑĢÐ°Ð±Ð¾":6578,"ĠÐºÑĢÑĬÑģÑĤ":6579,"ĠÐºÑĢÑĬÐ³ÑĩÐµÑĤÐ°ÑĤÐ°":6580,"ĠÐ½Ð°Ð¼Ð°Ð·Ð°Ð½Ð°ÑĤÐ°":6581,"ĠÐ¿Ð»Ð¾Ð´Ð°":6582,"ĠÐ½Ð°ÑĤÑĢÐ¾ÑĪÐµÑĤÐµ":6583,"ĠÑģÐ¼Ð»ÑıÐ½Ð°":6584,"ĠÐĵÐ¾ÑĤÐ¾Ð²Ð¸Ñı":6585,"ĠÑģÐ°Ð»Ð°Ð¼ÑĥÑĢÐ°":6586,"ĠÑĢÐ°Ð·ÑĤÐ²Ð¾ÑĢÐµÐ½Ð¾ÑĤÐ¾":6587,"ĠÐ±Ð»Ð°ÑĤÑĬÑĤ":6588,"ÐºÐ°ÑĦÐµ":6589,"ĠÐ¾Ð¿Ð°ÑĪÐºÐ°ÑĤÐ°":6590,"ĠÐ¿Ð¾Ð»ÑĥÑĩÐµÐ½Ð¸ÑıÑĤ":6591,"ĠÐºÐ¾Ð½ÑģÐµÑĢÐ²Ð¸ÑĢÐ°Ð½Ð°":6592,"Ð³ÑĬÐ²Ð°ÑĤ":6593,"ĠÐ²Ð¸ÑģÐ¾Ðº":6594,"ĠÑģÑĤÐ¾Ð¸":6595,"ĠÐ¼Ð°Ð¶ÐµÐ¼":6596,"ĠÐ¿Ð¾Ð´Ð½ÐµÑģÐµÑĤÐµ":6597,"ĠÑģÐ»Ð°Ð´ÐºÐ¸ÑĪÑĬÑĤ":6598,"ĠÐ²ÑĬÐ½ÑĪ":6599,"ĠÐ¡ÑĬÑħÑĢÐ°Ð½ÑıÐ²Ð°":6600,"ÐĺÐ·Ð²Ð°ÑĢÐ°ÑĤÐ°":6601,"Ð¢ÐµÐ»ÐµÑĪÐºÐ¾ÑĤÐ¾":6602,"ĠÐľÐ°ÑģÐ»Ð¸Ð½Ð¸ÑĤÐµ":6603,"ĠÐļÑİÑĦÑĤÐµÑĤÐ°ÑĤÐ°":6604,"ĠÐ°Ð¿ÐµÑĤÐ¸":6605,"Ð¸Ð¼":6606,"ÑĤÐ°Ð¼":6607,"ÑĥÑĩÐ¸":6608,"ĠÐ·ÑĢÐµÐ»Ð¸":6609,"ÑĨÐ²ÐµÑĤ":6610,"ÐºÐ¾Ð²Ð¸":6611,"ÐºÐ¸Ð¼":6612,"ĠÐ¸Ð·Ð¼ÐµÑģÐ²Ð°":6613,"ĠÐ¡Ð³Ð¾ÑĢÐµÑī":6614,"ĠÑĩÐµÑĢÐ²Ð°":6615,"ĠÐ»ÑĥÐºÑĩÐµÑĤÐ°ÑĤÐ°":6616,"ĠÐ¿ÑĢÐµÐºÐ°ÑĢ":6617,"Ð¿Ð°Ð½Ð°ÐºÐ°":6618,"ĠÑĤÐ°ÑĢÐ°":6619,"ĠÑĩÐµÑĢÐ²ÐµÐ½Ð°ÑĤÐ°":6620,"ĠÐĿÐ°Ð¿ÑĢÐ°Ð²ÐµÑĤÐµ":6621,"ĠÐ¾ÑĢÐ¸Ð³Ð¸":6622,"Ð»ÑıÑĤÐ°":6623,"ĠÐłÐ°Ð·ÑĢÑıÐ·Ð²Ð°ÑĤ":6624,"ĠÐ±ÑĥÐ»ÑĮÐ¾":6625,"ĠÐľÐµÑģ":6626,"Ð¿ÐµÑĩÐµÐ½Ð°ÑĤÐ°":6627,"ĠÐ¿Ð¾ÑĩÐ¸ÑģÑĤÐµÐ½Ð¾":6628,"ÐŀÐ¼ÐµÑģÐ²Ð°":6629,"ĠÐŁÑĢÐµÑģÑıÐ²Ð°":6630,"Ð»ÑİÑĤÐ¸":6631,"ĠÐ±Ð¾ÑģÐ¸Ð»ÐµÐºÑĬÑĤ":6632,"ĠÐºÐ¾ÐºÐ¾Ñģ":6633,"Ð´ÐµÐ¼Ð¸ÑĤÐµ":6634,"ĠÐ·Ð°Ð¿Ð¾ÑĩÐ½ÐµÑĤÐµ":6635,"ĠÐ¤Ð¸Ð»Ð¸Ð¸ÑĤÐµ":6636,"ĠÐ·Ð°ÑĤÐ¾Ð¿Ð»ÐµÐ½":6637,"ĠÐºÐ¾Ð»Ð±Ð°ÑģÐ¸":6638,"ĠÐºÐ¾ÑģÑĤÐ¸Ð»ÐºÐ°ÑĤÐ°":6639,"ĠÐºÑĢÐ¸ÑĤÐ°ÑĢÐ°ÐºÐ¸":6640,"ĠÐ¿ÑĢÐ¾Ð·ÑĢÐ°ÑĩÐ½Ð¾ÑģÑĤ":6641,"ĠÐ²Ð¸ÑģÐ¾ÐºÐ¸":6642,"ĠÐłÐ°Ð·Ð´ÐµÐ»ÑıÐ¼Ðµ":6643,"ĠÐµÐ´Ð¸Ð½Ð¸ÑıÑĤ":6644,"ĠÐ½Ð°Ð¿ÑĢÑĬÑģÐºÐ²Ð°ÑĤ":6645,"ĠÐ¿ÑĢÐµÑĨÐµÐ´ÐµÐ½Ð¸Ñı":6646,"ĠÐ¾Ð²Ð°Ð»ÑıÐ¹ÑĤÐµ":6647,"ÑĥÑħÐ¸ÑĤÐµ":6648,"ĠÑħÐµÑĢÐ¸Ð½Ð³Ð°":6649,"ÐŁÐ°ÑĢÐ¼Ð°Ð·Ð°Ð½":6650,"ĠÐºÐ¾ÑĢÐµÐ¼":6651,"ĠÐ¿Ð¾ÑĢÑĨÐ¸Ð¾Ð½Ð½Ð¸":6652,"ĠÑĦÐ¸Ð³ÑĥÑĢÐºÐ¸":6653,"ĠÐ¾ÑģÐ²Ð¾Ð±Ð¾Ð¶Ð´Ð°Ð²Ð°":6654,"ĠÐ§Ð¾ÑĢÐ±Ð°ÑĤÐ°":6655,"ÑĢÐµÐºÑĤÐ½Ð¾":6656,"ĠÐ³ÑĢÐ°Ð½ÑĥÐ»Ð¸":6657,"*.":6658,".,":6659,"ÑģÐ²Ð°ÑĤ":6660,"Ð¸Ð´Ð¸ÑĤÐµ":6661,"Ð½ÐºÐ°":6662,"Ð²Ð°Ð»ÐµÑĤÐµ":6663,"ĠÐ´Ð¸Ð½":6664,"ĠÐ·Ð°Ð±ÑĬÑĢÐºÐ²Ð°":6665,"Ð¶Ð¾Ð½ÑģÐºÐ°":6666,"ÑĦÑĢÐµ":6667,"ĠÐµÑģ":6668,"ĠÑģÐ»Ð°Ð¼":6669,"ĠÐ¿ÑĢÐµÑĨÐµÐ´ÐµÑĤÐµ":6670,"ĠÐŀÐ¿Ð¸":6671,"ĠÐŀÐ¼ÐµÑģÐµÑĤÐµ":6672,"ĠÐ¿ÐµÑĢÐ°ÑĤÐ°":6673,"ĠÐ¶Ð°ÑĢ":6674,"ÑĩÐµÑĢÐ²ÐµÐ½Ð°":6675,"Ð¾Ð²Ð¸Ñı":6676,"ĠÐĹÐ°Ð²Ð¸Ð¹ÑĤÐµ":6677,"ĠÐ¿Ð°Ð´Ð°":6678,"ĠÐĺÐ·Ð¿Ð¾Ð»Ð·Ð²Ð°":6679,"Ð¼Ð°ÑģÐ»ÐµÐ½Ð°":6680,"ÐĳÑĥÑĤÐµÑĢ":6681,"ĠÐ´ÐµÐ±ÐµÐ»Ð¾":6682,"ĠÐľÐ°ÑģÐºÐ°ÑĢ":6683,"ÐºÐ²Ð°ÑģÐµÐ½Ð°":6684,"ÑīÐ¸Ðµ":6685,"ĠÐ´Ð¸ÑĢÐµÐºÑĤÐ½Ð¾":6686,"ĠÐłÐ°":6687,"ĠÐ¸Ð·ÑĩÐ¸ÑģÑĤÐµÐ½":6688,"ĠÐ¤Ð¾Ð»Ð¸Ð¾ÑĤÐ¾":6689,"ĠÐ¿Ð¾ÑĢÑĤÐ¾ÐºÐ°Ð»Ð¾Ð²Ð°ÑĤÐ°":6690,"ĠÑĤÑĢÐµÑģÐºÐ°":6691,"ĠÐ¸Ð·ÑģÑĤÐ¸Ð½Ð°Ð»Ð¸Ñı":6692,"ĠÐ·Ð°Ð»ÐµÐ¿Ð²Ð°ÑĤ":6693,"ĠÑĢÑĥÐ»ÑĨÐµ":6694,"ĠÑĪÐ¾ÐºÐ¾Ð»Ð°Ð´Ð¾Ð²Ð°":6695,"ÐŁÑĢÐ¸Ð³Ð¾ÑĤÐ²ÑıÐ½Ðµ":6696,"ÑĥÐ»ÑĮÐ¾Ð½Ð°":6697,"ĠÑĨÐµÐ´ÐµÐ½Ð¾ÑĤÐ¾":6698,"ĠÐºÑĢÐ¸Ð»ÑĨÐ°ÑĤÐ°":6699,"ĠÐĿÐ°Ð¿ÑĬÐ»Ð½ÐµÑĤÐµ":6700,"ĠÐłÐ°Ð·ÑĤÐ¾Ð¿ÑıÐ²Ð°":6701,"ĠÑģÐµÐ´Ð¼Ð¸ÑĨÐ°":6702,"ĠÐ¼Ð°ÑĪÐ¸Ð½Ð°":6703,"ĠÑģÐ²ÐµÐ¶Ð°":6704,"Ð½Ð°ÑĩÐ°Ð»Ð¾":6705,"ĠÐ¿ÑĢÐ¸ÑıÑĤÐµÐ½":6706,"ĠÐ¸Ð·Ð²ÑĬÐ½":6707,"ÐºÐµÑĤÑĩÑĥÐ¿":6708,"ĠÐ¿ÑİÑĢÐ¸ÑĢÐ°ÑĤ":6709,"ĠÐ´ÐµÐ½Ð¾Ð½Ð¾ÑīÐ¸Ðµ":6710,"ĠÑĤÐ¾ÑģÑĤÐµÑĢ":6711,"ĠÐĴÑĬÑĤÑĢÐµÑĪÐ½Ð¾ÑģÑĤÑĤÐ°":6712,"ĠÐ½Ð°Ð±ÑĥÑħÐ²Ð°ÑĤÐµ":6713,"ĠÐ²ÐµÑĤÑĢÐ¸Ð»Ð¾":6714,"ĠÐ»Ð¾Ð¿Ð°ÑĤÐºÐ°":6715,"13":6716,"ĠÑģÐ²ÑĬÑĢ":6717,"ÐºÐ»Ð¸":6718,"Ð´ÑĢÐ°Ð²":6719,"ĠÐ³Ð»Ñĥ":6720,"ĠÐ·Ð°Ð³Ð°":6721,"ĠÐ·Ð°Ð¼ÐµÑģÐµÑĤÐµ":6722,"Ð½Ð¸ÐºÐ°":6723,"Ð»ÐµÑıÑĤ":6724,"ÑģÑĤÐ°Ð²ÐºÐ¸ÑĤÐµ":6725,"ÑĦÐ¸Ð´Ðµ":6726,"ĠÐ¼Ð°ÑģÐ»ÐµÐ½Ð°":6727,"ĠÐŀÑĢÐµÑħÐ¸ÑĤÐµ":6728,"Ð·Ð°Ð²Ð¸ÑģÐ¸":6729,"ĠÐ°ÐºÑĤÐ¸Ð²Ð¸ÑĢÐ°":6730,"ĠÑģÑĬÐ¾ÑĤ":6731,"ÑĩÐ°Ð²Ð°ÑĤ":6732,"Ð»ÐµÑĤÐ°ÑĤÐ°":6733,"ĠÐ¢Ñı":6734,"ĠÐļÐ¾ÑĢÐ°ÑĤÐ°":6735,"ĠÐ¿Ð¾ÑĩÐ¸ÑģÑĤÐµÐ½":6736,"ĠÐ¼Ð°ÑĢÑĨÐ¸Ð¿":6737,"ĠÑħÑĥÐ±Ð°Ð²Ð°":6738,"ĠÐ¿Ð¾Ð»ÑĥÑĩÐ°Ð²Ð°ÑĤ":6739,"ĠÐ½Ð°Ð¹Ð»Ð¾Ð½":6740,"ÐłÐ°Ð·Ð±Ð¸Ð²Ð°":6741,"ĠÐ¾Ð±ÑĬÑĢÐºÐ°":6742,"ĠÐŀÑģÑĤÐ°Ð½Ð°Ð»Ð¸ÑıÑĤ":6743,"ĠÑĩÐµÑĢÐµÑĪÐ¸ÑĤÐµ":6744,"ĠÐ±ÑĥÐ»Ð³ÑĥÑĢÑĬÑĤ":6745,"ĠÐ¼Ð¾ÑĢÑģÐºÐ¸":6746,"ĠÑĨÐµÐ»ÑĤÐ°":6747,"ĠÐ¿ÑĢÐµÐ³ÑĬÐ²Ð°ÑĤ":6748,"ĠÐ¾Ð¼ÐµÐºÐ½Ð°Ð»Ð¾ÑĤÐ¾":6749,"ĠÐ¾Ð²Ð°Ð»ÑıÐ½Ð¸":6750,"ĠÐ±ÑĥÑĤÐ¸Ð»ÐºÐ¸":6751,"Ð·ÐµÐ»ÐµÐ½ÑĩÑĥÐºÐ¾Ð²":6752,"ĠÐ´Ð»Ð°Ð½":6753,"ĠÐ°Ð»ÐºÐ¾ÑħÐ¾Ð»":6754,"ĠÐºÑĬÑĢÐ²Ð°Ð²Ð¸ÑĨÐ°":6755,"ĠÐ±ÐµÑĪÐ°Ð¼ÐµÐ»Ð°":6756,"ĠÐľÐ°ÑħÐ½ÐµÑĤÐµ":6757,"ĠÐŁÐ°Ð»Ð°ÑĩÐ¸Ð½ÐºÐ¸ÑĤÐµ":6758,"ĠÐ½Ð°ÑģÐ¸ÑĤ":6759,"ĠÐ²ÐµÐ½ÐµÑĨ":6760,"Ð²ÐµÐºÐ»Ð¾ÑĤÐ¾":6761,"![":6762,".).":6763,"ra":6764,"Ð½ÑĤÐ¸":6765,"Ð½Ð´Ð°":6766,"ÐºÑĬÐ²":6767,"ĠÐ¿Ð»Ð°ÑĤ":6768,"ĠÐ³ÑĢÑĥ":6769,"ÐºÐ°ÑĢÐ¸":6770,"ĠÐ¸Ð·Ð¿ÑĢÐ°":6771,"ĠÐºÐ¾ÑĦÐ¸":6772,"ĠÐºÐ¾ÑģÑĤÐµÐ½":6773,"ĠÐ¡Ð²Ð°Ð»ÐµÑĤÐµ":6774,"Ð³Ð¾Ð´Ð¸ÑĤÐµ":6775,"ĠÐµÐ²ÐµÐ½ÑĤÑĥÐ°Ð»Ð½Ð¾":6776,"ĠÐµÐ»ÐµÐº":6777,"ÑĩÐ¸ÑĤÐµ":6778,"ĠÑģÑĤÐµÐ½Ð¸":6779,"ĠÑĪÐ¸Ð¿":6780,"ĠÐ°Ð»":6781,"ĠÐĹÐ°Ð²ÑĬÑĢÑĪÐ²Ð°":6782,"ĠÐ¿ÑĢÐ¾ÑĤÐµ":6783,"ĠÐ¿ÐµÑĩÐµÐ½":6784,"ĠÐ²Ð°Ñģ":6785,"Ð´Ð¾ÐºÐ°ÑĤÐ¾":6786,"ĠÐŁÐ¾Ð´ÑĢÐµÐ´ÐµÑĤÐµ":6787,"Ð°Ð½Ð´ÑĬÑĢ":6788,"ĠÑĢÐµÐ·ÐµÐ½Ð¸ÑĤÐµ":6789,"ÐºÐ¾Ð²Ð¾ÑĤÐ¾":6790,"ĠÐ¿Ð¾Ð»Ð¾Ð²Ð¸Ð½ÐºÐ¸ÑĤÐµ":6791,"Ð´ÐµÐ»ÑıÐ¼Ðµ":6792,"ĠÐ§ÑĥÑĪÐºÐ°ÑĤÐ°":6793,"ĠÐĿÐ°Ð¼Ð°Ð·":6794,"ĠÐ¸Ð·ÑĩÐ¸ÑģÑĤÐµÐ½Ð¸Ñı":6795,"ĠÑģÐ°Ð»Ð°Ð¼ÑĥÑĢÐ°ÑĤÐ°":6796,"ÑĤÑĢÐ¸ÑĩÐµ":6797,"ĠÐºÐ¾Ð¼Ð±Ð¸":6798,"ĠÐ¶ÐµÐ»Ð°ÑĤÐ¸Ð½ÑĬÑĤ":6799,"ĠÑĪÐ¸ÑĪÑĩÐµ":6800,"ĠÑĪÐ¸ÑĪÐ¾Ð²Ðµ":6801,"ĠÐ¿Ð¾Ð»Ð·Ð²Ð°Ñħ":6802,"ĠÐĺÐ·Ð¿ÑĬÑĢÐ¶Ð²Ð°":6803,"ĠÐ±Ð»Ð°Ð½ÑĪÐ¸ÑĢÐ°Ð½":6804,"ĠÐ¡Ð²Ð°Ð»ÑıÐ¼Ðµ":6805,"ĠÐºÑĢÑĥÑĪÐ°":6806,"ĠÐ¾Ð±ÑĢÐ°Ð±Ð¾":6807,"Ð³ÑĢÐ°Ñħ":6808,"ĠÐ¿Ð¾ÑģÐ¸Ð¿Ð°Ð½Ð°":6809,"ÐļÐ¾ÑĢÐ¸ÑĤÐµ":6810,"ĠÑģÐºÑĥÐ¼ÑĢÐ¸":6811,"ĠÐ²ÑĬÑĢÐ½ÐµÑĤÐµ":6812,"ĠÐ·Ð°Ð±ÑĥÐ»":6813,"ĠÐĽÐ¸Ð¼Ð¾":6814,"ĠÑĢÐ°Ð·Ð¼ÑĢÐ°Ð·ÑıÐ²Ð°":6815,"ĠÐ¼ÐµÑģÐµÑģÑĤÐ°ÑĤÐ°":6816,"ĠÑģÐ¸ÑĢÐµÐ½Ð°":6817,"ÑĪÐ¾ÐºÐ¾Ð»Ð°Ð´Ð¾Ð²Ð¸":6818,"ĠÐ¼Ð°ÑģÐºÐ°ÑĢÐ¿Ð¾Ð½ÐµÑĤÐ¾":6819,"ĠÐĴÑĤÐ°ÑģÐ°":6820,"Ð´ÑĬÐ»Ð±Ð¾Ðº":6821,"ĠÑĢÐ°Ð·Ð´ÑĢÐ¾Ð±":6822,"ĠÐĶÐµÐºÐ¾ÑĢÐ¸ÑĢÐ°":6823,"ÑĢÐ°ÑħÑĬÑĤ":6824,"ĠÐ¿Ð¾Ð´ÐºÐ¸ÑģÐµÐ»ÐµÐ½Ð°":6825,"ĠÑĪÐ¿ÐµÐºÐ¾Ð²":6826,"Ð±ÐµÐºÐ¾Ð½":6827,"ĠÐµÐ»ÐµÐºÑĤÑĢÐ¸ÑĩÐµ":6828,"ĠÐ¿ÑĢ":6829,"Ð´Ð½Ð°":6830,"ÑĥÐ½Ð°":6831,"Ð·ÑĬÑĢ":6832,"ĠÐ½Ð°Ð²Ð¸":6833,"ĠÐ½Ð°Ð»Ð¾Ð¶Ð¸":6834,"Ð¿ÑĢÑı":6835,"Ð¿Ð»ÑĬÐ½ÐºÐ°":6836,"Ð±ÐµÐ½":6837,"Ð±Ð»Ðµ":6838,"Ð½Ð°Ð¿ÑĢÐµÐ´":6839,"ÐºÐ¾ÑĢ":6840,"ĠÑĢÐ°Ð·ÑĢÑıÐ·Ð²Ð°Ð¼Ðµ":6841,"ĠÑĢÐ°Ð·Ð¼ÐµÐº":6842,"ĠÑģÐ¸Ð»Ð°ÑĤÐ°":6843,"ĠÐ¼Ð°ÑģÐ»ÐµÐ½Ð°ÑĤÐ°":6844,"ÑģÑĤÐ¸Ñı":6845,"Ð·Ð°Ð½Ð¾":6846,"ĠÑģÐ²Ð°Ð»ÐµÑĤÐµ":6847,"ÑģÐ¸Ð¿Ð²Ð°ÑĤ":6848,"ĠÐĺÐ·Ð¿ÐµÑĩ":6849,"ĠÐ½Ð°ÑĢÐµÐ¶Ð°ÑĤ":6850,"ĠÑĦÐ¸Ð»Ð¸ÑĢÐ°Ð½Ð¸":6851,"ÑĪÐ°ÑĤÐ°":6852,"ĠÐĳÑĥÑĤÐµÑĢ":6853,"ĠÐ±ÐµÐ»ÑĤÑĬÐºÑĬÑĤ":6854,"ĠÐºÐ°Ð½ÐµÐ»Ð¾":6855,"ĠÑĢÑĥÐ»Ð°ÑĤÐ°":6856,"ĠÑģÐ»Ð°Ð´ÐºÐ¸ÑĤÐµ":6857,"ĠÐ½Ð°Ð¿ÑĬÐ»Ð½Ð¸":6858,"ĠÐ´Ð¸Ð¶Ð¾Ð½ÑģÐºÐ°":6859,"ĠÐĿÑı":6860,"ĠÐĿÐ¸ÑĪÐµÑģÑĤÐµÑĤÐ¾":6861,"Ð§ÐµÑĢ":6862,"ĠÑĥÐºÑĢÐ°ÑģÑıÐ²Ð°Ð¼Ðµ":6863,"ĠÑīÐ¸Ð¿ÐºÐ°ÑĤÐ°":6864,"Ð±ÐµÐ·ÐºÐ¾ÑģÑĤ":6865,"ĠÐ¾ÑĨÐ²Ðµ":6866,"ĠÐĺÐ·Ð¼Ð¸Ð²Ð°Ð¼Ðµ":6867,"ĠÑħÐ»ÐµÐ±ÑĩÐµ":6868,"ÐĲÐ³Ð½Ðµ":6869,"ĠÑĤÑĢÐ¸ÑĬÐ³ÑĬÐ»Ð½Ð¸ÑĩÐµÑĤÐ°":6870,"ĠÐ¸Ð·ÑĨÐµÐ¶Ð´Ð°Ð¼Ðµ":6871,"ÑģÐ²Ð°ÑĢÐµÐ½":6872,"ĠÑĨÐ¸Ð¿Ð¸":6873,"ĠÐ½Ð°ÑĩÑĥÐ¿Ð²Ð°ÑĤ":6874,"ĠÐ±Ð°Ð´ÐµÐ¼Ð¾Ð²Ð¸":6875,"ĠÐºÑĢÑĥÑĤÐ¾Ð½Ð¸ÑĤÐµ":6876,"ĠÑĢÐ¸Ð±Ð¸ÑĤÐµ":6877,"ĠÐ·Ð°Ð±Ð¾Ð´":6878,"ĠÐ´Ð¾Ð¼Ð°ÑĪÐ½Ð¾":6879,"ÑĪÐ¾ÐºÐ¾Ð»Ð°Ð´":6880,"ĠÑģÑĤÑĢÐµÑĩ":6881,"ĠÐ¿ÑĬÐ»Ð½ÐµÐ½Ðµ":6882,"ĠÐ»Ð¸Ð¼ÐµÑĨ":6883,"26":6884,"Ġ750":6885,"ÑģÐºÐ¸Ð»Ð¸":6886,"Ð»ÐµÐ½Ð¸Ñı":6887,"ÐºÑĥÑĢÐºÑĥÐ¼Ð°":6888,"ÑĬÐºÐ°":6889,"ÑĦÑĤÐµ":6890,"ÑģÑĤÐ°ÑĦÐ¸":6891,"ĠÑĢÐ°Ð·Ð´ÐµÐ»ÐµÑĤÐµ":6892,"ĠÑģÐ¸Ð½Ð¸ÑĤÐµ":6893,"ĠÐ¡Ð²Ð°Ð»ÑıÑĤ":6894,"ĠÐ¡ÐºÐ¸Ð»Ð¸Ð´ÐºÐ¸ÑĤÐµ":6895,"Ġ125":6896,"Ð¼Ð¸ÑĢÐ°ÑĤ":6897,"Ð´Ð¸Ð½Ð°":6898,"ĠÐ¿Ð¾ÑĢÑĬÑģÐ¸ÑĤÐµ":6899,"ĠÐ²Ð¸Ð½Ð°":6900,"ÐºÑĥÑģÑĬÑĤ":6901,"ĠÐ¿ÑĢÐ¾ÑĪÑĥÑĤÐ¾":6902,"ĠÐ¾ÑĢÐ¸Ð·Ð¾Ð²Ð°ÑĤÐ°":6903,"ĠÐĺÐ·Ð»Ð¸Ð²Ð°":6904,"ĠÐľÐ½Ð¾Ð³Ð¾":6905,"Ð±Ð¾Ð²ÐµÑĤÐµ":6906,"ÐļÑĢÐµ":6907,"Ð²ÑĢÐ¸Ñı":6908,"ĠÐ²Ð°ÑĢÐ¸Ð»Ð¸":6909,"ĠÐºÑĢÑĬÐ³ÑĬÐ»":6910,"ÑģÐºÐ¾Ð²Ð¸ÑĤÐµ":6911,"ĠÐ½Ð°ÑĤÑĢÐ¾ÑĪÐµÐ½":6912,"ĠÐ±ÑĥÑĤÑĩÐµÑĤÐ¾":6913,"Ð»ÐµÐ¿Ð½Ðµ":6914,"ÐĶÐ²Ð°ÑĤÐ°":6915,"ĠÑģÑĥÑĢÐ¾Ð²Ð¸ÑĤÐµ":6916,"ÑģÑĥÐ¿Ð°":6917,"ĠÐºÐ°ÑĢÑĦÐ¸Ð¾Ð»ÑĬÑĤ":6918,"ĠÑĥÐºÑĢÐ°ÑģÐ°ÑĤÐ°":6919,"ĠÐ³Ð°ÑĢÐ½Ð¸ÑĢÐ°Ð½Ð¾":6920,"ĠÑģÑĬÑĢÑĨÐ°ÑĤÐ°":6921,"ĠÐ¿Ð¸ÑĤÐºÐ¸ÑĤÐµ":6922,"ĠÑģÐ°ÑĢÐ¼Ð¸ÑĩÐºÐ¸ÑĤÐµ":6923,"ĠÑģÑĤÐµÑĢÐ¸Ð»Ð¸Ð·Ð¸ÑĢÐ°":6924,"ĠÐ¡Ð¸ÑĢÐ¾":6925,"ĠÑģÑĤÑĢÐ¸Ð²Ð°ÑĤ":6926,"ĠÐ¿ÑĢÑĬÑģÑĤÐµÐ½Ð¸":6927,"ĠÐłÐ°Ð·ÑĤÐ¾ÑĩÐ²Ð°ÑĤ":6928,"ÑĢÑıÐ·Ð°Ð½Ð¾":6929,"ĠÑĥÐ´Ð²Ð¾ÑıÐ²Ð°Ð½Ðµ":6930,"ĠÑĪÐ¾ÐºÐ¾Ð»Ð°Ð´Ð¾Ð²Ð¸Ñı":6931,"ĠÐ¶ÑĬÐ»ÑĤÐ¸":6932,"ĠÐ¾Ð±ÑĢÐ°Ð±Ð¾ÑĤ":6933,"ĠÐ¦ÐµÐ»":6934,"ĠÐ°Ð¹ÑĢÑıÐ½":6935,"Ð½Ð°ÑģÑĤÑĬÑĢÐ³Ð°Ð½Ð°ÑĤÐ°":6936,"ÐºÐ¾ÑĢÐ¸Ð°Ð½Ð´ÑĬÑĢ":6937,"ĠÐ¸Ð·ÑģÑĤÐ¸ÑģÐºÐ°Ð½":6938,"ĠÐĴÐµÐ³ÐµÑĤÐ°":6939,"ÑıÐ¹ÑĨÐ°":6940,"ĠÐºÐ¸ÑĤÐ°Ð¹ÑģÐºÐ¾":6941,"ĠÐŁÐ¾Ð´ÑĢÐµÐ¶Ð´Ð°Ð¼Ðµ":6942,"ĠÐ´Ð²Ð¾Ð¹Ð½Ð¾":6943,"ĠÐĵÐ°ÑĥÐ´Ð°":6944,"Ð¨Ð¾ÐºÐ¾Ð»Ð°Ð´ÑĬÑĤ":6945,"ĠÐ²ÐµÑĢÐ¼":6946,"ĠÐĳÐ°Ð½Ð¸ÑĨÐ°ÑĤÐ°":6947,"375":6948,"Âł":6949,"ĠâĢĶ":6950,"ĠÑĥÑĪÐ¸":6951,"ÑģÐ¿Ð°Ð½Ð°Ðº":6952,"ÑĩÐ½Ð¸ÑĤÐµ":6953,"ÑĥÑģÐ°":6954,"Ð»Ð¸Ð·Ð°":6955,"ÐµÑĢÐ²Ð°":6956,"ĠÐ¿Ð¾Ð·":6957,"ÑĦÐµÑĤÐ¾":6958,"ĠÐ¾ÑĤÐ½ÐµÐ¼Ð°":6959,"Ð»Ð¾Ð¶":6960,"Ð½ÐµÑĢÐ°":6961,"Ð¾ÑĢÐ¼Ð°":6962,"ÑĬÐ»ÑĪÐµ":6963,"ĠÐ¿ÑĢÐµÐ¼ÐµÑģÐ²Ð°":6964,"ĠÑĦÑĥÐ½Ð¸":6965,"Ð´Ð¸Ð½Ð¸":6966,"ĠÐ½ÐµÐ¿Ð¾ÑģÑĢÐµÐ´ÑģÑĤÐ²ÐµÐ½Ð¾":6967,"ĠÐ°Ð¼":6968,"ĠÐĶÐ²Ðµ":6969,"ĠÐĿÐ°Ð»ÐµÐ¹ÑĤÐµ":6970,"ĠÐ²Ð¸Ð´Ð¾Ð²Ðµ":6971,"ĠÑģÐ°Ð¼Ð¸":6972,"Ð¶Ð¸ÑĤÐµ":6973,"ĠÐłÐ°Ð·ÑĢÑıÐ·Ð²Ð°":6974,"ĠÐŀÑĤÐ´ÐµÐ»ÑıÑĤ":6975,"ÐŁÐ¾Ð»":6976,"ÐŁÑĢÑıÑģÐ½Ð¾ÑĤÐ¾":6977,"Ð²ÑĬÑĢÐ´Ð¾":6978,"ĠÐĶÐ¾Ð±Ð°Ð²ÑıÐ¼":6979,"ĠÐºÑĢÑĬÐ³Ð°":6980,"ĠÐ·Ð°Ð´ÑĥÑĪÐ°Ð²Ð°Ð¹ÑĤÐµ":6981,"ĠÑĨÑĥÐºÐ¸":6982,"ĠÐ·ÐµÐ»ÐµÐ²Ð¸Ñı":6983,"ĠÐºÐ°Ð¿Ð°ÑĩÐºÐ°":6984,"ÑĬÐºÑĢÑıÑĤ":6985,"ĠÐĺÐ·Ð²Ð°ÑĢÐ°ÑĤÐ°":6986,"Ð¾ÑĤÐºÐµÑĢ":6987,"ĠÐºÐ°ÑĢÑĤÐ¾ÑĦÐºÐ¸":6988,"ĠÑĤÐ²ÑĬÑĢÐ´Ðµ":6989,"ĠÐ¿Ð¸ÑĨÐ°ÑĤÐ°":6990,"ĠÐ¿Ð¸ÑĤÐ°ÑĤÐ°":6991,"ĠÐ²ÑĤÐ°ÑģÐ°Ð»Ð°ÑĤÐ°":6992,"ĠÐ¿ÑĢÑĬÑĩÐºÐ¸":6993,"ĠÑħÐ»Ð°Ð´ÐºÐ¾ÑĤÐ¾":6994,"ĠÐ¾ÑħÐ»Ð°Ð´ÐµÐ½Ð¸Ñı":6995,"Ð»Ð¾Ð½ÑĬÑĤ":6996,"ĠÐ²ÑĤÐ¾ÑĢÐ°":6997,"ĠÑĤÑĢÐ¾ÑħÐ¸ÑĤÐµ":6998,"ĠÐ¿Ð¾Ð¿Ð°ÑĢÐµÐ½":6999,"ĠÑģÑĤÐµÑĢÐ¸Ð»Ð¸Ð·Ð¸ÑĢÐ°Ð½":7000,"ĠÑĩÐ¸Ð½Ð¸Ð¸ÑĤÐµ":7001,"Ð¿Ð°Ð´Ð½Ðµ":7002,"ĠÐºÑĬÑģÐ°ÑĤ":7003,"ĠÐ¾Ð±Ð¸ÐºÐ½Ð¾Ð²ÐµÐ½":7004,"ĠÐŁÐ°Ðº":7005,"ĠÐ³ÑĬÐ±ÐµÐ½Ð°":7006,"ĠÐŁÑĢÐ¸Ð³Ð¾ÑĤÐ²ÑıÐ¼Ðµ":7007,"ĠÐ¿Ð¾ÑģÑĤÐ°Ð²Ð¸":7008,"ĠÑĩÐ¾ÑĢÐ±Ð°ÑĤÐ°":7009,"ĠÐºÐ°Ð¿ÑģÑĥ":7010,"ĠÐ¤Ð¸Ð»Ð°Ð´ÐµÐ»ÑĦÐ¸Ñı":7011,"ĠÐ´Ð¾Ð¿ÑĬÐ»Ð²Ð°":7012,"ĠÐ¿Ð¾Ð¼ÐµÐ¶Ð´Ñĥ":7013,"ĠÐ°Ð½Ð°Ð½Ð°ÑģÐ°":7014,"ĠÐ¸Ð·ÑĤÐ¸ÑĩÐ°":7015,"ĠÐľÐ°ÑģÐºÐ°ÑĢÐ¿Ð¾Ð½Ðµ":7016,"ÐºÐ°ÑĢÐ¸Ð´Ð¸ÑĤÐµ":7017,"Ð¾Ð²Ð¾ÑĤÐ¾":7018,"ÑĩÐµÐ½Ð¸Ñı":7019,"Ð¼Ð±":7020,"ÑĥÑĢÐ¸":7021,"ĠÐ½Ð°ÑĢ":7022,"ĠÐ¾Ð¿ÐµÐºÐ°ÑĤ":7023,"ĠÐ²Ð»Ð°":7024,"ĠÑĩÑĥÐºÐ°":7025,"Ð½Ð°Ð»Ð¾":7026,"Ð½Ð°Ð¿ÑĢÐ¸Ð¼ÐµÑĢ":7027,"Ð»Ð¸ÑĩÐ°":7028,"Ð½Ð¸ÑĨÐ°":7029,"Ð»ÐµÐ´Ð°":7030,"Ð³Ð°ÑģÐ¸":7031,"ĠÐ¡ÑĤÐµ":7032,"ĠÑģÐ¼ÐµÐ»ÐµÑĤÐµ":7033,"ĠÑĤÐ°Ð²Ð¸":7034,"ĠÐ¼ÐµÑģÐµÐ½Ðµ":7035,"Ð±ÑĬÑĢÐºÐ²Ð°Ð¼Ðµ":7036,"Ð¿Ð¸ÑĢÐ°ÑĤ":7037,"ĠÑģÐ¼ÐµÑĤÐ°Ð½Ð¾Ð²":7038,"ĠÑģÑĥÑĦÐ»Ðµ":7039,"ÐŁÐ¾ÑĢ":7040,"ĠÑĢÐ°ÐºÐ¸":7041,"ÑĩÐºÐ°Ð¹ÑĤÐµ":7042,"ĠÐ»Ð¸Ð¼Ð¾Ð½ÑĤÑĥÐ·Ñĥ":7043,"ĠÐĳÐ°Ð½Ð°Ð½Ð¸ÑĤÐµ":7044,"ĠÐĵÐ¾ÑĢ":7045,"ĠÑĥÐºÑĢÐ°Ñģ":7046,"ĠÐ¾ÑĤÑĨÐµÐ´ÐµÐ½Ð°ÑĤÐ°":7047,"ĠÐ·Ð°Ð²Ð¸Ð¹ÑĤÐµ":7048,"ĠÐ¿Ð»ÑĬÑĤÐµÐ½":7049,"ĠÐ¿ÑĢÐµÑħÐ²ÑĬÑĢÐ»ÐµÑĤÐµ":7050,"ĠÐ½Ð°ÑĤÑĢÐ¾ÑĪÐ°Ð²Ð°Ð¼Ðµ":7051,"Ð³Ð¾Ð»ÑıÐ¼Ð¾":7052,"ĠÑĢÐ¸Ð±Ð½Ð¾":7053,"ÐĶÐ¾Ð¿ÑĬÐ»Ð½Ð¸ÑĤÐµÐ»Ð½Ð¾":7054,"ĠÐĺÐ·Ð¼Ð¸ÑĤÐ¸ÑĤÐµ":7055,"ĠÑħÐ»ÐµÐ±Ð½Ð¸ÑĤÐµ":7056,"ĠÐłÐ°Ð·ÑĤÐ¾ÑĩÐµÑĤÐµ":7057,"ÑĢÑĥÑĪÐ¸ÑĤÐµ":7058,"ĠÐ·Ð°Ð»ÐµÐ¿Ð½Ð°ÑĤ":7059,"ĠÐłÐµÐ´Ð¸Ð¼":7060,"ĠÐ²ÑĢÑĬÑħÑĩÐµÑĤÐ°":7061,"ĠÑģÐ»ÐµÐ¿ÑıÑĤ":7062,"ĠÐ²Ð°Ð´Ð¸Ð¼":7063,"ĠÐļÑĢÐ°ÑģÑĤÐ°Ð²Ð¸ÑĩÐºÐ¸ÑĤÐµ":7064,"ÐĿÐ°ÐºÐ¸ÑģÐ½ÐµÑĤÐµ":7065,"ĠÐ¿Ð¾ÐµÐ¼Ð°Ð½Ðµ":7066,"ĠÐ¿ÑĬÑģÑĤÑĬÑĢÐ²Ð¸":7067,"ĠÐľÐ°ÑĢÐ¸Ð½Ð¾Ð²Ð°":7068,"Ð¼Ð°ÑĢÐ¸Ð½Ð¾Ð²Ð°":7069,"ĠÐŁÑĥÑģÐºÐ°ÑĤ":7070,"ĠÐ½Ð°ÑĩÑĥÐ¿ÐµÐ½":7071,"ĠÐµÐ»Ð¸Ð¿ÑģÐ¾Ð²Ð¸":7072,"ĠÐĻÐ¾ÑĤÐºÐµÑĢ":7073,"ĠÐ¾Ð±ÑĢÐ°Ð±Ð¾ÑĤÐºÐ°":7074,"ÑģÑĤÐ°ÑĦÐ¸Ð´Ð¸":7075,"ĠÐ²Ð¸Ð½Ð°Ð³Ð¸":7076,"Ð¸Ð·Ð²Ð°":7077,"ĠÑģÐ²Ð°Ð»ÑıÑĤ":7078,"Ð²ÐµÑģ":7079,"ĠÐ¼Ð»Ð°":7080,"ĠÐºÑĥÐºÑĬÑĢÐ°":7081,"Ð¿ÑĢÐ°Ð·":7082,"ÑĤÐµÑĤÐµ":7083,"Ð³Ð¾Ð´Ð°":7084,"Ð»Ð°Ð±Ð°":7085,"Ð¶ÑĬÐ»ÑĤÑĬ":7086,"ĠÐ¼Ð°ÑĢÑĥ":7087,"ÑĩÐµÑģÐ½Ð¾":7088,"ĠÑıÑģÑĤÐ¸Ñı":7089,"ÑĢÐ¾Ñģ":7090,"Ð±Ð¸ÑĤÐµ":7091,"ĠÐĴÐµÑĩÐµ":7092,"Ġ230":7093,"ÑģÐ°ÑĤÐ°":7094,"Ð²ÐµÐ·":7095,"ĠÐļÑĬÑģ":7096,"ÐĹÐ°Ðµ":7097,"Ð¡Ð¾Ð´Ð°ÑĤÐ°":7098,"ĠÐ¿ÑĢÐµÐ´Ð½Ð°ÑĤÐ°":7099,"ĠÐ¿ÐµÑĩÑĥÑĢÐºÐ¸ÑĤÐµ":7100,"ĠÑĢÐ¸Ð½":7101,"ĠÐŁÐ¾Ð´ÑģÑĥÑĪ":7102,"ĠÐ»ÑİÑĤÐ¸Ñı":7103,"Ð´ÐµÐ»Ð¸ÑĤÐµ":7104,"ĠÐ¿ÑĥÑģÐ½Ð°":7105,"ĠÑģÐ¼ÐµÑģÐ²Ð°ÑĤÐµ":7106,"Ð½Ð°ÑģÐ¾Ð½":7107,"Ð¢Ð¸ÐºÐ²Ð¸ÑĩÐºÐ°ÑĤÐ°":7108,"ĠÐŁÐ¾Ð´Ð¿ÑĢÐ°Ð²ÐºÐ¸ÑĤÐµ":7109,"ĠÐ½Ð°ÑĢÑĬÑģÐµÐ½Ð°":7110,"ĠÐ¿Ð°ÐºÐµÑĤÑĩÐµÑĤÐ¾":7111,"ĠÐ±ÑĥÑĢÐºÐ°Ð½ÑĩÐµ":7112,"ĠÐ¿Ð¾ÑģÐ»ÐµÐ´Ð½Ð°ÑĤÐ°":7113,"ĠÐ´ÑĬÑĢÐ²ÐµÐ½Ð¸":7114,"ÐºÐ°ÑĦÑıÐ²Ð°":7115,"ĠÑģÑĤÑĢÐ¸ÑĤÐ¸ÑĤÐµ":7116,"ĠÐºÑĬÑģÐ¸":7117,"ĠÑĪÐ°ÑĢÐµÐ½Ð¾":7118,"ĠÐ·Ð°Ð¿Ð°Ð·":7119,"ĠÑĪÐ½Ð¸ÑĨÐµÐ»":7120,"ÑģÑĥÑĪÐµÐ½Ð¸":7121,"ÐĹÐµ":7122,"ĠÑĩÐµÑĤÐ¸ÑĢÐ¸ÑĤÐµ":7123,"ĠÑģÑĬÑħÑĢÐ°Ð½":7124,"ĠÐ½Ð°Ð³Ð¾ÑĢÐµÑīÐµÐ½":7125,"ĠÐĵÐ°ÑĢÐ½Ð¸ÑĢÐ°ÑĤ":7126,"ĠÐŁÑĢÐ¾Ð²ÐµÑĢÑıÐ²Ð°":7127,"ĠÐŀÐ±ÑĢÑĬÑīÐ°ÑĤ":7128,"ĠÐ½Ð°Ð´ÑĥÐ¿ÑĩÐ²Ð°ÑĤ":7129,"ĠÑĨÐ²ÐµÑĤÑĩÐµÑĤÐ°":7130,"ÐĹÐµÐ»ÐµÐ½Ð¸ÑıÑĤ":7131,"ĠÐŁÐ¾ÑģÐ»ÐµÐ´Ð¾Ð²Ð°ÑĤÐµÐ»Ð½Ð¾":7132,"ĠÐľÐ°Ð³Ð´Ð°Ð½Ð¾Ð·ÑĬÑĤ":7133,"ĠÐŁÑİÑĢÐµÑĤÐ¾":7134,"ÐĿÐ°ÑħÑĥÑĤÑĬÑĤ":7135,"ĠÑħÐ¸Ð¼Ð°Ð»Ð°Ð¹ÑģÐºÐ°":7136,"ĠÐºÑĥÐ²ÐµÑĢÑĤÑİÑĢ":7137,"ĠÑĢÑĥÐºÐ¾Ð»Ð°":7138,"ĠÑģÐ²ÑĬÑĢÑĪÐ¸":7139,"Ð°ÑĢÐµ":7140,"ĠÑģÐ³Ð¾ÑĤ":7141,"ÑıÐ»Ð°ÑĤÐ°":7142,"ÑĩÑĥÐºÑĬÑĤ":7143,"Ð´ÑĢÑĥ":7144,"ĠÐ¸Ð¼Ð°ÑĤ":7145,"ĠÐ·Ð°Ð¿ÐµÑĩ":7146,"Ð»Ð¸Ð¼":7147,"ÑĢÐ¸Ð»":7148,"Ð»Ð°Ð½":7149,"ÑĨÐµÑģ":7150,"ÐºÐ¸Ð²Ð°":7151,"ĠÑĢÐ°Ð·ÑĢÐµÐ¶ÐµÑĤÐµ":7152,"ĠÐ¸Ð·Ð¿ÐµÑĩÐµÐ½Ð¸ÑĤÐµ":7153,"ÐºÐ¾Ð»Ð¸":7154,"ĠÐĴÑĬÑĢ":7155,"ĠÐĴÐ°ÑĢ":7156,"ĠÑĤÐ°ÑĢÑĤÐ°":7157,"ĠÐºÑĥÑħÐ¸":7158,"Ð·Ð°ÐºÐ²Ð°ÑģÐµÐ½Ð°":7159,"ĠÐµÐ´ÑĬÑĢ":7160,"ĠÐĶÑĢÐ¾Ð±":7161,"ĠÑĦÐ¸Ð»":7162,"ĠÑģÐ°Ð½ÑĤÐ¸":7163,"ĠÐ¿Ð°ÑĢÐ°ÑĤÐ°":7164,"Ð»ÑıÐ²Ð°ÑĤ":7165,"Ð¡Ð¾":7166,"ĠÐŀÑĤÑĤÐµÐ³Ð»Ñı":7167,"ĠÐ¾Ð±ÐµÐ»ÐµÐ½Ð°ÑĤÐ°":7168,"ĠÐ·Ð°Ð´ÑĥÑĪÐ°Ð²Ð°Ð¼":7169,"ÐŀÐ»Ð¸Ð¾ÑĤÐ¾":7170,"ÑĢÐ°Ð½ÑĬÑĤ":7171,"ĠÐ¿ÑĥÑĢÐ¸":7172,"ĠÐ²ÑĢÑıÑīÐ¸Ñı":7173,"ĠÑģÑĤÑĢÑĬÐºÑĩÐµ":7174,"Ð´ÑĬÐ»Ð³Ð¾":7175,"ĠÐ¿Ð¾Ð´ÑģÐ»Ð°Ð´Ð¸ÑĤÐµ":7176,"ĠÐºÐ¾ÐºÐ¾ÑĪÐºÐ°ÑĤÐ°":7177,"ĠÐ´Ð¶Ð¾Ð´Ð¶ÐµÐ½ÑĬÑĤ":7178,"ĠÐ¼ÑĥÑģ":7179,"ĠÐ¿ÑĢÐ¸Ð³Ð¾ÑĤÐ²ÐµÐ½Ð¾ÑĤÐ¾":7180,"ĠÐ¿Ð¾Ð²ÑĤÐ¾ÑĢ":7181,"ĠÐ¸Ð·ÑĨÐµÐ´ÐµÐ½Ð¸ÑĤÐµ":7182,"ÐłÐ¸":7183,"ĠÐºÑĬÑģÐ°":7184,"ĠÐ¾ÑģÐ¾Ð»ÐµÐ½Ð¸":7185,"ĠÐ¿Ð¾Ð·Ð°ÑĩÐµÑĢ":7186,"ĠÑħÐ»ÐµÐ±ÑĩÐµÑĤÐ°":7187,"ĠÐ²Ð¸ÑģÐ¾ÑĩÐ¸Ð½Ð°":7188,"ĠÑĪÐ¸ÑĢÐ¾Ðº":7189,"ĠÐ¼ÐµÑģÐ¸Ð¼":7190,"ĠÑĩÑĥÑĪÐ»ÐµÑĤÐ°ÑĤÐ°":7191,"ĠÐŁÐ¾Ð»ÐµÐ¹ÑĤÐµ":7192,"ÑģÐ»Ð°Ð´ÑĬÐº":7193,"ĠÐ¿Ð¾ÑģÐ¾ÐºÐ°":7194,"ĠÐŀÐ±ÑĬÑĢÐºÐ²Ð°Ð¼Ðµ":7195,"ĠÐ¼Ð°Ð½Ð³Ð¾":7196,"ĠÐ±ÑĥÑĤÐ¸Ð»ÐºÐ°":7197,"ĠÑĩÐ¾ÑĢÐ±Ð°Ð´Ð¶Ð¸":7198,"ĠÐ³Ð½ÐµÐ·Ð´Ð¾":7199,"ĠÑģÐ³ÑĬÐ²Ð°":7200,"ÑĢÑĬÐ³ÑĩÐµÑĤÐ°":7201,"ĠÐ±ÑĢÐ¾Ñı":7202,"ÐºÐ¾Ð½ÑģÐµÑĢÐ²Ð°":7203,"ĠÐºÐ°Ð¼ÐµÑĢÐ°ÑĤÐ°":7204,"ĠÐ¿Ð¾Ð¾ÑħÐ»Ð°Ð´Ð¸":7205,"ĠÐ½Ð°Ð´Ð¸Ð³Ð½Ðµ":7206,"ÑĩÑĥÑĪÐºÐ¸":7207,"Ð´ÑĢÑĬÐ¿Ð²Ð°":7208,"ĠÐµÑģÐ¿ÑĢÐµÑģÐ¾":7209,"ĠÐ¿Ð¾Ð²ÑĤÐ¾ÑĢÐ½Ð¾":7210,"ar":7211,"Ð°Ð³Ð°":7212,"ÐµÑĢÐµ":7213,"ÑĩÐ½Ð¾ÑģÑĤÑĤÐ°":7214,"Ð´ÐµÐ½Ð¸":7215,"Ð¼Ð¸Ð½":7216,"ĠÐ½Ð°ÑĤÐ¾Ð¿":7217,"Ð¿Ð²Ð°Ð¼Ðµ":7218,"ĠÐ¾ÑģÐ¾Ð»ÐµÐ½Ð°":7219,"ĠÐ·Ð²ÐµÐ·":7220,"ÐºÐ¾Ð²Ð¸Ñı":7221,"ĠÐ¿Ð¾ÑĩÐµÑĢ":7222,"Ð½Ð¸Ð½Ð°":7223,"ĠÐ¼Ð°Ð¹Ð¾Ð½ÐµÐ·":7224,"Ð¼Ð°ÑĢÐ¸ÑĤÐµ":7225,"ĠÐºÐ°Ð¿Ð²Ð°":7226,"ÑĥÑĢÐ³":7227,"ĠÑĤÐ°ÐºÐ¸Ð²Ð°":7228,"ĠÐ¿ÐµÐºÐ°":7229,"ĠÑĩÑĥÑĪÐ»Ðµ":7230,"ĠÐ¾Ð±Ð»Ð¸Ð²Ð°":7231,"ĠÐĹÐ°ÑĪÐ¸":7232,"ĠÐ¿Ð°ÑģÑĤÑĬÑĢ":7233,"ĠÐłÐ°Ð·Ð¿ÑĢÐµÐ´ÐµÐ»ÐµÑĤÐµ":7234,"ĠÐºÑĢÐ°ÑĩÐµÑĤÐ°":7235,"ĠÐ¿ÑĢÐ°Ð²Ð¸ÑĤÐµ":7236,"ĠÑĢÐ¸ÐºÐ¾ÑĤÐ°":7237,"ĠÐļÐ¾ÐºÐ°":7238,"ĠÐ²ÑĢÑĬÐ·ÐºÐ°ÑĤÐ°":7239,"ĠÐ¸Ð·ÑģÑĤÐ¸Ð²Ð°Ð½Ðµ":7240,"ÐµÑĤÐºÐ°ÑĤÐ°":7241,"ĠÑĢÐ°Ð·ÑĤÐ¾Ð¿ÐµÐ½Ð°ÑĤÐ°":7242,"ĠÑĤÐ°ÐºÐ°Ð²Ð°":7243,"ĠÐļÐ°ÑĪÐºÐ°Ð²Ð°Ð»Ð°":7244,"ÐĳÑĥÐ»Ð³ÑĥÑĢÑĬÑĤ":7245,"ÐłÐ°Ð·ÑĤÐ²Ð°ÑĢÑı":7246,"ĠÐ³ÑİÐ²ÐµÑĩÐµÑĤÐ¾":7247,"ĠÐ¿Ð°ÑĢÑĩÐµÑĤÐ¾":7248,"ĠÐºÐ¾Ð½ÑĤÑĢÐ°":7249,"ĠÐ½Ð°ÑģÑĤÑĬÑĢÐ¶":7250,"ĠÐ¿Ð¾Ð²ÑĢÑıÑĤ":7251,"ĠÐºÐµÐºÑģÐ¾Ð²Ð°ÑĤÐ°":7252,"Ð¼ÐµÐ½ÑıÑĤ":7253,"ĠÐ¾ÑĤÑģÑĤÑĢÐ°Ð½ÑıÐ²Ð°Ð¼Ðµ":7254,"ĠÐ²ÑĬÐ·Ð´ÑĥÑħ":7255,"ĠÐĺÐ·Ð¿ÑĬÑĢÐ¶ÐµÐ½Ð¸ÑĤÐµ":7256,"ĠÑĢÐ°Ð·ÑĤÐ²Ð¾ÑĢÑıÑĤ":7257,"ĠÑģÑĬÑĢÑĨÐµÐ²Ð¸Ð½Ð°":7258,"ĠÐ½Ð°Ð²ÑĬÑĤÑĢÐµ":7259,"ĠÐłÐµÐ¶Ð°ÑĤ":7260,"ÑĤÐ²ÑĬÑĢÐ´Ð¾":7261,"ĠÐŁÐ¸ÑĨÐ°ÑĤÐ°":7262,"Ð»ÑİÑĤÐµÐ½Ð¸ÑĨÐ°":7263,"ĠÑĢÐµÐ¿Ð¸ÑĩÐºÐ¸ÑĤÐµ":7264,"ĠÐ¿Ð¾ÑĤÐ¾Ð¿ÐµÐ½Ð¸":7265,"ĠÐ¾Ð¼ÐµÐºÐ½Ð°Ð»Ð¾":7266,"ĠÐ¡Ð²Ð°ÑĢÑıÐ²Ð°Ð¼Ðµ":7267,"ĠÐ²Ð¸ÑĪÐ½Ð¾Ð²":7268,"ĠÐ¾Ð¿Ð¸Ñģ":7269,"ĠÐ°ÑģÐ¿ÐµÑĢÐ¶Ð¸ÑĤÐµ":7270,"ĠÐŁÑĢÐ¸Ð³Ð¾ÑĤÐ²ÐµÑĤÐµ":7271,"ĠÑģÑĩÑĥÐ¿Ð²Ð°ÑĤ":7272,"ĠÐļÐ¾ÑĤÐ»Ð¾Ð½ÑĬÑĤ":7273,"ĠÐ´ÑĢÑĬÐ¿Ð½ÐµÑĤÐµ":7274,"ĠÐ°Ð»ÐºÐ¾ÑħÐ¾Ð»Ð°":7275,"ĠÐ½Ð°ÐºÐ¸ÑģÐ½Ð°ÑĤÐ¸ÑıÑĤ":7276,"ĠÐ¿Ð¾ÑģÑĤÐ»Ð°Ð½Ð°":7277,"ĠÑħÐ²Ð°Ð½Ð°ÑĤ":7278,"ĠÐ¿Ð¾ÑĤÑĬÐ¼Ð½Ðµ":7279,"ĠÑģÐ¿ÐµÑĨÐ¸Ð°":7280,"ĠÐ¸Ð·Ð²Ð¸ÑĢÐ°Ð½Ðµ":7281,"ÐµÑģÐµÐ½ÑĨÐ¸Ñı":7282,"ĠÑģÐ¼ÐµÐ½Ñı":7283,"ÑģÐ¿Ð°":7284,"Ð½ÐºÐ¸":7285,"Ð½ÐµÐ½Ð¸Ñı":7286,"ĠÑģÐ²Ð¸":7287,"Ð»ÐµÑĢ":7288,"ĠÐ¼ÐµÐ»":7289,"ÑĤÐµÑĩÐµÐ½":7290,"ĠÐ´Ð¾Ð»Ð¸Ð²Ð°ÑĤ":7291,"ĠÐ·Ð°Ð¼ÐµÑģÐ²Ð°Ð¼Ðµ":7292,"ĠÐ¾ÑĤÐ½Ð°ÑĩÐ°Ð»Ð¾":7293,"ÑģÑĤÑĤÐ°":7294,"ĠÐ¿ÑĢÐµÐ¼ÐµÑģÑĤÐ²Ð°":7295,"ÑĩÐ¸Ð½Ð°ÑĤÐ°":7296,"ÑĥÐ»ÑıÑĤÐ°":7297,"ĠÐ°ÑĢÐ°Ð½Ð¶Ð¸":7298,"ÑģÐ¸Ð¿Ð²Ð°Ð¼Ðµ":7299,"ĠÐ¿ÑĢÐ¾ÑĢÐµ":7300,"Ð»ÑıÐ±Ð°":7301,"ĠÐ¾ÑģÑĤÐ°Ð½Ð°Ð»":7302,"Ð»Ð¸ÑıÑĤÐ°":7303,"ĠÑĩÐ¸ÑģÑĤ":7304,"ĠÐ·Ð°Ð´ÑĥÑĪÐ°Ð²Ð°ÑĤÐµ":7305,"ĠÐ»ÑİÑĤÐ¾":7306,"ĠÐ¿Ð»Ð¾ÑĩÐ°":7307,"ĠÑĤÐµÑĩÐ½Ð¾":7308,"ĠÑĤÐµÑĩÐ½Ð¸ÑĤÐµ":7309,"ĠÐ·Ð»Ð°ÑĤÐ¸ÑģÑĤÐ¾Ð¶ÑĬÐ»ÑĤÐ¾":7310,"ĠÐ³Ð¾Ð»ÑıÐ¼Ð°ÑĤÐ°":7311,"ĠÐºÑĬÐ´ÑĢÐ°":7312,"ĠÐºÐ°Ð¿Ð°ÐºÑĬÑĤ":7313,"ĠÐºÐ°ÑĢÑĤÐ¾ÑĦÑĬÑĤ":7314,"ÐĳÐ°Ð½Ð°Ð½Ð¸ÑĤÐµ":7315,"ĠÐ§ÐµÐ´ÑĬÑĢ":7316,"ĠÐ°Ð³Ð½ÐµÑĪÐºÐ¾ÑĤÐ¾":7317,"ĠÐ»ÑİÑĤÐ¸Ð²Ð°":7318,"ÐĺÐ·Ð¼Ð¸Ð²Ð°ÑĤÐµ":7319,"ĠÐºÐ°ÐºÐ²Ð¾ÑĤÐ¾":7320,"Ð»ÐµÐ½Ð¾Ð²":7321,"ĠÑĩÐ¸Ð»Ð¸ÑĤÐ¾":7322,"ĠÐ¾ÑĤÐ´ÐµÐ»ÑıÐ¼Ðµ":7323,"ÐłÐµ":7324,"ĠÐ½Ð°ÐºÑĬÐ»ÑĨÐ°Ð½Ð¸ÑıÑĤ":7325,"ĠÐ±Ð»Ð°Ð½ÑĪÐ¸ÑĢÐ°Ð½Ð¸":7326,"ĠÐ²ÐºÐ»ÑİÑĩÐµÐ½":7327,"ĠÐ¾Ð³Ð½ÐµÑĥÐ¿Ð¾ÑĢÐ½Ð¸":7328,"ÐµÐ»Ð¸Ð½Ð°ÑĤÐ°":7329,"Ð¼Ð°ÑĢÐ¼Ð°Ð»Ð°Ð´":7330,"ĠÐ·Ð°ÑħÐ»ÑĥÐ¿ÐµÐ½":7331,"ĠÐ·Ð°ÑħÐ»ÑĥÐ¿Ð²Ð°Ð¼Ðµ":7332,"ÐĹÐ°Ð¿ÑĬÑĢÐ¶ÐµÑĤÐµ":7333,"ĠÐ¡Ð¸Ð¿Ð²Ð°Ð¼Ðµ":7334,"ĠÐ¿Ð¾Ð´ÑģÐ»Ð°Ð´ÐµÐ½Ð°":7335,"ĠÑģÐ¸Ð½Ð°Ð¿ÐµÐ½Ð¾":7336,"ĠÐ¸Ð·Ð»Ð¸Ð·Ð°ÑĤ":7337,"ĠÐłÐ°Ð·ÑĤÐ¾Ð¿ÐµÑĤÐµ":7338,"ĠÐ³Ð½ÐµÐ·Ð´Ð°":7339,"ĠÐ±ÑĢÐµÐ½Ð´Ð¸ÑĤÐ¾":7340,"ÐºÐ°ÐºÑĬÐ²":7341,"ĠÐĶÐ¾Ð¼Ð°ÑĤÑĬÑĤ":7342,"ĠÐ·Ð°ÑģÑĤÑĬÐ¿Ð²Ð°ÑĤ":7343,"ĠÐ±ÑĥÑħÐ½Ðµ":7344,"ĠÑģÑĬÐ´ÑĬÑĢÐ¶Ð°Ð½Ð¸ÐµÑĤÐ¾":7345,"ĠÐŁÑĬÑĢÐ²Ð°ÑĤÐ°":7346,"Ð¼Ð¾ÑĢÑģÐºÐ°":7347,"Ð·ÑĬÑĢÐ½Ð°":7348,"ÑĬÐ»ÑĪÐµÐ±ÐµÐ½":7349,"*,":7350,"gi":7351,"ÑĢÐµÐ½Ð°ÑĤÐ°":7352,"Ð³ÑĢÐµ":7353,"Ð³ÑĬÑģÑĤ":7354,"ÐºÐ°ÐºÐ²Ð°":7355,"ÑĪÐ¿Ð°":7356,"ÐºÐ¾Ð·Ð°":7357,"ĠÐ´Ð¾Ð±Ð¸ÑıÑĤ":7358,"Ð»Ð¾Ð·Ð¾Ð²Ð¸":7359,"ÑĢÑıÐ·Ð°Ð½Ð°":7360,"Ð°ÑĢÐ¿Ð°Ð´Ð¶Ð¸Ðº":7361,"ĠÐ¡Ð½ÐµÐ¼Ð°":7362,"ÑĦÐ¸ÑĤÑİÑĢ":7363,"ÑĢÐ¾ÐºÐ°":7364,"Ð±Ð¸ÑĢÐ°Ð¼Ðµ":7365,"ĠÐ¿ÑĢÐµÑĨ":7366,"ĠÐŀÐ±ÑĬÑĢÐºÐ²Ð°ÑĤ":7367,"ĠÑĤÐ°Ð¼":7368,"ĠÐ½ÐµÐ»ÐµÐ¿Ð½Ðµ":7369,"ÐµÐºÐ¾ÑĤÐ¾":7370,"ĠÐ·Ð°Ð¿ÑĬÑĢÐ¶ÐµÐ½Ð°ÑĤÐ°":7371,"ĠÐŁÑĢÐ¸Ð±Ð¸ÑĢÐ°":7372,"ĠÐĺÐ·Ð¿Ð¸ÑĩÐ°":7373,"ĠÐ¸Ð·Ð¼Ð¸ÑĤÐ°ÑĤÐ°":7374,"Ð½Ð¾Ð²ÑĢÐµÐ¼ÐµÐ½Ð½Ð¾":7375,"ÐļÐ¸":7376,"Ð´ÑĥÐ¿":7377,"ĠÐŁÑĢÐ¸Ð±Ð°Ð²ÑıÑĤÐµ":7378,"ÐĿÐ°ÑģÑĤÑĬÑĢÐ³Ð°":7379,"ÐºÑĬÑģÐ²Ð°ÑĤ":7380,"ĠÐ½Ð°Ð¼Ð°Ð·Ð°Ð½Ð¾":7381,"ĠÑģÐ³Ð¾ÑĢÐµÑīÐµÐ½":7382,"ĠÐ²ÑĢÑıÑīÐ¾ÑĤÐ¾":7383,"ÐĳÐ¾Ð±Ð°":7384,"ĠÐ¢Ð°Ð²Ð°":7385,"ÐłÐ°Ð·Ð±ÑĬÑĢÐºÐ°Ð¹ÑĤÐµ":7386,"Ð¢ÐµÑģÑĤÐ¾":7387,"ĠÐ½Ð°ÑĢÑĬÑģÐ²Ð°Ð¼Ðµ":7388,"ĠÐĽÐ°":7389,"ĠÐ¿Ð¾ÑĩÐ½Ðµ":7390,"ĠÐ¾Ð±ÑĢÑĬÑīÐ°ÑĤÐµ":7391,"ĠÐ¸Ð·Ð´ÑĬÐ»Ð±Ð°Ð½Ð°ÑĤÐ°":7392,"ĠÐ¸Ð·Ð´ÑĬÐ»Ð±Ð°Ð½Ð¸ÑĤÐµ":7393,"ĠÑĥÐ´Ð¾Ð±":7394,"ÑĤÐµÐ³Ð»ÑıÑĤ":7395,"ĠÐºÐ²Ð°Ð´ÑĢÐ°ÑĤÐ½Ð¸":7396,"Ð¼Ð±Ð¸ÑĤÐµ":7397,"ĠÐ³Ð¾ÑĤÐ²Ð¸Ð¼":7398,"ÐĹÐ°Ð¿ÑĬÑĢÐ¶Ð²Ð°":7399,"ĠÐķÐ´Ð½Ð°":7400,"ĠÐ´Ð¶Ð¾Ð»Ð°Ð½Ð°":7401,"ĠÐ²ÑĢÐ°ÑĤÐ½Ð¸":7402,"ĠÐ°Ð¹Ñģ":7403,"ĠÐ¿ÑĢÐµÑĨÐµÐ´ÐµÐ½":7404,"ĠÐ½Ð°Ð¹Ð»Ð¾Ð½Ð¾Ð²Ð°":7405,"ĠÐ½Ð°ÐºÑĬÑģÐ°Ð½Ð¾":7406,"ÑıÐ¹ÑĨÐµ":7407,"Ð¿ÑĥÑĪÐµÐ½Ð¾":7408,"ĠÐ·Ð°Ð¼ÑĢÑĬÐ·":7409,"ĠÐºÑĥÐ¿ÑĩÐ¸Ð½ÐºÐ¸":7410,"ĠÑģÐ¾ÑĢÑĤ":7411,"ĠÐ¿Ð¾ÐºÐ°ÑĦÐµÐ½ÑıÐ²Ð°Ð½Ðµ":7412,"850":7413,"ÑĩÑĬÑĤ":7414,"ĠÐ¿ÑĬÐº":7415,"Ð´ÐµÐ½Ð¸ÑĤÐµ":7416,"ĠÐ¸Ð½Ð´ÑĢÐ¸":7417,"ÑĥÑĤÐ¸":7418,"ĠÐºÑĬÐºÑĢÑıÑĤ":7419,"ÑĢÐ°Ð±Ð¸":7420,"ÑĤÐ¸ÑĪÐ¾":7421,"ĠÐºÐ°ÐºÐ²Ð°":7422,"ĠÐ¾ÑĤÐ¿ÑĥÑģ":7423,"Ġ14":7424,"ĠÑĤÐ¾ÑĩÐ½Ð¾":7425,"ĠÐ¿ÑĢÐ¸Ð±Ð¸ÑĢÐ°ÑĤ":7426,"ĠÑĦÑĢÐµÐ½":7427,"Ð´Ð¸ÑĢÐ°":7428,"ĠÐ½ÐµÐºÑĤÐ°":7429,"ĠÐ°Ð½Ð°ÑģÐ¾Ð½":7430,"ĠÐ·ÐµÐ»ÐºÐ¸":7431,"ĠÐļÐ¸ÑģÐµÐ»Ð¸ÑĤÐµ":7432,"ĠÑģÑĬÐµÐ´Ð¸Ð½ÑıÐ²Ð°ÑĤ":7433,"ĠÐ´Ð¾Ð±Ð°Ð²ÑıÐ¹ÑĤÐµ":7434,"ĠÐĹÐ°Ð²Ð¸Ð²Ð°Ð¼Ðµ":7435,"Ð¡ÑĬ":7436,"Ð·Ð¸ÑĢÐ°Ð½Ð°":7437,"ÐĴÐ°":7438,"ĠÐĳÑĥÑĤÑĩÐµÑĤÐ°ÑĤÐ°":7439,"ĠÐ±ÑĬÑĢÐºÐ°Ð½ÐµÑĤÐ¾":7440,"ĠÐ²Ð°ÑĢÐ¸ÑĤÐµ":7441,"ĠÑģÐ»Ð¾Ñĥ":7442,"ÐĿÐ°ÑĤÑĢÐ¾":7443,"ĠÐºÑĬÐ¿Ð¸":7444,"ÐĺÐ·Ð±Ð¸ÑĢÐ°ÑĤ":7445,"ÐŀÑĤÐ´ÐµÐ»ÑıÑĤ":7446,"ĠÑĢÐ°Ð·Ð¼Ð¸ÑĤÐ°":7447,"ĠÐ¿Ð¾Ð²ÑĢÐ°ÑĤ":7448,"ĠÐ¾Ð±ÐµÐ·ÑģÐ¾Ð»":7449,"ÑĤÑĢÐ¸Ð²Ð°ÑĤ":7450,"ĠÐ½Ð°Ð±ÑĢÐ°ÑĪÐ½ÑıÐ²Ð°":7451,"ĠÑģÐ»Ð¾Ð¶Ð¸Ð»Ð¸":7452,"ĠÐ¼Ð»ÐµÑĩÐ½Ð¸Ñı":7453,"Ð³ÑĬÑģÑĤÐ°":7454,"ĠÐ¶ÑĬÐ»ÑĤ":7455,"ĠÐŀÑĦÐ¾ÑĢÐ¼ÑıÐ¼Ðµ":7456,"ĠÐĺÐ·Ð´ÑĬÐ»Ð±Ð°Ð½Ð°ÑĤÐ°":7457,"ĠÐŁÐ°ÑĤÐ»Ð°Ð´Ð¶Ð°Ð½ÑĬÑĤ":7458,"ĠÐ½Ð°Ð¿ÑĢÐ°Ð²Ð¸Ñħ":7459,"ĠÑİÑĦÐºÐ°ÑĤÐ°":7460,"ĠÐ´ÑĢÑĬÐ¿Ð²Ð°":7461,"ĠÐ²Ð´Ð»ÑĬÐ±Ð½Ð°ÑĤÐ¸Ð½Ð°":7462,"ĠÐ·Ð°Ð¼ÐµÑģÐ¸":7463,"ĠÑĤÐ»ÑĬÑģÑĤÐ¸":7464,"ĠÐ¢Ð¸Ð³Ð°Ð½":7465,"Ð¿Ð¾ÑĢÑĬÑĩÐ¸ÑĤÐµÐ»Ð½Ð¾":7466,"ĠÐ¿ÑĬÐ´Ð¿ÑĬÐ´ÑĬÑĨÐ¸":7467,"ĠÐ½Ð°Ð³ÑĢÑıÑĤÐ°":7468,"ÑĤÐ¸ÑģÐ½ÐµÑĤÐµ":7469,"ĠÐĳÑĥÑĢÐºÐ°Ð½Ð¸ÑĤÐµ":7470,"ĠÐĴÑĤÐ°ÑģÐ°Ð»Ð¾ÑĤÐ¾":7471,"ĠÐ½ÐµÐ»ÐµÐ¿Ð½ÐµÑīÐ¾":7472,"11":7473,"550":7474,"650":7475,"]*":7476,"ĠM":7477,"Ð°Ð²Ð°ÑĤ":7478,"ÑĢÐ¾ÑĤÐ¾":7479,"ÑıÐ´ÐºÐ¸":7480,"ÑĤÐ¾Ð¿Ð¾Ð´":7481,"ĠÐ¾Ð¿ÐµÑĩÐµÐ½Ð¸":7482,"ÑĤÐµÑģ":7483,"ÑĢÐ°Ð½Ð¾":7484,"ĠÐ´Ð¾Ð»Ñĥ":7485,"Ð¶ÐºÐ¸":7486,"Ð¹Ð½Ð¸":7487,"ĠÐ¸Ð·ÐºÐ¸Ñģ":7488,"ĠÐ¸Ð·ÑĢÑıÐ·Ð²Ð°Ð¼Ðµ":7489,"ĠÐŁÐ¾Ð»Ð¸Ð²Ð°Ð¼Ðµ":7490,"ĠÑıÐ´ÐºÐ°":7491,"ĠÐ¿ÑĢÐ¸ÑīÐ¸Ð¿":7492,"Ð²ÐµÑĤÐ½Ð¾":7493,"ĠÐļÑĥ":7494,"ĠÐĶÐ¶":7495,"ĠÐ²Ð¸ÑģÑıÑĤ":7496,"ĠÐ¿Ð¾Ð´Ð¿ÑĢÐ°Ð²ÐµÐ½Ð°":7497,"ĠÐ¿ÑĢÐµÑģÐ½Ð¸ÑıÑĤ":7498,"ĠÑĢÐµÐ±ÑĬÑĢ":7499,"ĠÐ¢Ð¸ÐºÐ²Ð°ÑĤÐ°":7500,"ĠÑĨÐ²ÐµÑĤÐµ":7501,"ĠÑĢÐ¾Ð½":7502,"ĠÑĢÐ°Ð·ÑĤÐ¾Ð¿ÐµÑĤÐµ":7503,"ÐĿÐ°ÑģÑĤÑĬÑĢÐ³":7504,"ĠÐ´ÑĬÐ»Ð±Ð¾ÐºÐ¸":7505,"ĠÐļÐ°Ð¿Ð°":7506,"Ð½Ð´Ð¸ÑĪÐ¿Ð°":7507,"Ð»ÑİÑĤÐ°":7508,"Ð»ÑİÐºÐ¾Ð·Ð°":7509,"ĠÐ§ÑĥÐº":7510,"ĠÑĩÐ¸Ð½Ð¸Ð¹ÐºÐ°":7511,"ĠÑĢÐ¸Ð±ÐºÐ¸":7512,"ĠÐ´Ð¾Ð±Ð°Ð²Ð¸Ð¼":7513,"ĠÐ´Ð¾Ð±Ð°Ð²Ð¸Ñħ":7514,"ĠÑĩÐµÑĤÐ²ÑĬÑĢÑĤ":7515,"ĠÐ½Ð°Ð¼Ð°ÑĩÐºÐ°Ð½Ð¾ÑĤÐ¾":7516,"ÐŁÑĢÐ¸Ð³Ð¾ÑĤ":7517,"ĠÑĦÑĬÑģÑĤÑĬÐº":7518,"ĠÑĤÑĢÐ¸ÑĬÐ³ÑĬÐ»Ð½Ð¸ÐºÐ°":7519,"Ð¨Ð°":7520,"ĠÐ¿ÑĬÐ»Ð½Ð¾Ð¼Ð°ÑģÐ»ÐµÐ½Ð¾":7521,"Ð¿Ð¾ÑĢÑĤÐ¾ÐºÐ°":7522,"ÑĩÐºÐ²Ð°Ð¼Ðµ":7523,"ĠÐ¸Ð·ÑģÑĤÑĥÐ´ÑıÐ²Ð°":7524,"ĠÐ¿Ð¾Ð±ÐµÐ»ÐµÑıÑĤ":7525,"ĠÐºÐ¸ÑĤÐ°Ð¹ÑģÐºÐ¸":7526,"ĠÐľÐ°Ð³Ð´Ð°Ð½Ð¾Ð·Ð°":7527,"ĠÐ¼ÐµÑħÑĥÑĢ":7528,"ĠÐ·Ð´ÑĢÐ°Ð²Ð¸":7529,"ĠÐºÐ°ÑĩÐ°Ð¼Ð°Ðº":7530,"Ð¾Ð»Ð¾Ð½Ðµ":7531,"ĠÐĹÐµÑħÑĤÐ¸Ð½ÑĬÑĤ":7532,"ĠÑĥÐ¿Ð¾ÑĤÑĢÐµ":7533,"ĠÐ¿Ð»Ð°ÑģÑĤÐ¼Ð°ÑģÐ¾Ð²Ð°":7534,"ĠÐ²ÑĬÐ½ÑĪÐ½Ð¸ÑĤÐµ":7535,"ĠÐ±ÑĥÐ»ÑĮÐ¾Ð½Ð¸ÑĤÐµ":7536,"ĠÐ½Ð°Ð±ÑĥÑħÐ²Ð°ÑĤÐµÐ»":7537,"ĠÐ¸Ð·Ð¿ÑĢÐ°Ð²ÐµÐ½Ð¸":7538,"ÐŁÐ¾Ð»Ð¾Ð²Ð¸Ð½Ð°ÑĤÐ°":7539,"22":7540,"Ð°Ð»Ð½Ð¸":7541,"Ð¾Ð±Ð¸":7542,"ÑģÑĬÑģ":7543,"ĠÐ´Ð°ÑĢ":7544,"Ð¼Ð°Ð¹Ð»Ð¸":7545,"ĠÑĢÐ°Ð·Ð»Ð¸Ð²Ð°":7546,"ĠÑĢÐ°Ð·Ð¿Ð»Ðµ":7547,"ĠÐ¸Ð·ÑĩÐ°ÐºÐ°Ð¹ÑĤÐµ":7548,"ĠÑıÐ³Ð¾Ð´Ð°":7549,"ĠÐ¿ÑĢÐ¸ÐºÑĢÐµ":7550,"ĠÐĴÐ·ÐµÐ¼Ð°ÑĤ":7551,"Ð¿ÑĬÑĢÐ¶Ð²Ð°":7552,"ĠÑħÐ²Ð¾":7553,"ĠÐµÐ´Ð½Ð¾Ð²ÑĢÐµÐ¼ÐµÐ½Ð½Ð¾":7554,"ĠÐļÐ°ÑĢÑĦÐ¸Ð¾Ð»ÑĬÑĤ":7555,"ĠÐĶÑĢÑĬ":7556,"ÐµÐ´ÑĬÑĤ":7557,"Ð¡Ð»ÐµÐ´":7558,"ĠÐłÐ°Ð·ÑĤÐ²Ð°ÑĢÑı":7559,"ĠÐºÑĢÐ°ÑģÐ¸":7560,"ĠÐ¿Ð¾Ð»ÑĥÑģ":7561,"ĠÑĥÐ¿Ð»ÑĬÑĤ":7562,"ĠÐ²Ð°Ð¶Ð½Ð¾":7563,"ĠÐ²Ð°Ð½Ð¸Ð»ÐµÐ½Ð°ÑĤÐ°":7564,"ĠÑĢÐ°Ð²ÐµÐ½":7565,"ÐļÐ°ÑĢÑĤÐ¾ÑĦ":7566,"ĠÑĩÐ¸ÐµÑĤÐ¾":7567,"ĠÐĳÐ»Ð°ÑĤ":7568,"ĠÐĳÑĢÐ¾ÐºÐ¾Ð»Ð¸ÑĤÐµ":7569,"ÐºÑĢÐ°ÑģÑĤÐ°":7570,"ĠÑĢÐ¾Ð½ÐµÐ½Ð°":7571,"ĠÐ¿Ð»Ð¾ÑĩÐºÐ¸":7572,"ĠÐ¿Ð»Ð¾ÑģÐºÐ¾":7573,"ĠÑģÐ³Ð¾ÑĢÐµÑīÐ¸":7574,"ĠÐ²Ð½Ð¸Ð¼Ð°Ð²Ð°ÑĤÐµ":7575,"ĠÑĢÑĥÐ»Ð°Ð´Ð¸":7576,"ÐĳÐ»Ð°":7577,"ĠÐ¿ÑĢÑĬÑĩÐºÐ°":7578,"ĠÐ¸Ð·ÑĨÐµÐ´ÐµÑĤÐµ":7579,"Ð»ÐµÐ¿Ð²Ð°ÑĤ":7580,"ĠÐ´Ð¶Ð¸Ð½Ð´Ð¶Ð¸ÑĦÐ¸":7581,"ĠÐ¿Ð¾Ð²ÐµÑĩÐºÐ¾":7582,"ĠÑĨÐ°ÑĢÐµÐ²Ð¸ÑĩÐµÐ½":7583,"ĠÐ½Ð°ÐºÑĬÑģÐ°Ð½Ð¸":7584,"ĠÐĳÑĬÑĢÐºÐ°Ð¹ÑĤÐµ":7585,"ĠÐ¼ÐµÐ½ÑĤÐ°ÑĤÐ°":7586,"ĠÐºÐ°Ð¹ÑģÐ¸Ð¸ÑĤÐµ":7587,"ĠÐ³ÑĬÐ±ÐµÐ½Ð¸Ñı":7588,"ĠÑĩÐµÑĢÐµÑĪÐ°":7589,"ĠÐ¸Ð·ÐºÐ»ÑİÑĩÐµÐ½Ð¸Ðµ":7590,"ĠÐ¾Ð±ÑĢÐ°Ð·ÑĥÐ²Ð°Ð½Ðµ":7591,"ĠÐ²ÐºÐ»ÑİÑĩÐµÑĤÐµ":7592,"ĠÐ»ÐµÐ½ÑĤÐ¸ÑĤÐµ":7593,"ĠÐ¿Ð¾Ð´Ð½ÐµÑģÐ°ÑĤ":7594,"ÑĢÑĥÑĤÐ¾Ð½Ð¸":7595,"ÐºÑĢÐµÐ¼":7596,"ĠÑĢÐ°Ð·ÑĢÐµÐ´ÐµÐ½Ð¾":7597,"ĠÐ¤Ð¾ÑĢÐ¼Ð°ÑĤÐ°":7598,"ĠÑģÐ¿Ð»ÐµÑģÐºÐ²Ð°ÑĤ":7599,"ĠÐŁÑĢÐ¸ÑĤÐ¸ÑģÐºÐ°ÑĤ":7600,"ĠÑģÐ°Ð½Ð´Ð²Ð¸ÑĩÐ¸":7601,"ĠÑĢÐ¾Ð¼Ð±Ð¾Ð²Ðµ":7602,"ĠÐ¿ÑĢÐ¾ÑĤÐµÐ¸Ð½":7603,"ĠÐµÐ»ÐµÐºÑĤÑĢÐ¸ÑĩÐµÑģÐºÐ°":7604,"Ð²ÐµÑģÐµÐ½Ð¸ÑĤÐµ":7605,"ĠÐ´Ð°ÑĢÐ¾Ð²Ðµ":7606,"28":7607,"ch":7608,"el":7609,"et":7610,"Ð½ÐºÐ¸ÑĤÐµ":7611,"Ð¿ÑıÑĤ":7612,"Ð±ÑĥÑĤ":7613,"ĠÐ³Ð»ÑİÐºÐ¾Ð·Ð°":7614,"ĠÐ±ÐµÐ»Ð°ÑĩÐºÐ°":7615,"Ð¼Ð°Ð¹Ð¾":7616,"ÑĦÑĢÐ°Ð½Ð°":7617,"ĠÐ¾ÑĤÐ´ÐµÐ»ÐµÑĤÐµ":7618,"ÑĨÐµÐ»Ð¸ÑĤÐµ":7619,"ĠÐµÐ¼Ð°Ð¹Ð»Ð¸":7620,"ĠÐ¿Ð¾Ð´Ð»Ð¾Ð¶":7621,"ĠÐ¿ÐµÐ¿ÐµÑĢ":7622,"ĠÐ½Ð°Ð¼Ð°Ð¶Ðµ":7623,"ÑĩÐµÑĢÐ²ÐµÐ½Ð¾":7624,"ĠÐļÑĥÐ¿Ð°ÑĤÐ°":7625,"ĠÐļÑĢÐµÐ½Ð²Ð¸ÑĢÑĪÐ¸ÑĤÐµ":7626,"ĠÐĶÐ¾Ð»":7627,"ĠÐ¿Ð°ÑĢÑĤÐ¸":7628,"ĠÐ³Ð¾ÑĦÑĢÐµ":7629,"Ð¾Ð½ÑĤÐ°":7630,"Ġ350":7631,"ĠÐ¿Ð°ÑĩÐ¸":7632,"ÐĹÐ°Ð´ÑĥÑĪÐµÑĤÐµ":7633,"ĠÐľÑĥÑģÐ°":7634,"ĠÐ²Ð°ÑĪÐµ":7635,"ÐŁÑĥ":7636,"ÑĢÐµÐ±Ð¾Ð»Ð¸Ð¸ÑĤÐµ":7637,"ĠÑĨÐµÐ»Ð¾":7638,"ĠÐ½Ð¾Ñģ":7639,"ĠÐºÐ°Ð¿Ð°ÑĩÐºÐ¸ÑĤÐµ":7640,"Ð´ÐµÐ²ÐµÑģÐ¸Ð»":7641,"ĠÐĲÑĢÐ¾":7642,"ĠÐ»Ð¸Ð¼Ð¾Ð½Ð¾Ð²Ð¸ÑĤÐµ":7643,"ĠÐ¿Ð°ÑģÐ¸ÑĢÐ°Ð½":7644,"ĠÑĪÐ°Ð¹":7645,"ĠÐ·ÑĬÑĢÐ½Ð¾":7646,"ÐĳÑĢÐ¾ÐºÐ¾Ð»Ð¸ÑĤÐµ":7647,"ĠÐºÐ¸Ð¼Ð¸Ð¾Ð½ÑĬÑĤ":7648,"ĠÐ¾Ð²ÐºÑĥÑģÐµÐ½Ð¾":7649,"ĠÐ»ÐµÐ½ÑĤÐ¸ÑĩÐºÐ°":7650,"ĠÐľÐ¾ÑĨÐ°ÑĢÐµÐ»Ð°ÑĤÐ°":7651,"ĠÐ¼Ð°ÑĢÐ³Ð°ÑĢÐ¸Ð½ÑĬÑĤ":7652,"ĠÐºÐ¸Ð¿Ð²Ð°Ð½Ðµ":7653,"ĠÐ¿Ð°Ð»Ð°ÑĩÐ¸Ð½ÐºÐ°ÑĤÐ°":7654,"ĠÐ¿Ð¾ÑģÐ»ÐµÐ´Ð½Ð¸ÑĤÐµ":7655,"ĠÐ»ÑİÑĤÐ¸Ð²Ð¸ÑĤÐµ":7656,"ĠÐ¾Ð±ÐµÐ¼":7657,"Ð¤Ð¸Ð»Ð¸Ð¸ÑĤÐµ":7658,"ĠÐ¼Ð°ÑħÐ°ÑĤÐµ":7659,"ĠÐ¾ÑħÐ»Ð°Ð´ÐµÑĤÐµ":7660,"ĠÐ¿Ð¾ÑĢÑĤÐ¾ÐºÐ°Ð»Ð¾Ð²Ð¸ÑĤÐµ":7661,"ĠÑĢÐ°Ð·Ð±ÑĬÑĢÐºÐ°Ð½Ð¸":7662,"ĠÐ¸Ð·ÐºÐ»ÑİÑĩÐ¸":7663,"ĠÐĺÐ·Ð¿ÑĬÑĢÐ¶ÐµÑĤÐµ":7664,"ĠÑĢÐ°Ð·ÑĤÐ²Ð¾ÑĢÐµÑĤÐµ":7665,"ĠÐ¸Ð·ÑģÑĤÐ¸Ð½Ð°Ð»Ð¸":7666,"ĠÐºÐ°ÑĦÑıÐ²Ð¸":7667,"ĠÐ½Ð°Ð¼Ð°ÑĩÐºÐ°Ð½Ð¸":7668,"ĠÐ±Ð¾Ð½ÑĦÐ¸Ð»Ðµ":7669,"Ð¼Ð°ÑĢÐ´Ð°":7670,"ĠÐ¾ÑĤÐ²Ð¾ÑĢÐ¸":7671,"ĠÐ¾ÑĤÐ²Ð¾ÑĢÑıÑĤ":7672,"ÑĢÐ°Ð²Ð½Ð¸":7673,"ĠÐ°ÑĢÑĤÐ¸ÑĪÐ¾":7674,"ĠÑģÐ²ÑĬÑĢÑĪÐ²Ð°Ð½Ðµ":7675,"ĠÐĺÐ·Ð´ÑĬÐ»Ð±Ð°Ð²Ð°ÑĤ":7676,"ĠÐºÐ°Ð¼Ð±Ð¸ÑĤÐµ":7677,"ĠÐ½Ð°Ð¿Ð¾Ð´Ð¾Ð±":7678,"ĠÐºÐ¾ÑĪÐ½Ð¸ÑĩÐºÐ¸":7679,"ĠÐ¾Ð¿Ð¸ÑĤÐ²Ð°":7680,"ĠÐ¸Ð½ÑģÑĤ":7681,"ĠÐ¿Ð¾ÑĢÐ¾Ð·Ð¾Ð²ÐµÑıÑĤ":7682,"ĠÑģÑĤÐ¸Ð³Ð½Ðµ":7683,"ĠÐ²ÑĤÐ°ÑģÐ²Ð°Ð½Ðµ":7684,"ĠÐĶÑĢÑĥÐ³":7685,"Ð´ÑĬÑĢÐ¶Ð°":7686,"ĠÐ¸Ð·Ð³Ð»Ðµ":7687,"ĠÐ½Ð°ÐºÐ»Ð¾":7688,"ĠÑģÐºÑĥÐ¼ÑĢÐ¸Ð¸":7689,"ĠÐ¼Ð»Ð°Ð´Ð°":7690,"ĠÐĳÐ»Ð°ÑĤÑĬÑĤ":7691,".),":7692,"is":7693,"Ð»Ð´Ð°ÑĤÐ°":7694,"Ð²ÐµÐ½Ð¸ÑıÑĤ":7695,"Ð²ÐºÑĥÑģÐ½Ð¾":7696,"ÐºÑĢÑĥÑĤÐ¾Ð½Ð¸":7697,"Ð·Ð¾ÑĤÐ¾":7698,"Ð·Ð¾Ð²Ð°":7699,"ĠÐ½Ð¾ÑĢÐ¼Ð°":7700,"Ð¿Ð»Ð¸":7701,"Ð»Ð¸Ð²Ð¸":7702,"Ð»Ð¸Ð²Ð¸ÑĤÐµ":7703,"Ð¼ÐµÐºÐ¾":7704,"ĠÐ¼Ð°ÑĩÐºÐ°":7705,"ĠÐºÐ°Ð½":7706,"Ð»ÐµÐ±Ð¾":7707,"ĠÐ¾ÑĤÐ»ÐµÐ¿":7708,"ĠÐ¸Ð·Ð¿ÐµÑĩÐµÐ½Ð¸":7709,"ĠÐ¸Ð·ÑĤÑĬÐ½":7710,"ĠÐ¿ÑĢÐ¸ÑĤÐµÑģ":7711,"ĠÐ¿ÑĢÐµÐ³Ð¾ÑĢÐ¸":7712,"ĠÐ¿ÑĢÐµÑĨÐµÐ½":7713,"ĠÑĦÐ¸Ð½":7714,"ĠÐ³Ð»Ð°Ð²Ð¸ÑĩÐºÐ°":7715,"Ð¿ÑĬÑĢÐ¶Ð²Ð°ÑĤ":7716,"ÑĢÑĬÑģÐºÐ²Ð°":7717,"ĠÐºÐ¸ÑģÐ½Ð°":7718,"ĠÐ½Ð°Ð¼Ð°Ð¶Ð°ÑĤ":7719,"ĠÑĪÐµÑĢÐ¸":7720,"ĠÑĤÐ¸Ð¿Ð¾":7721,"ĠÐĿÐ°ÑĢÑıÐ·Ð°Ð½Ð¸Ñı":7722,"ĠÑĤÐ¾Ð¿ÐºÐ¸ÑĤÐµ":7723,"ĠÑĢÐ°Ð·Ð±Ð¸Ðµ":7724,"ĠÑĦÐ¸Ð½Ð°":7725,"ĠÐ¿Ð°Ð½Ð´Ð¸ÑĪÐ¿Ð°":7726,"ĠÐłÐ°Ð·Ð¼ÐµÑģÐ²Ð°":7727,"ĠÐłÐ°Ð·ÑģÑĤÐµÐ»ÐµÑĤÐµ":7728,"ÑĪÐºÐ¾ÑĤÐ¸ÑĤÐµ":7729,"ĠÐ¼Ð¾Ðº":7730,"Ð¿ÐµÐºÐ°ÑĢ":7731,"ĠÐ±Ð¸ÑĦÑĤÐµ":7732,"ĠÑĨÐµÐ»Ð¸Ñı":7733,"ÐļÑĢÐµÐ½Ð²Ð¸ÑĢÑĪÐ¸ÑĤÐµ":7734,"ĠÐŀÑģÑĤÐ°Ð²ÑıÐ¼":7735,"ĠÐ·ÐµÐ»ÐµÐ²Ð°ÑĤÐ°":7736,"ĠÑģÑĤÑĥÐ´ÐµÐ½Ð°ÑĤÐ°":7737,"Ð²Ð°ÑĢÑıÐ²Ð°ÑĤ":7738,"ĠÐ¾ÑĤÐ´ÐµÐ»ÐµÐ½Ð¾ÑĤÐ¾":7739,"ĠÑĪÐ°ÑĦÑĢÐ°Ð½Ð°":7740,"ĠÐ¿ÑĢÐµÑģÑĤÐ¾Ñı":7741,"ĠÐ³Ð°ÑĢÐ½Ð¸ÑĢÐ°Ð½Ð¸":7742,"ĠÐ½Ð°Ð»Ð¸Ð²Ð°ÑĤÐµ":7743,"ĠÐľÐ¾Ð¶ÐµÑĤÐµ":7744,"ĠÐĿÐ°Ð¼Ð°ÑĩÐºÐ²Ð°ÑĤ":7745,"ĠÐ²Ð¾Ð´ÐºÐ°ÑĤÐ°":7746,"ĠÑħÐ»Ð°Ð´ÐºÐ°ÑĤÐ°":7747,"ĠÐºÐ°ÑĢÐ½Ð°":7748,"ĠÐºÑĥÐ¿Ð¸ÑĩÐºÐ¸ÑĤÐµ":7749,"ĠÑĢÐ°Ð·ÑĤÐ²Ð°ÑĢÑıÐ¼Ðµ":7750,"Ð§Ð°":7751,"ĠÐºÐ¾Ð¼Ð¿Ð»Ðµ":7752,"ĠÑĪÐµÐ¹Ðº":7753,"ĠÐ³Ð»Ð°Ð´ÐºÐ¾ÑģÑĤ":7754,"ĠÐ¾Ð±ÐµÐ·ÐºÐ¾ÑģÑĤÐµÐ½Ð¸":7755,"ÐŁÐ°ÑĤÐ»Ð°Ð´Ð¶Ð°Ð½Ð°":7756,"ĠÐĹÐ°Ð¿Ð¸ÑĩÐ°Ð¼Ðµ":7757,"ĠÐ·Ð°ÐµÑĪÐºÐ¾":7758,"ĠÐ³ÑĬÐ±ÐµÐ½Ð°ÑĤÐ°":7759,"ĠÐ³ÐµÐ²ÑĢÐµ":7760,"ĠÑĪÐ¾ÐºÐ¾Ð»Ð°Ð´Ð¾Ð²Ð¸ÑĤÐµ":7761,"ĠÐºÐ¾ÑĤÐ»ÐµÑĤ":7762,"ĠÐ¿ÑĥÑģÐ½ÐµÑĤÐµ":7763,"ĠÐ¾ÑĤÐ²Ð°ÑĢÐ°ÑĤÐ°":7764,"ĠÑĢÑĬÑģÑıÑĤ":7765,"ĠÑģÑĥÑģÐ°Ð¼Ð¾Ð²":7766,"ĠÐ¿ÑĢÐµÐ¿ÐµÑĩÐµÐ½Ð°":7767,"ĠÐ¿Ð°ÑģÐ¸ÑĢÐ°Ð½Ð¸ÑıÑĤ":7768,"ĠÐºÐ¾ÑĪÐ½Ð¸ÑĩÐºÐ¸ÑĤÐµ":7769,"ĠÐĿÐ°Ð¿ÑĬÐ»Ð²Ð°ÑĤ":7770,"ÑģÐ²Ð¸Ð½ÑģÐºÐ¸":7771,"ĠÐ°Ð¼Ð¾Ð½ÑıÑĩÐ½Ð°ÑĤÐ°":7772,"Ð¼Ð°Ð»Ð°Ð´Ð°":7773,"ÐºÐ°ÐºÑĤÐ¾":7774,"ĠÑģÐ¿Ð»ÐµÑģÐºÐ²Ð°":7775,"ĠÐ¿Ð¾Ð´Ð³Ð¾ÑĤÐ²ÐµÐ½Ð¸ÑĤÐµ":7776,"ĠÐļÐ¾Ð»ÐºÐ¾ÑĤÐ¾":7777,"ĠÑĢÑĬÐ¶ÐµÐ½Ð¾":7778,"ĠÑĢÐ°Ð·Ð¼ÐµÑĢÐ°":7779,"Ð¼Ð»ÑıÐ½Ð¾ÑĤÐ¾":7780,"ĠÑĢÐ°ÐºÐ¸ÑıÑĤÐ°":7781,"ÐºÐ¾Ð»Ð¸ÑĩÐµÑģÑĤ":7782,"ĠÐĴÑĬÑĢÐ½ÐµÑĤÐµ":7783,"ĠÐ¿Ð¾Ð·Ð°ÑĩÐµÑĢÐ²Ð¸":7784,"ĠÐ¿ÑĢÐ¾ÑĢÐµÐ·Ð¸":7785,"ĠÑĪÐ°Ð¹Ð±Ð°":7786,"Ð»ÐµÐ±Ð¾Ð¿ÐµÐºÐ°ÑĢ":7787,"360":7788,"Ð°Ð²Ð°":7789,"ÑĤÐ»":7790,"ĠÐºÐ»ÐµÐ½Ð¾Ð²":7791,"ĠÐ¾ÑģÐ¼":7792,"Ð±ÑĥÑĤÐµÑĢ":7793,"ĠÐ³ÑĥÐ»Ð°":7794,"Ð³Ð»Ð¾":7795,"Ð»Ð°ÑĦ":7796,"ÑĦÑĥ":7797,"ĠÐºÐ°ÑģÐµÑĢ":7798,"Ð¸Ð½ÐºÐ¸":7799,"ÑĦÐ¸Ð´Ð¸ÑĤÐµ":7800,"ĠÐ¼Ð°ÑģÐ»ÐµÐ½Ð¸":7801,"ÑģÐ¾Ð»ÑıÐ²Ð°":7802,"ĠÐ½ÐµÐ¿ÑĬÐ»Ð½Ð°":7803,"ĠÑĩÐ°ÐºÐ°":7804,"ĠÐĶÐ¾Ð»Ð¸Ð²Ð°Ð¼Ðµ":7805,"ĠÐĿÐ°ÑĢÑıÐ·Ð°Ð½Ð°ÑĤÐ°":7806,"ÑĤÑĬÐ¿":7807,"ĠÐ·Ð°Ð¿ÑĬÑĢÐ¶ÐµÐ½Ð¸":7808,"ĠÐ·Ð°Ð´ÑĥÑĪÐµÐ½Ð°ÑĤÐ°":7809,"ĠÐ¿Ð¾Ð´Ð¿ÑĢÐ°Ð²ÐµÐ½Ð¾":7810,"ĠÐ´Ð¾Ð¼Ð°ÑĤÑĩÐµÑĤÐ°ÑĤÐ°":7811,"ĠÐłÐ°Ð·Ð´ÐµÐ»ÑıÑĤ":7812,"ĠÑĥÑģÑĤÐ°":7813,"ĠÐ¼Ð¾ÐºÑĢÐ°":7814,"Ð·Ð¸ÑĢÐ°ÑĤ":7815,"ĠÐĳÐ»Ð°ÑĤÐ°":7816,"ĠÐ±ÑĥÐ»Ð¾":7817,"ÐµÑĤÑĥÑĩÐ¸":7818,"ĠÐ¸Ð·Ð¿ÑĬÑĢÐ¶ÐµÐ½Ð¸Ñı":7819,"ĠÐ¼Ð¸Ð½Ð¸":7820,"ĠÐ¿ÑĢÐ¸Ð³Ð¾ÑĤÐ²Ð¸ÑĤÐµ":7821,"ĠÐŁÑĢÐµÑģÐµÐ¹ÑĤÐµ":7822,"ĠÐ¾ÑĦÐ¾ÑĢÐ¼ÐµÐ½Ð¸ÑĤÐµ":7823,"ĠÐ¿Ð»Ð¾ÑĤÐ°":7824,"ĠÐ³Ð¾ÑĢÑĩÐ¸Ð»ÐºÐ°ÑĤÐ°":7825,"ĠÑĤÐ²ÑĬÑĢÐ´Ð°ÑĤÐ°":7826,"ĠÐ¾Ð±Ð¸ÑĢÐ°":7827,"ĠÑĢÐµÐ½Ð´Ð¾Ñģ":7828,"ĠÐ¿Ð¸ÑĤÐ°":7829,"ĠÐ¿Ð¸ÑĨÐ¸":7830,"ĠÐľÐ°ÐºÐ°ÑĢÐ¾Ð½Ð¸ÑĤÐµ":7831,"ĠÑģÐ°Ð¼Ð¾ÑģÑĤÐ¾Ñı":7832,"ĠÑĪÐ°Ð¹Ð±Ð¸ÑĤÐµ":7833,"ĠÐºÐ¾Ð½ÑĨÐ¸":7834,"ĠÐ½ÐµÐ¾Ð±ÑħÐ¾Ð´Ð¸Ð¼Ð°":7835,"ĠÐ»Ð°Ð¿Ð°Ð´Ð°":7836,"ĠÐ¤Ð¸Ð»Ð¸Ð¹ÐºÐ¸ÑĤÐµ":7837,"ÐĶÐ¶":7838,"ÐĺÐ·Ð¼Ð¸ÑĤÐ¾ÑĤÐ¾":7839,"ĠÑĨÐ²ÐµÑĤÐ¾Ð²Ðµ":7840,"ĠÐ¾ÑħÐ»Ð°Ð´ÐµÐ½Ð¸":7841,"ĠÐ¿Ð¾Ð´ÑģÑĥÑĪÐ°Ð²Ð°Ð¼Ðµ":7842,"ĠÐ·ÐµÐ»ÐµÐ½ÑĩÑĥÐºÐ¾Ð²Ð¸ÑıÑĤ":7843,"Ð¹ÑģÐ¸Ð¸ÑĤÐµ":7844,"ĠÑĦÐ¸Ð»Ð¸ÑıÑĤÐ°":7845,"ĠÐ¾ÑģÐ¾Ð»ÑıÐ²Ð°Ð¼Ðµ":7846,"ĠÐ¢Ð¾Ð·Ð¸":7847,"ĠÐ´ÐµÐ½ÑĤÐµ":7848,"ĠÐ°ÑĢÐ¾Ð¼Ð°ÑĤÐ½Ð¸ÑĤÐµ":7849,"ĠÑĢÐµÐ´ÑĥÐ²Ð°":7850,"ĠÐ¿Ð¾ÑĤÐ°Ð¿ÑıÐ¼Ðµ":7851,"ÐĹÐ°Ð¿ÑĬÑĢÐ¶Ð²Ð°ÑĤ":7852,"ĠÐ¢ÐµÑĩÐ½Ð¾ÑģÑĤÑĤÐ°":7853,"ĠÐ¿ÑĢÐµÐ¿ÐµÑĩÐµÐ½Ð¾ÑĤÐ¾":7854,"ĠÐŁÐ°ÑĤÐ»Ð°Ð´Ð¶Ð°Ð½Ð°":7855,"ĠÐĵÐ¾ÑĤÐ²ÐµÑĤÐµ":7856,"ĠÐ½ÐµÑģÐºÐ°ÑĦÐµ":7857,"ĠÐĹÐµÐ»ÐµÐ½Ð¸ÑıÑĤ":7858,"Ð¿Ð¾Ð»Ð·Ð²Ð°Ñħ":7859,"ĠÐļÐ¾ÑĤÐ»ÐµÑĤÐ¸ÑĤÐµ":7860,"ĠÐ¼ÐµÑĤÐ°Ð»ÐµÐ½":7861,"ĠÐºÐ¾ÐºÐ°Ð»":7862,"ĠÑĤÑĢÑĥÐ´":7863,"ĠÐĹÐ°Ð¿Ð¾ÑĩÐ²Ð°":7864,"ĠÐ§Ð°ÑģÑĤ":7865,"ĠÐĶÐµÑģÐµÑĢ":7866,"ĠÑĦÐ¸ÑĤÐ¸Ð»":7867,"ĠÑĢÐ¾Ð¼Ð±Ð¾Ð¸":7868,"Ð·Ð°Ð¼ÑĢÐ°Ð·ÐµÐ½":7869,"ĠÐŀÑĤÑģÑĤÑĢÐ°Ð½ÑıÐ²Ð°ÑĤ":7870,"ĠÐ¾ÑĢÐ¸Ð³Ð¸Ð½Ð°Ð»":7871,"ÑĥÐ½Ð°Ð²Ð¸Ñı":7872,"ĠÐ¦ÐµÐ»ÑĤÐ°":7873,"Ð³Ð°ÑģÐ¸ÑĥÑģ":7874,"ĠÐ¼Ð°ÑĢÑĥÐ»Ð¸":7875,"ĠÐ°Ð¹ÑģÐ±ÐµÑĢÐ³":7876,"ĠÐ¢Ð¸Ð³Ð°Ð½ÑĬÑĤ":7877,"ĠÐ¼ÐµÑħÑĥÑĢÑĩÐµÑĤÐ°":7878,"ĠÐľÑĥÑģÐ°ÐºÐ°ÑĤÐ°":7879,"Ð£":7880,"Ð¾ÑģÐ°":7881,"ÑĢÑĤ":7882,"Ð²Ð¾Ð»":7883,"ĠÐ¿ÐµÑģÑĤÐ¾ÑĤÐ¾":7884,"ĠÐ½Ð°ÐºÐ°":7885,"ĠÐ¼ÑĥÐ»":7886,"ĠÐ¼ÐµÐ»Ð°":7887,"ĠÐ¼ÑİÑģ":7888,"Ð¿ÑĬÑĤ":7889,"ĠÐ¾Ð¿ÐµÑĩ":7890,"ĠÐ²ÐºÑĥÑģÐ½Ð¾":7891,"Ð³Ð½ÐµÑĤÐ¾":7892,"ĠÐ±Ð¾ÑĢ":7893,"ĠÐ·Ð°ÑģÐ¸":7894,"ĠÐ·Ð°Ð¿ÑĬÐ»Ð½Ð¸":7895,"ÑĢÐµÑĪ":7896,"ÑĪÐµÑĤÐµ":7897,"ĠÐ¿Ð¾Ñı":7898,"ĠÐ¾ÑĤÐ´ÑĢÑĬÐ¿Ð²Ð°":7899,"ĠÐ¸Ð·ÑĤ":7900,"ĠÐŁÑĬ":7901,"ĠÐ¿Ð¾Ð´Ð³ÑĢÑıÐ²Ð°":7902,"Ð¼Ð¸ÐºÑģ":7903,"Ð¼Ð¾Ð²Ð°":7904,"ÑĨÐ¸ÑĢÐ°":7905,"ĠÐ¼Ð°Ð»ÐºÐ¸ÑĤÐµ":7906,"ĠÑĤÐ°ÑħÐ°Ð½Ð°":7907,"ĠÑĩÐµÑģÐ½Ð¾Ð²Ð¾":7908,"ĠÐļÐ¸Ð¿":7909,"ĠÐĿÐ°Ð´ÑĥÐ¿":7910,"ĠÑĦÐ¸ÐºÑģÐ°":7911,"ĠÑģÐ°Ð¼Ð°ÑĢÐ´Ð°":7912,"ĠÐ¿Ð¸Ð»ÐµÑĪÐºÐ°ÑĤÐ°":7913,"ĠÐĹÐ°Ð´ÑĥÑĪ":7914,"ÐĹÐ°Ð³ÑĢÑıÐ²Ð°Ð¼Ðµ":7915,"Ð¡ÑĬÑĢ":7916,"ĠÐ·Ð°Ð³ÑĢÑıÐ½Ð°":7917,"ĠÐŀÑĤÑĨÐµÐ´":7918,"ĠÐŀÑĤÐ´ÐµÐ»ÐµÑĤÐµ":7919,"ĠÐ¼Ð¾Ð¶ÐµÐ¼":7920,"ĠÐ±ÑĥÑħÑĤÐ¸":7921,"ĠÐ´Ð¶Ð°Ð½":7922,"ĠÑģÐ»Ð¾Ðµ":7923,"Ð¾Ð±ÑħÐ¾Ð´Ð¸":7924,"ĠÐµÐ´Ð½Ð°ÐºÐ²Ð°":7925,"ĠÐ¿Ð¾Ð»ÑĥÑĩÐ¸Ð¼":7926,"ĠÐŁÐµÐºÑĬÑĤ":7927,"ĠÐ´ÑĢÐ¾Ð±ÑĬÑĤ":7928,"ĠÐłÐ°Ð·Ð±Ð¸Ð²Ð°ÑĤÐµ":7929,"ĠÐĽÑİ":7930,"ĠÑĢÐ°Ð·Ð¼Ð¸ÑĤÐ°ÑĤÐ°":7931,"ĠÐ·Ð°ÑĤÐ¾Ð¿Ð»Ð¸":7932,"ĠÐºÐµÐºÑģÑĩÐµÑĤÐ°":7933,"ĠÐ´Ð¾Ð±Ð°Ð²ÐºÐ°":7934,"ĠÑģÐ»Ð°Ð´ÐºÐ¸ÑĪÐ¸":7935,"ĠÐ¾ÑħÐ»Ð°Ð´ÐµÐ½Ð°ÑĤÐ°":7936,"ĠÐ¸Ð·ÑĨÐµÐ´ÐµÐ½Ð¸":7937,"ĠÐ³Ð¾ÑĤÐ²Ð°ÑĢÑģÐºÐ°ÑĤÐ°":7938,"ĠÐ½Ð°ÐºÑĬÐ»ÑĨÐ°Ð½Ð¸":7939,"ĠÐ¼Ð»ÐµÑĩÐ½Ð°":7940,"ĠÑĢÐµÐ´ÑĥÑĨÐ¸ÑĢÐ°":7941,"ĠÑģÑĤÐ¾Ð¿ÐµÐ½Ð¾":7942,"ĠÐ£ÐºÑĢÐ°ÑģÑıÐ²Ð°Ð¼Ðµ":7943,"ĠÐ¡Ð²Ð°ÑĢÐµÐ½Ð¾ÑĤÐ¾":7944,"ĠÐ¡Ð²Ð°ÑĢÐµÐ½Ð°ÑĤÐ°":7945,"ĠÑĪÐ¿ÑĢÐ¸ÑĨÐ¾Ð²Ð°ÑĤ":7946,"ĠÐ±Ð°Ð´ÐµÐ¼Ð¾Ð²Ð°":7947,"ĠÐ¿Ð»ÐµÑĪÐºÐ°ÑĤÐ°":7948,"ĠÐľÐ°ÑħÐ°Ð¼Ðµ":7949,"ĠÐŁÐ°ÑģÐ¸ÑĢÐ°Ð¹ÑĤÐµ":7950,"ĠÐ¤Ð¾ÑĢÐ¼Ð°":7951,"ĠÑģÑĩÑĥÐ¿Ð²Ð°":7952,"ÐĿÐ°ÐºÐ¸ÑģÐ²Ð°Ð¼Ðµ":7953,"ĠÐĶÐ¾Ð¼Ð°ÑĤÐµÐ½Ð¾ÑĤÐ¾":7954,"ĠÐºÐ¾ÐºÑĤÐµÐ¹Ð»Ð½Ð¸":7955,"ĠÐ¸Ð·ÑģÑĬÑħÐ½Ð°ÑĤ":7956,"ĠÑģÐ°Ð»Ð°ÑĤÐµÐ½Ð°":7957,"ÐºÐ¾Ð½ÑĦÐ¸ÑĤÑİÑĢ":7958,"ĠÐ¿Ð¾Ð»ÑĥÐºÑĢÑĬÐ³ÑĩÐµÑĤÐ°":7959,"Ð»ÑĮÐ¾Ð½Ð¸ÑĤÐµ":7960,"ĠÐ³ÑĢÑĬÐ±":7961,"ĠÐ¿Ð°ÑĤÐ¸ÑĨÐ°":7962,"ĠÐ´Ð¾ÑģÑĤÐ¸Ð³Ð½Ðµ":7963,"ĠÐ¼Ð°ÑĢÑĨÐ¸Ð¿Ð°Ð½":7964,"ĠÐ°Ð¼Ð¿":7965,"Ð¸Ð·Ð²Ð°ÑĢÐ°":7966,"ĠÑģÑĬÑħÑĢÐ°Ð½ÐµÐ½Ð¸Ðµ":7967,"Ð¸ÑĦ":7968,"ÐºÑĢÐµÐ½Ð²Ð¸ÑĢ":7969,"ÑĩÐ²Ð°Ð½Ðµ":7970,"Ð¼Ð¾ÑĢÐºÐ¾Ð²":7971,"Ð±Ð¾Ð½":7972,"Ð½Ð¾Ð¿":7973,"Ð³Ð»Ð¸":7974,"ĠÐ±Ð»Ð¾Ðº":7975,"ĠÐ¿Ð¾ÑģÑĤÐ¸Ð»Ð°":7976,"Ð½Ð¸ÑĨÐµÐ»Ð¸ÑĤÐµ":7977,"ĠÐ´Ð¾Ð¿Ð¸ÑĩÐ°ÑĤ":7978,"Ð²Ð¸ÑģÐ¾ÐºÐ°":7979,"ÑĩÐµÑģÐºÐ¸":7980,"ĠÑĢÐ°Ð·Ð¿ÑĢÑĬÑģ":7981,"ĠÐ¡Ð²Ð¸Ð½Ñģ":7982,"ĠÐ¿ÑĢÐµÐ¿Ð¸ÑĩÐ°":7983,"ĠÐ¿Ð¾Ð»ÑıÑĤÐ¾":7984,"ĠÐ¶Ð¸ÑĤÐ¾":7985,"ÐµÐºÐ¾Ð½Ð°":7986,"ĠÑģÑĬÑīÐ¸ÑıÑĤ":7987,"ÑĮÐ¾ÑĤÐ¾":7988,"ĠÐĹÐ°Ð³ÑĢÑı":7989,"ĠÐ¿ÑĢÐ¾ÑĨÐµÑģ":7990,"ĠÐ¿ÑĬÑĢÐ¶Ð¾Ð»":7991,"ĠÑĥÐ²Ð¸":7992,"ĠÐ¿ÑĢÐµÑģÐ½Ð¸ÑĤÐµ":7993,"ÐŁÐ¸":7994,"Ð½Ð°ÑĤÑĢÐ¾":7995,"ĠÐºÑĢÑĬÐ²":7996,"ĠÐĵÐ¾Ð»":7997,"ĠÐŁÑĢÐµÑĨÐµÐ´ÐµÑĤÐµ":7998,"ĠÐºÑĢÐ¾Ð°Ñģ":7999,"ĠÑĪÐ°Ð¿":8000,"ĠÑĢÑĥÑģÐºÐ°":8001,"ĠÐºÐ°ÑĢÑĤÐ¾ÑĦÐºÐ¸ÑĤÐµ":8002,"ĠÐ½Ð°Ð¿ÑĬÐ»Ð½ÐµÐ½Ð¸ÑĤÐµ":8003,"ĠÐ·ÐµÐ»ÐµÐ½Ð¸ÑĪÐ¸":8004,"ĠÐ¾ÑĤÑĨÐµÐ´ÐµÐ½Ð¸ÑıÑĤ":8005,"ĠÐ¸Ð·Ð¿Ð¾Ð»Ð·Ð²Ð°Ð¹ÑĤÐµ":8006,"ĠÐ»ÑİÑĤÐ¸Ð²":8007,"ĠÑħÐ¾Ð¼Ð¾Ð³ÐµÐ½Ð½Ð¾":8008,"ĠÑģÐ¾ÐµÐ²Ð¸":8009,"ÐŁÐ¾ÑĩÐ¸ÑģÑĤÐ²Ð°Ð¼Ðµ":8010,"ĠÑĢÐµÑĪÐµÑĤÐºÐ°ÑĤÐ°":8011,"Ð´Ð¶Ð¸Ð½Ð´Ð¶Ð¸ÑĦÐ¸Ð»":8012,"Ð¿Ð°Ð´ÑĬÑĤ":8013,"ĠÐ½Ð¸Ð²Ð¾":8014,"ĠÑĪÐ¸ÑĢÐ¾ÐºÐ°ÑĤÐ°":8015,"ĠÐ½Ð°ÑħÑĥÑĤÑĬÑĤ":8016,"Ð³Ð¾Ð»ÐµÐ¼Ð¸ÑĤÐµ":8017,"ĠÑĤÑĬÐ¼Ð½Ð°":8018,"ĠÑģÐ»ÐµÐ´Ð²Ð°ÑīÐ°ÑĤÐ°":8019,"ĠÐ¿ÑĪÐµÐ½Ð¸ÑĩÐµÐ½":8020,"Ð¡Ð»Ð°Ð³Ð°ÑĤÐµ":8021,"ĠÐ¸Ð·Ð±ÑĢÐ¾ÐµÐ½Ð¸":8022,"ĠÐ¢Ð¾Ð¿ÐµÐ½Ð¾ÑĤÐ¾":8023,"ĠÐ¾ÑģÐ²ÐµÐ½":8024,"ĠÐ¨Ð¾ÐºÐ¾Ð»Ð°Ð´Ð°":8025,"ĠÐłÑĥÐ»Ð°ÑĤÐ°":8026,"Ð¦Ð²ÐµÐºÐ»Ð¾ÑĤÐ¾":8027,"ĠÑģÐºÑĬÐ»ÑĨÐ°Ð½Ð¸Ñı":8028,"ĠÑĤÐµÑģÑĤÐµÐ½Ð¸":8029,"ÐĶÑĢÐ¾Ð±ÑĬÑĤ":8030,"ÐĹÐ°Ð´ÑĥÑĪÐ°Ð²Ð°":8031,"ĠÑģÐ¿Ð°Ð½Ð°ÑĩÐµÐ½Ð°ÑĤÐ°":8032,"ĠÑĤÑĢÑİÑĦ":8033,"ĠÐ¿Ð°Ð½Ð³Ð°ÑģÐ¸ÑĥÑģ":8034,"ĠÑĥÑģÑĥÐºÐ²Ð°ÑĤ":8035,"ĠÐĿÐ°Ð¼Ð°ÑģÐ»ÐµÑĤÐµ":8036,"ĠÐ½Ð°Ð¼Ð¾ÐºÑĢÐµÐ½Ð°":8037,"ĠÐĳÐ»Ð°Ð½ÑĪÐ¸":8038,"ĠÐ¸Ð·Ð¿Ð°ÑĢÑıÐ²Ð°Ð½Ðµ":8039,"ĠÐ¾Ð±Ð²Ð¸Ð²ÐºÐ°ÑĤÐ°":8040,"ĠÐ³ÑĢÐµÐ¹Ð¿ÑĦÑĢÑĥÑĤ":8041,"ĠÑĪÐ¿Ð¸ÐºÐ¾Ð²Ð°":8042,"ĠÐĿÑıÐºÐ¾Ð»ÐºÐ¾":8043,"ĠÐ²Ð»Ð°Ðº":8044,"ĠÑĩÐ¾ÑĢÐ±Ð°Ð´Ð¶Ð¸Ð¹ÑģÐºÐ¸":8045,"Ð¾Ð»Ð¾Ð½ÐµÐ·Ðµ":8046,"ĠÐ¸Ð½ÑģÑĤÑĢÑĥÐº":8047,"ĠÑĤÐ¸Ð¿Ð¾Ð²Ð¾":8048,"ĠÑĢÐ¾Ð¼Ð±Ð¾Ð¸Ð´Ð¸":8049,"Ð¾Ð²ÐºÑĥÑģ":8050,"ĠÑģÐ»Ðµ":8051,"ĠÐ½ÐµÐ½Ð°":8052,"ĠÐ¾Ð¿ÑĢÐµÐ´ÐµÐ»":8053,"ĠÐ±Ð¾Ð´":8054,"ÑĤÐ¸Ð³Ð°Ð½":8055,"ÑĢÐ¸Ð²Ð¾":8056,"Ð¼ÐµÑģÑĤÐ¸":8057,"Ð²Ð¸Ð´Ñĥ":8058,"Ð¼Ð°Ñı":8059,"Ð¹Ð½":8060,"ĠÑĢÐ°Ð·ÑĢÑıÐ·Ð°Ð½Ð¸":8061,"ĠÑĢÐ°Ð·ÑĤÐµÐ³Ð»Ñı":8062,"ĠÐŁÑĢÐ°Ð·Ð°":8063,"ĠÑģÐ¸Ð²ÑĢÐ¸Ñı":8064,"ĠÐ¡Ð¾Ð´Ð°ÑĤÐ°":8065,"ĠÐŀÐ¼":8066,"ĠÑĤÐ°Ð»Ñı":8067,"ĠÐ³Ð»Ð°Ð²Ð¸ÑĩÐºÐ¸":8068,"ĠÐĶÐ¾Ð»Ð¸Ð²Ð°ÑĤ":8069,"ĠÑĤÐ¾Ð¿Ð¸":8070,"Ð¿Ð¸ÑĤÐµ":8071,"ĠÑĦÐ¸ÐºÑģ":8072,"ĠÑģÐ¼ÐµÑĤÐ°Ð½Ð¾Ð²Ð¸Ñı":8073,"Ð¡Ð»Ð°":8074,"Ð¡Ð¼ÐµÑģÐ²Ð°":8075,"ĠÐĺÐ·Ð¿ÐµÑĩÐµÐ½Ð¸ÑĤÐµ":8076,"ĠÑģÑĤÐ°ÑĢÐ°":8077,"ÐŁÑĬ":8078,"ĠÐ¿ÑĢÐ°ÑħÐ°":8079,"ĠÐ¢ÐµÐ»Ðµ":8080,"ÐļÑĥÑģ":8081,"ĠÐĳÐµÐ·":8082,"ĠÑĢÐ°Ð·ÑĤÐ¾Ð¿ÐµÐ½Ð°":8083,"ÐĿÐ°ÑģÑĤÑĬÑĢÐ¶ÐµÑĤÐµ":8084,"ÑģÐ¾Ð±":8085,"ĠÐºÐ°ÐºÐ°Ð¾Ð²Ð¸":8086,"ĠÐ¼Ð°ÑĢÐ¼Ð°Ð»Ð°Ð´Ð°":8087,"ĠÐ³Ð¾ÑĢÑĩÐ¸Ð²Ð°ÑĤÐ°":8088,"ĠÐ±Ð¸ÑģÐºÐ²Ð¸ÑĤÐ°":8089,"ÑĨÐ¸ÑıÑĤÐ°":8090,"ĠÐ¾Ð²ÐºÑĥÑģÑıÐ²Ð°Ð½Ðµ":8091,"ĠÐĺÐ·ÑģÐ¸Ð¿Ð²Ð°ÑĤÐµ":8092,"Ð¢Ð¾":8093,"ĠÐĵÐ¾ÑĤÐ¾Ð²Ð¸":8094,"ĠÐ¿ÑĢÐ¸Ð³Ð¾ÑĤÐ²ÐµÐ½Ð¸ÑıÑĤ":8095,"ĠÐŁÐ¾Ð»ÑĥÑĩÐ°Ð²Ð°ÑĤ":8096,"ÑĥÑĤÑĩÐµÑĤÐ¾":8097,"ĠÐºÐ°ÐºÐ²Ð¸ÑĤÐ¾":8098,"ĠÐ¾Ð±ÑĬÑĢÐ½Ðµ":8099,"ĠÐ¾Ð±ÑĬÑĢÐºÐ°Ð¹ÑĤÐµ":8100,"ĠÐ·Ð°ÑĤÐ²Ð°ÑĢÑıÐ¼Ðµ":8101,"ĠÐ·Ð°Ð¿ÐµÑĩÐµÐ½":8102,"ĠÑĪÐ°ÑĢÐµÐ½Ð°ÑĤÐ°":8103,"ĠÑĤÐµÐ½Ð´Ð¶ÐµÑĢÐºÐ°ÑĤÐ°":8104,"ĠÐ½Ð°Ð±ÑĬÐ±Ð½Ð°ÑĤ":8105,"ĠÑģÑĤÐ¾ÑıÑĤ":8106,"Ð¿Ð¾ÑĩÐ¸Ð½Ðµ":8107,"Ð¡Ð²Ð°ÑĢÑıÐ²Ð°ÑĤÐµ":8108,"ĠÑĤÑĢÐ¸ÑĬÐ³ÑĬÐ»Ð½Ð¸Ðº":8109,"ĠÐ¥Ð°":8110,"ĠÐ½Ð°ÑĩÑĥÐ¿ÐµÐ½Ð¸Ñı":8111,"ÐŁÑĢÐ¸Ð³Ð¾ÑĤÐ²ÑıÐ¼Ðµ":8112,"ĠÐĵÐ°ÑĢÐ½Ð¸ÑĢÐ°Ð¹ÑĤÐµ":8113,"ĠÐłÐ°Ð·Ð¿ÑĢÐµÐ´ÐµÐ»ÑıÑĤ":8114,"ĠÑģÑĥÑģÐ°Ð¼Ð¾Ð²Ð¾ÑĤÐ¾":8115,"ĠÑĥÑģÐ²Ð¾":8116,"ĠÐŀÑĤÑĨÐµÐ¶Ð´Ð°Ð¼Ðµ":8117,"ÐĹÐµÐ»ÐºÐ°ÑĤÐ°":8118,"ÑģÐ²Ð°ÑĢÐµÐ½Ð¾":8119,"ĠÐ¿ÑĢÐ¾Ð³ÑĢÐ°Ð¼Ð°ÑĤÐ°":8120,"ĠÑģÑĥÐ¿ÐµÐ½Ð¸":8121,"ĠÐ²ÑĤÐ¾ÑĢÐ¸ÑıÑĤ":8122,"ĠÐ¼Ð°ÐºÑģÐ¸Ð¼Ð°Ð»Ð½Ð¾":8123,"Ð½Ð°ÑĩÐ°Ð»Ð½Ð¾":8124,"ĠÐ¡Ð»Ð°Ð´ÐºÐ¸ÑĪÐ°":8125,"ÐºÐ¾Ð½ÑģÐµÑĢÐ²Ð¸ÑĢÐ°":8126,"ĠÐ²Ð¾Ð´Ð¸ÑĩÐºÐ°":8127,"ĠÐŁÐ¾Ð´ÑħÐ¾Ð´ÑıÑīÐ°":8128,"ĠÐ·Ð°ÑħÐ²Ð°":8129,"ĠÑģÑĬÐ¾ÑĤÐ²ÐµÑĤÐ½Ð¾":8130,"Ð¼Ð°ÑĢÐ¸Ð½Ð¾Ð²Ð°Ð½Ð¸":8131,"ĠÐ¿Ð¾Ð´ÑģÐ»Ð°Ð´Ð¸ÑĤÐµÐ»":8132,"ĠÐºÑĬÐ¿Ð¸Ð½Ð¸":8133,"ĠÑĤÑĢÑĥÐ´Ð½Ð¾":8134,"ĠÐ¼ÑĥÐ»ÑĤÐ¸Ðº":8135,"ag":8136,"Ġ:[":8137,"Ð´Ð½Ð°ÑĤ":8138,"ĠÐ¸Ð²Ð¸ÑĨÐ°":8139,"ĠÐ¼ÐµÐ·":8140,"ĠÐ¾ÑģÑĤ":8141,"ĠÐ¾ÑĢÐ°Ð½":8142,"ĠÐ²Ð´Ð¸":8143,"ĠÐ´ÐµÐ½Ð°":8144,"ĠÐ·Ð°Ð¼Ð°Ð·Ð²Ð°":8145,"ÑħÐ»Ð°Ð´":8146,"ÑĦÐ»Ð°":8147,"Ð¹Ð·":8148,"Ð»ÐµÐºÐ¾":8149,"ĠÐŁÑĢÑıÑģÐ½Ð¾ÑĤÐ¾":8150,"ĠÑıÑĢÐµ":8151,"Ð±Ð¸ÑĤÐ°":8152,"ĠÐ¿ÑĢÐµÐ¿ÐµÑĩÐµÐ½":8153,"Ġ23":8154,"ĠÐ¼ÐµÑģÐ½Ð¸Ñı":8155,"ĠÐ°Ð±":8156,"ĠÐŁÐ¾ÑĤÐ°Ð¿Ñı":8157,"ĠÐĿÐ°Ð¿ÑĢÑĬÑģ":8158,"Ð¿Ð¾ÐºÑĢÐ¸":8159,"ĠÐ¿ÑĢÐ¾Ð²ÐµÑĢ":8160,"ĠÐ¿ÑĢÐ¾Ð²ÐµÑĤ":8161,"Ð¡Ñĥ":8162,"ĠÐ¿ÑĢÐ¸Ð±Ð°Ð²ÑıÐ¼":8163,"ĠÑĢÐµÐ¶ÐµÑĤÐµ":8164,"ĠÐ²ÐºÑĥÑģÐ½Ð¸":8165,"ĠÐĳÐ¾":8166,"ĠÐĳÑĥÐ»ÑĮÐ¾Ð½Ð°":8167,"ĠÐ¿ÑĢÐ¸Ð³Ð¾ÑĤÐ²ÐµÑĤÐµ":8168,"ĠÐºÐ°Ð¿Ð°ÑĩÐºÐ°ÑĤÐ°":8169,"ĠÐŁÐ¾ÑĢÑĤÐ¾ÐºÐ°":8170,"ĠÐ¿Ð¾Ð´Ð½Ð°ÑģÑıÐ¼Ðµ":8171,"ĠÑĥÐºÑĢÐ°ÑģÐµÑĤÐµ":8172,"ĠÐ»ÐµÐºÐ¸":8173,"ĠÐ²ÑĢÑıÐ»":8174,"ĠÐ²ÑĢÑıÐ»Ð¾":8175,"ĠÐĴÐ°Ð´ÑıÑĤ":8176,"ÐłÐ°Ð·Ð±ÑĬÑĢÐºÐ²Ð°Ð¼Ðµ":8177,"ÑĩÑĥÐºÐ²Ð°Ð¼Ðµ":8178,"ĠÐºÐ¾Ð½ÑĤÐµÐ¹":8179,"ĠÑħÐ¾ÑĢÐ¸Ð·":8180,"ĠÐ¿ÑĢÐ¸Ð³Ð¾ÑĤÐ²ÐµÐ½Ð¸":8181,"ĠÐ½Ð°Ð¿ÑĢÐ°Ð²ÑıÑĤ":8182,"ÐĵÑĢÐ¸":8183,"ĠÐ´ÑĢÑĬÐ¶ÐºÐ¸":8184,"ĠÐ»Ð¾Ð¹":8185,"ĠÐºÐ¾ÑĢÐµÐ½Ð°":8186,"ĠÑģÑĤÑĢÐ¸ÑĤÐ¸Ñı":8187,"ĠÐ£ÐºÑĢÐ°ÑģÐµÑĤÐµ":8188,"ĠÐ¼Ð»ÐµÑĩÐ½Ð¾":8189,"ĠÑģÑĤÐµÐ³Ð½Ð°ÑĤÐ¸":8190,"ĠÐ¸Ð·ÐºÐ»ÑİÑĩÐµÑĤÐµ":8191,"ĠÐ¿ÑĢÐ°ÑģÐºÐ¾Ð²Ð°":8192,"ĠÑħÑĢÑĥÐ¿ÐºÐ°Ð²Ð¾":8193,"ÐĲÐ²Ð¾ÐºÐ°Ð´Ð¾ÑĤÐ¾":8194,"ĠÐ±Ð°Ð¼Ð±":8195,"ĠÑĢÐ¾Ð»ÑĨÐ°ÑĤÐ°":8196,"ĠÐµÐ·Ð¸ÐºÐ°":8197,"Ð¾ÑĢÐµÑħÐ¾Ð²Ð¸":8198,"ĠÐłÐ°Ð·ÑģÑĤÐ¸Ð»Ð°Ð¼Ðµ":8199,"ĠÐ±ÑĢÐ°ÑĪÐ½Ð°ÑĤÐ°":8200,"ĠÐ¿ÑĢÑĬÑģÑĤÐ¸ÑĤÐµ":8201,"ĠÐºÐ¾Ð½ÑģÐ¸ÑģÑĤÐµÐ½ÑĨÐ¸ÑıÑĤÐ°":8202,"ĠÐºÐ¾Ð·ÑĥÐ½Ð°":8203,"ĠÐ±Ð¾Ð½Ð±Ð¾Ð½Ð¸ÑĤÐµ":8204,"ÐĿÐ°Ð¼Ð°Ð·Ð²Ð°Ð¼Ðµ":8205,"ĠÐ·Ð°Ð¿ÐµÑĩÐ°ÑĤÐ²Ð°ÑĤ":8206,"ÑĤÐµÐ»ÐµÑĪÐºÐ¾":8207,"ĠÑģÐ²ÐµÐ¶Ð¸":8208,"ĠÑģÐ³ÑĬÐ²Ð°ÑĤ":8209,"ĠÐ¿ÑĬÑģÑĤÑĬÑĢÐ²Ð°":8210,"ĠÐĶÑĢÑĥÐ³Ð°ÑĤÐ°":8211,"ĠÐļÐµÐºÑģ":8212,"ĠÑĢÐ°Ð·Ð²Ð°ÑĢÑıÑĤ":8213,"ĠÐ¾ÐºÑĤÐ¾Ð¿Ð¾Ð´":8214,"ĠÐ°ÑģÐ¿Ð¸ÑĢÐ¸Ð½Ð°":8215,"ĠÐ½ÑĥÐ´ÑĬÐ»":8216,"ĠÐºÐ¾ÑĦÐ¸ÑĩÐºÐ°":8217,"ĠÐĴÐ°ÑĢÐµÐ½ÐµÑĤÐ¾":8218,"ÐĿÐ°ÑģÑĤÑĬÑĢÐ³Ð²Ð°Ð¼Ðµ":8219,"ĠÐ¿Ð»Ð¾ÑģÐºÐ¾ÑģÑĤ":8220,"ĠÐºÐ¾Ð¼Ð¿Ð»ÐµÐºÑĤ":8221,"ĠÐ³ÑĥÐ»Ð°ÑĪ":8222,"ĠÐºÐ°ÑģÐµÑĢÐ¾Ð»Ð°":8223,"ĠÑģÐ°Ð¼Ð¾ÑģÑĤÐ¾ÑıÑĤÐµÐ»Ð½Ð¾":8224,"ĠÐ°Ð¼Ð¿ÑĥÐ»Ð°":8225,"Ð¼ÐµÑģÑĤÐ¸Ð¼Ð¾ÑģÑĤ":8226,"ĠÐ¿ÑĢÐ¾Ð²ÐµÑĤÑĢÐ¸Ð²Ð¾":8227,"sa":8228,"ÐµÐ»Ð¸ÑĤÐµ":8229,"ÑĤÐ²Ð¾ÑĢ":8230,"Ð»ÑĩÐµ":8231,"ĠÐ¿ÑĩÐµ":8232,"ÑĥÐ²Ð°ÑĤ":8233,"ÑĥÐ´Ð¸":8234,"ĠÐ¾ÐºÐ°":8235,"Ð±ÑĢ":8236,"ÑĢÐ°ÑģÑĤÐ¸ÑĤÐµ":8237,"Ð½Ð¾Ð²Ð¸ÑĤÐµ":8238,"ĠÐ·Ð°Ð¿ÑĢÐ¸":8239,"ĠÐ·Ð°Ð³Ð¾ÑĢÑıÑĤ":8240,"ÑĪÐ½Ð¾":8241,"ÑĤÐ¸ÐµÑĤÐ¾":8242,"ÑĨÐ²Ðµ":8243,"Ð¼Ð°Ð»":8244,"ĠÐ¾ÑĤÑĢÐµÐ¶ÐµÑĤÐµ":8245,"Ð»Ð¾Ð½Ð°":8246,"Ð»Ð¾Ð²Ð¸Ð´":8247,"Ð±Ð°Ð»ÑģÐ°":8248,"Ð°ÑĢÐ¾":8249,"ĠÑĢÐ°Ð·Ð´ÐµÐ»":8250,"ĠÐ¸Ð·ÑĢÐµÐ¶ÐµÑĤÐµ":8251,"ĠÐŁÑĢÐµÐ´":8252,"ĠÑĦÐµÑĤÑĥÑĩÐ¸":8253,"Ð¼Ð¾Ð²":8254,"ĠÑĤÐµÑģÐµÐ½":8255,"ĠÐŀÐ²Ð°Ð»Ñı":8256,"ĠÑģÑĤÑıÐ³Ð°":8257,"ÑĩÐµÑĢÐ²ÐµÐ½Ð¸":8258,"ĠÑĦÑĥÑĢÐ¼Ð¸ÑĤÐµ":8259,"ĠÐĶÑĥÐ½Ð°Ð²Ð¸Ñı":8260,"ĠÑĤÐ¾Ð¿ÑıÑĤ":8261,"ĠÑģÐ°Ð»ÑģÐ°":8262,"ĠÑĢÐ°Ð·Ð±ÑĬÑĢÐºÐ²Ð°Ð½ÐµÑĤÐ¾":8263,"ĠÐ·Ð°Ð¿ÑĬÑĢÐ¶ÐµÐ½":8264,"ĠÐ¿Ð°Ð¹":8265,"ĠÑĥÐ²ÑĢÐ¸":8266,"ĠÑĢÐµÐ¶Ð°":8267,"ĠÐ²Ð°ÑĢÑı":8268,"Ð½Ð°ÑĤÑĥÑĢÐ°":8269,"ĠÐ¾Ð¼ÐµÑģÐ¸":8270,"Ð¿ÐµÐº":8271,"ĠÐ±Ð¸ÑıÑĤ":8272,"ĠÐĳÐ°Ñģ":8273,"ĠÑĢÐ¾Ð·Ð¾Ð²Ð°":8274,"ĠÐ¼Ð¸ÑĢÐ¸":8275,"ĠÐ´Ð¶Ð¸Ð½":8276,"ĠÐ¯ÑħÐ½Ð¸ÑıÑĤÐ°":8277,"ĠÐ¯Ð±ÑĬÐ»ÐºÐ°ÑĤÐ°":8278,"ÑĩÑĥÐºÐ°Ð¹ÑĤÐµ":8279,"ĠÑģÑĢÐµÐ´Ð½Ð°ÑĤÐ°":8280,"ĠÐ½Ð°Ð¹Ð»Ð¾Ð½Ð¾Ð²":8281,"ĠÐĴÐ°Ð¶Ð½Ð¾":8282,"ÐłÐ°Ð·ÑĤÐ²Ð¾ÑĢÐµÑĤÐµ":8283,"ĠÐŀÑģÑĤÐ°Ð²Ð°":8284,"ĠÐ·Ð°ÐºÐ²Ð°ÑģÐºÐ°ÑĤÐ°":8285,"ĠÐ¸Ð½Ð´Ð¸Ð²Ð¸Ð´Ñĥ":8286,"ĠÐ¾ÑĤÑĨÐµÐ´ÐµÐ½Ð¾":8287,"ĠÐ¸Ð·Ð¿Ð¾Ð»Ð·Ð²Ð°Ð¼Ðµ":8288,"ĠÐ½ÐµÐ¾Ð±ÑħÐ¾Ð´Ð¸Ð¼Ð¸":8289,"ĠÐ½ÐµÐ¾Ð±ÑħÐ¾Ð´Ð¸Ð¼Ð¾ÑĤÐ¾":8290,"ĠÐ»Ð°Ð¹Ð¼Ð°":8291,"ĠÐ·Ð°ÑĤÐ¾Ð¿Ð»ÑıÑĤ":8292,"ÐĺÐ·Ð¼Ð¸ÑĤÐ°ÑĤÐ°":8293,"ĠÐ¸Ð·Ð´ÑĬÐ»Ð±Ð°Ð²Ð°Ð¼Ðµ":8294,"ĠÑıÐ³Ð¾Ð´Ð¾Ð²":8295,"ĠÐ£Ð½Ð¸":8296,"ĠÐ±ÐµÐ»Ð¸ÑĤÐµ":8297,"ĠÐ¿ÑĢÐ¸ÑĤÐ¸ÑģÐºÐ°Ð¼Ðµ":8298,"ĠÐ½Ð¾Ð¶ÑĩÐµ":8299,"ĠÑĤÑĢÐµÑĤÐ¸Ñı":8300,"ĠÑħÐ»ÐµÐ±ÑĩÐµÑĤÐ°ÑĤÐ°":8301,"ĠÐ´Ð¾Ð»Ðµ":8302,"ĠÐ´Ð¾Ð»Ð½Ð¸Ñı":8303,"ĠÐķÐ´Ð¸":8304,"ĠÐ·Ð°Ð¿Ð°Ð·Ð²Ð°ÑĤ":8305,"ĠÐ·Ð°Ð»ÐµÐ¿ÑıÑĤ":8306,"ÑĢÐ°Ð¼ÐµÐ»Ð¸Ð·Ð¸":8307,"ĠÐ½Ð°Ð²ÑĬÐ½":8308,"ĠÑĥÐ·ÑĢÑıÐ»Ð¾":8309,"ÑĮÐ¾Ð¼Ð³Ð°ÑĤÐ°":8310,"ĠÑģÑĬÑħÑĢÐ°Ð½ÑıÐ²Ð°ÑĤ":8311,"ĠÐ·Ð°ÑħÐ»ÑĥÐ¿ÐµÐ½Ð¾":8312,"ĠÐ½Ð°Ð³Ð¾ÑĢÐµÑīÐµÐ½Ð¾ÑĤÐ¾":8313,"ĠÐ³ÑĢÐ¾Ð·Ð´Ð¾Ð²Ð¸":8314,"ĠÐĳÐµÐ¹Ð»Ð¸":8315,"ĠÐ¿ÑĥÐµÑĪÐºÐ°":8316,"ÐķÐ¼ÐµÐ½ÑĤÐ°Ð»":8317,"ĠÐŁÐ¾ÑĩÐ¸ÑģÑĤÐ²Ð°ÑĤ":8318,"ĠÐŁÑĢÐµÑħÐ²ÑĬÑĢÐ»ÑıÑĤ":8319,"ĠÑģÐ²ÐµÑĤÐ»Ð¾ÐºÐ°ÑĦÑıÐ²Ð¾":8320,"ĠÐºÐ¾Ð·ÑĥÐ½Ð°ÐºÐ°":8321,"ÐºÐ°ÑĢÑĤÐ¾ÑĦ":8322,"ĠÑģÐ¾Ð±ÑģÑĤÐ²ÐµÐ½Ð¸Ñı":8323,"ĠÐ¾ÑģÑĤÑĬÑĢÐ³Ð²Ð°":8324,"ĠÐļÐ¾Ð½ÑģÑĥÐ¼Ð¸ÑĢÐ°ÑĤ":8325,"ĠÐ±Ð°ÐºÐ»Ð°Ð²Ð°":8326,"ĠÐ¿ÑĢÐ¾ÑĨÐµÐ´ÑĥÑĢÐ°ÑĤÐ°":8327,"ĠÐ¿Ð¾Ð´Ð¾Ð±Ð½Ð¾":8328,"ÐļÑĢÐ°ÑģÑĤÐ°Ð²Ð¸ÑĨÐ°ÑĤÐ°":8329,"ÐļÑĢÐ°ÑģÑĤÐ°Ð²Ð¸ÑĨÐ¸ÑĤÐµ":8330,"ĠÐ¿Ð¾Ð²Ð´Ð¸Ð³Ð°ÑĤ":8331,"ĠÐŁÐ¾Ð²ÑĤÐ°ÑĢÑı":8332,"ĠÑģÑĬÐ±Ð¸ÑĢÐ°ÑĤ":8333,"ĠÐĿÐ°Ð´ÐµÐ½Ð¸ÑĨÐ°ÑĤÐ°":8334,"ĠÑģÐ²Ð¾Ð±Ð¾Ð´":8335,"ÐºÑĥÐ±ÑĩÐµÑĤÐ°":8336,"ÑĦÑĬÑģÑĤÑĬÐº":8337,"ĠÐ¼Ð¸Ð½Ð°Ð²Ð°":8338,"ÑĨÐ²ÐµÑĤÐ½Ð¸":8339,"ĠÐ´Ð¸Ð½Ñı":8340,"ĠÑĢÐ°Ð·Ð¼ÐµÐºÐ½Ð°ÑĤÐ¾":8341,"ÑĩÐµÑģÐ½Ð¾Ð²":8342,"Ð¼Ð°Ð¹Ð¾ÑĢÐ°Ð½Ð°":8343,"ĠÐ¿ÑĢÐµÑĨÐµÐ½ÐºÐ°":8344,"ĠÑģÐ°Ð¼Ð°ÑĢÐ´Ð°Ð»Ð°":8345,"Ð¡Ð»Ð°Ð½Ð¸Ð½Ð°ÑĤÐ°":8346,"ĠÑħÐ¾ÑĢÐ¸Ð·Ð¾Ð½ÑĤÐ°":8347,"ÑĢÐ°ÑģÑĤÐ¸ÑĤÐµÐ»Ð½Ð°":8348,"ĠÐĳÐ°ÑģÐ¼Ð°ÑĤÐ¸":8349,"Ġ.":8350,"ĠB":8351,"Ð¾ÐºÐ°":8352,"Ð¾ÑĢÐ¸Ð·":8353,"ÑģÐ»Ð¾":8354,"ÑģÐ½Ð°ÑĤÐ°":8355,"ĠÑģÐ¿Ð¸":8356,"ĠÑģÐ¿Ð¾":8357,"ÐºÐ¿ÑĥÐ»":8358,"ÑĤÐ°Ð»Ð¸Ð°":8359,"ĠÐ½Ð°Ð²Ð¸Ð¹ÑĤÐµ":8360,"Ð½Ð°ÑĤÐ¸ÑĤÐµ":8361,"ÑĦÐµ":8362,"ĠÐºÐ°Ð¹ÐµÐ½":8363,"Ð½ÐµÐ´":8364,"ĠÐ¸Ð·Ð±Ð¸":8365,"ĠÐŁÐµÑĤ":8366,"ÐµÐ½Ð¸ÐµÑĤÐ¾":8367,"Ð³Ð¾Ð´Ð¸":8368,"ĠÑģÐ»Ð°Ð¹Ñģ":8369,"ĠÐĴÐ¼ÐµÑģÑĤÐ¾":8370,"ĠÐĴÑĢÑĬÑīÐ°ÑĤ":8371,"ĠÐĴÐ·ÐµÐ¼ÐµÑĤÐµ":8372,"Ġ240":8373,"ÑĩÐ¸Ñı":8374,"ĠÑħÐ»ÐµÐ±Ð¾Ð¿ÐµÐºÐ°ÑĢ":8375,"ĠÐ½Ð°Ð¼Ð°Ð»Ð¸":8376,"ĠÐµÐ´ÑĢÐ¾ÑĤÐ¾":8377,"ĠÐĿÐ°Ð¾ÐºÐ¾Ð»Ð¾":8378,"ĠÐĿÐ°ÑĢÑıÐ·Ð°Ð½Ð¾ÑĤÐ¾":8379,"ĠÑģÐ»ÐµÐ´Ð½Ð°ÑĤÐ°":8380,"ĠÐ¾Ð±Ð¾":8381,"ĠÐ¾Ð±Ð»Ð¸":8382,"Ð¿Ð¸ÐºÐ°Ð½ÑĤÐ¸Ð½Ð°":8383,"Ð¶Ð¸ÑĨÐ°":8384,"ĠÐĹÐ°Ð¼ÐµÑģÐ²Ð°Ð¼Ðµ":8385,"Ð¼ÐµÑģÑĤÐµÑĤÐµ":8386,"ĠÐłÐ°Ð·ÑĢÐµÐ¶ÐµÑĤÐµ":8387,"ĠÐ¾ÑĢÐ¸Ð·Ð¾Ð²Ð¸":8388,"ĠÐ¿ÑĬÑĢÐ¶ÐµÐ½Ð°":8389,"ĠÐ·ÐµÐ»ÐµÐ½ÑĩÑĥÐºÑĬÑĤ":8390,"ÐŁÐ»ÑĬÐ½ÐºÐ°":8391,"ĠÐ¿ÑĢÐ¾Ð´ÑĥÐºÑĤ":8392,"ĠÑģÐ²Ð¸Ð½ÑģÐºÐ¸ÑĤÐµ":8393,"ĠÐ·ÐµÐ»ÐµÐ²Ð°":8394,"ĠÐ½Ð¾ÑīÑĤÐ°":8395,"ĠÑĢÐ°Ð·ÑĤÐ¾Ð¿ÐµÐ½Ð¸ÑıÑĤ":8396,"ÐĿÐ°ÑĢÑıÐ·Ð°Ð½Ð¸Ñı":8397,"Ð´ÐµÐ²Ð¸ÑģÐ¸Ð»":8398,"ĠÐ¾ÑĤÐ´ÐµÐ»ÐµÐ½Ð¸ÑĤÐµ":8399,"ĠÐļÐ°Ð½Ðµ":8400,"ĠÐºÐ°ÑĢÑĤÐ¾ÑĦÐµÐ½Ð¸ÑĤÐµ":8401,"ĠÑĢÑĬÐ±Ð¾Ð²ÐµÑĤÐµ":8402,"ĠÑħÐ°Ð»Ð²Ð°":8403,"ĠÑħÐ°Ð¿ÐºÐ¸ÑĤÐµ":8404,"ĠÐºÐ¾ÐºÐ¾ÑģÐ°":8405,"ĠÐłÑĬÑģ":8406,"Ð¿Ð¾Ð´ÑģÐ»Ð°Ð´":8407,"Ð¯Ð³Ð¾Ð´Ð¸ÑĤÐµ":8408,"ĠÐĿÐ°Ð½Ð¸":8409,"ÐºÐ°ÑĢÑģÐºÐ°":8410,"ĠÐ¿Ð¾ÑģÐ»ÐµÐ´Ð½Ð¸Ñı":8411,"ĠÑĤÐ¾Ð¿Ð»Ð¸Ð½Ð°ÑĤÐ°":8412,"ĠÐºÐ²Ð°ÑģÐµÐ½Ð°":8413,"ĠÐ¿Ð°ÑĤÐ»Ð°Ð´Ð¶Ð°Ð½ÑĬÑĤ":8414,"ÐļÐ°ÑĪÐºÐ°Ð²Ð°Ð»ÑĬÑĤ":8415,"ĠÐºÑĢÐ¸Ð»Ð°ÑĤÐ°":8416,"ĠÐ¿ÑĢÐµÑģÑıÐ²Ð°Ð¼Ðµ":8417,"ĠÐºÐ»Ð°Ð´ÐµÐ½ÑĩÐµÑĤÐ¾":8418,"ĠÐ´Ð¾Ð»Ð½Ð¸":8419,"ĠÐ¿ÑĢÐµÑħÐ²ÑĬÑĢÐ»ÑıÐ¼Ðµ":8420,"ĠÐ¸Ð·ÐºÐ»ÑİÑĩÐ²Ð°Ð¼Ðµ":8421,"ĠÐ¸Ð·ÑģÑĤÐ¸Ð½Ð°Ð»Ð¸ÑĤÐµ":8422,"ĠÐºÐ²Ð°Ð´ÑĢÐ°ÑĤÐ½Ð°":8423,"ĠÐ¾Ð¿Ð°ÐºÐ¾Ð²ÐºÐ°":8424,"ĠÐ¶ÑĬÐ»ÑĤÐ¾":8425,"ĠÐŁÐ¾Ð»Ð¾Ð²Ð¸":8426,"ÑĥÑģÐ½ÐµÑĤÐµ":8427,"ĠÑĪÐ½Ð¸ÑĨÐµÐ»Ð°":8428,"ÑĢÐ°Ð²Ð½Ð°":8429,"ĠÑĢÐ°Ð·Ð¿Ð¾Ð»Ð°Ð³Ð°":8430,"ĠÑģÑĮÐ¾Ð¼Ð³Ð°ÑĤÐ°":8431,"ĠÐĴÑĢÑĬÑīÐ°Ð¼Ðµ":8432,"ĠÐ°Ð¹ÑĢÐ°Ð½":8433,"ĠÑĢÐ°Ð·ÑĤÐ°Ð¿ÑıÐ½Ðµ":8434,"ĠÐ²ÑĤÐ²ÑĬÑĢÐ´ÑıÑĤ":8435,"ĠÐ¡Ð¾ÐºÑĬÑĤ":8436,"ĠÐĸÐµÐ»Ð°ÑĤÐµÐ»Ð½Ð¾":8437,"ĠÐ¸Ð·Ð¿Ð»Ð°ÐºÐ½ÐµÑĤÐµ":8438,"ĠÐĴÑĤÐ°ÑģÐ²Ð°":8439,"ĠÐ·Ð°ÑģÑĤÑĬÐ¿":8440,"ĠÐ¡ÑĬÑħÑĢÐ°Ð½ÑıÐ²Ð°ÑĤ":8441,"ÐŁÐ°ÑģÑĤÐ°ÑĤÐ°":8442,"ĠÐ½Ð°Ð²Ð»Ð°Ð¶Ð½ÐµÐ½Ð°":8443,"Ð´ÑĬÐ»Ð±Ð¾ÐºÐ°":8444,"ĠÐ¿Ð¾Ð²Ð´Ð¸Ð³Ð°":8445,"ĠÑĥÑģÑĥÐºÐ²Ð°":8446,"ĠÐ¡ÑĤÐ°Ð²Ð°":8447,"ĠÐºÐ°ÑĦÐµÐ½Ð¸ÐºÐ°Ð²":8448,"ĠÐºÐ°ÑĦÐµÐ½Ð¸ÐºÐ°Ð²Ð°":8449,"ĠÐºÐ¾Ð¼Ð±Ð¸Ð½Ð¸":8450,"ĠÐ¡ÑĤÐµÑĢÐ¸Ð»Ð¸Ð·Ð¸":8451,"ĠÐµÐ»Ð¸Ð¿ÑģÐ¾Ð²Ð¸Ð´Ð½Ð¸":8452,"ĠÐ¸Ð½Ð´ÑĢÐ¸ÑĪÐµ":8453,"ĠÐ¼ÐµÐ·Ðµ":8454,"%[":8455,"):[":8456,"23":8457,"ĠÑģÐ²Ð¸Ð²Ð°ÑĤ":8458,"ĠÑģÐºÐ»Ð¸":8459,"Ð»ÑģÐºÐ¸":8460,"ÑıÐ»Ð¾ÑĤÐ¾":8461,"Ð¼ÑĥÐ¼":8462,"ĠÐ½Ð°Ð»Ð¸Ð¼":8463,"ĠÐ³Ð»ÐµÐ´Ð°":8464,"Ð³Ð½Ð°ÑĤ":8465,"ÑĤÐ¸ÐºÐ°":8466,"ÐºÐ¾ÑĤÐ°ÑĤÐ°":8467,"ĠÐ¿Ð¾ÐµÐ»":8468,"ÑĬÑĢÐ´Ð¸ÑĤÐµ":8469,"Ð¶ÐºÐ¸ÑĤÐµ":8470,"ĠÐ»Ð¸Ð¿":8471,"ĠÐ»ÐµÐ²":8472,"Ð±Ð°Ð´ÐµÐ¼Ð¸":8473,"ÑģÑĤÐµÐ½Ð¸ÑĤÐµ":8474,"ĠÐ¸Ð·ÑĩÐ¸ÑģÑĤÐµÑĤÐµ":8475,"ĠÐŁÑĥÐ´":8476,"ÐµÐ½Ð¸ÑĩÐºÐ¸ÑĤÐµ":8477,"ÐµÐ»Ñı":8478,"ĠÐ¿ÑĢÐ¸Ð±ÐµÑĢÐµÑĤÐµ":8479,"ÑıÐºÐ¾Ð³Ð°":8480,"ÑĥÑĢÐ´Ð°":8481,"Ġ210":8482,"ĠÑħÐµÐº":8483,"Ð¿Ð¾ÑĩÐ¸ÑģÑĤ":8484,"ĠÐ¿ÑĢÐ¾Ð±Ð²Ð°":8485,"ĠÐ¿ÑĢÐ¾Ð¿Ð¾ÑĢ":8486,"ĠÑģÐºÐ¸Ð»Ð¸Ð´Ð¸":8487,"ĠÐĺÐ·ÑĨÐµÐ´":8488,"ĠÑĥÑģÐµ":8489,"ĠÐ¼Ð¾Ñı":8490,"ÐŁÐµ":8491,"Ð±Ð¾ÑĢÐ¸":8492,"ÐļÐ¾ÑĤ":8493,"ĠÑĤÑıÐ»Ð¾ÑĤÐ¾":8494,"ĠÐ¿Ð¾ÑĩÐ¸ÑģÑĤÐµÐ½Ð¾ÑĤÐ¾":8495,"ĠÑĢÐ¾Ð·Ð°":8496,"ĠÐŁÑĢÐµÑĨÐµÐ¶Ð´Ð°ÑĤ":8497,"ĠÐ¾Ð²Ð°Ð»ÑıÑĤ":8498,"ÑĩÑĥÐºÐ°Ð½Ð¸ÑĤÐµ":8499,"ĠÐ´ÐµÐ»Ð¸":8500,"ĠÑģÑĩÑĥÐºÐ°Ð½Ð°":8501,"ĠÑĪÐ°ÑĢÐ°Ð½Ð°":8502,"ĠÐ³Ð¾ÑĤÐ²ÑıÑĤ":8503,"Ð¢Ð²ÑĬÑĢÐ´Ð¾":8504,"Ð»Ð¸Ð¼Ð¾Ð½ÐµÐ½Ð°":8505,"ĠÐ¾ÑĦÐ¾ÑĢÐ¼ÑıÑĤÐµ":8506,"ĠÐºÑĬÑĢÐ¿Ð°ÑĤÐ°":8507,"ĠÑģÐ°ÑĢÐ´Ð¸Ð½Ð¸":8508,"ĠÐ½Ð°Ð±ÑĢÐ°ÑĪÐ½ÐµÐ½Ð¸":8509,"ĠÐ¸Ð·ÑĨÐµÐ´ÐµÐ½Ð¾ÑĤÐ¾":8510,"Ð³Ð¾ÑĤÐ¾Ð²":8511,"ÐµÐ»ÐµÐ²Ð¸ÑĤÐµ":8512,"ĠÐ¿Ð¾Ð¿Ð°ÑĢÐµÐ½Ð¸":8513,"ĠÐºÐ°ÑĢÐ°Ð¼ÑĦÐ¸Ð»ÑĬÑĤ":8514,"ĠÐ¿Ð¾Ð·Ð°Ð´ÑĥÑĪ":8515,"ĠÑĤÑĢÐµÑĤÐ°":8516,"ĠÐ´Ð¾Ð»ÐµÐ½":8517,"ĠÐ¿Ð¾Ð»ÑĥÐ³Ð¾ÑĤÐ¾Ð²Ð¾":8518,"ĠÑĥÐºÐ°Ð·Ð°Ð½Ð¾":8519,"ĠÐ¿ÑĢÐµÐ´Ð¿Ð¾ÑĩÐ¸ÑĤÐ°ÑĤÐµ":8520,"ĠÑģÐ¸Ð½ÑĮÐ¾ÑĤÐ¾":8521,"ĠÐ¿Ð¸ÐºÐ°Ð½ÑĤÐµÐ½":8522,"ĠÐ¿ÑĥÐµÑĪÐºÐ¸":8523,"ĠÐ¿Ð¾ÑģÑĤÐ°Ð²ÐµÐ½Ð¸":8524,"ĠÐ¿Ð¾ÑģÑĤÐ°Ð²ÐµÐ½Ð°":8525,"ĠÐ¼Ð°Ð¹Ð¾ÑĢÐ°Ð½":8526,"ĠÐĿÐ°ÑģÑĤÑĬÑĢÐ³Ð²Ð°Ð¼Ðµ":8527,"ĠÐ·Ð°Ð³Ð»Ð°Ð¶Ð´Ð°Ð¼Ðµ":8528,"ĠÐ¾ÑħÐ»ÑİÐ²ÑĩÐµÑĤÐ°":8529,"ĠÐ¢Ð¾Ð¿ÑĩÐµÑĤÐ°ÑĤÐ°":8530,"ĠÑĢÑĬÑģÐ¸Ð¼":8531,"ĠÐ²Ð¸ÑĪÐ½Ðµ":8532,"ĠÐ²Ð¾Ð´ÐµÐ½Ð¸ÑĩÐºÐ¸ÑĤÐµ":8533,"ĠÐ±ÑĬÐ±ÑĢÐµÑĨÐ¸ÑĤÐµ":8534,"ĠÐ½Ð°ÑĢÐµÐ´ÐµÐ½Ð¸":8535,"ÑĤÐ¸ÐºÐ²Ð¸ÑĩÐºÐ¸":8536,"ĠÐĹÐ°Ð¿Ð¾Ñĩ":8537,"ĠÐ±Ð¸ÑģÐºÐ²Ð¸ÑĤÐºÐ¸ÑĤÐµ":8538,"ĠÐ¿Ð°Ð½Ð´ÐµÐ»":8539,"ĠÑĦÐ¸ÑĤÐ¸Ð»Ð¸":8540,"ĠÐ²Ð´Ð»ÑĬÐ±Ð½Ð°ÑĤÐ¸Ð½Ð¸":8541,"ĠÐ·Ð°Ð¿ÑĬÐ»Ð²Ð°ÑĤ":8542,"ĠÐĿÐ°Ð¼Ð°ÑģÐ»ÑıÐ²Ð°":8543,"ĠÑĤÐ»ÑĬÑģÑĤÐ¾":8544,"ĠÐ½Ð°Ð¼Ð¾ÐºÑĢÐµÐ½Ð¸":8545,"ĠÐŁÑĢÐ¾Ð´ÑĬÐ»Ð¶Ð°Ð²Ð°":8546,"ĠÐłÐ¸ÐºÐ¾ÑĤÐ°":8547,"ĠÐŁÐ¾ÑħÐ»ÑĥÐ¿Ð²Ð°ÑĤ":8548,"ÐĸÐµÐ»Ð°ÑĤÐ¸Ð½ÑĬÑĤ":8549,"ĠÐ¸Ð·ÑĢÐ°Ð²Ð½ÑıÐ²Ð°":8550,"ĠÑĪÑĥÑĪÑĥÐ»ÐºÐ°":8551,"ĠÐ¾ÑĨÐ²ÐµÑĤÐ¸":8552,"ÐĹÐ°ÐµÐºÑĬÑĤ":8553,"ÐµÑĢÐµÑĪÐ¸ÑĤÐµ":8554,"ĠÐ¿Ð°ÑģÑĤÑĬÑĢÐ¼Ð°":8555,"ĠÐ¿ÑĢÐµÑĨÐµÐ½Ð¸ÑĤÐµ":8556,"ĠÐĲÑĢÐ¾Ð¼Ð°ÑĤÐ¸":8557,"ĠÐ¾ÑĢÐ¸Ð³Ð¸Ð½Ð°Ð»Ð½Ð°ÑĤÐ°":8558,"ĠÐ¼ÑİÑģÐ»Ð¸":8559,"ĠÐ¾Ð¿Ð¸ÑĩÐ°":8560,"ĠÐ¾Ð¼Ð°Ð·":8561,"Ð±ÑĢÐ°":8562,"ĠÐ²Ð¼ÐµÑģÑĤÐ¸Ð¼Ð¾ÑģÑĤ":8563,"ĠÐ³ÑĢÐµÐ±":8564,"Ð½Ð°ÑĢÑıÐ·Ð°Ð½Ð¾":8565,"ÑĢÐµÐ´Ð°ÑĤÐ°":8566,"ÑĤÐ¸ÑĨÐ°ÑĤÐ°":8567,"Ð½Ð¸ÑĩÐºÐ¾":8568,"ĠÐ´Ð¾Ð¿ÐµÑĩÐµÑĤÐµ":8569,"ĠÐ»ÑĬÑģÐºÐ°":8570,"ÑĦÐµÐº":8571,"ĠÐ¾ÑĤÐ½Ðµ":8572,"Ð»Ð¾Ð²Ð¸Ñı":8573,"ĠÐ¿Ð¾Ð´Ð²Ð¸":8574,"ĠÑĦÐµÑĤÐ°":8575,"ĠÑģÐ¾ÑĩÐ½Ð¸":8576,"ĠÑģÐ»Ð°Ð³Ð°Ð¹ÑĤÐµ":8577,"ĠÑĤÐ°ÐºÑĬÐ²":8578,"ĠÑģÐ¼ÐµÑģÐ²Ð°Ð½Ðµ":8579,"ÑĩÐµÑĢÐ¸":8580,"ĠÐ°Ð³Ð½ÐµÑĤÐ¾":8581,"ĠÐĿÐ°ÑģÑĤÑĬÑĢÐ³Ð°":8582,"ĠÐĶÐ¾Ð¿Ð¸ÑĩÐ°":8583,"ĠÑģÐ°Ð¼Ð°ÑĤÐ°":8584,"ÑĥÐ´ÐµÑģ":8585,"ĠÑģÑĤÑĢÑĬÐºÐ¾Ð²Ðµ":8586,"ÐºÑĢÐ°Ð¹":8587,"ĠÑģÐ¿Ð°Ð´Ð½Ðµ":8588,"ĠÐ³Ð¾ÑĢÐ½Ð°":8589,"ÐĿÐ°Ð¹":8590,"ĠÐĴÑģÐ¸ÑĩÐºÐ¸ÑĤÐµ":8591,"ĠÐ¸Ð·Ð¼Ð¸Ð²Ð°ÑĤÐµ":8592,"ĠÐ²Ð½Ð¸Ð¼Ð°Ð²Ð°Ð¼Ðµ":8593,"ĠÐ¾Ð²ÐºÑĥÑģÑıÑĤ":8594,"ĠÐ¸Ð·ÑĩÐ¸ÑģÑĤÐµÐ½Ð°ÑĤÐ°":8595,"ĠÐ¿Ð°ÑģÐ¸ÑĢÐ°Ð½Ð°ÑĤÐ°":8596,"ÑĢÑĬÐ¶ÐºÐ°ÑĤÐ°":8597,"ĠÐºÐ¾Ð½ÑĨÐ¸ÑĤÐµ":8598,"ĠÐºÐ¸Ð¿Ð½Ð°ÑĤ":8599,"ĠÐ·Ð°Ð¼ÑĢÐ°Ð·ÐµÐ½Ð¸ÑĤÐµ":8600,"ĠÑģÑĥÑĢÐ¾Ð²Ð¾ÑĤÐ¾":8601,"ĠÐ¸Ð·Ð´ÑĬÐ»Ð±Ð°Ð¹ÑĤÐµ":8602,"ĠÑĢÐ°Ð·ÑĤÐ²Ð¾ÑĢÐµÐ½Ð¸":8603,"ĠÐ¼Ð°ÑĢÐ¸Ð½Ð¾Ð²Ð°Ð½Ð¸ÑĤÐµ":8604,"ĠÐ½Ð°ÐºÑĬÑģÐ°Ð½Ð¸ÑĤÐµ":8605,"ĠÑĢÐ°Ð·ÑĤÐ¾Ð¿ÑıÐ²Ð°Ð¼Ðµ":8606,"ÐĵÑĢÐ°ÑħÑĬÑĤ":8607,"ĠÑģÑĤÑĢÐ¸ÑĤÐ°ÑĤÐ°":8608,"ĠÐ½Ð°ÐºÑĬÐ»ÑĨÐ°Ð½Ð¾":8609,"ĠÑģÑĥÑħÐ¾Ð¶Ð¸":8610,"ĠÐ´ÐµÐ±ÐµÐ»Ð¸Ð½Ð°ÑĤÐ°":8611,"ĠÑĩÑĥÐºÐ½ÐµÑĤÐµ":8612,"ĠÐĿÐ°Ð¼Ð°Ð·Ð²Ð°ÑĤÐµ":8613,"ĠÑĢÐ°Ð·Ð±Ð¸ÑĤÐ¸ÑıÑĤ":8614,"ĠÐ³Ð»Ð¸Ð½ÐµÐ½Ð¾":8615,"ÑģÑĥÑĪÐµÐ½":8616,"ĠÐµÐ´Ð½Ð°ÐºÐ²Ð¾":8617,"ĠÐ»Ð¸ÑģÑĤÐµÐ½ÑĨÐ°ÑĤÐ°":8618,"ĠÐ¦ÑıÐ»Ð°ÑĤÐ°":8619,"ĠÑĤÐ¾ÑĩÐ¸Ð»ÐºÐ°ÑĤÐ°":8620,"ĠÑĩÐµÑĢÑĥÐ¿ÐºÐ¸":8621,"ĠÐ¶Ð¸ÑĤÐ¾ÑĤÐ¾":8622,"ÑģÐ¼Ð»ÑıÐ½Ð°":8623,"ĠÑĢÐ°Ð·ÑĢÐµÐ´ÐµÐ½":8624,"ĠÐ¼ÐµÐºÐ¸ÑĨÐ¸":8625,"ĠÐĸÐµÐ»Ð°ÑĤÐ¸Ð½Ð°":8626,"ÐŁÑĢÐµÑģÑıÐ²Ð°":8627,"ĠÐĹÐ°ÑĤÐ²Ð°ÑĢÑıÑĤ":8628,"ĠÐ±Ð°Ð»ÑģÐ°Ð¼Ð¸ÐºÐ¾":8629,"ÑĢÑĬÐ³ÑĩÐµÑĤÐ°ÑĤÐ°":8630,"ĠÐ¿ÑĢÐ¸ÑıÑĤÐ½Ð¾":8631,"ÑĨÐµÐ½ÑĤ":8632,"ĠÐ¸Ð·ÑģÑĬÑħÐ½Ðµ":8633,"ĠÑĢÑıÐ´ÑĬÐº":8634,"ĠÐºÐ¾ÑĢÐµÐ¼Ð°":8635,"ĠÑħÐ°ÑĢÐµÑģÐ²Ð°":8636,"ĠÐ¡Ð¼Ð¸Ð»Ð°":8637,"ĠÐ¼Ð°Ð»Ð¸Ð½Ð¾Ð²":8638,"ĠÐ»Ð¾Ð´ÐºÐ°":8639,"ÑģÑĩÑĥÐºÐ°Ð½":8640,"ĠÐ¡Ð³Ð¾ÑĢÐµÑīÑıÐ²Ð°":8641,"ĠÐŁÑĢÐµÑģÑıÐ²Ð°Ð¼Ðµ":8642,"ĠÑģÐ»Ð°Ð¼ÐºÐ¸":8643,"ĠÐ´Ð»Ð°Ð½ÑĤÐ°":8644,"ĠÐĿÐ°Ð¼Ð°Ð·Ð½ÑıÐ²Ð°":8645,"ĠÐºÐ°Ð½ÐµÐ»Ð¾Ð½Ð¸":8646,"ĠÑĨÑĥÐºÐ¸Ð½Ð¸":8647,"ĠÐļÑĬÑģÐ°ÑĤ":8648,"ĠÑĢÐ¸Ð½Ð³":8649,"ĠÐºÐ°ÐºÐ²Ð°ÑĤÐ¾":8650,"ĠÐ½Ð°Ð¿Ð¾Ð´Ð¾Ð±ÑıÐ²Ð°":8651,"ĠÐ¿ÑĢÐ¸ÑĤÐµÑģÐ½ÑıÐ²Ð°":8652,"ĠÑĪÐµÐ¹ÐºÑĬÑĢ":8653,"ÑĤÐ»ÑĬÑģÑĤÐ¾":8654,"Ð¡ÑĬÑĢÑĨÐ°ÑĤÐ°":8655,"ĠÐ¼ÑĥÐ»ÑĤÐ¸ÐºÑĥÐºÑĬÑĢÐ°":8656,"340":8657,"Ð½ÑıÐ²Ð°Ð½Ðµ":8658,"ĠÑģÐ½Ðµ":8659,"Ð»Ð½Ð¸Ñı":8660,"Ð²Ð½Ð¸Ð¼Ð°":8661,"ÑıÑģÑĤÐ¸ÐµÑĤÐ¾":8662,"ĠÐºÐµÐ´ÑĢÐ¾":8663,"Ð¿ÑĥÐº":8664,"ĠÐ¾ÑĢ":8665,"ÑĢÐ°Ð´Ð¸":8666,"ĠÐ³ÑĢÐµÐ±Ð²Ð°":8667,"ĠÐ·Ð´ÑĢÐ°Ð²":8668,"Ð³Ñĥ":8669,"ĠÐ·Ð°Ð¼ÐµÑģÐ²Ð°ÑĤ":8670,"Ð½Ð°ÑĩÐµ":8671,"ÐºÐ¾Ð¿":8672,"Ð½Ð¸ÑģÐºÐ°":8673,"Ð¼ÐµÑĤÐ¸":8674,"ĠÐ¼Ð°ÑĢÐ¾ÐºÐ°":8675,"ÑĢÑıÐ½Ð°":8676,"Ð¼Ð°Ð·Ð°Ð½Ð°":8677,"ĠÐ¾ÑĤÐ»Ð¸Ð²Ð°":8678,"ĠÐ¾ÑĤÐ¿ÐµÐ½":8679,"ÑģÑĤÑĬ":8680,"ĠÑĢÐ°Ð·ÐºÐ°":8681,"ĠÐ¸Ð·Ð´ÑĬÑĢ":8682,"ĠÐ¸Ð·ÑĢÐµÐ·":8683,"ÑĢÐ¾Ð½":8684,"ĠÑĤÐ¾ÑĦÑĥ":8685,"ĠÑĦÑĢÐµÑĪ":8686,"ĠÑĤÐµÑĢ":8687,"ĠÐºÑĥÑĢÐ°Ð±Ð¸":8688,"ĠÐ¶Ð°Ñģ":8689,"ÑĩÐµÑĢÑĤÐ°":8690,"ĠÐ¿ÑĢÐ¾Ð¼ÐµÐ½ÑıÑĤ":8691,"Ð¡Ð»Ð°Ð´":8692,"Ð¡ÑĥÑħÐ¸ÑĤÐµ":8693,"Ð»Ð°Ð´Ð½Ð¸ÑĨÐ°":8694,"ĠÐ³Ð¸Ð¹":8695,"ĠÑĥÐ³Ð°":8696,"ĠÐ½Ð°ÑĢÐµÐ´Ð¸":8697,"ÑĥÐºÐ°ÑĤ":8698,"Ð¿ÑĬÑĢÑĬÑĤ":8699,"ĠÑĤÐ¸ÐºÐ²ÐµÐ½Ð¸ÑĤÐµ":8700,"ĠÐºÐ¾ÑĢÐ¸ÑĩÐºÐ°ÑĤÐ°":8701,"ĠÐ½ÑıÐºÐ°ÐºÑĬÐ²":8702,"Ð´ÑĥÑħÐ°":8703,"ĠÐĳÐ¾Ð»Ð¾Ð½ÐµÐ·Ðµ":8704,"ÐľÐ°Ð·Ð½Ð¸Ð½Ð°ÑĤÐ°":8705,"ÐľÐ¸Ð´Ð¸ÑĤÐµ":8706,"ÐľÐµÐºÐ¾ÑĤÐ¾":8707,"ĠÐ»ÑĬÐ¶Ð¸ÑĩÐºÐ¸":8708,"ĠÐ±ÑĥÐ»Ð¾ÑĤÐ¾":8709,"ĠÐ¸Ð·Ð¿ÑĬÑĢÐ¶ÐµÐ½Ð¾ÑĤÐ¾":8710,"ĠÐºÐ¾Ð½ÑģÐµÑĢÐ²Ð¸":8711,"ÐºÑĬÑģÐ²Ð°":8712,"ĠÑĢÐµÐ´Ð¾Ð²ÐµÑĤÐµ":8713,"ĠÑģÐ³Ð¾ÑĢÐµÑīÐµÐ½Ð¸Ñı":8714,"ĠÐ·Ð°ÑĩÐµÑĢÐ²ÑıÐ²Ð°":8715,"ĠÐ³ÑĬÑĢÐ±Ð°":8716,"ĠÑħÐ°Ð¼Ð±":8717,"ĠÑĢÐ¸Ð³Ð°Ð½ÑĬÑĤ":8718,"ĠÑĦÐ¾ÑĢÐ¼Ð¸ÑĩÐºÐ°ÑĤÐ°":8719,"ĠÐ¿Ð¾ÑģÐ»ÐµÐ´Ð½Ð¾":8720,"ĠÑĢÐ¾Ð¼Ð±":8721,"ĠÐ´ÑĢÑĥÐ³Ð¸ÑıÑĤ":8722,"ĠÐ¼Ð°ÑĢÐ¸Ð½Ð¾Ð²Ð°Ð½Ð°":8723,"ÑĤÐµÐ½Ð·Ð¸":8724,"ĠÐºÐ»ÐµÑĩÐºÐ°ÑĤÐ°":8725,"Ð³Ð¾ÑĤÐ¾Ð²Ð¸":8726,"ĠÐ´Ð¾Ð»ÐµÐ¹ÑĤÐµ":8727,"ĠÐ¡ÑĬÐ´Ð°":8728,"ĠÐłÐ°Ð·ÑĤÐ¾ÑĩÐ²Ð°Ð¼Ðµ":8729,"ĠÐ»ÐµÑĪÐ½Ð¸Ðº":8730,"ĠÑĢÐµÐ´ÑĥÐ²Ð°ÑĤÐµ":8731,"ĠÐ¡Ð²Ð°ÑĢÐµÐ½Ð¸ÑıÑĤ":8732,"ĠÐ·Ð°Ð²ÑĬÑĢÐ·Ð°Ð½Ð¸":8733,"ĠÐ¾ÑħÐ»ÑİÐ²Ð¸ÑĤÐµ":8734,"ÐºÐµÐ¼Ð±ÐµÑĤÐ¾":8735,"ĠÐķÐ´Ð¸Ð½":8736,"ĠÐ¿Ð¾ÑģÑĤÐ°Ð²ÐµÐ½":8737,"ĠÐ¿ÑĢÐµÑģÐµÐ¹ÑĤÐµ":8738,"ĠÐŁÐ°ÑģÐ¸ÑĢÐ°ÑĤ":8739,"ĠÐºÐ¾ÑĪÐ½Ð¸ÑĩÐºÐ°":8740,"ĠÐºÐ¸ÑĦÐ»Ð¸ÑĩÐºÐ¸ÑĤÐµ":8741,"ÐĺÐ·ÑĩÐ¸ÑģÑĤÐµÐ½Ð¸ÑıÑĤ":8742,"ĠÐ´ÐµÑģÐµÑĢÑĤÐ°":8743,"ĠÐ´ÐµÑģÐµÑĢÑĤÐ½Ð¸":8744,"ĠÐŁÑĥÐ¹ÐºÐ°ÑĤÐ°":8745,"ĠÐ¼Ð°ÐºÑģÐ¸Ð¼ÑĥÐ¼":8746,"ĠÐ²Ð¸ÑĪÐ½Ð¸ÑĤÐµ":8747,"ÐĿÐ°Ð¼Ð°Ð·Ð²Ð°":8748,"ÐŁÑĢÐµÑģÐµÐ¹ÑĤÐµ":8749,"ĠÐ½Ð°ÐºÐ¸ÑģÐ½Ð°ÑĤÐ¸ÑĤÐµ":8750,"ÑĤÐµÐ»ÐµÑĪÐºÐ¸":8751,"Ð·ÐµÐ»ÐµÐ½ÑĩÑĥÑĨÐ¸":8752,"ĠÐ½Ð°Ð´ÑĢÐ¾Ð±ÑıÐ²Ð°":8753,"ĠÐ½Ð°ÑĢÐµÐ´ÐµÐ½Ð¸ÑĤÐµ":8754,"ĠÐ¸Ð·Ð¿Ð»Ð°ÐºÐ½Ð°ÑĤ":8755,"ĠÐ±Ð¸ÑģÐºÐ²Ð¸ÑĤÐµÐ½Ð°ÑĤÐ°":8756,"ĠÐ»Ð¸Ð¼Ð¾Ð½ÑĤÐ¾Ð·ÑĥÑĤÐ¾":8757,"ĠÐŀÑģÐ¾Ð»ÑıÐ²Ð°ÑĤ":8758,"ĠÐĺÐ·ÑģÑĤÐ¸Ð½Ð°Ð»Ð¸ÑıÑĤ":8759,"ĠÐ¡Ð»Ð°Ð´ÐºÐ¸ÑĤÐµ":8760,"ĠÐ¡Ð»Ð°Ð´ÐºÐ¾ÑĤÐ¾":8761,"ĠÐºÐµÑĢÐ°Ð¼Ð¸ÑĩÐ½Ð°":8762,"ÐľÐ°ÑĢÑĥÐ»ÑıÑĤÐ°":8763,"ĠÐ·Ð°Ð³ÑĬÐ²Ð°":8764,"ĠÑģÐ¸Ð»Ð¸ÐºÐ¾Ð½Ð¾Ð²Ð°":8765,"ĠÐ¸Ð´ÐµÐ°Ð»Ð½Ð¾":8766,"ĠÐŀÐ¿Ð¸ÑĤÐ²Ð°":8767,"ÐŁÐ¾ÑĢÑĤÐ¾ÐºÐ°":8768,"Ð¶ÑĬÐ»ÑĤÑĬÐº":8769,"ĠÐ²Ð¸ÑĪÐ½Ð¾Ð²ÐºÐ°":8770,"ĠÐ¾Ð¿Ð¸ÑģÐ°Ð½Ð¸ÐµÑĤÐ¾":8771,"ĠÑĦÑĢÐµÐ½ÑģÐºÐ¾":8772,"Ð¡ÑĬÑģÑĤÐ°Ð²ÐºÐ¸ÑĤÐµ":8773,"ÐĴÐ°ÑĢÐ¸":8774,"Ð¨Ð°ÑĢÐ°Ð½ÑĬÑĤ":8775,"ĠÐ¿Ð¾Ð´Ð»Ð¾Ð¶ÐºÐ°":8776,"ĠÐĶÐ¾Ð»ÐµÐ¹ÑĤÐµ":8777,"ĠÐ¸Ð·Ð³Ð»ÐµÐ¶Ð´Ð°":8778,"ĠÐ¿ÑĩÐµÐ»ÐµÐ½":8779,"Ð¼Ð°Ð»ÑĬÐº":8780,"ÐļÐ¾ÑĤÐ»ÐµÑĤÐ¸ÑĤÐµ":8781,"210":8782,"85":8783,"il":8784,"ĠD":8785,"ĠG":8786,"ĠP":8787,"ĠÑĢÑıÐ·Ð°":8788,"Ð½ÑıÐºÐ¾Ð³Ð°":8789,"ĠÑģÑĢÐ°Ð²Ð½Ð¸":8790,"ÑıÑĢ":8791,"ÑĥÐ¶":8792,"ĠÐ½Ð°ÑĤÑĬÐ¿":8793,"ĠÐºÐµÑģÐ¸":8794,"ĠÐºÐ»Ð¾Ðº":8795,"ĠÐºÐ½ÐµÐ´":8796,"ĠÐ¾ÑģÐµÐ¼":8797,"ĠÑĩÐ¾Ð²Ðµ":8798,"ĠÐ·Ð°Ð¹":8799,"ÑĤÐ¸Ð»Ð°":8800,"Ð½Ð¸ÑĪ":8801,"Ð½Ð¸ÑĩÐºÐ¸":8802,"ĠÐ¼Ð°Ð¶ÐµÑĤÐµ":8803,"ÑĢÐ°Ð·ÑĤÐ¾Ð¿ÐµÐ½Ð¾":8804,"ĠÐ¸Ð·Ð¿ÐµÑĩÐµÐ½":8805,"ĠÐ¡ÐºÐ°ÑĢÐ¸Ð´Ð¸ÑĤÐµ":8806,"ÑĢÐ¾Ð¼Ð¸Ð´":8807,"Ð±Ð¸Ð²Ð°ÑĤ":8808,"ĠÐ¿ÑĢÐ¸ÐºÐ»Ñİ":8809,"ĠÐ¿ÑĢÐ¸Ð´Ð°Ð²Ð°":8810,"ĠÐ¿ÑĢÐµÑģÐ¸Ð¿Ð²Ð°":8811,"ĠÐĴÐºÐ»ÑİÑĩÐ²Ð°":8812,"ĠÑģÑĬÑģÑĤÐ¾":8813,"ĠÑĤÐ°Ð¹Ð½Ð¸":8814,"ÑĥÐ»ÐºÐ°":8815,"ĠÑħÐ°Ð½":8816,"ĠÐµÐ´Ð²Ð°":8817,"Ð¿Ð¸ÑĩÐºÐ¸ÑĤÐµ":8818,"Ð¿Ð¾Ð¾Ð»Ñĥ":8819,"ĠÐ¿Ð°ÑĤÐµ":8820,"Ð¡Ð¿Ð°Ð½Ð°ÐºÐ°":8821,"ĠÐ¿ÑĬÑĢÐ¶ÐµÐ½":8822,"ĠÑģÐ¾ÑģÐ¾Ð²Ðµ":8823,"ĠÐ¿ÐµÑĩÐµÐ½Ð¾ÑĤÐ¾":8824,"Ð¼ÐµÑĢÐ½Ð¾":8825,"ĠÐ¢Ð¸ÐºÐ²Ð¸ÑĩÐºÐ°ÑĤÐ°":8826,"Ð¿ÐµÑĩÐ°ÑĤ":8827,"Ġ48":8828,"ĠÐ¡Ð»Ð°Ð³Ð°Ð¼":8829,"ÐļÐ¾Ð»Ð°":8830,"ĠÐ·Ð°Ð¿ÑĬÑĢÐ¶Ð²Ð°Ð¼":8831,"ĠÐ½ÑıÐºÐ°ÐºÐ²Ð°":8832,"ĠÐĳÐµÐ»ÑĤÑĬ":8833,"ÐľÐ¾ÑĢÐºÐ¾Ð²ÑĬÑĤ":8834,"ĠÑģÑĤÑĥÐ´ÐµÐ½Ð¸Ñı":8835,"ĠÐ¸Ð·Ð±Ðµ":8836,"ĠÐ³Ð¾ÑĢÐ½Ð¸ÑĤÐµ":8837,"Ð°ÑģÑĤÐµ":8838,"Ð°Ð½Ð´":8839,"ÑģÐ¾Ð²":8840,"ĠÐĲÑĢ":8841,"ĠÑģÐ¸ÑĢÐ¾Ð¿Ð¸ÑĢÐ°ÑĤ":8842,"ÐĳÐµÐºÐ¾Ð½ÑĬÑĤ":8843,"ĠÐ³Ð°ÑĢÐ½Ð¸ÑĢÐ°Ð½Ð°":8844,"ĠÐ²ÑĤÐ°ÑģÐ°Ð»Ð¾":8845,"ÐĺÐ·ÑĩÐ¸ÑģÑĤÐµÑĤÐµ":8846,"ĠÐ¿ÑĢÐ¾Ð´ÑĬÐ»Ð¶Ð¸ÑĤÐµÐ»Ð½Ð¾":8847,"ĠÐ²Ð¸Ð»Ð¸ÑĨÐ°ÑĤÐ°":8848,"ĠÐ½ÐµÐ¾Ð±ÑħÐ¾Ð´Ð¸Ð¼Ð°ÑĤÐ°":8849,"ĠÐ¿ÑĬÑĢÐ»ÐµÐ½":8850,"ĠÐ¿ÑĬÑĢÐ²Ð¾ÑĤÐ¾":8851,"ĠÐĽÐ¾":8852,"ÑĮÐ¾Ð¿Ð¾Ð¾Ð»Ñĥ":8853,"ĠÑģÐ³ÑĬÑģÑĤÑıÑĤ":8854,"Ð¤Ð¸":8855,"ĠÑģÐ°Ð»Ð°Ð¼ÑĬÑĤ":8856,"ĠÐĹÐ°Ð´ÑĥÑĪÐ°Ð²Ð°Ð½ÐµÑĤÐ¾":8857,"Ð§ÐµÑģÑĬÐ½Ð°":8858,"ÐłÐ°Ð·Ð±Ð¸Ð²Ð°ÑĤÐµ":8859,"ĠÐ½Ð°Ð¿ÑĢÐ°Ð²Ð°ÑĤÐ°":8860,"ĠÑģÑĬÑĢÐ½Ðµ":8861,"ÑħÐ¸Ð¼Ð°Ð»Ð°Ð¹ÑģÐºÐ°":8862,"ÐĵÐ»Ð°":8863,"ĠÐ´ÑĢÑĬÐ¶ÐºÐ°":8864,"ÐĽÑİ":8865,"ĠÐ¨Ð¸ÑĪ":8866,"ĠÐ¨Ð½Ð¸ÑĨÐµÐ»Ð¸ÑĤÐµ":8867,"ĠÑĢÐ¸Ð±Ð½Ð¸ÑĤÐµ":8868,"ĠÐ½Ð°ÐºÑĬÐ»ÑĨÐ°Ð½Ð¾ÑĤÐ¾":8869,"ĠÐ¿ÑĢÐµÑģÐ¾Ð²Ð°Ð½Ð¸ÑıÑĤ":8870,"ĠÐºÐ¾ÐºÐ¾ÑģÐ¾Ð²":8871,"ĠÐ¼ÑĬÑĦÐ¸Ð½Ð¸ÑĤÐµ":8872,"ĠÑģÐ¼ÐµÑģÐ¸ÑĤÐµ":8873,"ÐļÐ¾ÐºÐ¾":8874,"ĠÐ¿Ð¾ÑħÐ»ÑĥÐ¿ÐµÑĤÐµ":8875,"ĠÐºÐ¾ÑģÑĤÑĤÐ°":8876,"ĠÐĺÐ·Ð´ÑĬÐ»Ð±Ð°Ð²Ð°Ð¼Ðµ":8877,"ĠÐµÐ»Ð´Ð°ÑĤÐ°":8878,"ĠÐŁÐ¾ÑĩÐ¸ÑģÑĤÐ²Ð°Ð¼Ðµ":8879,"ĠÐŁÑĢÐµÑħÐ²ÑĬÑĢÐ»ÐµÑĤÐµ":8880,"ÐĺÐ·ÑĩÐ¸ÑģÑĤÐµÐ½Ð¸ÑĤÐµ":8881,"Ð´ÑĢÐµÐ±Ð¾Ð»Ð¸Ð¸ÑĤÐµ":8882,"ĠÑĩÐµÑĢÐ¿Ð°ÐºÐ°":8883,"ĠÐºÐ¸ÑģÐ½Ð°ÑĤ":8884,"ĠÐĵÐ¾ÑĤÐ²Ð¸Ð¼":8885,"ĠÐ¼ÐµÑĤÐ°Ð»Ð½Ð°":8886,"ĠÑģÐ»Ð¾Ð¶ÐµÐ½Ð¸":8887,"ĠÑģÐ»Ð¾Ð¶ÐµÐ½Ð°":8888,"ĠÐºÑĬÑĢÐ²Ð°Ð²Ð¸ÑĨÐ°ÑĤÐ°":8889,"ĠÐ²ÑĤÐ°ÑģÐ²Ð°ÑĤ":8890,"ĠÐĶÐµÑģÐµÑĤÐ¸Ð½Ð°":8891,"ĠÐ·Ð°Ð¼ÐµÑģÑĤÐ¸":8892,"ĠÐºÑĥÐ¿ÑĩÐ¸Ð½ÐºÐ°":8893,"ĠÐĿÐ°ÐºÐ¸ÑģÐ½ÐµÑĤÐµ":8894,"ĠÐ½Ð°ÑĩÑĥÐºÐ°Ð½Ð¸ÑĤÐµ":8895,"ĠÐĹÐ°ÑħÐ»ÑĥÐ¿Ð²Ð°Ð¼Ðµ":8896,"ĠÐ¾ÑĤÑģÑĤÑĢÐ°Ð½ÑıÑĤ":8897,"ĠÐ·Ð°Ð¿ÐµÑĩÐ°ÑĤÐ°ÑĤ":8898,"ĠÐ¸Ð·Ð»Ð¸ÑĪÐ½Ð¾ÑĤÐ¾":8899,"ĠÐĴÑĤÐ¾ÑĢÐ°ÑĤÐ°":8900,"Ð¿ÑĢÑıÑģÐ½Ð°":8901,"Ð´ÑĢÑĥÐ³Ð¸":8902,"ĠÐ¿ÑĥÑĢÐ¸ÑĩÐºÐ¸":8903,"ĠÐĹÐ°ÑĪÐ¸Ð²Ð°":8904,"ĠÐ¿Ð¾ÑĤÑĬÐ¼Ð½ÐµÐµ":8905,"ÐŁÑĢÐ¸Ð³Ð¾ÑĤÐ²ÐµÑĤÐµ":8906,"ĠÑĨÐµÐ»Ð¾ÑĦ":8907,"ĠÐ¾ÑĢÐ°Ð½Ð¶Ðµ":8908,"ĠÐŁÑĢÐµÐ´ÑıÑģÑĤÐ¸ÐµÑĤÐ¾":8909,"ĠÐºÐ»Ð¾ÐºÐ½Ðµ":8910,"115":8911,"270":8912,"an":8913,"Ġ900":8914,"Ð°Ð³Ð½Ðµ":8915,"ÑģÐ¾ÑĢ":8916,"ÑĤÐµÐ½Ð°ÑĤÐ°":8917,"Ð½ÐµÐ½Ð¾ÑĤÐ¾":8918,"Ð²ÐµÐ½Ðµ":8919,"ÐºÐ»Ðµ":8920,"Ð´Ð½Ð°ÑĤÐ°":8921,"ĠÐ¸Ð½Ð°ÑĩÐµ":8922,"Ð¼Ð»":8923,"Ð·Ð¾Ð»Ð°":8924,"Ð¿Ð»Ð¾":8925,"ĠÐ·ÑĢÐµ":8926,"ĠÐ·Ð°Ð»ÐµÐµ":8927,"ÑĢÐµÐ²":8928,"ÑĤÐ¸Ðµ":8929,"Ð»Ð¸ÑĤÑĢÐ°":8930,"ÑĢÐ¸Ð½Ð¾":8931,"ÑĢÐ¸Ð·Ð¾":8932,"ÑĨÐ¾Ð²Ð°":8933,"ĠÐ¿Ð¾ÑĪ":8934,"ĠÐ¼Ð°Ð»Ð¸Ð½Ð¸ÑĤÐµ":8935,"Ð´Ð°Ð¸ÑĦ":8936,"Ð»ÐµÑĤÐ¸":8937,"Ð»Ð¾Ð±":8938,"ĠÐ¸Ð·Ð¿ÑĬÐ»":8939,"ĠÐ¿Ð¸Ð¿ÐµÑĢÑĬÑĤ":8940,"Ð¾ÑĤÐ¾Ð¿":8941,"ĠÑĩÐµÑĢÐ²Ð°ÑĤÐ°":8942,"Ð¼Ð¸Ð´Ð°":8943,"ĠÐ¿ÑĢÐµÐ²":8944,"Ð´Ð¸Ð¼Ð¾":8945,"ĠÐŀÐ±ÐµÐ·ÐºÐ¾ÑģÑĤ":8946,"ÑģÐ¸Ð»Ð¸":8947,"ÑģÐ¸ÑĢÐ¾":8948,"ĠÐ½ÐµÐ±ÐµÐ»":8949,"ÑģÐ°Ð»Ð°Ð¼":8950,"ÑĥÐ»ÑĨÐ°ÑĤÐ°":8951,"ĠÐĿÐ°Ð²Ð¸Ð¹ÑĤÐµ":8952,"ĠÑĢÐ°Ð·Ð±ÑĬÑĢÐºÐ²Ð°Ð¹ÐºÐ¸":8953,"ĠÐĹÐ°Ð¼ÐµÑģÐµÑĤÐµ":8954,"Ð¡Ð¾Ð»":8955,"ĠÐºÑĢÐ°ÐºÐ°ÑĤÐ°":8956,"ĠÐ¸Ð·Ð¼Ð¸ÑĤÐ¾ÑĤÐ¾":8957,"ĠÐ¾ÑĢÐµÑħÐ°":8958,"ĠÐ¾ÑĢÐµÑħÐ¾Ð²Ð°":8959,"ĠÐ¾Ð±ÐµÐ»ÐµÐ½Ð¸ÑıÑĤ":8960,"ĠÐ²ÐºÑĥÑģÐ½Ð°":8961,"ĠÐĳÐµÐºÐ¾Ð½Ð°":8962,"ĠÑģÐ¿Ð°Ð´Ð½Ð°ÑĤ":8963,"ĠÐ¸Ð·Ð¿ÑĬÑĢÐ¶ÐµÐ½Ð¾":8964,"ĠÐ¿ÑĬÐ»Ð½Ð¸ÑĤÐµ":8965,"Ð±ÐµÑĢÐµ":8966,"ÐŀÐ²ÐºÑĥÑģ":8967,"ÐŀÐ²ÐµÑģÐµÐ½Ð¸ÑĤÐµ":8968,"ĠÐłÐ°Ð·Ð±ÑĬÑĢÐºÐ²Ð°Ð¹ÑĤÐµ":8969,"ĠÐºÑĢÐ¾ÐºÐ°Ð½":8970,"Ð¾ÑĤÑĨÐµÐ´":8971,"ĠÐºÐµÐ¹":8972,"ĠÐ¿Ð¸Ð»Ð°ÑĦ":8973,"ĠÐľÐ°Ð¶Ð°ÑĤ":8974,"ĠÐ³Ð¾ÑĤÐ¾Ð²Ð¸ÑıÑĤ":8975,"ÐºÐ»ÑİÑĩÐ²Ð°Ð¼Ðµ":8976,"Ð¿Ð°ÑĢÐ²Ð°":8977,"Ð¼ÐµÐ½Ñı":8978,"Ð§ÑĥÑĪÐºÐ°ÑĤÐ°":8979,"ĠÐ»Ð¸Ð¼Ð¾Ð½Ð°Ð´Ð°ÑĤÐ°":8980,"ĠÑģÐ¾ÐµÐ²Ð¾":8981,"ĠÐ¿ÑĥÑģÐºÐ°Ð¼Ðµ":8982,"ĠÐ¿ÑĢÐ¸ÑĤÐ¸ÑģÐºÐ°ÑĤÐµ":8983,"ĠÐŁÑĢÐ°ÑģÐºÐ¾Ð²Ð¸ÑĤÐµ":8984,"ĠÐ¿Ð¾ÑĩÐ¸Ð½Ð°ÑĤ":8985,"ĠÐ¾ÑģÐ½Ð¾Ð²ÐµÐ½":8986,"ĠÐŁÐ°ÑģÑĤÐ°ÑĤÐ°":8987,"ĠÑĪÐ°ÑĢÐµÐ½":8988,"ĠÑĢÐ°Ð·Ð±ÑĬÑĢÐºÐ°Ð½Ð°ÑĤÐ°":8989,"Ð²Ð°Ð½Ð¸Ð»Ð¾Ð²Ð°":8990,"ĠÐŀÐ±ÐµÐ»Ð²Ð°":8991,"ĠÐ·Ð°Ð¿ÑĥÑĪ":8992,"ĠÑĪÐ¸ÑĢÐ¾ÑĩÐ¸Ð½Ð°":8993,"ĠÑĢÐ°Ð·ÑĢÐµÐ´Ð¸":8994,"ĠÑģÑĬÑĢÑĨÐµÑĤÐ¾":8995,"ĠÐ´ÐµÐºÐ¾ÑĢÐ¸":8996,"ĠÐ´ÑĬÑĢÐ¶Ð¸Ð¼":8997,"ĠÐ»Ð¸ÐºÑĮÐ¾ÑĢÑĬÑĤ":8998,"ĠÐ´Ð¾Ð¿Ð¸ÑĩÐ°Ð¼Ðµ":8999,"ĠÐºÑĥÑħÐ½ÐµÐ½ÑģÐºÐ¸Ñı":9000,"ĠÑĦÑĬÑģÑĤÑĬÑĩÐµÐ½Ð¾ÑĤÐ¾":9001,"ĠÑģÐ²Ð°Ð»Ð¸Ð¼":9002,"ĠÐ¼Ð°ÐºÐµÐ´":9003,"ĠÑĤÐµÑĦÐ»Ð¾":9004,"ĠÑĥÐ½Ð¸ÑģÐ¾Ñģ":9005,"ĠÐ¿ÑĥÐµÑĪÐºÐ¾ÑĤÐ¾":9006,"ĠÐķÐ´Ð½Ð¾":9007,"ĠÑĩÐµÑĢÑĥÐ¿ÐºÐ°ÑĤÐ°":9008,"ĠÐ¾ÑĩÐ¸ÑĩÐºÐ¸":9009,"ĠÐłÐ°Ð·Ð¿ÑĢÐµÐ´ÐµÐ»ÑıÐ¼Ðµ":9010,"ÑĤÑĬÐ½ÐºÐ¾":9011,"ĠÐ´Ð¾Ð¼Ð°ÑĪÐµÐ½":9012,"ĠÑĢÐ°Ð·ÑĢÐµÐ´ÐµÐ½Ð°":9013,"ĠÑģÐ¼Ð°ÑĩÐºÐ°Ð½Ð¸":9014,"ĠÐĳÐ°Ð´ÐµÐ¼Ð¸ÑĤÐµ":9015,"ĠÐ»Ð¾Ð·Ð¾Ð²Ð¸ÑĤÐµ":9016,"Ð¦Ð°ÑĢÐµ":9017,"ĠÐ½Ð°ÐºÑĬÑģÐ°Ð¹ÑĤÐµ":9018,"ĠÐ¤Ð¾ÑĢÐ¼Ð¸":9019,"ÐĹÐ°Ð´ÑĥÑĪÐ°Ð²Ð°Ð¼Ðµ":9020,"ĠÐ½Ð°ÑĢÐµÐ´ÑıÑĤ":9021,"ĠÑħÐµÑĢÐ¼ÐµÑĤÐ¸":9022,"ĠÐ±ÑĢÐ¾Ð¹":9023,"ĠÐ¿Ð¾ÑģÑĤÐ¾ÑıÑĤ":9024,"ĠÐ¿ÑĢÐµÐ¼Ð°ÑħÐ½ÐµÑĤÐµ":9025,"ĠÑģÐ½Ð¸Ð¼ÐºÐ¸ÑĤÐµ":9026,"ĠÐ¸Ð·Ð¿ÐµÑĩÐµÐ½Ð¾":9027,"ĠÐ¿Ð¾Ð¼ÐµÑī":9028,"Ð¿Ð¾ÑĢÑĬÑĩÐ²Ð°":9029,"Ð»ÑĮÐ¾Ð½Ð¸":9030,"ĠÐ½ÑıÐºÐ¾Ð¸":9031,"ĠÐºÐ°Ð¼Ð±Ð°":9032,"ĠÐ¿ÑĥÑħÐºÐ°Ð²Ð¾ÑģÑĤ":9033,"ĠÐ¿ÑĢÐµÐºÐ°ÑĢÐ²Ð°":9034,"ĠÐ²ÐµÑĢÐ¼ÑĥÑĤ":9035,"ĠÐ¿ÑĥÑģÐ½Ð°Ð»Ð¸":9036,"ĠÑĦÐ¸Ð»ÑĤÑĢÐ¸":9037,"ĠÐ¾ÑĤÐ¿ÑĥÑģÐ½Ðµ":9038,"ĠÑĢÐµÐ±ÑĬÑĢÑĨÐ°":9039,"ĠÑĢÐ¾Ð½Ð»Ð¸Ð²Ð¾":9040,"ĠÐµÐ¼Ð°Ð¹Ð»Ð¸ÑĢÐ°Ð½":9041,"ÐºÐ¾Ð»Ð¸ÑĩÐµÑģÑĤÐ²Ð¾ÑĤÐ¾":9042,"ĠÐ¾ÑģÐ¼Ð¸Ð½ÐºÐ¸":9043,"ĠÑģÐ»Ð¾ÐµÐ²Ðµ":9044,"ĠÑĤÐ°Ð»ÑıÑĤÐµÐ»Ðµ":9045,"ĠÐºÐ¾Ð½ÑĤÐµÐ¹Ð½ÐµÑĢÐ°":9046,"ĠÐŀÐ²Ð°Ð»ÑıÐ¹ÑĤÐµ":9047,"ĠÑħÐ¾ÑĢÐ¸Ð·Ð¾Ð½ÑĤÐ°Ð»Ð½Ð¾":9048,"ĠÐ¿Ð¾Ð´Ð²Ð¸Ð¶Ð½Ð¾":9049,"ĠÐ¼Ð°ÑĢÐ¾ÐºÐ°Ð½ÑģÐºÐ¸":9050,"ĠÑģÑĢÐ°Ð²Ð½Ð¸ÑĤÐµÐ»Ð½Ð¾":9051,"ĠÑħÐ°Ð½ÑĥÑĤ":9052,"..":9053,"ĠL":9054,"ĠÑĨÐ°":9055,"Ġ75":9056,"ÐµÑĤÐ¸ÑĤÐµ":9057,"Ð²Ð½Ð°":9058,"Ð²Ð¾Ð´Ð°ÑĤÐ°":9059,"ĠÐ¿ÑĥÐ»":9060,"ÑĤÐ°Ð¼Ð°ÑĤ":9061,"ÑĤÐ¾Ð¿Ð¸":9062,"ÑĢÐ°Ð±":9063,"ÑĢÐ°Ð²Ñı":9064,"ĠÑĩÑĢÐµÐ·":9065,"ĠÐ±ÑĥÐº":9066,"ĠÐ·Ð°Ð´Ð°":9067,"Ð¼Ð°ÐºÐ°":9068,"ĠÐºÐ°Ð½Ð°Ð¿":9069,"ĠÐ¾ÑĤÑħÐ»ÑĥÐ¿Ð²Ð°":9070,"Ð°ÑĢÐ¿Ð°":9071,"ĠÑĢÐ°Ð·ÑģÑĤ":9072,"ĠÑĢÐ°Ð·Ð²Ð°ÑĢÐ¸":9073,"ĠÑĢÐ°Ð·Ð¿Ð°Ð´Ð½Ðµ":9074,"ĠÐ¸Ð·Ð´Ðµ":9075,"ĠÐ¸Ð·Ð»ÐµÐ¹ÑĤÐµ":9076,"ĠÐ¸Ð·Ð³Ð¾ÑĢÐ¸":9077,"ÑĨÐµÐ´ÑĥÑĢÐ°ÑĤÐ°":9078,"ĠÑģÐ»Ð°Ð¹":9079,"ĠÐ¿ÑĢÐ¸Ð½":9080,"Ð¼Ð¸Ð½Ð¾Ð²":9081,"ĠÐ·Ð°ÑħÐ°ÑĢÐ½Ð¸":9082,"Ð¼Ð¾Ð½":9083,"ĠÐĴÐºÐ»ÑİÑĩÐµÑĤÐµ":9084,"ÑİÐµÑĢ":9085,"ĠÑģÑĤÑĢÐ°Ð½Ð¸ÑĤÐµ":9086,"Ð²ÐµÐ¶Ð´Ð°":9087,"ĠÐļÑĢÑĥÑĪÐ¸ÑĤÐµ":9088,"ĠÐĿÐ°ÑĩÑĥÐºÐ²Ð°ÑĤ":9089,"ĠÐĶÐ¾Ð¿ÑĬÐ»":9090,"Ġ32":9091,"Ð¾Ð²Ð¸ÑıÑĤ":9092,"Ð½ÑģÐºÐ¾ÑĤÐ¾":9093,"Ð¡Ð»Ð¸Ð²Ð¸ÑĤÐµ":9094,"Ð»Ð°Ð´ÐµÑĤÐµ":9095,"ĠÐŀÑĤÐ´ÐµÐ»":9096,"ĠÐŀÑĤÑĢÑıÐ·Ð²Ð°ÑĤ":9097,"ĠÐŀÑĤÐ½ÐµÐ¼Ð°":9098,"ĠÑģÑĤÐ°ÑĢÐ¸":9099,"Ð·Ð¸Ð¼Ð°ÑĤ":9100,"ĠÑĢÐ°Ð¼":9101,"ĠÐļÐ¾Ð¿ÑĬÑĢÑĬÑĤ":9102,"ÐĴÐ¸":9103,"ÐĴÑĬÑĢÑħÑĥ":9104,"ĠÐ´ÑĬÐ»Ð³Ð°":9105,"ĠÐºÑĢÐ°ÑģÑĤÐ°Ð²Ð¸ÑĩÐºÐ°ÑĤÐ°":9106,"ÑĪÐ¸Ñı":9107,"ÐµÑĤÐºÐ¸":9108,"ĠÐ¸Ð·Ð¿ÑĬÑĢÐ¶ÐµÐ½":9109,"ĠÐ¸Ð·Ð¿ÑĬÑĢÐ¶ÐµÐ½Ð°ÑĤÐ°":9110,"ĠÐ¿ÑĬÐ»Ð½ÐµÐ½Ð¸ÑĤÐµ":9111,"ĠÐ³Ð¾Ð»ÐµÐ¼Ð¸ÑĤÐµ":9112,"ÐŀÐ¼ÐµÑģÐµÑĤÐµ":9113,"ÐŀÑĢÐµÑħÐ¸ÑĤÐµ":9114,"ÐºÑĬÑģÐ°":9115,"ĠÑıÐ±ÑĬÐ»ÐºÐ¾Ð²Ð¸Ñı":9116,"ĠÐ»ÐµÐ³":9117,"ĠÐ½Ð°Ð¼Ð°ÑģÐ»ÐµÐ½Ð¾":9118,"Ð³Ð¸Ð½Ð°":9119,"ĠÐłÑĥÐ»ÑĨÐ°ÑĤÐ°":9120,"ĠÐĽÐµÑīÐ°ÑĤÐ°":9121,"Ð¼ÐµÐ½ÑĤ":9122,"ĠÐºÐ¾Ð»Ð¸ÑĩÐµÑģÑĤÐ²Ð°":9123,"ĠÐ½Ð°ÐºÑĬÑģÐ²Ð°Ð¼Ðµ":9124,"ĠÐ¼ÐµÐ½ÑĤÐ¾":9125,"ĠÐ²ÑĬÐ·Ð´ÑĥÑħÐ°":9126,"ĠÑĢÐ¸Ð±ÐµÐ½Ð¾":9127,"ÐĶÐ¾Ð¼Ð°ÑĤ":9128,"ĠÑĢÐ¾Ð·Ð¸ÑĩÐºÐ°":9129,"ĠÑĢÐ¾Ð·Ð¸ÑĩÐºÐ¸ÑĤÐµ":9130,"ĠÑĤÑĢÐµÑĤÐ¸":9131,"ĠÐ¿ÑĢÐµÑģÐ¾Ð²Ð°Ð½Ð¸ÑĤÐµ":9132,"ĠÐºÐ°Ð¹ÑģÐ¸Ñı":9133,"Ð±ÑıÐ»Ð°ÑĤÐ°":9134,"ĠÐºÑĢÐ°Ð¹ÑĩÐµÑĤÐ°ÑĤÐ°":9135,"ÐŀÐ±ÐµÐ»Ð²Ð°ÑĤ":9136,"ĠÐ·Ð°Ð²ÑĢÑıÐ»Ð°":9137,"ĠÐ¿ÑĢÐ¸Ð±Ð°Ð²Ð¸ÑĤÐµ":9138,"ĠÑģÐ»ÑĬÐ½ÑĨÐµ":9139,"ĠÐ¿Ð¾Ð·Ð°Ð¿ÑĬÑĢÐ¶Ð²Ð°":9140,"ĠÐ½Ð°ÑĩÑĥÐ¿ÐµÐ½Ð¸":9141,"ĠÐŁÑĬÐ»Ð½Ð¸":9142,"ÑĢÐ°Ð²Ð½ÑıÐ²Ð°":9143,"ĠÐŀÐ²Ð°Ð»Ð²Ð°Ð¼Ðµ":9144,"ĠÐ¿Ð¸ÐºÐ°Ð½ÑĤÐ½Ð°":9145,"ĠÐŁÐ¸ÑĤÐºÐ¸ÑĤÐµ":9146,"ĠÑĤÑĥÑĢÑĪÐ¸ÑıÑĤÐ°":9147,"ĠÐ·Ð°Ð³ÑĢÐµÑĤÐ¸Ñı":9148,"ĠÐĺÐ·Ð´ÑĬÐ»Ð±Ð°Ð²Ð°":9149,"ĠÐŀÑħÐ»Ð°Ð¶Ð´Ð°ÑĤ":9150,"Ð¿Ð°Ð³ÐµÑĤÐ¸":9151,"ĠÑģÐ¼Ð¾ÐºÐ¸Ð½Ð¸ÑĤÐµ":9152,"ĠÐ½Ð°ÐºÑĬÑģÐ°Ð½Ð¾ÑĤÐ¾":9153,"Ð·ÐµÐ»ÐµÐ½ÑĩÑĥÐºÐ¾Ð²Ð°":9154,"ĠÐ¸Ð½ÑĤÐµÐ½Ð·Ð¸":9155,"ĠÑĤÐµÑģÑĤÐµÐ½Ð¸ÑĤÐµ":9156,"ĠÐ¸Ð·Ð¿Ð»Ð°ÐºÐ²Ð°Ð¼Ðµ":9157,"Ð¿ÑĢÐ¾Ñģ":9158,"ĠÐ´Ð»Ð°Ð½Ð¸ÑĤÐµ":9159,"ĠÐ²ÑĬÐ½ÑĪÐ½Ð°ÑĤÐ°":9160,"Ð»Ð¾Ð¶Ð¸Ñħ":9161,"ĠÐ·Ð°Ð¿ÑĬÐ»Ð²Ð°":9162,"ĠÐ¢Ð¸Ð³Ð°Ð½Ð°":9163,"ĠÑģÑĬÐ±Ð¸ÑĢÐ°":9164,"ÑĦÐ¸Ð»Ð¸Ð¸":9165,"ĠÑĦÐ°Ð·Ð°Ð½":9166,"ĠÐ°Ð¼Ð°ÑĢÐ°Ð½":9167,"ĠÐ¿Ð¾ÑĢÑĨÐµÐ»Ð°Ð½Ð¾Ð²Ð°":9168,"ĠÐ¿ÑĢÐµÐ¿ÑĬÐ»Ð½ÐµÐ½Ð°":9169,"ĠÐļÐ°ÑĢÑĤÐ¾ÑĦÐµÐ½Ð¾ÑĤÐ¾":9170,"ĠÐºÑĥÑĤÐ¸Ð¸":9171,"ĠÐĿÐ°ÑĤÑĢÐ¾ÑĪÐ°Ð²Ð°":9172,"ĠÐ¿Ð¾Ð´ÑģÐ¾Ð»ÐµÐ½Ð°ÑĤÐ°":9173,"ĠÑĤÐ°ÑĢÐ°Ð»Ðµ":9174,"ĠÐ³Ð»ÑĥÑĤÐ°Ð¼Ð°ÑĤ":9175,"ĠÐ·Ð°Ð±ÑĥÐ»ÑıÑĤ":9176,"ĠÐ·Ð°Ð¿Ð°Ð·ÑıÑĤ":9177,"ÐĹÐµÑħÑĤÐ¸Ð½Ð°":9178,"ĠÐ·Ð°Ð¼ÑĢÑĬÐ·Ð½Ðµ":9179,"ÐºÑĢÐ°ÑģÑĤÐ°Ð²Ð¸ÑĨÐ°":9180,"ÐĶÐ¶Ð¾Ð»":9181,"Ð½Ð°ÑĤÑĢÐ¾ÑĪ":9182,"ĠÐ¸Ð½ÑģÑĤÑĢÑĥÐºÑĨÐ¸Ð¸ÑĤÐµ":9183,"ÑģÐ¾Ð±ÐµÐ½Ð¾":9184,"ĠÐĳÐµÐ¹Ð»Ð¸Ñģ":9185,"ĠÐ¾Ð±Ð¾ÑĢÐ¾":9186,"ĠÐ¿Ð¾Ð·Ð°Ð´ÑĥÑĪÐ°ÑĤ":9187,"en":9188,"ĠÑĬÐ³ÑĬÐ»":9189,"Ð°Ð»":9190,"ÐºÐ»Ð¾Ð½":9191,"ĠÑģÐµÐ»ÑĬ":9192,"ÑĩÐµÐ½Ðµ":9193,"Ð´ÐµÐ»Ð°":9194,"ÑĤÐ°Ð¹ÑĤÐµ":9195,"Ð¼Ð»Ðµ":9196,"ĠÐ½Ð°Ð³Ð°ÑĢ":9197,"ĠÐºÐ»Ð°":9198,"ĠÐºÑĮÐ¾Ð¿Ð¾Ð¾Ð»Ñĥ":9199,"ÑĤÐµÐ»Ð½Ð¸":9200,"ÑĢÐ°Ñģ":9201,"ÐºÐ°Ð¾ÑĤÐ¾":9202,"Ð¾Ð»ÐµÐ´":9203,"ĠÐ·Ð°ÑĤÐ¸ÑģÐºÐ°":9204,"ĠÐ·Ð°Ð¿ÐµÑĩÐµÐ½Ð¸ÑĤÐµ":9205,"Ð»Ð°Ð¿Ð°Ð´":9206,"Ð¼ÐµÑĤÑĢÐ°":9207,"ĠÐºÐ°ÑĤ":9208,"ÑģÑĤÐ°Ð½":9209,"ĠÑĢÐ°Ð·Ð²Ð°ÑĢÑıÐ²Ð°":9210,"ĠÐ¸Ð·ÑģÑĤ":9211,"ĠÐŁÐ°ÑģÑĤÐµ":9212,"ÑĥÐºÑĬÑĢ":9213,"ĠÐ¡Ð¿Ð°Ð½Ð°ÐºÐ°":9214,"ĠÑĩÐµÑĢÐ½Ð¾":9215,"Ð±Ð¸Ð»Ð½Ð¾":9216,"Ð±Ð¸ÑģÐºÐ²Ð¸":9217,"ĠÐ¼Ð°ÑģÐ»ÐµÐ½Ð¸Ñı":9218,"ĠÐµÐ¼ÐµÐ½ÑĤÐ°Ð»":9219,"ĠÐ¿Ð¾Ð´Ð²Ð¸Ð¶":9220,"ĠÑĦÑĥ":9221,"ĠÑĦÐµÑĢ":9222,"ĠÑĦÐ»Ðµ":9223,"ĠÐ·Ð°ÑħÐ°ÑĢÐ½Ð¸Ñı":9224,"ÑĢÑĬÑģÑĤ":9225,"ĠÑģÐ¾ÑĩÐ½Ð¾":9226,"Ð¿Ð°ÑģÐ¸":9227,"ĠÐ½ÐµÐºÐ°":9228,"ĠÐ¿Ð¾Ð»ÑıÑĤ":9229,"Ð²Ð¾ÑĢÐ¸":9230,"ĠÑĩÐ°Ðº":9231,"ĠÑģÑĤÑı":9232,"ĠÐ°Ð»Ð°Ð±Ð°":9233,"ĠÐŁÐ¾ÑģÐ¸Ð¿Ð²Ð°":9234,"ĠÐļÑĢÑĬÐ³ÑĩÐµÑĤÐ°ÑĤÐ°":9235,"ĠÐĿÐ°ÑģÐ¸Ð¿Ð²Ð°":9236,"ĠÐ³Ð¾Ð´Ð¸Ð½Ð°":9237,"Ð¾Ð½Ð´Ð°":9238,"ĠÐ½Ð°ÑĢÑıÐ·Ð²Ð°Ð¼":9239,"ĠÐ½Ð°ÑĢÑıÐ·Ð°Ñħ":9240,"ĠÐĹÐ°Ð¿":9241,"ĠÐ¿ÑĢÐ¾Ð¸Ð·":9242,"Ð¡Ð¾Ñģ":9243,"ĠÐ¾ÑĢÐ¸Ð·Ð¾Ð²":9244,"ÑĢÐµÑħÐ¾Ð²Ð¸ÑĤÐµ":9245,"ĠÐĺÐ·ÐºÐ»ÑİÑĩÐ²Ð°":9246,"ĠÑģÑĤÐ°Ð¿Ñı":9247,"ĠÐ²Ð°ÑĦÐ»Ð¸":9248,"ÐŁÑĥÐ´":9249,"ÑĤÐ¾Ð¿Ð¾Ð´Ð°":9250,"ĠÐ¿Ð¾ÐºÑĢÐ¸Ð²Ð°Ð½Ðµ":9251,"ĠÐ´ÑĢÐµÐ±Ð½Ð°":9252,"ĠÑĩÐ¸Ñı":9253,"ĠÑĩÐ¸ÑģÑĤÐ¾":9254,"ĠÑĤÐ¸Ð³Ð°Ð½ÑĬÑĤ":9255,"ĠÐ³Ð°ÑģÐ¸":9256,"ÐŀÐ¼ÐµÐºÐ½Ð°Ð»Ð¾ÑĤÐ¾":9257,"ĠÑĢÐ°Ð·ÑĤÐ¾ÑĩÐ¸":9258,"ĠÑģÑĩÑĥÐºÐ°Ð½Ð°ÑĤÐ°":9259,"ĠÑĪÐ°Ð»Ð¾":9260,"ĠÐ»ÐµÐ´Ð°":9261,"ĠÑĢÑĬÐºÐ°ÑĤÐ°":9262,"ĠÐ¾Ð²ÐºÑĥÑģÐµÐ½Ð¸":9263,"ĠÐ¾Ð²ÐºÑĥÑģÐµÐ½Ð°ÑĤÐ°":9264,"ĠÐ¿Ð¸ÑĢÐ¾":9265,"ĠÐºÐ°ÐºÐ°Ð¾Ð²Ð°ÑĤÐ°":9266,"Ð²Ð°ÑĢÐµÐ½Ð¸":9267,"Ð²Ð°ÑĢÐµÐ½Ð°":9268,"ĠÐ¿ÑĢÐ¸Ð³Ð¾ÑĤÐ²ÑıÐ¼":9269,"ĠÑģÑĥÑħÐ°ÑĢÐ¸":9270,"ĠÐŀÑģÑĤÐ°Ð²Ð°Ð¼Ðµ":9271,"Ð²ÐµÑĤÑĬÐ»":9272,"ĠÐ¸Ð·ÑĩÐ¸ÑģÑĤÐµÐ½Ð°":9273,"ĠÐ½Ð°ÑģÑĤÑĬÑĢÐ³Ð²Ð°ÑĤÐµ":9274,"ĠÐ·Ð°Ð¼ÑĢÐ°Ð·ÑıÐ²Ð°":9275,"ĠÐºÑĥÐ¿Ð¸ÑĩÐºÐ°ÑĤÐ°":9276,"ÐĶÑĢÐµÐ±Ð¾Ð»Ð¸Ð¸ÑĤÐµ":9277,"ÐĺÐ·Ð¼Ð¸Ð²Ð°ÑĤ":9278,"ÑĤÐµÐ½ÑĨÐ°ÑĤÐ°":9279,"ÐľÐ°Ð¹Ð¾Ð½ÐµÐ·Ð°ÑĤÐ°":9280,"ĠÐºÐ¾Ð»Ð±Ð°ÑģÑĬÑĤ":9281,"ĠÐ¿ÑĢÐµÑĨÐµÐ¶Ð´Ð°Ð¼Ðµ":9282,"ĠÐ¿ÑıÑģÑĬÐº":9283,"ĠÐ¾Ð±ÑĬÑĢÐ½Ð°ÑĤÐ¸":9284,"ĠÐºÑĥÑħÐ½ÐµÐ½ÑģÐºÐ¾":9285,"Ð´Ð¶Ð¸Ð½":9286,"ĠÐ·ÐµÐ»ÐµÐ½ÑĩÑĥÐºÐ¾Ð²Ð¸":9287,"ĠÐºÐ°ÑĢÐ°Ð¼ÑĦÐ¸Ð»ÑĩÐµÑĤÐ°ÑĤÐ°":9288,"ĠÑĢÐ¸Ð±Ð½Ð°":9289,"ĠÐ¿Ð¾Ð·Ð°Ð¿ÐµÑĩÐµ":9290,"ĠÐ¡Ð°Ð»Ð°":9291,"ĠÑĢÐ°Ð·Ð±ÑĬÑĢÐºÐ°ÑĤÐµ":9292,"ĠÑĢÐ°Ð·Ð±ÑĬÑĢÐºÐ°Ð½Ð°":9293,"ĠÐ²Ð¸ÑģÐ¾ÑĩÐ¸Ð½Ð°ÑĤÐ°":9294,"ĠÐ¸Ð·ÑģÑĤÐ¸Ð½Ð°Ð»Ð°":9295,"ĠÐ¼Ð¾ÑĢÑģÐºÐ°ÑĤÐ°":9296,"ĠÐ½Ð°ÑĤÑĢÐ¸ÐµÐ²":9297,"ĠÐŀÐ²Ð°Ð»Ð²Ð°":9298,"ĠÐŁÑĢÐ¾ÑĨÐµÐ´ÑĥÑĢÐ°ÑĤÐ°":9299,"Ð¿Ð°ÑĤÐ»Ð°Ð´Ð¶":9300,"ĠÐ¿Ð¾Ð´ÑģÐ»Ð°Ð´ÐµÐ½Ð¾ÑĤÐ¾":9301,"Ð¿Ð°Ð´Ð¶Ð¸ÐºÑĬÑĤ":9302,"ÐķÐ»Ð´Ð°ÑĤÐ°":9303,"ĠÐĴÐ½Ð¸Ð¼Ð°Ð²Ð°":9304,"ĠÐ¿Ð¾ÑĤÐ¾Ð¿ÑıÐ²Ð°ÑĤ":9305,"ĠÐ¿ÑĬÐ»Ð½Ð¾Ð·ÑĬÑĢÐ½ÐµÑģÑĤ":9306,"ĠÐµÐºÐ»ÐµÑĢ":9307,"ĠÐ¿ÑĢÐµÐºÐ°Ð»ÑıÐ²Ð°":9308,"ÑģÑĬÑħÐ½Ð°ÑĤ":9309,"ĠÐ¾Ð²Ð½ÐµÑĪÐºÐ¸":9310,"ĠÐĿÐ°Ð¿ÑĬÐ»Ð½ÐµÐ½Ð¸ÑĤÐµ":9311,"Ð¡Ð²Ð¸Ð½ÑģÐºÐ¸ÑĤÐµ":9312,"ĠÑĢÐ°ÑģÑĤÐ¸ÑĤÐµÐ»ÐµÐ½":9313,"ĠÑĢÐ°Ð·ÑĢÐµÐ´ÐµÐ½Ð¾ÑĤÐ¾":9314,"ĠÐ´ÐµÑģÐµÑĢÑĤ":9315,"ĠÑĢÐ¾Ð·Ð¾Ð²":9316,"ĠÑħÐ°Ð¹Ð²ÐµÑĢÐ°":9317,"ĠÐ³Ð½ÐµÐ·Ð´Ð°ÑĤÐ°":9318,"ÐŁÑĢÐµÐ´Ð¸":9319,"ĠÐ¸Ð½ÑģÑĤÐ°Ð½":9320,"ĠÑģÐºÑĬÐ»ÑĨÐ°Ð½":9321,"ĠÐľÐ°ÑĢÐ¸Ð½Ð¾":9322,"ĠÑĢÑıÐ¿Ð°ÑĤÐ°":9323,"ĠÑģÐ»Ð¾Ð¶ÐµÐ½Ð¾":9324,"ÐŁÐ°ÑĢÑĩÐµÑĤÐ°ÑĤÐ°":9325,"ĠÐ½Ð°ÑĤÐ¸ÑģÐºÐ°ÑĤ":9326,"ĠÐļÑİÑĦÑĤÐµÐ½ÑĨÐ°ÑĤÐ°":9327,"ÐŁÐ°ÑģÐ¸":9328,"ĠÐŀÑģÐ¾Ð»ÑıÐ²Ð°":9329,"ĠÐĺÐ·ÑģÑĤÐ¸Ð½Ð°Ð»Ð¸ÑĤÐµ":9330,"ĠÐļÐ¾Ð»Ð±Ð°":9331,"ĠÑīÑĢÑĥÐ´":9332,"ÑģÐ»Ð°Ð±":9333,"ĠÑģÑĤÐµÐ±Ð»Ð°":9334,"ĠÐŀÑħÐ»Ð°Ð´ÐµÑĤÐµ":9335,"ĠÐ¿Ð¾Ð´Ð»ÑĥÑĩÐµÐ½Ð¾":9336,"Ð¸Ð½Ð´Ð¶Ð¸ÑĦÐ¸Ð»ÑĬÑĤ":9337,"ĠÐ¡ÑĥÑĢÐ¾":9338,"ĠÐºÐ¾ÑĢÐµÐ¼Ð½Ð°ÑĤÐ°":9339,"ÑģÐºÐ¸Ð»Ð¸Ð´ÐºÐ¸":9340,"ĠÑĦÑĥÐ½Ð¸Ð¹ÐºÐ¸":9341,"ĠÐ¿ÐµÐ¿ÐµÑĢÑĥÐ´Ð°":9342,"ĠÐĶÑĢÑĥÐ³Ð¸ÑĤÐµ":9343,"ĠÐ¿ÑĬÑĢÐ¶Ð¾Ð»ÐºÐ¸":9344,"ÐºÐ¾Ð½ÑģÐµÑĢÐ²Ð¸ÑĢÐ°Ð½Ð¸":9345,"ĠÐ¸Ð½Ð´Ð¸Ð²Ð¸Ð´ÑĥÐ°Ð»Ð½Ð¸":9346,"ĠÐ¾Ð±Ð»Ð¸ÑĨÐ¾Ð²Ð°":9347,"ĠÑģÐºÐ»Ð¸Ð´ÐºÐ¸":9348,"Ð±Ð¾ÑĢÐ¸Ð¾":9349,"ĠÐĹÐ°Ð¿Ð¾ÑĩÐ½ÐµÑĤÐµ":9350,"ÐºÐ»ÐµÑĩÐºÐ¸":9351,"ĠÐ¸Ð·Ð´ÐµÐ»Ð¸Ñı":9352,"ĠÑģÐµÐ»ÑĬÑĢÐ¸":9353,"ĠS":9354,"ÑģÐ¿Ð°Ð³ÐµÑĤÐ¸":9355,"ÑıÐ³Ð¾Ð´Ð¸":9356,"ÑĩÐ½Ð¸ÑıÑĤ":9357,"ÑĬÐ±ÑĢÐµ":9358,"ĠÐ¿ÑĪ":9359,"ĠÐ½Ð°Ñģ":9360,"ĠÐºÐ»Ð°Ð´Ð½Ð¸ÑĨÐ°":9361,"ĠÐ¾Ð¼Ð°":9362,"ĠÐ¾Ð¿ÐµÑĩÐµÐ½Ð¸ÑĤÐµ":9363,"ÑĢÐ¸Ð½Ð¸":9364,"ÑħÐ»ÑıÐ±":9365,"ĠÐ¿Ð¾Ð³Ð°":9366,"ĠÐ¿Ð¾Ð¶ÐµÐ»Ð°Ð½Ð¸Ðµ":9367,"ÑĢÑıÐ±":9368,"Ð²Ð¸Ð·Ð°":9369,"Ð¼Ð°ÑĪ":9370,"Ð»ÐµÑĤÐ¾":9371,"ĠÐ¾ÑĤÐ¿Ð¾ÑĩÐ¸Ð½Ðµ":9372,"ÑģÑĤÐ²Ð¾":9373,"ĠÑĢÐ°Ð·Ð´ÐµÐ»Ð¸":9374,"ĠÐ¸Ð·Ð´Ñĥ":9375,"ĠÐŁÐ¾ÑĤÐ¾Ð¿":9376,"ĠÑģÐ¸ÑĤÐ½Ð°":9377,"ĠÐ¡ÑĥÑħÐ¸ÑĤÐµ":9378,"ÑĦÐ¸Ð½Ð¸":9379,"ĠÑĤÑĢÑĬÑģ":9380,"Ð¼Ð¾ÑıÑĤÐ°":9381,"ĠÐĴÑĢÐµÐ¼Ðµ":9382,"ÑģÐ¸Ñı":9383,"ĠÑģÑĤÑĬ":9384,"ĠÑģÑĤÑĬÐ±":9385,"ĠÐ¼ÐµÑģÐµÐ½ÐµÑĤÐ¾":9386,"ĠÐ¶ÐµÐ»ÐµÑĤÐ¾":9387,"ĠÑĤÐ¾Ð¿Ð²Ð°ÑĤ":9388,"ĠÐ²Ð¸Ðµ":9389,"ĠÐ²Ð¸Ð´Ð¸Ð¼Ð¾":9390,"Ð¿Ð¸Ð¸":9391,"ĠÐ´Ð¾Ð±Ð°Ð²ÑıÐ½Ðµ":9392,"ĠÑģÐ¼ÐµÑĤÐ°Ð½Ð¾Ð²Ð°ÑĤÐ°":9393,"ĠÐĹÐ°ÑĤÐ¾Ð¿Ð»Ñı":9394,"Ð¡ÑĤÐ°":9395,"Ð¡Ð¼Ð»ÑıÐ½Ð¾ÑĤÐ¾":9396,"Ð¼ÐµÑģÐµÐ½":9397,"ĠÐ¾ÑĢÐ¸Ð·Ð¾Ð²Ð°":9398,"ĠÐºÑĢÐ°ÐºÐ°":9399,"ĠÑģÑĤÐ°Ð½Ð´Ð°":9400,"ĠÐºÐ°Ð¹Ð¼Ð°Ðº":9401,"ÐŁÑĬÑĢ":9402,"Ð·Ð¸ÐºÑĬÑĤ":9403,"ĠÑĢÐ¸Ð·Ð¾ÑĤÐ¾":9404,"ĠÐ¾Ð¼ÐµÐºÐ²Ð°ÑĤ":9405,"ĠÐ¿Ð¾ÑģÐ¾Ð»ÐµÐ½":9406,"Ġ450":9407,"ĠÐŁÐ¾Ð´Ð³Ð¾ÑĤ":9408,"ĠÑĨÐµÐ¿Ð²Ð°ÑĤ":9409,"ĠÐ»Ð¸Ð¼Ð¾Ð½ÑĬÑĤ":9410,"ĠÑĩÐ¸Ð¹Ð·":9411,"ĠÑģÐ²Ð¸Ð½ÑģÐºÐ°ÑĤÐ°":9412,"ÐľÐ¾":9413,"ÑĪÐ¸ÑĢÐ¾":9414,"ÐĿÐ°ÑĩÑĥÐ¿":9415,"ĠÐµÐ´ÑĢÐ¾ÑģÐ¼Ð»ÑıÐ½Ð°":9416,"ĠÐ¿Ð»Ð¾ÑģÑĬÐº":9417,"ĠÐļÐ°ÑĪÐ°ÑĤÐ°":9418,"ĠÐºÐµÐ¹Ðº":9419,"ĠÐ²ÑĤÐ°ÑģÐ°Ð»Ð¾ÑĤÐ¾":9420,"ĠÐ¿Ð¾Ð»Ð¸Ð²Ð°ÑĤÐµ":9421,"ÐłÐ°Ð·Ð±ÑĬÑĢÐºÐ²Ð°ÑĤ":9422,"Ð¢Ð°":9423,"Ð¯Ð±ÑĬÐ»ÐºÐ°ÑĤÐ°":9424,"ĠÐ·Ð°Ð²Ð¸Ðµ":9425,"ĠÐ·Ð°Ð²Ð¸ÑĤÐ¸":9426,"ĠÐ·Ð°Ð¼ÑĢÐ°Ð·ÐµÐ½Ð¾":9427,"Ð¿Ð°ÑĢÐ¼ÐµÐ·Ð°Ð½":9428,"ĠÑĢÐ°Ð·ÑĤÐ²Ð°ÑĢÑıÐ½ÐµÑĤÐ¾":9429,"ĠÐ²ÐµÑģÑĤ":9430,"ĠÑĢÐ°Ð·ÑĤÐ²Ð¾ÑĢÐµÐ½Ð¸ÑĤÐµ":9431,"ĠÐ±ÐµÑĪÐµ":9432,"ĠÐ±ÑĢÐ¾ÐºÐ¾Ð»Ð¸ÑĤÐ¾":9433,"ĠÑģÑĥÑħÐ¸Ñı":9434,"ĠÐ¾Ð¿Ð°ÑĪÐºÐ°":9435,"ÑĨÐµÑĤÑĬÑĤ":9436,"ĠÐ©Ðµ":9437,"ĠÐ¼ÑĬÐ½Ð¸ÑĩÐºÐ¾":9438,"ĠÐ¿ÑĢÐ°Ð²Ð¾ÑĬÐ³ÑĬÐ»Ð½Ð¸ÐºÐ°":9439,"ÐŀÐ±ÐµÐ»Ð²Ð°ÑĤÐµ":9440,"ĠÐºÐ¾Ð½ÐµÑĨÐ°":9441,"ĠÑĥÐ·ÑĢÑıÐ»":9442,"ĠÐ¿ÑĬÐ»Ð½Ð¾Ð¼Ð°ÑģÐ»ÐµÐ½Ð°":9443,"ĠÐŁÐ¸ÑĤÐ°ÑĤÐ°":9444,"ĠÐ¢ÐµÐ·Ð¸":9445,"ĠÐºÑĢÐ¸ÑģÑĤÐ°Ð»Ð½Ð°ÑĤÐ°":9446,"ĠÐ¿ÑĢÑĬÑģÑĤÐµÐ½ÑĩÐµÑĤÐ°":9447,"ĠÐŁÐ°ÑģÐ¸ÑĢÐ°Ð¼Ðµ":9448,"ĠÐºÐ¸ÑĦÐ»Ð¸ÑĩÐºÐ°":9449,"ĠÐ½Ð°Ð¿ÑĢÐ°Ð²Ð¸Ð¼":9450,"ÐĺÐ·ÑĩÐ¸ÑģÑĤÐ²Ð°Ð¼Ðµ":9451,"ĠÐ±Ð°Ð»ÑģÐ°Ð¼Ð¾Ð²Ð¸Ñı":9452,"ĠÐĹÐµÐ»ÐµÐ½Ð¸ÑĤÐµ":9453,"ĠÐ·ÑĢÑĬÐ½ÑĨÐ°ÑĤÐ°":9454,"ĠÐ½Ð°Ð¼Ð¾ÐºÑĢÑıÑĤ":9455,"ĠÑĥÐ½Ð¸Ð²ÐµÑĢÑģÐ°Ð»Ð½Ð°ÑĤÐ°":9456,"ÑĢÐ°Ð¼ÑĦÐ¸Ð»":9457,"ĠÑģÐ¿Ð¸ÑĢÐ°Ð»Ð¾Ð²Ð¸Ð´":9458,"ĠÑĤÑĢÑĬÑĤ":9459,"ĠÐĹÐ°Ð¿Ð¾ÑĩÐ²Ð°Ð¼Ðµ":9460,"ĠÑĪÐ°Ð¼Ð¿Ð°Ð½ÑģÐºÐ¾ÑĤÐ¾":9461,"ĠÐĴÐ·Ð¸Ð¼Ð°Ð¼Ðµ":9462,"ĠÐŁÑĢÐ¾Ð´ÑĬÐ»Ð¶Ð°":9463,"ĠÐĵÑİÐ²ÐµÑĩÑĬÑĤ":9464,"ĠÐ¼ÐµÑħÑĥÑĢÐ¸":9465,"ĠÐºÐ°Ð»Ð¼Ð°ÑĢÐ¸":9466,"ĠÐ¿Ð¾Ð´ÑĢÐµÐ´ÐµÐ½Ð¸":9467,"ĠÑģÑĤÐµÐ±Ð»Ð°ÑĤÐ°":9468,"Ð·ÐµÐ»ÐµÐ²":9469,"ĠÐ¾ÑģÐ½Ð¾Ð²Ð½Ð¸Ñı":9470,"ĠÐ¡ÑĤÑĥÐ´":9471,"ĠÑĢÐ°Ð±Ð¾ÑĤÐ¸":9472,"ĠÐ²ÐµÑĤÑĢÐ¸Ð»Ð¾Ð¾Ð±ÑĢÐ°Ð·Ð½Ð¾":9473,"ĠÐºÐ°Ð¿ÑģÑĥÐ»Ð°":9474,"ĠÑģÐ°Ð½ÑĤÐ¸Ð¼ÐµÑĤÑĬÑĢ":9475,"ĠÐ·Ð²ÐµÐ·Ð´Ð¸":9476,"ĠÑĥÐ´Ð¾Ð±Ð½Ð¾":9477,"ĠÐ¾Ð±ÐµÐ·ÑģÐ¾Ð»ÐµÐ½Ð¾":9478,"ĠÐºÐ°Ð½ÑĤ":9479,"ĠÐĶÐµÑģÐµÑĢÑĤÑĬÑĤ":9480,"ĠÐ´Ð¶Ð°Ð½ÐºÐ¸":9481,"aggi":9482,"ĠÐ·Ð°Ð¿ÑĢÐ¸Ð»Ð¸ÑĩÐ°":9483,"ĠÐºÐµÐ´ÑĢÐ¾Ð²Ð¸ÑĤÐµ":9484,"ĠÐ¸Ð·ÑģÑĤÑĥÐ´Ð¸":9485,"ĠÐĹÐ°Ð¿ÑĢÑĬÐ¶ÐºÐ°ÑĤÐ°":9486,";[":9487,"ce":9488,"co":9489,"la":9490,"Ð¾Ð´Ð¾":9491,"ÑģÐ¾Ð½":9492,"Ð½ÐµÐ½Ð¸Ðµ":9493,"ÑıÐ±ÑĬÐ»":9494,"ÑĩÑĥÑĢÐºÐ¸ÑĤÐµ":9495,"Ð¼ÑıÑĤÐ°":9496,"ÑĤÐ¾ÑĢÐµÑĤÐµ":9497,"ĠÐ½Ð°Ð³ÑĢÑıÐ²Ð°":9498,"Ð¿Ð¾Ð½":9499,"Ð±Ð»Ð°":9500,"Ð±ÑĥÑĪ":9501,"ĠÐ²ÑĢÐ°ÑĤÐ°":9502,"Ð½Ð¾Ð°ÑĤÐ°":9503,"ÐºÐ°ÑĢÐ°Ð¼ÑĦÐ¸Ð»":9504,"ĠÐ·Ð°ÑīÐ¸Ð¿":9505,"Ð½Ð°ÑĤÐ¸Ñı":9506,"ÑĤÐ¸ÑĢÐ°":9507,"ÑĨÐ²Ð°":9508,"ÑħÐ²Ð°":9509,"ĠÐ¿Ð¾Ð½ÑıÐºÐ¾Ð³Ð°":9510,"ĠÐ¼Ð°Ð½Ð´":9511,"ÑĢÑıÐ½ÑĬÑĤ":9512,"ĠÐ´Ð¾Ð³Ð¾ÑĢÐµ":9513,"Ð¼Ð°ÑĩÐºÐ°":9514,"ĠÐ¾ÑĤÑĢÑıÐ·Ð²Ð°Ð¼Ðµ":9515,"Ð³Ð°Ð½Ð¸":9516,"Ð³Ð°ÑĢÑı":9517,"Ð³Ð°Ð²Ðµ":9518,"ĠÑĢÐ°Ð·Ð½Ð¾":9519,"ĠÑĢÐ°Ð·Ð»ÐµÐµ":9520,"ĠÐ¸Ð·ÑĩÐµ":9521,"ĠÐ¸Ð·ÑĤÐµÐ³Ð»Ñı":9522,"ĠÐµÑģÑĤÑĢÐ°":9523,"ĠÐ¿ÑĢÐ¸ÑĤÐ¾Ð¿Ð»Ñı":9524,"ĠÐ¿ÑĢÐµÐ¿Ð¸ÑĩÐ°ÑĤ":9525,"ĠÐ¿ÑĢÐµÐ³Ð¾ÑĢÑıÑĤ":9526,"ĠÐĴÑĬÐ»ÑĪÐµÐ±ÐµÐ½":9527,"ĠÑĩÐµÑģÐ½Ð¾Ð²Ð¸Ñı":9528,"ĠÑĩÐ°ÑĪÐºÐ¸ÑĤÐµ":9529,"ĠÐ¼ÐµÑģÐ¸ÑĤÐµ":9530,"ĠÑĪÐµÑĢ":9531,"ĠÐºÐ¸ÑģÐµÐ»Ð°ÑĤÐ°":9532,"ÐºÑĥÐ»Ð°":9533,"ĠÑĤÐ¾Ð¿Ð¸Ð½Ð³Ð°":9534,"ÑĤÑĬÐºÐ°":9535,"ĠÐ·Ð°Ð´ÑĥÑĪÐµÐ½Ð¾ÑĤÐ¾":9536,"ĠÐ¿Ð¾Ð´Ð¿ÑĢÐ°Ð²ÐµÐ½":9537,"ĠÐ¿Ð°Ð´Ð½Ðµ":9538,"ĠÐ¶ÐµÐ»Ð°Ð½Ð¸Ñı":9539,"ĠÐ¾Ð±ÐµÐ»Ð²Ð°ÑĤÐµ":9540,"ĠÐ¿ÐµÑĩÐµÐ½Ð°ÑĤÐ°":9541,"ĠÑĢÐµÐ·Ð°Ð½":9542,"ĠÐ²Ð°ÑĦ":9543,"ĠÐ¿ÑĢÐ°ÑģÐµÐ½":9544,"ĠÐ¿Ð¾ÑĢÑĬÑģÐ²Ð°Ð¼":9545,"ĠÑĢÐ°ÑĩÐµ":9546,"ĠÐ²ÑģÐ¸ÑĩÐºÐ¾ÑĤÐ¾":9547,"Ð½ÑıÐº":9548,"ĠÐºÑĢÐµÑģÐ¾Ð½":9549,"ĠÐĳÑĥÐ»Ð³ÑĥÑĢÑĬÑĤ":9550,"ĠÐ³Ð°Ð½Ð°":9551,"ĠÐºÑĢÑĬÐ³Ð»Ð¾":9552,"ÑĨÐ°ÑĢÐµÐ²Ð¸Ñĩ":9553,"ĠÐŁÑĢÐ¸Ð±Ð°Ð²ÑıÐ¼":9554,"ÐĿÐ°Ð´":9555,"Ð´ÐµÐ±ÐµÐ»Ð°":9556,"ĠÐĲÐ²Ð¾ÐºÐ°Ð´Ð¾ÑĤÐ¾":9557,"ÑģÐºÑĥÐ»":9558,"ĠÐ»ÐµÐ¿Ð¸":9559,"ÐĳÐ¸":9560,"ĠÐ´ÐµÐ±ÐµÐ»Ð¸ÑĤÐµ":9561,"ĠÐ·Ð°Ð³ÑĢÑıÐ²Ð°ÑĤÐµ":9562,"ĠÐ³Ð¾ÑĤÐ²Ð¸ÑĤÐµ":9563,"ĠÐ¸Ð·Ð²Ð°Ð¶Ð´Ð°ÑĤÐµ":9564,"ĠÑħÐ°Ð¿ÐºÐ°":9565,"ĠÐ¿ÑĢÐ¸Ð³Ð¾ÑĤÐ²ÑıÑĤÐµ":9566,"ĠÐĴÐ°Ð´Ð¸":9567,"ÐłÐ°Ð·Ð´ÐµÐ»ÑıÐ¼Ðµ":9568,"ĠÐĿÐ°Ð¼Ð°Ð»ÐµÑĤÐµ":9569,"ĠÐ¼ÑĥÑģÐºÑĥÐ»":9570,"ĠÐ¾ÑĤÑĨÐµÐ´ÐµÐ½Ð¾ÑĤÐ¾":9571,"ĠÐłÐ¾":9572,"ÐŀÑĤÐ´ÐµÐ»ÐµÑĤÐµ":9573,"ĠÑĢÐµÐ·ÐµÐ½ÑĩÐµÑĤÐ°ÑĤÐ°":9574,"Ð¤Ð¸Ð»Ð¸Ð¹ÐºÐ¸ÑĤÐµ":9575,"ĠÐ´ÑĬÑĢÐ²ÐµÐ½":9576,"ĠÐºÐ¾Ð¼Ð±Ð°":9577,"ĠÐ¿ÑĢÐ¸ÑĤÐ¸ÑģÐºÐ°Ð½Ðµ":9578,"ĠÐ¿Ð»ÑĬÑĤÐ½Ð°":9579,"ÐļÐ°ÑĦÐµÑĤÐ¾":9580,"ĠÑĤÐµÐ»ÐµÑĪÐºÐ¸Ñı":9581,"ĠÐ¼Ð¸ÐºÑģÐ°":9582,"ĠÐŁÐ°ÑĢÐ¼ÐµÐ·Ð°Ð½Ð°":9583,"ĠÑĪÐ¸ÑĪÐ°ÑĢ":9584,"ĠÐ¿Ð»Ð¸ÑĤÐºÐ¸":9585,"ĠÐ·Ð°ÐµÑĪÐºÐ¾ÑĤÐ¾":9586,"ĠÐ½Ð¸ÑīÐ¾":9587,"ĠÑĤÑĢÐµÐ²Ð°":9588,"ĠÑĤÑĢÐµÑĤÐ¸Ð½Ð°":9589,"ĠÐ¾ÑĨÐ²ÐµÑĤÐµÐ½Ð¾":9590,"ĠÐ»ÐµÐ´ÐµÐ½Ð°":9591,"ĠÐºÐ°ÑĢÐ°Ð¼ÐµÐ»Ð¸Ð·Ð¸ÑĢÐ°Ð½Ð°":9592,"ĠÐłÐµÐ´Ð¸":9593,"ĠÐ±Ð¾Ð½Ð±Ð¾Ð½":9594,"ĠÑĢÐ°Ð·Ð»Ð¸ÑĩÐ½Ð¸ÑĤÐµ":9595,"ĠÑĢÐ°Ð·Ð¿Ð¾Ð»Ð¾Ð²ÑıÐ²Ð°":9596,"ĠÐ¿Ð¾ÑĤÐ¾Ð¿ÐµÑĤÐµ":9597,"ĠÐ¾ÑĩÐ¸ÑĤÐµ":9598,"ĠÐ²ÑĤÐ²ÑĬÑĢÐ´":9599,"ĠÐ¾ÑĤÐ²Ð¾ÑĢÑĬÑĤ":9600,"ĠÐ¸Ð·ÑģÑĤÐ¸ÑģÐºÐ°Ð¹ÑĤÐµ":9601,"ĠÑģÐ²ÐµÑĤÐ»Ð¾Ð¶ÑĬÐ»ÑĤÐ¾":9602,"ĠÐ»ÐµÐ¿Ð½ÐµÑīÐ¾":9603,"ĠÐ»ÐµÐ¿ÐºÐ°Ð²Ð°":9604,"ĠÑģÐ¼Ð°ÑĩÐºÐ°Ð½Ð¸ÑĤÐµ":9605,"ĠÐ¼ÐµÑģÐµÑģÑĤÐ°":9606,"ĠÐ¼ÐµÑģÐµÑĨÐ°":9607,"ĠÐ»ÑĥÐºÐ°Ð½ÐºÐ°ÑĤÐ°":9608,"ĠÐ±ÑĢÑİÐºÑģÐµÐ»ÑģÐºÐ¾ÑĤÐ¾":9609,"ĠÐŁÐ¾ÑģÐ»ÐµÐ´Ð½Ð¾":9610,"ĠÐ¼Ð°Ð½Ð´Ð°ÑĢÐ¸Ð½Ð°":9611,"ÑĢÐ°Ð½Ð·ÐµÐ»Ð°ÑĤÐ°":9612,"ĠÐ½Ð°Ð´ÑĢÐ¾Ð±ÐµÐ½Ð¾ÑĤÐ¾":9613,"ĠÐºÐ¾ÐºÐ°Ð»Ð°":9614,"ĠÐĺÐ·ÑĩÐ°ÐºÐ²Ð°Ð¼Ðµ":9615,"ĠÐ¿ÑĢÐµÐ¼Ð°ÑħÐ²Ð°":9616,"ĠÐºÐ¸Ð½Ð¾Ð°ÑĤÐ°":9617,"Ð¹ÑģÐºÐ¸ÑĤÐµ":9618,"ĠÐ·Ð°Ð¿Ð°Ð·Ð¸ÑĤÐµ":9619,"ĠÐĳÐ¸ÑĪÐºÐ¾ÑĤÐ¸ÑĤÐµ":9620,"ĠÐ·Ð½Ð°ÑĩÐ¸":9621,"ĠÐ°ÑģÐ¿Ð¸ÑĢÐ¸Ð½":9622,"ĠÐĵÐ»Ð°Ð²Ð°ÑĤÐ°":9623,"ĠÐĳÐ»Ð°ÑĤÐ¾Ð²ÐµÑĤÐµ":9624,"Ð¡Ð°Ð»Ð°ÑĤÐ°ÑĤÐ°":9625,"ÑģÑĩÑĥÐºÐ°Ð½Ð¸":9626,"ĠÐ¿ÑĢÐµÐºÐ°ÑĢÐ²Ð°ÑĤ":9627,"ĠÐ·Ð°Ð³Ð°ÑĢÑı":9628,"ÑģÐºÐ¸Ð»Ð¸Ð´ÐºÐ°":9629,"ĠÑĥÐºÑĢÐ°ÑģÐµÐ½Ð¸":9630,"ÑĢÐ¸Ð»ÑĨÐ°ÑĤÐ°":9631,"ĠÐĶÑĢÐ¾Ð±ÑĩÐµÑĤÐ°ÑĤÐ°":9632,"ÐłÐ¸Ð±":9633,"Ð¾Ð±Ð¸ÐºÐ½Ð¾Ð²":9634,"ĠÑĢÐ°Ð·Ð¿Ð»ÐµÑģÐºÐ²Ð°":9635,"ĠÑħÐ²Ð¾Ð¹Ð½Ð°":9636,"ĠÐĶÑĢÑĬÐ¿Ð½ÐµÑĤÐµ":9637,"ĠÐ½ÑĥÐ´ÑĬÐ»Ñģ":9638,"ĠÑĦÐµÑĤÑĥÑĩÐ¸Ð½Ð¸":9639,"ĠÐķÐ´Ð¸Ð½Ð¸ÑıÑĤ":9640,"ÐºÐ°ÑĢÑĤÐ¾ÑĦÐµÐ½Ð¾":9641,"ĠÐĿÐ°Ð½Ð¸Ð·Ð²Ð°ÑĤ":9642,"ĠÐ»ÐµÐ²ÑĥÑĢÐ´Ð°":9643,"ĠÐĲÑĢÐ¾Ð¼Ð°ÑĤÐ¸Ð·Ð¸ÑĢÐ°":9644,"ĠÑģÑĬÑģÑĤÐ¾Ñı":9645,"ĠÑĨÐµÐ»Ð¾ÑĦÐ°Ð½":9646,"ĠÐ¼Ð°ÐºÐµÐ´Ð¾Ð½ÑģÐºÐ°":9647,"ĠÐ¾Ð±Ð¾ÑĢÐ¾ÑĤÐ¸":9648,"260":9649,"55":9650,"][":9651,"®ÑĦ":9652,"Ð»ÑĥÐºÐ°":9653,"ÐºÐµÑĢÐ²Ð¸Ð·":9654,"ÑĩÐ²Ð°Ð½ÐµÑĤÐ¾":9655,"Ð´ÑĢÐ¸":9656,"ÑĥÐ²Ð°":9657,"Ð·Ð²Ð°Ð½Ðµ":9658,"ĠÐºÐ½Ð¸":9659,"ĠÐ¾ÐºÐ¾":9660,"ÑĤÐµÐ»Ð°":9661,"ÑĢÐ°Ðº":9662,"ĠÐ²Ð»Ð°Ð³Ð°":9663,"ĠÐ³ÑĬÐ»":9664,"ĠÐ´Ð²Ð¸Ð¶":9665,"ĠÐ·Ð¼Ð¸":9666,"ĠÐ·Ð°ÐºÑĥÑģÐºÐ°":9667,"Ð½Ð°Ð»Ð¾ÑĤÐ¾":9668,"ÐºÐ¾ÑĢÐ¸Ñı":9669,"Ð¼ÐµÑĤÑĬÑĢÐ°":9670,"ĠÐ¼Ð°ÐºÐ¾Ð²Ð¾ÑĤÐ¾":9671,"ĠÐ´Ð¾Ñģ":9672,"Ð¼Ð°Ð»ÐºÐ¸ÑĤÐµ":9673,"ÑĦÐµÑĢÐ¸":9674,"ĠÐºÐ°ÑĩÐµÑģÑĤ":9675,"ĠÐ¾ÑĤÐºÑĢÐ¸":9676,"Ð»Ð¾Ð½Ð¸ÑĤÐµ":9677,"ÑģÑĤÐ°ÑĢ":9678,"ÑĩÐµÑģÑĤÐ¾":9679,"ĠÑĢÐ°Ð·ÑĢÐµÐ¶Ð´Ð°ÑĤ":9680,"ĠÑĢÐ°Ð·Ð»Ð°ÑĤ":9681,"ĠÐ¸Ð·ÑĤÑĬÑĢ":9682,"ĠÑıÐ´Ðµ":9683,"ĠÑĩÐµÑĢÐ½Ð°ÑĤÐ°":9684,"ĠÐ¼Ð¸Ð½ÑĥÑĤÐºÐ°":9685,"ĠÐ¿ÑĢÐµÐ¿Ð¾ÑĢÑĬÑĩÐ¸ÑĤÐµÐ»Ð½Ð¾":9686,"ĠÑĦÐµÐ½":9687,"ĠÑĦÐ°Ð½":9688,"ĠÐ·Ð°ÑħÐ°ÑĢÐ¾ÑģÐ°":9689,"ĠÐŀÐ¿ÐµÑĩ":9690,"ĠÐŀÐ±ÑĬÑĢÐºÐ°Ð¹ÑĤÐµ":9691,"ĠÐŀÐ¼ÐµÐºÐ½Ð°Ð»Ð¾ÑĤÐ¾":9692,"ĠÐ½ÐµÑĤÐ»ÑĬÑģÑĤÐ¾":9693,"ĠÑģÐ¼ÐµÑģÐµÐ½Ð¾ÑĤÐ¾":9694,"ĠÐ½Ð°Ð¼Ð°Ð»ÑıÐ²Ð°ÑĤ":9695,"ĠÑĪÐ¿ÐµÐº":9696,"ĠÐ°Ð³Ð°Ð²Ðµ":9697,"ĠÐĿÐ°ÑĤÑĢÐ¸Ð²Ð°":9698,"ĠÐ¾Ð±Ð²Ð¸Ð²Ð°":9699,"ĠÑģÐ²Ð°Ð»Ð¸ÑĤÐµ":9700,"ĠÐĹÐ°ÑĤÐ²Ð¾ÑĢÐµÑĤÐµ":9701,"ĠÐ¿Ð°Ð»":9702,"ÐĹÐ°ÑĤÐ¾Ð¿Ð»Ñı":9703,"ĠÐłÐ°Ð·Ð¼ÑĢÐ°Ð·":9704,"ĠÐ¿ÑĬÑĢÐ¶ÐµÐ½Ð¸ÑĤÐµ":9705,"ĠÑģÐ¼ÐµÐ½Ð¸":9706,"ĠÑĥÐ²":9707,"ÐŁÑĢÐ°Ð·Ð°":9708,"ÑģÐºÐ°Ð¹ÑĤÐµ":9709,"ĠÐ¢ÑĥÑĢ":9710,"ĠÐ¸Ð·Ð²Ð°Ð´":9711,"ĠÑĢÐ°Ð²Ð¸":9712,"ĠÐ¿Ð»ÑİÑģ":9713,"ĠÑģÑĥÑħÐ¾ÑĤÐ¾":9714,"ĠÐºÐ¾ÑĤÐ»ÐµÑĤÐ°":9715,"ĠÐºÐ¾Ð»ÐµÐ»Ð°":9716,"ĠÐ´ÑĬÐ»ÑĬÐ³":9717,"ĠÐĳÐ°Ð½Ð°":9718,"ÐľÐµÑģ":9719,"ĠÐ³Ð°Ð²Ð°Ð½":9720,"Ð²Ð°ÑĢÑıÑĤ":9721,"ĠÐĵÑĢ":9722,"ĠÐ¿Ð¸Ð»ÐµÑĪÐºÐ¸ÑıÑĤ":9723,"ÐŀÐ±ÐµÐ·ÐºÐ¾ÑģÑĤ":9724,"ĠÐ¿Ð»Ð¾ÑĩÐºÐ°":9725,"ĠÐ´ÑĬÐ»Ð±Ð¾ÐºÐ¾":9726,"ÑħÐ°ÑĤÐ°":9727,"ĠÐ³ÑĬÑĢÐ»Ð¾ÑĤÐ¾":9728,"ĠÐ¿ÑĢÑĬÑĩÐ¸ÑĨÐ¸ÑĤÐµ":9729,"ÐłÐ°Ð·Ð¼ÑĢÐ°Ð·":9730,"ÐłÐ°Ð·Ð´ÐµÐ»ÑıÑĤ":9731,"ĠÐ½Ð°Ð±Ñĥ":9732,"ĠÐĿÐ°Ð¼Ð°ÑĩÐºÐ°Ð¹ÑĤÐµ":9733,"ĠÑģÑĥÑĪÐ¸":9734,"Ð¿Ð¾Ð´ÑħÐ¾Ð´Ñı":9735,"ĠÐŁÐ¾ÑģÑĤÐ°Ð²ÑıÑĤÐµ":9736,"ĠÐ¿Ð¾Ð´ÑģÑĥÑĪÐµÐ½Ð°":9737,"ĠÐ´Ð¸Ð°Ð¼ÐµÑĤÑĬÑĢÐ°":9738,"ÐĶÑĬÐ½Ð¾ÑĤÐ¾":9739,"ĠÑģÑĥÑĢÐ¾Ð²Ð°ÑĤ":9740,"ÐĺÐ·Ð¼Ð¸ÑĤÐ¸ÑıÑĤ":9741,"ĠÐ¾Ð±ÐµÐ·Ð¼Ð°ÑģÐ»ÐµÐ½Ð¾":9742,"ĠÑĨÐ²ÐµÑĤÐ¾Ð²ÐµÑĤÐµ":9743,"ĠÐ·Ð°Ð²Ð¸Ð²Ð°ÑĤÐµ":9744,"ĠÐºÐ°ÑĢÐ°Ð¼ÐµÐ»ÐµÐ½":9745,"ĠÑģÐ¾ÐµÐ²Ð¸ÑĤÐµ":9746,"ĠÐ¿Ð¾Ð½ÐµÐ¶Ðµ":9747,"ĠÑĢÐ¾Ð·Ð¼Ð°ÑĢÐ¸Ð½ÑĬÑĤ":9748,"ÐļÐ°Ð¼Ð±Ð¸ÑĤÐµ":9749,"ĠÐºÐ²Ð°Ð´ÑĢÐ°ÑĤÐ°":9750,"Ð³Ð¾ÑĤÐ¾Ð²ÐºÐ°":9751,"ĠÐ¿ÑĬÑĢÐ²Ð¾Ð½Ð°ÑĩÐ°Ð»Ð½Ð¾":9752,"ĠÑĥÐ´ÑĢÑı":9753,"ĠÐĸÑĬÐ»ÑĤÑĬ":9754,"ÐºÑĥÐ¼ÑĢÐ¸":9755,"ĠÐ¿ÑĢÐµÑģÐ¾Ð²Ð°Ð½Ð¸":9756,"ĠÐ³ÑĬÐ±ÐºÐ°":9757,"Ð¸Ð½Ð³ÑĬÑĤ":9758,"ĠÐºÐ¾ÐºÐ¾ÑģÐ¾Ð²Ð°":9759,"ÑħÐ»ÑİÐ²Ð¸ÑĤÐµ":9760,"ÑģÐ»Ð°Ð´ÐºÐ°":9761,"ĠÐ·Ð°Ð²ÑĬÑĢÑĤÐ°":9762,"ĠÑĦÑĬÑģÑĤÑĬÑĨÐ¸ÑĤÐµ":9763,"ĠÐ°ÑĢÐ¿Ð°":9764,"ĠÐ¶Ð¸Ð»ÐºÐ¸":9765,"ĠÐºÐµÑĢÐµÐ²Ð¸Ð·ÑĬÑĤ":9766,"ĠÐ·Ð°ÑĤÐ²Ð¾ÑĢÐµÑĤÐµ":9767,"Ð»ÐµÑĤÑĬÑĤ":9768,"ĠÐ¾ÑĤÐ²Ð¾ÑĢÐµÐ½":9769,"ĠÐ´ÑİÐ»Ð¸ÑĤÐµ":9770,"Ð°ÑĢÑĦÐ¸Ð¾Ð»Ð°":9771,"ÑģÐ²Ð¸Ð½ÑģÐºÐ°":9772,"ÐĿÐ°Ð¼Ð°Ð¶ÐµÑĤÐµ":9773,"Ð¼ÐµÑģÑĤÐ²Ð°Ð¼Ðµ":9774,"ĠÐºÐ¸ÑģÐµÐ»":9775,"Ð¦ÐµÐ»Ð¸Ð½Ð°ÑĤÐ°":9776,"ĠÐºÐ°ÑĪÑĥÑĤÐ¾":9777,"ĠÐĹÐ°ÑĤÐ²Ð°ÑĢÑıÐ¼Ðµ":9778,"Ð¿ÑĥÑĪÐµÐ½":9779,"ĠÐĺÐ·ÑĩÐ¸ÑģÑĤÐµÐ½Ð¸ÑĤÐµ":9780,"ĠÐ´Ð»Ð°Ð½Ð¸":9781,"ĠÐ¼ÐµÑĤÐ°Ð»Ð½Ð¸":9782,"ĠÐ¸Ð·Ð²ÑĢÑıÐ»Ð°":9783,"ĠÐ·Ð°Ð¼ÐµÐ½Ð¸ÑĤÐµ":9784,"ĠÐºÐµÑģÑĤÐµÐ½Ð¸ÑĤÐµ":9785,"ĠÑĢÑĬÐ±ÑĩÐµ":9786,"ĠÑģÐ½Ð¸Ð¼ÐºÐ°ÑĤÐ°":9787,"ĠÐ¡ÑĤÐ°Ð²Ð°ÑĤ":9788,"ĠÐºÐ°Ð»Ð¼Ð°ÑĢÐ¸ÑĤÐµ":9789,"ĠÐ¿Ð¾Ð»ÑĥÐºÑĢÑĬ":9790,"ĠÐ¾ÐºÑĤÐ¾Ð¿Ð¾Ð´Ð°":9791,"ÐĸÐµÐ»Ð°ÑĤÐ¸Ð½Ð°":9792,"ĠÐŀÑĤÑģÑĤÑĢÐ°Ð½ÐµÑĤÐµ":9793,"ĠÐĺÐ·Ð¿Ð»Ð°ÐºÐ²Ð°":9794,"ĠÐ³Ð»ÑĥÑħÐ°ÑĢ":9795,"Ð»Ð¸Ð·Ð°ÑĤ":9796,"Ð¼Ð¸Ð½ÑĥÑĤÐ¸":9797,"ĠÐ¿ÑĢÐ¸ÑīÐ¸Ð¿Ð²Ð°ÑĤ":9798,"ÐŁÑĥÐ¹ÐºÐ°ÑĤÐ°":9799,"ĠÐ¾ÑĤÐ»ÐµÐ¿Ñı":9800,"ĠÐ³ÑĢÑĬÐ±Ð½Ð°ÐºÐ°":9801,"ĠÐºÑĢÐ¾Ð°ÑģÐ°Ð½Ð¸":9802,"Ð¾Ð²ÐºÑĥÑģÐµÐ½Ð°":9803,"ĠÑĢÐ¾Ð¼Ð±ÑĩÐµÑĤÐ°":9804,"ĠÑĢÑıÐ·Ð°Ð½Ðµ":9805,"ÑģÐ¸ÑĢÐ¾Ð¿":9806,"ĠÑĤÐµÑĦÐ»Ð¾Ð½Ð¾Ð²Ð°":9807,"ĠÑħÐµÑĢÐ¼ÐµÑĤÐ¸ÑĩÐµÑģÐºÐ¸":9808,"ÑĢÑıÐ±Ð²Ð°ÑĤ":9809,"ÑĤÑĢÑĥ":9810,"ĠÑģÐºÑĢÐ¸":9811,"ĠÑģÑĢÑıÐ·Ð°Ð½Ð¸":9812,"Ð»Ð½Ð¸ÑĤÐµ":9813,"ÑĬÑĩÐ½Ð¾":9814,"ĠÐ¿ÑĥÐºÐ°":9815,"Ð¼ÐµÐ½ÑĤÐ¸":9816,"Ð·Ð»Ð°ÑĤÐ¸":9817,"ĠÐ½Ð°ÑģÐ¸ÑĤÐ½Ð¾":9818,"ĠÐ¾ÑģÐ¾Ð±ÐµÐ½Ð¾":9819,"ÑĢÐ°ÑħÐ°":9820,"ĠÐ³Ð»":9821,"ĠÐ·Ð»Ð°ÑĤ":9822,"ĠÐ·Ð°Ð»Ñı":9823,"ÑĢÐµÑĤÐ¸":9824,"Ð»Ð°Ð½Ð¸":9825,"Ð½Ð¸ÑĪÐ¾":9826,"Ð¼Ð°Ð¹ÑĤÐµ":9827,"ĠÐºÐ°ÑĪ":9828,"ĠÐºÐ°Ð´Ð°Ð¸ÑĦ":9829,"ĠÐ¾ÑĤÐºÑĬÑģÐ²Ð°ÑĤ":9830,"ÑģÑĤÐ°Ð²Ð°":9831,"ĠÑĢÐ°Ð·ÑĨÐµ":9832,"ĠÑĢÐ°Ð·Ð²Ð¸Ð²Ð°":9833,"ĠÑĢÐ°Ð·ÑģÑĤÐµ":9834,"ĠÑĢÐ°Ð·Ð¼Ð°Ð·Ð²Ð°":9835,"ĠÐºÐ¾ÑĢÐ¾":9836,"ĠÐŁÐ»Ð¸":9837,"ĠÐŁÐµÐºÐ¾":9838,"ĠÐŁÐµÑĢÐ¸":9839,"ĠÐŁÑĥÑģÐ½ÐµÑĤÐµ":9840,"ÑīÑı":9841,"ÑĢÐ¾Ð¼":9842,"ĠÐµÑĤÐ°Ð¿":9843,"ÐºÐ¾Ð»Ð°":9844,"ĠÐ¿ÑĢÐ¸ÑĤÐ¸ÑģÐ½ÐµÑĤÐµ":9845,"ÑĨÐ¸Ð¾Ð½":9846,"ÑĥÐ»Ð³ÑĥÑĢÐ°":9847,"ĠÐ¼ÐµÑģÐ½Ð°ÑĤÐ°":9848,"ĠÐºÐ¸ÑĦÐ»Ð°":9849,"ĠÐĿÐ°ÐºÑĬÐ»":9850,"ĠÑģÐ»ÐµÐ´Ð¸":9851,"ĠÐ¾Ð±Ð»ÐµÐ¿Ð²Ð°":9852,"ĠÑģÑĬÑĨÐ²Ðµ":9853,"ĠÑĤÐ¾Ð¿Ð»Ð¸ÑĤÐµ":9854,"ĠÑģÐ²Ð°ÑĢÐ¸ÑĤÐµ":9855,"ĠÐ±Ð°Ð»Ð¾Ð½":9856,"ĠÐ¿Ð°Ð¼":9857,"ĠÐ¶ÐµÐ»Ð°Ð½Ð¸ÑĤÐµ":9858,"ĠÐłÐ°Ð·ÑĢÑıÐ·Ð²Ð°Ð¼Ðµ":9859,"ĠÐ¿Ð¾Ð»ÑĥÐ¸Ð·":9860,"ĠÐ¿ÑĢÐµÐ´Ð¿Ð°":9861,"ĠÐĺÐ·Ð»ÐµÐ¹ÑĤÐµ":9862,"ĠÐĺÐ·Ð»Ð¸Ð²Ð°Ð¼Ðµ":9863,"ĠÑĥÑĤÑĢÐ¾":9864,"ĠÐ¼Ð¾ÑıÑĤÐ°":9865,"ĠÐľÐ¸Ð´Ð¸ÑĤÐµ":9866,"ĠÐ¿Ð¾ÑģÑĤÐ°Ð²ÑıÐ¼":9867,"Ð·Ð¸ÑĤÐµ":9868,"ĠÐ¢ÑĢÐ¸ÑĤÐµ":9869,"ĠÑĢÐ°Ñģ":9870,"ĠÐ¶ÑĬÐ»ÑĤÑĬÑĩÐ½Ð°ÑĤÐ°":9871,"ÐĴÑģÑıÐºÐ°":9872,"ĠÐ¸Ð·ÑģÐ¸Ð¿Ð²Ð°Ð¼":9873,"ĠÐºÐ¾Ð»Ð°":9874,"ĠÐ±ÑĬÑĢÐºÐ°Ð¹ÐºÐ¸":9875,"ĠÐ¼Ð¸Ð»Ð¸":9876,"ĠÐ¿ÑĬÐ»Ð½Ð°ÑĤÐ°":9877,"ĠÐ¾ÑĦÐ¾ÑĢÐ¼ÐµÐ½Ð¸":9878,"Ð¾Ð±ÐµÐ·":9879,"ĠÐ·Ð»Ð°ÑĤÐ¸ÑģÑĤÐ¾ÐºÐ°ÑĦÑıÐ²Ð¾":9880,"ĠÐºÑĬÐ´ÑĢÐ°Ð²":9881,"ĠÐ¼ÐµÐºÐ°ÑĤÐ°":9882,"ĠÐ²ÑģÑıÐºÐ°Ðº":9883,"ĠÑĤÐ²ÑĬÑĢÐ´Ð¸ÑĤÐµ":9884,"ÐĺÐ·ÑģÐ¸Ð¿ÐµÑĤÐµ":9885,"ĠÐ¢Ð°Ð²Ð¸ÑĩÐºÐ°":9886,"ĠÐ½Ð°Ð¿ÑĬÐ»Ð½ÑıÑĤ":9887,"ÐłÐ°Ð·ÑĢÑıÐ·Ð²Ð°Ð¼Ðµ":9888,"ĠÐ³ÑĢÐ¸ÑģÑĤÐ°":9889,"ÐŀÑĤÑĢÑıÐ·Ð²Ð°":9890,"ĠÐºÐ¸Ð¿Ð²Ð°Ð½ÐµÑĤÐ¾":9891,"ĠÐ·Ð°ÑĤÐ¾Ð¿Ð»ÐµÐ½Ð°ÑĤÐ°":9892,"ĠÐ¹ÐµÐ½Ð°":9893,"ÑģÑĥÑħÐ¸":9894,"ĠÑĪÐµÑģÑĤ":9895,"ÐºÐ°ÑĦÐµÐ½Ð¸ÐºÐ°":9896,"ĠÑĪÐ¸ÑĪÐµ":9897,"ÐĽÐ°":9898,"ĠÐ¾ÑģÐ¾Ð»ÐµÐ½Ð¾":9899,"ĠÑĢÐ¸Ð±Ð½Ð¸":9900,"ĠÑĢÐ°Ð·ÑĢÑıÐ·Ð²Ð°ÑĤÐµ":9901,"ĠÐ¼ÑıÑģÑĤÐ¾ÑĤÐ¾":9902,"ÑĨÐµÐ´ÐµÐ½Ð¾":9903,"ĠÑģÐµÐºÑĥÐ½Ð´Ð°":9904,"ĠÐ´ÑĥÐ¿ÑĩÐ¸":9905,"ĠÐ´ÑĥÐ¿ÐºÐ°ÑĤÐ°":9906,"ĠÐ³Ð»Ð¸Ð½ÐµÐ½Ð¸":9907,"ĠÐļÑĢÐµÐ¼":9908,"ĠÑģÑĤÐ¾Ð¿ÑıÑĤ":9909,"ĠÑģÑĤÐ¾Ð¿ÐµÐ½Ð¾ÑĤÐ¾":9910,"ĠÐ¿ÑĢÐµÐ´Ð¿Ð¾ÑĩÐ¸ÑĤÐ°Ð¼":9911,"ĠÐ¿ÑĢÐµÐ´Ð¿Ð¾ÑĩÐ¸ÑĤÐ°Ð½Ð¸ÑıÑĤÐ°":9912,"ĠÐ¥Ð»ÑıÐ±Ð°":9913,"ĠÑĢÐ°Ð·Ð»Ð¸ÑĩÐ½Ð¾":9914,"Ð²Ð°Ð½Ð´Ñĥ":9915,"ĠÐ·Ð°ÑħÐ»ÑĥÐ¿ÐµÑĤÐµ":9916,"ĠÑģÐ»ÐµÐ¿Ð²Ð°":9917,"ĠÐ´Ð¾Ð¾Ð¼ÐµÑģÐ²Ð°":9918,"ĠÐŁÐ¸ÐºÐ°Ð½ÑĤÐ¸Ð½Ð°":9919,"ĠÐµÐ·Ð¸ÑĩÐµ":9920,"ĠÐ»Ð°Ð·Ð°Ð½ÑıÑĤÐ°":9921,"Ð¿Ð¾Ð»Ð¾Ð²Ð¸Ð½":9922,"ĠÐ¿ÑĢÐµÑĨÐµÐ´ÐµÐ½Ð¸ÑıÑĤ":9923,"ĠÐ´ÑİÐ»Ñı":9924,"ĠÐ¸Ð·ÑģÑĤÑĥÐ´ÐµÐ½Ð°":9925,"ĠÐºÐµÐ±Ð°Ð¿ÑĩÐµÑĤÐ°ÑĤÐ°":9926,"Ð²ÐµÑĢÑģÐ°Ð»Ð½Ð°":9927,"ĠÐļÑĢÐ°ÑģÑĤÐ°Ð²Ð¸ÑĨÐ¸ÑĤÐµ":9928,"ĠÐ¼ÐµÑģÐµÑĨ":9929,"ĠÐºÐ¾Ð½ÑģÑĥÐ¼Ð¸ÑĢÐ°Ð½Ðµ":9930,"ĠÐ²Ð¸ÑĪÐ½Ð°":9931,"ĠÑĢÐ°Ð·ÑĢÐµÐ·Ð¸ÑĤÐµ":9932,"ĠÑģÐºÑĬÐ»ÑĨÐ°Ð½Ð¸ÑĤÐµ":9933,"ĠÐľÐ°ÑĢÐ¸Ð½Ð°ÑĤÐ°ÑĤÐ°":9934,"ÐĹÐ°Ð´ÑĥÑĪÐ°Ð²Ð°ÑĤ":9935,"ĠÐ·Ð°Ð´ÑĬÐ»Ð¶Ð¸ÑĤÐµ":9936,"ĠÐ±Ð°ÐºÐ»Ð°Ð²Ð°ÑĤÐ°":9937,"ĠÑĤÑĢÐ°Ð´Ð¸":9938,"ĠÐ¿Ð¾Ð´Ð¾Ð±Ð½Ð°":9939,"ÐļÑĢÐ°ÑģÑĤÐ°Ð²Ð¸ÑĩÐºÐ¸ÑĤÐµ":9940,"ĠÑħÐ²Ð°ÑīÐ°":9941,"ĠÐĺÐ·ÑĨÐµÐ¶Ð´Ð°Ð¼Ðµ":9942,"ĠÐľÐ°ÑħÐ°ÑĤ":9943,"ĠÐĵÑİÐ²ÐµÑĩÐµÑĤÐ°ÑĤÐ°":9944,"ĠÐĹÐ°ÑħÐ»ÑĥÐ¿Ð²Ð°ÑĤ":9945,"ĠÐ½Ð°ÐºÐ»Ð¾Ð½":9946,"ÐĳÐ°Ð´ÐµÐ¼Ð¸ÑĤÐµ":9947,"ĠÐ¡Ð¼Ð¸Ð»Ð°ÑĤ":9948,"ĠÐ²ÑĬÐ¿ÑĢÐ¾Ñģ":9949,"ĠÑģÐ¸ÑĢÐµÐ½ÑĨÐ°":9950,"ĠÐ¿Ð°ÑĤÐ¸ÑĨÐ°ÑĤÐ°":9951,"ĠÑĢÐ°Ð·ÐºÑĬÑģÐ²Ð°":9952,"ĠÐ¡Ð¾Ð»ÑĤÐ°":9953,"ĠÑĥÐºÑĢÐ°ÑģÐµÐ½Ð¾":9954,"ĠÐĶÑĢÐ¾Ð±ÑĬÑĤ":9955,"ĠÐ¿Ð¾ÑĩÐµÑĢÐ²ÐµÐ½Ðµ":9956,"ĠÐ½Ð°ÑģÑĤÑĬÑĢÐ¶Ðµ":9957,"ĠÐºÑĬÐ´ÑĢÐ°Ð²Ð°":9958,"ÐļÐ¸Ð½Ð¾Ð°ÑĤÐ°":9959,"ĠÐºÑĢÐ°ÑģÐ¸Ð²Ð¾":9960,"ĠÐĳÐ»Ð°Ð½ÑĪÐ¸ÑĢÐ°ÑĤ":9961,"ĠÐŀÐ¼Ð»ÐµÑĤÑĬÑĤ":9962,"ĠÐ·Ð°ÑħÐ²Ð°ÑīÐ°":9963,"ĠÐļÐ°Ð½ÐµÐ»Ð¾Ð½Ð¸ÑĤÐµ":9964,"ÐºÐ¾Ð¿ÑĩÐ°Ð²Ð°":9965,"Ð±Ð¸ÑģÐºÐ²Ð¸ÑĤÐ¸":9966,"Ð¿Ð°ÑĤÐ»Ð°Ð´Ð¶Ð°Ð½Ð¸":9967,"ĠÑĩÐ¸Ð¹Ð·ÐºÐµ":9968,"ĠÑģÑĬÑģÑĤÐ¾ÑıÐ½Ð¸Ðµ":9969,"ker":9970,"ro":9971,"Ðĺ":9972,"Ð°Ð¼ÐµÑĤÑĬÑĢ":9973,"ÑģÐ¾ÑĤÐ¾":9974,"ĠÑģÐ°ÑĤ":9975,"ĠÑģÐ°Ð·":9976,"ĠÑģÐ½ÐµÐ¶":9977,"ĠÐ¿ÐµÐ½":9978,"ĠÐ¿ÐµÐ»":9979,"Ð´Ð¾Ð»":9980,"ĠÐ¸Ð²Ð¸ÑĨÐ¸ÑĤÐµ":9981,"ĠÐ¸ÑĤÐ°Ð»Ð¸Ð°":9982,"Ð¼Ð»ÐµÐ½Ð¸ÑĤÐµ":9983,"Ð·Ð±Ð°ÑĤÐ°":9984,"ĠÐ¼Ð½Ð¾":9985,"ĠÐ¼ÑĬÑĤ":9986,"Ð±Ð¾ÑĢ":9987,"ÑĤÐµÐ»Ð¸":9988,"ĠÐ²Ð·ÐµÐ¼ÐµÑĤÐµ":9989,"ĠÐ²Ð¾Ð´Ð¾":9990,"Ð½Ð¾Ð²Ð¸ÑıÑĤ":9991,"ÐºÐ°Ð¹Ð¼Ð°":9992,"ÐºÐ°Ð¿ÐµÑĢÑģÐ¸":9993,"ĠÑĩÑĥÐ´ÐµÑģ":9994,"ĠÑĩÑĢÐµÐ²":9995,"ĠÐ·Ð°Ð´ÑĬÑĢÐ¶":9996,"Ð½Ð°Ð»Ð¸Ñı":9997,"ÑĢÐ¸Ð½Ð°ÑĤÐ°":9998,"ÑħÐ¾":9999,"ÐºÐ¾ÑģÑĤÐµÑĤÐµ":10000,"ĠÐ¿Ð¾Ð¿Ð°":10001,"ÑĬÑĢÐ½ÐµÑĤÐ¾":10002,"ÑĢÑıÐ´":10003,"ĠÐ´Ð¾Ð¿ÐµÑĩÐµ":10004,"Ð´Ð°Ð´Ðµ":10005,"Ð²ÑıÑĤÐ°":10006,"ĠÐ¾ÑĤÑĢÑıÐ·Ð°Ð½Ð°ÑĤÐ°":10007,"ĠÐ¾ÑĤÐ¼ÐµÑģÑĤÐ²Ð°":10008,"Ð»Ð¾Ð³":10009,
[...]
